unsigned char lw16_md2[] = {
    0x1c, 0x00, 0x00, 0x00, 0x54, 0x46, 0x4c, 0x33, 0x14, 0x00, 0x20, 0x00,
    0x1c, 0x00, 0x18, 0x00, 0x14, 0x00, 0x10, 0x00, 0x0c, 0x00, 0x00, 0x00,
    0x08, 0x00, 0x04, 0x00, 0x14, 0x00, 0x00, 0x00, 0x1c, 0x00, 0x00, 0x00,
    0x98, 0x00, 0x00, 0x00, 0xf0, 0x00, 0x00, 0x00, 0xcc, 0x10, 0x00, 0x00,
    0xdc, 0x10, 0x00, 0x00, 0x18, 0x18, 0x00, 0x00, 0x03, 0x00, 0x00, 0x00,
    0x01, 0x00, 0x00, 0x00, 0x10, 0x00, 0x00, 0x00, 0x00, 0x00, 0x0a, 0x00,
    0x10, 0x00, 0x0c, 0x00, 0x08, 0x00, 0x04, 0x00, 0x0a, 0x00, 0x00, 0x00,
    0x0c, 0x00, 0x00, 0x00, 0x1c, 0x00, 0x00, 0x00, 0x3c, 0x00, 0x00, 0x00,
    0x0f, 0x00, 0x00, 0x00, 0x73, 0x65, 0x72, 0x76, 0x69, 0x6e, 0x67, 0x5f,
    0x64, 0x65, 0x66, 0x61, 0x75, 0x6c, 0x74, 0x00, 0x01, 0x00, 0x00, 0x00,
    0x04, 0x00, 0x00, 0x00, 0x90, 0xff, 0xff, 0xff, 0x0d, 0x00, 0x00, 0x00,
    0x04, 0x00, 0x00, 0x00, 0x09, 0x00, 0x00, 0x00, 0x64, 0x65, 0x6e, 0x73,
    0x65, 0x5f, 0x31, 0x36, 0x37, 0x00, 0x00, 0x00, 0x01, 0x00, 0x00, 0x00,
    0x04, 0x00, 0x00, 0x00, 0x16, 0xef, 0xff, 0xff, 0x04, 0x00, 0x00, 0x00,
    0x0f, 0x00, 0x00, 0x00, 0x64, 0x65, 0x6e, 0x73, 0x65, 0x5f, 0x31, 0x36,
    0x34, 0x5f, 0x69, 0x6e, 0x70, 0x75, 0x74, 0x00, 0x02, 0x00, 0x00, 0x00,
    0x34, 0x00, 0x00, 0x00, 0x04, 0x00, 0x00, 0x00, 0xdc, 0xff, 0xff, 0xff,
    0x10, 0x00, 0x00, 0x00, 0x04, 0x00, 0x00, 0x00, 0x13, 0x00, 0x00, 0x00,
    0x43, 0x4f, 0x4e, 0x56, 0x45, 0x52, 0x53, 0x49, 0x4f, 0x4e, 0x5f, 0x4d,
    0x45, 0x54, 0x41, 0x44, 0x41, 0x54, 0x41, 0x00, 0x08, 0x00, 0x0c, 0x00,
    0x08, 0x00, 0x04, 0x00, 0x08, 0x00, 0x00, 0x00, 0x0f, 0x00, 0x00, 0x00,
    0x04, 0x00, 0x00, 0x00, 0x13, 0x00, 0x00, 0x00, 0x6d, 0x69, 0x6e, 0x5f,
    0x72, 0x75, 0x6e, 0x74, 0x69, 0x6d, 0x65, 0x5f, 0x76, 0x65, 0x72, 0x73,
    0x69, 0x6f, 0x6e, 0x00, 0x11, 0x00, 0x00, 0x00, 0xd8, 0x0f, 0x00, 0x00,
    0xd0, 0x0f, 0x00, 0x00, 0xa0, 0x0f, 0x00, 0x00, 0x50, 0x0f, 0x00, 0x00,
    0x00, 0x0f, 0x00, 0x00, 0xb0, 0x0e, 0x00, 0x00, 0xe0, 0x0a, 0x00, 0x00,
    0xd0, 0x06, 0x00, 0x00, 0xc0, 0x02, 0x00, 0x00, 0xb0, 0x00, 0x00, 0x00,
    0xa8, 0x00, 0x00, 0x00, 0xa0, 0x00, 0x00, 0x00, 0x98, 0x00, 0x00, 0x00,
    0x90, 0x00, 0x00, 0x00, 0x88, 0x00, 0x00, 0x00, 0x68, 0x00, 0x00, 0x00,
    0x04, 0x00, 0x00, 0x00, 0xd6, 0xef, 0xff, 0xff, 0x04, 0x00, 0x00, 0x00,
    0x54, 0x00, 0x00, 0x00, 0x0c, 0x00, 0x00, 0x00, 0x08, 0x00, 0x0e, 0x00,
    0x08, 0x00, 0x04, 0x00, 0x08, 0x00, 0x00, 0x00, 0x10, 0x00, 0x00, 0x00,
    0x24, 0x00, 0x00, 0x00, 0x00, 0x00, 0x06, 0x00, 0x08, 0x00, 0x04, 0x00,
    0x06, 0x00, 0x00, 0x00, 0x04, 0x00, 0x00, 0x00, 0x00, 0x00, 0x00, 0x00,
    0x00, 0x00, 0x0a, 0x00, 0x10, 0x00, 0x0c, 0x00, 0x08, 0x00, 0x04, 0x00,
    0x0a, 0x00, 0x00, 0x00, 0x02, 0x00, 0x00, 0x00, 0x02, 0x00, 0x00, 0x00,
    0x04, 0x00, 0x00, 0x00, 0x06, 0x00, 0x00, 0x00, 0x32, 0x2e, 0x31, 0x34,
    0x2e, 0x30, 0x00, 0x00, 0x36, 0xf0, 0xff, 0xff, 0x04, 0x00, 0x00, 0x00,
    0x10, 0x00, 0x00, 0x00, 0x31, 0x2e, 0x35, 0x2e, 0x30, 0x00, 0x00, 0x00,
    0x00, 0x00, 0x00, 0x00, 0x00, 0x00, 0x00, 0x00, 0xcc, 0xe9, 0xff, 0xff,
    0xd0, 0xe9, 0xff, 0xff, 0xd4, 0xe9, 0xff, 0xff, 0xd8, 0xe9, 0xff, 0xff,
    0xdc, 0xe9, 0xff, 0xff, 0x66, 0xf0, 0xff, 0xff, 0x04, 0x00, 0x00, 0x00,
    0x00, 0x02, 0x00, 0x00, 0xb4, 0x93, 0xf9, 0xbe, 0x2a, 0x2f, 0x0a, 0xbf,
    0xbf, 0x1b, 0x60, 0x3d, 0x2a, 0x4b, 0x23, 0xbf, 0xeb, 0xcb, 0x84, 0x3e,
    0xfe, 0x9d, 0xc3, 0xbd, 0xe8, 0x32, 0x40, 0x3d, 0xd2, 0x0f, 0x92, 0xbe,
    0xdb, 0xef, 0x81, 0x3e, 0xe2, 0xa5, 0x2f, 0xbf, 0x8c, 0x95, 0xa0, 0xbe,
    0x60, 0xc9, 0xf1, 0xbe, 0xc7, 0x3c, 0xc5, 0xbe, 0x1d, 0x22, 0x00, 0xbf,
    0x50, 0xe2, 0x0b, 0x3e, 0x4b, 0x98, 0x94, 0xbe, 0xe8, 0x49, 0x0d, 0x3e,
    0xb7, 0x59, 0x80, 0x3e, 0x4f, 0xb4, 0x9c, 0xbe, 0x16, 0x23, 0x58, 0x3f,
    0x04, 0x80, 0x5c, 0xbe, 0xb9, 0x6d, 0x98, 0xbd, 0x88, 0x98, 0x07, 0x3f,
    0xb8, 0x1f, 0x05, 0x3e, 0x21, 0xaa, 0x61, 0xbd, 0xd3, 0xa5, 0x26, 0xbf,
    0x28, 0x2a, 0x1a, 0xbe, 0x88, 0x50, 0x41, 0x3e, 0x38, 0xe8, 0x1e, 0xbf,
    0xab, 0x0d, 0x8e, 0x3e, 0xb8, 0x03, 0x7b, 0x3d, 0x90, 0xc5, 0xb6, 0x3d,
    0x54, 0x39, 0x8a, 0x3e, 0x92, 0xb0, 0x8f, 0xbe, 0x42, 0xc8, 0xb4, 0x3e,
    0x2d, 0x24, 0x01, 0x3f, 0x91, 0xa3, 0x89, 0xbe, 0x68, 0x9e, 0xf9, 0xbe,
    0x4e, 0xd7, 0xe1, 0xbe, 0xce, 0xc5, 0xdb, 0xbe, 0x4a, 0x6e, 0x11, 0x3e,
    0x63, 0xfe, 0x6e, 0xbe, 0xa8, 0xf8, 0x6c, 0x3e, 0x9c, 0xff, 0x99, 0xbe,
    0x59, 0x76, 0xaa, 0x3e, 0xbb, 0x38, 0x5c, 0xbe, 0x7d, 0xec, 0x80, 0xbe,
    0x7d, 0x49, 0x4b, 0x3e, 0xf0, 0xbf, 0x6b, 0xbe, 0xd5, 0xda, 0x17, 0x3e,
    0xf4, 0x33, 0xbe, 0xbe, 0x98, 0xcc, 0x68, 0x3e, 0x95, 0xc8, 0x3e, 0x3c,
    0xc4, 0xb2, 0x8a, 0x3e, 0xfa, 0x27, 0x83, 0xbe, 0x1f, 0x01, 0xd5, 0x3d,
    0x1a, 0xf0, 0x3f, 0xbe, 0xc9, 0x46, 0x19, 0x3e, 0xe0, 0xc6, 0x01, 0xbe,
    0x28, 0xfa, 0xc0, 0x3e, 0xa6, 0x58, 0xd7, 0x3e, 0x68, 0xd4, 0x93, 0xbe,
    0xf8, 0x7d, 0x68, 0x3e, 0x30, 0x48, 0x2f, 0xbf, 0x60, 0x80, 0xbb, 0xbd,
    0xd6, 0x5f, 0x8a, 0x3c, 0x80, 0xb2, 0x04, 0x3e, 0x26, 0x9c, 0x17, 0xbf,
    0x43, 0x4d, 0xa7, 0x3d, 0xce, 0x19, 0x10, 0x3e, 0x1a, 0xf4, 0xfb, 0xbb,
    0xf1, 0x5b, 0x0e, 0xbe, 0xc4, 0xd0, 0xb6, 0xbd, 0xf4, 0xca, 0x22, 0x3d,
    0x70, 0x38, 0xf7, 0x3d, 0xb4, 0x0e, 0xa8, 0xbe, 0xf6, 0xde, 0x27, 0x3e,
    0x3b, 0xd7, 0xb4, 0x3e, 0x29, 0x7a, 0x00, 0xbf, 0x69, 0x15, 0x8b, 0x3e,
    0x18, 0xc8, 0xff, 0xbe, 0x26, 0x7d, 0x15, 0xbb, 0xab, 0x92, 0x5d, 0xbd,
    0x4d, 0x12, 0x79, 0xbe, 0xe9, 0x3d, 0x51, 0xbe, 0xe0, 0xaa, 0xbd, 0x3e,
    0x3b, 0xf8, 0xdf, 0x3d, 0x74, 0x3e, 0x4b, 0xbc, 0x4d, 0x29, 0x0f, 0xbe,
    0x01, 0x4d, 0xa6, 0xbe, 0x08, 0x17, 0x2e, 0x3e, 0x5c, 0x62, 0xba, 0x3e,
    0x92, 0x85, 0xd9, 0xbe, 0x6d, 0xbd, 0x61, 0xbe, 0xfc, 0x5a, 0x86, 0xbe,
    0x6c, 0xe5, 0x53, 0xbe, 0x78, 0xfe, 0x38, 0x3e, 0x4b, 0x8d, 0x5c, 0xbe,
    0xf3, 0x28, 0x78, 0x3e, 0xfb, 0x0c, 0x29, 0xbe, 0xbb, 0x67, 0xc0, 0x3e,
    0x68, 0xf6, 0x04, 0xbf, 0x6d, 0x56, 0x8a, 0x3c, 0xf0, 0xba, 0x38, 0xbe,
    0xec, 0xfc, 0x46, 0xbe, 0x21, 0x45, 0x0c, 0x3f, 0x98, 0xb7, 0xb9, 0xbe,
    0x4c, 0x19, 0xa2, 0x3e, 0x2f, 0x30, 0xec, 0xbe, 0x97, 0xa3, 0xef, 0xbe,
    0x70, 0xa4, 0xec, 0x3e, 0x3e, 0x9f, 0x80, 0xbe, 0x50, 0xcf, 0xe9, 0x3e,
    0x63, 0x30, 0x34, 0x3e, 0x66, 0x2b, 0x8b, 0xbe, 0x10, 0xa0, 0xbc, 0xbd,
    0x21, 0x8d, 0x16, 0xbe, 0x21, 0xf1, 0xcd, 0xbe, 0xf0, 0x99, 0x30, 0x3e,
    0xa5, 0x37, 0xe4, 0xbc, 0x27, 0x0c, 0x54, 0x3e, 0x10, 0x37, 0x4f, 0x3f,
    0x94, 0x8e, 0xd7, 0xbe, 0x20, 0x11, 0x00, 0xbd, 0xc5, 0x3d, 0x9b, 0xbe,
    0x1e, 0x19, 0x18, 0x3e, 0xab, 0xc9, 0x8b, 0xbe, 0x3b, 0x53, 0x86, 0xbe,
    0x72, 0xf2, 0xff, 0xff, 0x04, 0x00, 0x00, 0x00, 0x00, 0x04, 0x00, 0x00,
    0x1c, 0x50, 0x85, 0x3d, 0xd0, 0x50, 0xab, 0x3c, 0x40, 0xc6, 0x4c, 0x3d,
    0xf9, 0x1f, 0x5c, 0xbe, 0xf8, 0xe0, 0x80, 0xbe, 0x7e, 0xcc, 0x74, 0x3e,
    0x73, 0x8e, 0xbb, 0x3e, 0xd4, 0x9e, 0xcb, 0x3d, 0xb5, 0x18, 0x61, 0xbe,
    0x77, 0xfc, 0xd0, 0xbe, 0x20, 0x3c, 0x21, 0x3c, 0x32, 0x73, 0xc5, 0xbe,
    0x4c, 0xa4, 0x94, 0xbd, 0x6a, 0x15, 0x42, 0x3e, 0x40, 0x72, 0xa4, 0xbd,
    0xec, 0x53, 0xe3, 0x3d, 0x93, 0x5d, 0x67, 0xbd, 0xcf, 0xaf, 0x80, 0x3e,
    0xc0, 0xc2, 0xf1, 0x3e, 0x0a, 0xeb, 0x93, 0xbc, 0x9b, 0xd0, 0x84, 0xbd,
    0x16, 0x9b, 0x00, 0x3f, 0xd8, 0x04, 0x73, 0x3e, 0x97, 0xc9, 0xc6, 0x3e,
    0x24, 0x46, 0xbf, 0x3e, 0x6f, 0xf7, 0x9a, 0x3e, 0x94, 0x50, 0xb2, 0x3e,
    0xca, 0x5f, 0xbd, 0xbe, 0x39, 0xe1, 0x0a, 0x3e, 0x53, 0x03, 0x07, 0x3f,
    0x21, 0x84, 0xc6, 0x3e, 0x41, 0x30, 0x19, 0x3f, 0xb7, 0x31, 0x83, 0xbd,
    0xcf, 0xbf, 0x77, 0xbe, 0xd9, 0x75, 0x47, 0x3e, 0xc9, 0x78, 0x4b, 0xbd,
    0x34, 0x24, 0x2e, 0xbe, 0xa9, 0x9e, 0x04, 0xbf, 0x7f, 0xae, 0x5f, 0x3e,
    0x37, 0xf2, 0x3d, 0xbe, 0x9e, 0x99, 0xab, 0x3e, 0xa3, 0xff, 0xab, 0xbe,
    0x71, 0xd1, 0x04, 0x3e, 0x56, 0x62, 0x1c, 0xbd, 0x81, 0x50, 0x21, 0x3e,
    0x1f, 0x3f, 0x80, 0x3c, 0xe0, 0x15, 0x60, 0xbe, 0x65, 0xf5, 0xbe, 0x3e,
    0x9f, 0xba, 0x12, 0x3f, 0x76, 0x3a, 0x13, 0xbf, 0xee, 0x40, 0xe4, 0x3d,
    0xa9, 0x69, 0x54, 0xbf, 0xd8, 0x42, 0x93, 0x3e, 0xf9, 0xb1, 0xcb, 0x3d,
    0x81, 0xaf, 0x0f, 0x3f, 0xa1, 0x3d, 0x50, 0x3e, 0x2b, 0x16, 0xca, 0xbe,
    0x7a, 0xf3, 0x91, 0xbe, 0x55, 0x2d, 0x40, 0x3f, 0x6d, 0x31, 0x8c, 0xbe,
    0x57, 0x9b, 0x9c, 0x3d, 0x86, 0xf8, 0x02, 0x3f, 0xc5, 0xb1, 0x3d, 0x3f,
    0x34, 0x91, 0x33, 0x3f, 0x17, 0x45, 0xeb, 0x3d, 0xcf, 0x95, 0x35, 0x3d,
    0x2d, 0x92, 0x10, 0x3e, 0xf8, 0x28, 0x0f, 0xbe, 0x82, 0x5c, 0x96, 0xbc,
    0xc8, 0x76, 0x9a, 0xbe, 0xf2, 0x22, 0xe3, 0x3c, 0xa6, 0xcc, 0x09, 0x3e,
    0x8f, 0x0f, 0xb2, 0x3e, 0xc9, 0xc6, 0x01, 0xbd, 0x33, 0x18, 0x9d, 0xbd,
    0x4a, 0x04, 0x41, 0xbe, 0x1e, 0x15, 0xaa, 0xbe, 0xd5, 0x3e, 0xaa, 0x3e,
    0x58, 0x56, 0xcb, 0x3d, 0x8d, 0x28, 0x41, 0x3e, 0xa6, 0x20, 0x59, 0xbe,
    0x8c, 0x26, 0xe1, 0x3d, 0x64, 0x68, 0xb2, 0xbe, 0x7d, 0x00, 0x7e, 0xbe,
    0x49, 0x73, 0x52, 0x3e, 0xb6, 0x83, 0x9f, 0xbe, 0x65, 0x7e, 0x1a, 0xbd,
    0x09, 0x2e, 0x89, 0x3e, 0x4f, 0xc1, 0x9c, 0xbe, 0x13, 0xb7, 0x9d, 0x3c,
    0x54, 0x15, 0xfb, 0x3d, 0x56, 0xf9, 0x91, 0x3e, 0xa5, 0x98, 0x7a, 0xbe,
    0x49, 0x75, 0x8d, 0xbe, 0xd0, 0x70, 0x54, 0x3d, 0xf4, 0xae, 0xf9, 0x3d,
    0x4d, 0x44, 0xef, 0x3e, 0x53, 0x37, 0x76, 0xbe, 0x63, 0x27, 0xec, 0x3d,
    0xe5, 0x9f, 0xa9, 0xbe, 0x48, 0x9c, 0x99, 0xbe, 0xac, 0xb0, 0xab, 0x3d,
    0xca, 0x1d, 0xc4, 0x3e, 0x6a, 0x63, 0x92, 0x3e, 0xc7, 0x86, 0xc1, 0xbe,
    0xad, 0xa3, 0xad, 0x3e, 0x12, 0xb3, 0x03, 0x3f, 0x09, 0xa6, 0xb4, 0x3e,
    0xd9, 0x98, 0xa3, 0xbe, 0x37, 0xd1, 0x18, 0x3f, 0xfc, 0xda, 0x0a, 0x3f,
    0x3c, 0xe3, 0xcb, 0x3e, 0x38, 0x51, 0x26, 0x3e, 0x27, 0xea, 0xab, 0xbe,
    0x79, 0xc5, 0xaa, 0x3e, 0x58, 0x34, 0x3c, 0xbd, 0xff, 0x51, 0xb1, 0x3e,
    0x55, 0xbc, 0xbe, 0xbd, 0xa6, 0x49, 0x93, 0x3e, 0xd2, 0x0f, 0x89, 0x3e,
    0xc7, 0x80, 0x05, 0xbe, 0x04, 0xa0, 0xd5, 0xbe, 0x02, 0x83, 0x10, 0xbe,
    0xfc, 0xd9, 0xf7, 0x3d, 0xed, 0x5e, 0xad, 0xbe, 0x5b, 0x9e, 0x93, 0x3c,
    0x0e, 0x6b, 0x8d, 0xbe, 0x8b, 0x89, 0xe2, 0xbd, 0xac, 0xa2, 0x80, 0xbd,
    0x8c, 0xee, 0xb4, 0x3e, 0x20, 0xae, 0x97, 0xbe, 0xb9, 0xe8, 0xdf, 0xbe,
    0x8d, 0x4f, 0x71, 0x3e, 0x90, 0x71, 0xce, 0x3d, 0xaa, 0xac, 0x1c, 0xbe,
    0xa3, 0x62, 0x90, 0x3e, 0xfd, 0x88, 0x20, 0x3d, 0xca, 0x0e, 0x4a, 0xbc,
    0x5d, 0xf7, 0x27, 0x3e, 0x15, 0xe3, 0xca, 0xbe, 0x1c, 0x68, 0x04, 0xbe,
    0x2c, 0x3e, 0x6c, 0x3d, 0x2f, 0xd7, 0xc2, 0x3d, 0xba, 0x4b, 0xf0, 0xbe,
    0xc5, 0xf2, 0xe9, 0xbe, 0xea, 0x2c, 0x35, 0x3f, 0x18, 0x89, 0x01, 0x3e,
    0x18, 0x7c, 0x3b, 0x3f, 0xaf, 0x0f, 0x52, 0x3e, 0x33, 0x98, 0x59, 0xbe,
    0x2b, 0xfc, 0x1b, 0xbf, 0x90, 0x0c, 0x90, 0x3e, 0x8f, 0xb0, 0x27, 0xbe,
    0x0f, 0x65, 0x72, 0xbd, 0x2d, 0x8b, 0x7a, 0xbf, 0xb2, 0xd6, 0xab, 0xbe,
    0x2c, 0x2f, 0x09, 0x3f, 0x34, 0xae, 0x0f, 0xbf, 0x27, 0x9d, 0x2f, 0x3e,
    0x5d, 0x03, 0x01, 0x3f, 0x48, 0x7e, 0x42, 0xbd, 0x6c, 0x5b, 0xca, 0xbd,
    0x17, 0x49, 0x8d, 0xbe, 0x9d, 0xbb, 0x90, 0x3e, 0x81, 0xad, 0xc5, 0x3e,
    0x25, 0xdf, 0xc4, 0x3e, 0x0d, 0x8b, 0xc5, 0x3e, 0x71, 0x99, 0xa2, 0x3e,
    0x17, 0x4c, 0xcf, 0x3e, 0x87, 0xbb, 0x9a, 0xbe, 0x30, 0x67, 0x7a, 0xbd,
    0x81, 0x1d, 0xbe, 0xbe, 0x00, 0x8a, 0x81, 0xba, 0x8f, 0x39, 0xbe, 0x3e,
    0xa2, 0x98, 0x9b, 0xbe, 0xa4, 0xa5, 0x9a, 0xbd, 0xb8, 0xb9, 0x03, 0xbd,
    0x90, 0xec, 0x12, 0x3d, 0x24, 0x77, 0xaf, 0xbe, 0x01, 0x84, 0xbe, 0x3e,
    0xa8, 0xbd, 0x33, 0xbd, 0x7c, 0xd3, 0x25, 0xbe, 0xe9, 0x39, 0x9b, 0x3e,
    0x62, 0x30, 0x7f, 0x3e, 0x17, 0xfa, 0xc2, 0x3e, 0x16, 0xea, 0x24, 0xbe,
    0x90, 0x38, 0x41, 0x3d, 0x95, 0x86, 0x6b, 0xbe, 0xf0, 0x7b, 0x3b, 0xbe,
    0xc4, 0xd6, 0x93, 0xbd, 0xe8, 0x92, 0x4a, 0xbd, 0x41, 0x77, 0xbd, 0xbe,
    0x5a, 0x20, 0xc1, 0xbe, 0x56, 0x4a, 0x03, 0x3f, 0x6f, 0x3a, 0xbc, 0x3e,
    0x65, 0x13, 0x54, 0x3f, 0xdf, 0x36, 0x32, 0xbe, 0xcb, 0x62, 0x55, 0x3e,
    0xdf, 0x59, 0xd2, 0xbe, 0xd9, 0xe1, 0x66, 0xbe, 0x97, 0xfe, 0xa6, 0xbe,
    0x39, 0x36, 0x5e, 0x3e, 0xe2, 0x70, 0xd3, 0x3c, 0x9b, 0xed, 0x8f, 0xbe,
    0x4c, 0xcc, 0x8a, 0xbe, 0xd1, 0x7a, 0x15, 0xbf, 0xd8, 0x61, 0xa9, 0xbe,
    0xee, 0x49, 0x85, 0xbe, 0xfd, 0x54, 0x02, 0x3d, 0x76, 0x4b, 0x40, 0x3d,
    0x92, 0xc6, 0x47, 0x3e, 0xad, 0xc5, 0x48, 0xbd, 0x91, 0xb4, 0x4a, 0xbe,
    0xca, 0x5d, 0x93, 0x3e, 0xf4, 0xfc, 0x58, 0x3d, 0x5b, 0x68, 0xae, 0xbe,
    0xd3, 0xd9, 0x49, 0x3e, 0xfd, 0x6b, 0xd7, 0x3e, 0xa4, 0x2f, 0xa5, 0x3e,
    0x0b, 0x75, 0x92, 0x3e, 0xa7, 0x61, 0x5c, 0x3e, 0x8d, 0x9d, 0xcb, 0x3e,
    0x12, 0x54, 0xf9, 0xbe, 0x49, 0x43, 0xda, 0xbe, 0x35, 0xc5, 0xcc, 0xbe,
    0xa6, 0xae, 0x4c, 0x3e, 0x3c, 0x71, 0x94, 0x3d, 0x2e, 0xeb, 0xc2, 0x3e,
    0xf4, 0x3e, 0x8f, 0xbe, 0x66, 0x97, 0xa5, 0x3d, 0x55, 0x55, 0xb7, 0xbe,
    0x48, 0x4a, 0x1d, 0xbd, 0xd9, 0x1a, 0x67, 0xbe, 0x26, 0x5c, 0x79, 0xbe,
    0xc9, 0x13, 0xdb, 0xbd, 0xe3, 0x85, 0xf9, 0x3d, 0x34, 0xb3, 0x22, 0xbe,
    0xa6, 0xc9, 0x90, 0x3d, 0xbe, 0xcd, 0x8a, 0xbe, 0x39, 0xbc, 0xa3, 0xbc,
    0x05, 0x30, 0x43, 0x3e, 0xf5, 0x0f, 0x49, 0x3e, 0xa3, 0x49, 0x66, 0x3e,
    0x0f, 0x05, 0x82, 0xbe, 0x50, 0x1e, 0x1f, 0xbe, 0x88, 0xe4, 0xc0, 0xbe,
    0xab, 0x73, 0xd2, 0xbe, 0x00, 0xec, 0xab, 0xbd, 0x5f, 0xc2, 0x76, 0x3c,
    0x2f, 0x13, 0x95, 0xbe, 0x04, 0x4c, 0xf8, 0x3e, 0xf0, 0x91, 0x99, 0xbe,
    0x17, 0x97, 0xce, 0x3c, 0x49, 0xa9, 0xe4, 0x3e, 0x96, 0xb5, 0x25, 0xbe,
    0x43, 0x3b, 0x06, 0x3e, 0x7e, 0xf6, 0xff, 0xff, 0x04, 0x00, 0x00, 0x00,
    0x00, 0x04, 0x00, 0x00, 0x85, 0x6a, 0x4a, 0xbe, 0x00, 0x1c, 0xd9, 0xbd,
    0xbb, 0xaf, 0xf3, 0x3e, 0xea, 0xca, 0x88, 0x3e, 0x13, 0x8f, 0xa1, 0x3e,
    0xf0, 0xd5, 0x5e, 0xbe, 0x6e, 0xad, 0xaa, 0xbe, 0xc5, 0xd9, 0x57, 0x3e,
    0x6b, 0xa3, 0x37, 0xbe, 0x8a, 0xc7, 0xa4, 0x3c, 0x06, 0xc9, 0xb7, 0xbe,
    0xde, 0xdb, 0xe8, 0xbd, 0x52, 0x38, 0xd1, 0x3e, 0x33, 0x32, 0x11, 0xbf,
    0x27, 0xec, 0x87, 0x3e, 0xa3, 0xa5, 0x98, 0x3d, 0xbb, 0xb4, 0xdd, 0x3e,
    0x19, 0xb3, 0x9f, 0x3e, 0xd9, 0xe0, 0xd0, 0x3d, 0x50, 0xb7, 0x2c, 0xbf,
    0x74, 0xcb, 0xe4, 0x3c, 0xa4, 0x8b, 0x39, 0x3e, 0x28, 0x81, 0xcf, 0xbe,
    0x41, 0xfd, 0x51, 0x3e, 0x59, 0x35, 0x9a, 0xbe, 0x61, 0x30, 0x9d, 0x3d,
    0x6d, 0xae, 0x24, 0xbe, 0x9d, 0xb1, 0xb5, 0x3d, 0x82, 0x62, 0x46, 0x3e,
    0xf2, 0x52, 0x4d, 0xbd, 0x64, 0x7f, 0xc0, 0xbe, 0x8b, 0xe9, 0x8d, 0x3e,
    0xdb, 0xa3, 0x77, 0x3e, 0xf4, 0x9c, 0x82, 0xbe, 0x45, 0x82, 0x37, 0xbe,
    0xdb, 0x0c, 0x7d, 0xbd, 0xfb, 0x18, 0x09, 0xbc, 0x19, 0x7c, 0xd1, 0xbd,
    0x8c, 0x62, 0xac, 0xbe, 0x7a, 0x40, 0xa0, 0xbe, 0x03, 0x19, 0x07, 0x3f,
    0xd1, 0xf5, 0x07, 0xbd, 0xab, 0x97, 0x11, 0x3e, 0xbb, 0x9b, 0x09, 0x3f,
    0xcf, 0xec, 0x06, 0x3f, 0x20, 0x7a, 0x76, 0x3e, 0x28, 0xea, 0x00, 0x3f,
    0x53, 0x4f, 0x03, 0x3f, 0x8b, 0xc1, 0xe7, 0x3c, 0xc0, 0x3b, 0x04, 0x3d,
    0x02, 0xf2, 0xa5, 0xbe, 0xbc, 0xa6, 0x39, 0xbf, 0xe1, 0x99, 0x08, 0xbf,
    0xc4, 0x8d, 0x81, 0x3e, 0x33, 0x43, 0xb8, 0xbe, 0xbc, 0x47, 0x25, 0x3e,
    0x3b, 0xc4, 0x66, 0x3d, 0xee, 0x87, 0x87, 0xbe, 0xfb, 0x09, 0xc0, 0xbe,
    0xd3, 0x46, 0x05, 0xbe, 0x16, 0x94, 0x14, 0xbe, 0xa6, 0xe3, 0xb7, 0x3d,
    0x1c, 0x53, 0x13, 0xbe, 0x0c, 0x83, 0x7c, 0x3e, 0xc9, 0xb2, 0xc2, 0xbe,
    0xdd, 0x5b, 0xb7, 0x3d, 0x53, 0x1c, 0x74, 0x3e, 0x7c, 0x6e, 0x83, 0x3e,
    0x80, 0x35, 0x2b, 0xbe, 0x39, 0xc7, 0xf8, 0x3d, 0x30, 0x20, 0xcc, 0x3e,
    0x7e, 0xff, 0x0f, 0xbc, 0x1d, 0x1d, 0x2d, 0xbe, 0x98, 0x10, 0xe5, 0x3b,
    0x61, 0xd0, 0x11, 0xbe, 0x06, 0x00, 0xff, 0xbd, 0x74, 0x34, 0x94, 0xbe,
    0x7e, 0x85, 0xb7, 0x3d, 0xd1, 0x19, 0xc9, 0xbe, 0x3d, 0xb5, 0xb7, 0xbd,
    0x40, 0xda, 0xa6, 0x3d, 0x13, 0x54, 0xc3, 0xbe, 0xac, 0x97, 0x88, 0xbe,
    0xd2, 0x87, 0xdc, 0xbd, 0xd6, 0x13, 0xcb, 0xbe, 0xc8, 0x07, 0xdf, 0x3e,
    0x80, 0x51, 0x17, 0xbb, 0x74, 0x12, 0x3c, 0xbe, 0x2e, 0x45, 0xb9, 0x3e,
    0xac, 0xee, 0x9f, 0x3e, 0x42, 0xc5, 0xa5, 0xbe, 0x94, 0x86, 0x04, 0xbe,
    0x1d, 0xdb, 0x09, 0xbe, 0x2a, 0x9d, 0xce, 0xbe, 0x80, 0xb8, 0xab, 0xbd,
    0x8e, 0x15, 0x0e, 0xbe, 0x4e, 0x51, 0xba, 0xbe, 0x8c, 0x6d, 0xa1, 0xbd,
    0xb8, 0xb8, 0x5b, 0xbe, 0xa6, 0xb6, 0x07, 0x3f, 0xe7, 0x00, 0xe5, 0x3e,
    0x49, 0xe7, 0x01, 0x3d, 0xc4, 0xd2, 0x86, 0x3e, 0xdd, 0x39, 0x10, 0xbe,
    0xdd, 0x81, 0x03, 0xbe, 0x88, 0xac, 0x2f, 0xbe, 0xf2, 0xe9, 0x49, 0x3e,
    0x6b, 0x23, 0xc6, 0xbd, 0xfb, 0xab, 0xff, 0x3e, 0xa0, 0x6d, 0x13, 0xbf,
    0x3b, 0x5b, 0x54, 0xbe, 0x6a, 0xb5, 0xec, 0x3e, 0xdf, 0xdc, 0x7a, 0xbe,
    0x56, 0xa5, 0x39, 0x3e, 0x6b, 0xef, 0x55, 0x3d, 0xb2, 0x54, 0x9c, 0xbe,
    0x60, 0x7c, 0xcf, 0x3e, 0x1f, 0x1b, 0x9f, 0x3d, 0xb2, 0x6b, 0x3a, 0xbd,
    0x71, 0xf0, 0x16, 0xbd, 0xa6, 0x3c, 0xb9, 0xbe, 0xa5, 0x66, 0xd0, 0x3e,
    0xe4, 0x20, 0x2c, 0xbe, 0x29, 0x76, 0xcd, 0xbc, 0xe1, 0x4e, 0xc7, 0xbe,
    0x6f, 0x07, 0x1f, 0xbe, 0x10, 0xc6, 0x32, 0x3e, 0xfc, 0xf3, 0x9f, 0x3d,
    0xff, 0x5c, 0xa6, 0x3e, 0x1f, 0x6e, 0xa8, 0x3e, 0xa5, 0x08, 0x23, 0xbe,
    0x05, 0xc2, 0xd8, 0x3e, 0x3e, 0x43, 0xc1, 0xbe, 0xdd, 0x14, 0xd6, 0xbd,
    0xfc, 0x80, 0x97, 0x3d, 0xf5, 0x65, 0x96, 0x3e, 0x00, 0x38, 0xdd, 0xbe,
    0xe1, 0x4f, 0x86, 0x3e, 0x4d, 0xab, 0xa9, 0xbe, 0x90, 0x71, 0xb0, 0x3c,
    0x05, 0xd7, 0xad, 0x3d, 0xb0, 0x28, 0x79, 0xbe, 0x22, 0xe6, 0x71, 0x3e,
    0x0d, 0xa6, 0xad, 0x3d, 0x6e, 0xcf, 0xf7, 0xbd, 0xc9, 0x5b, 0x86, 0x3e,
    0x8c, 0x95, 0x8b, 0x3e, 0x3f, 0xbf, 0x6a, 0x3e, 0x3b, 0x42, 0xa7, 0x3e,
    0xbe, 0xfe, 0x88, 0x3e, 0x69, 0x78, 0x8f, 0xbe, 0xd7, 0xa1, 0x77, 0xbe,
    0x30, 0x49, 0x99, 0x3e, 0xdf, 0x1e, 0x1f, 0x3e, 0x30, 0x5e, 0xf3, 0x3e,
    0x85, 0x4d, 0x94, 0x3e, 0xf1, 0xd3, 0xbc, 0x3c, 0x10, 0x92, 0x47, 0xbe,
    0xff, 0x67, 0x5f, 0xbe, 0x1b, 0x22, 0xae, 0x3e, 0x4d, 0xc3, 0x23, 0x3f,
    0x80, 0x18, 0xc0, 0x3b, 0xe9, 0x84, 0xab, 0x3c, 0x4a, 0xb4, 0x07, 0x3e,
    0x4c, 0x99, 0x05, 0x3e, 0x19, 0x04, 0x2c, 0xbe, 0xe7, 0x8e, 0x1c, 0x3e,
    0x37, 0xcc, 0xfc, 0x3e, 0x49, 0x97, 0xea, 0xbd, 0x6e, 0xff, 0xad, 0x3e,
    0x72, 0x17, 0xc2, 0xbe, 0x80, 0x0b, 0x9e, 0xbe, 0x37, 0x49, 0xf6, 0xbe,
    0x70, 0xfa, 0x1f, 0x3f, 0xde, 0x47, 0x90, 0xbd, 0x87, 0x20, 0x1f, 0x3e,
    0xb0, 0x6e, 0x16, 0xbf, 0xf1, 0xea, 0xb2, 0x3e, 0xba, 0xf5, 0xc6, 0xbe,
    0x2f, 0x99, 0x63, 0xbd, 0xec, 0x68, 0x86, 0xbd, 0x1a, 0x75, 0x07, 0x3e,
    0x65, 0x51, 0x85, 0xbc, 0x77, 0xd5, 0x95, 0x3d, 0xf0, 0x81, 0xbf, 0x3d,
    0xad, 0xd6, 0xd5, 0x3e, 0xab, 0xff, 0x9b, 0x3e, 0x69, 0xde, 0x49, 0x3b,
    0x18, 0x55, 0xd2, 0x3e, 0x8c, 0xff, 0x97, 0xbe, 0x31, 0x03, 0x44, 0x3e,
    0x41, 0x6b, 0x79, 0xbe, 0x76, 0x5b, 0x84, 0x3e, 0xb2, 0xe2, 0x71, 0x3e,
    0x4c, 0x27, 0xd9, 0x3e, 0x21, 0x5e, 0xb4, 0x3e, 0xff, 0xe2, 0xd7, 0x3e,
    0xde, 0x65, 0xa7, 0x3e, 0x27, 0x44, 0xef, 0xbd, 0xa0, 0xdd, 0x78, 0xbd,
    0xb4, 0xe7, 0x60, 0x3e, 0xb3, 0x29, 0x01, 0xbf, 0xc5, 0x16, 0xeb, 0xbd,
    0x9c, 0x34, 0x47, 0x3d, 0x78, 0xa6, 0x91, 0xbe, 0x49, 0x71, 0xb4, 0x3e,
    0x67, 0xda, 0x06, 0x3e, 0xa4, 0xa3, 0xa1, 0x3e, 0x15, 0x20, 0x6f, 0x3e,
    0xae, 0x18, 0x71, 0xbe, 0x14, 0xbc, 0x22, 0xbf, 0x2d, 0xa3, 0x85, 0xbd,
    0x80, 0xc1, 0x4e, 0x3e, 0x29, 0x81, 0x89, 0x3e, 0x18, 0xb6, 0xd0, 0xbe,
    0xc0, 0x44, 0xce, 0xbe, 0xf6, 0xef, 0x92, 0xbd, 0xe4, 0x0a, 0x59, 0xbf,
    0x7d, 0x9d, 0x24, 0xbe, 0x98, 0x37, 0xfd, 0x3a, 0xaf, 0x04, 0xc2, 0x3e,
    0x90, 0xfd, 0x99, 0xbe, 0xb0, 0x0b, 0x14, 0xbf, 0x7c, 0xbd, 0xa0, 0x3e,
    0x68, 0x08, 0xff, 0x3e, 0x7d, 0x28, 0xbd, 0xbe, 0xb6, 0xbe, 0xaf, 0x3e,
    0x1f, 0xdc, 0x0e, 0x3f, 0x86, 0x22, 0xa1, 0x3d, 0x72, 0x65, 0x66, 0xbe,
    0xa3, 0x8f, 0xd6, 0x3d, 0xfc, 0x75, 0x85, 0x3e, 0x7f, 0x78, 0xd3, 0xbd,
    0x5b, 0x69, 0x00, 0xbf, 0x1f, 0x7d, 0xc7, 0x3e, 0xc0, 0xbe, 0x40, 0x3e,
    0xec, 0xed, 0xe2, 0x3e, 0x98, 0x8f, 0x9c, 0x3e, 0x8b, 0x6a, 0xf3, 0xbe,
    0x08, 0xa3, 0xc5, 0x3e, 0xa4, 0xa3, 0x35, 0xbd, 0x10, 0xe8, 0x8f, 0xbc,
    0xa9, 0xda, 0x9c, 0xbe, 0x75, 0x48, 0xe7, 0x3e, 0x3f, 0x92, 0x36, 0xbe,
    0xea, 0x6f, 0xc6, 0x3e, 0xe4, 0xa8, 0xba, 0xbe, 0xcb, 0x53, 0xca, 0x3a,
    0xb8, 0xf2, 0x3f, 0x3e, 0x2e, 0xc9, 0xc3, 0xbe, 0x7b, 0x61, 0x52, 0x3c,
    0x53, 0xb3, 0xa3, 0xbe, 0x5c, 0x4d, 0x71, 0xbd, 0x7e, 0x82, 0x9b, 0x3e,
    0x52, 0x5a, 0x0a, 0xbf, 0x6d, 0xce, 0x79, 0xbe, 0x8a, 0xfa, 0xff, 0xff,
    0x04, 0x00, 0x00, 0x00, 0xc0, 0x03, 0x00, 0x00, 0xe3, 0xd0, 0x99, 0xbe,
    0xbc, 0xd4, 0x82, 0xbe, 0xec, 0x13, 0x3e, 0xbf, 0x17, 0xb9, 0xbf, 0x3d,
    0x53, 0x6a, 0x15, 0xbe, 0xb3, 0xc9, 0xc3, 0xbe, 0x83, 0x83, 0x55, 0xbe,
    0xff, 0x68, 0x02, 0xbf, 0x13, 0xd6, 0x47, 0x3e, 0xce, 0x4d, 0x0b, 0x3f,
    0xfa, 0xc7, 0x93, 0xbc, 0x6a, 0xa0, 0xb8, 0xbd, 0x00, 0x86, 0x3d, 0x3c,
    0xae, 0x8a, 0xa6, 0xbe, 0x5f, 0xad, 0x7b, 0x3c, 0x28, 0x60, 0x3d, 0xbd,
    0x9c, 0xc9, 0x17, 0xbd, 0x21, 0x50, 0x95, 0xbe, 0x1c, 0x4c, 0xa6, 0x3e,
    0x3d, 0x81, 0x16, 0xbe, 0x45, 0x03, 0xb3, 0x3e, 0x6e, 0x1b, 0x4d, 0xbe,
    0xa6, 0x42, 0xdf, 0xbe, 0xca, 0x9c, 0xe6, 0xbd, 0x06, 0xce, 0x75, 0x3e,
    0xe8, 0xdc, 0xa7, 0xbe, 0x93, 0xaa, 0x9a, 0x3d, 0x5d, 0x72, 0xc0, 0x3e,
    0x05, 0x55, 0xfc, 0x3d, 0x68, 0xd8, 0xcf, 0x3e, 0x67, 0x45, 0xa6, 0x3e,
    0xba, 0x2c, 0x04, 0x3f, 0xf9, 0x30, 0xac, 0xbe, 0x49, 0x98, 0x3f, 0x3d,
    0x46, 0x5d, 0xa5, 0x3d, 0xf4, 0xa3, 0x28, 0xbe, 0x27, 0x3d, 0x51, 0xbe,
    0x1c, 0x57, 0xb2, 0x3a, 0xea, 0x5b, 0xd3, 0xbe, 0x18, 0x44, 0x59, 0x3e,
    0x90, 0x7b, 0xca, 0x3d, 0x65, 0x0e, 0xbe, 0xbe, 0x50, 0x09, 0x74, 0x3c,
    0xc7, 0xa2, 0x09, 0xbe, 0x48, 0xf3, 0x3a, 0x3e, 0x75, 0xad, 0xaf, 0xbd,
    0xa1, 0xff, 0xd1, 0x3e, 0x85, 0x51, 0x8a, 0xbe, 0x0d, 0x6a, 0xc6, 0x3e,
    0xb8, 0x01, 0x3a, 0x3e, 0x07, 0x74, 0x91, 0x3e, 0xef, 0x61, 0x28, 0x3e,
    0x9e, 0xc8, 0x27, 0xbf, 0x40, 0xfd, 0x42, 0xbe, 0x5e, 0x27, 0xeb, 0x3e,
    0x6e, 0x5c, 0x2f, 0x3d, 0x17, 0x7d, 0xbc, 0x3e, 0xf2, 0x5a, 0x6c, 0x3d,
    0x39, 0x5f, 0x0c, 0x3e, 0x27, 0xfe, 0x4e, 0x3e, 0xe5, 0x3b, 0x55, 0x3e,
    0xaf, 0xe9, 0xf3, 0xbd, 0x95, 0x82, 0xb2, 0x3e, 0x98, 0xe3, 0xbc, 0x3e,
    0x6b, 0x95, 0x8b, 0x3e, 0x63, 0x6d, 0xad, 0x3c, 0xa5, 0x6c, 0x77, 0xbe,
    0x13, 0x5f, 0xe4, 0xbd, 0x8c, 0xca, 0x03, 0x3e, 0xdf, 0x4a, 0xf2, 0x3c,
    0xb6, 0x72, 0xd3, 0x3c, 0x4b, 0x72, 0x72, 0xbd, 0xab, 0x4d, 0x79, 0xba,
    0x7c, 0xe5, 0x77, 0xbe, 0x77, 0xd8, 0x85, 0xbe, 0xea, 0x25, 0xc5, 0xbe,
    0xe1, 0xcb, 0xab, 0xbe, 0x1a, 0x9e, 0x56, 0x3e, 0x54, 0xb3, 0xf5, 0xbe,
    0xa8, 0x50, 0x8f, 0xbe, 0xf0, 0x80, 0x8c, 0x3e, 0x53, 0x63, 0x29, 0xbe,
    0x72, 0x2d, 0x0c, 0xbe, 0x30, 0x3e, 0x27, 0xbe, 0x8a, 0xbf, 0xf1, 0x3e,
    0x84, 0x29, 0xcb, 0x3e, 0x2d, 0xcb, 0x89, 0x3d, 0x1e, 0x87, 0xd4, 0xbc,
    0x4c, 0x06, 0x65, 0xbe, 0x0e, 0x5b, 0x49, 0xbe, 0x2b, 0x57, 0x7d, 0xbe,
    0x87, 0x86, 0xa1, 0xbc, 0x4a, 0x86, 0x33, 0x3e, 0x83, 0x59, 0x82, 0x3e,
    0x9a, 0xb4, 0x99, 0xbe, 0x4f, 0x69, 0xb9, 0xbe, 0x03, 0x3a, 0x10, 0x3e,
    0xa4, 0x94, 0x61, 0x3e, 0xab, 0x25, 0x5e, 0xbd, 0xd6, 0xb7, 0x64, 0x3e,
    0x31, 0xcf, 0xb1, 0xbe, 0x04, 0x34, 0xbc, 0xbe, 0x15, 0x7e, 0x12, 0x3e,
    0xb0, 0x5b, 0x11, 0x3e, 0xed, 0xd2, 0xf3, 0x3b, 0xc1, 0x81, 0x9e, 0xbe,
    0x46, 0x25, 0xe5, 0x3d, 0x55, 0x75, 0x1b, 0xbe, 0xc4, 0x4b, 0x97, 0xbe,
    0x87, 0x1a, 0xc3, 0xbe, 0xe4, 0xbe, 0x13, 0xbf, 0x2c, 0xa6, 0x00, 0x3d,
    0x22, 0x56, 0x9f, 0x3e, 0xaa, 0x70, 0x4b, 0xbe, 0x77, 0xac, 0xba, 0x3e,
    0xbc, 0x3d, 0xb6, 0xbd, 0x9a, 0x97, 0x43, 0xbe, 0xe4, 0x57, 0x92, 0xbe,
    0x53, 0xbf, 0x40, 0x3e, 0xeb, 0x83, 0x51, 0xbe, 0xfe, 0x89, 0x84, 0xbe,
    0x1e, 0x25, 0xee, 0x3e, 0x6b, 0x2c, 0x8a, 0x3e, 0x6c, 0xa2, 0x99, 0x3e,
    0x30, 0xb1, 0x59, 0x3d, 0x55, 0xad, 0x09, 0x3e, 0x65, 0x5b, 0xc8, 0xbe,
    0xa2, 0x5e, 0xe1, 0x3c, 0xfd, 0xb2, 0x9f, 0xbe, 0xaf, 0x9c, 0xe9, 0x3e,
    0x7c, 0x9b, 0xd7, 0x3e, 0xf9, 0xb0, 0xf3, 0x3e, 0xf6, 0x3b, 0x40, 0xbe,
    0x75, 0xb1, 0xfb, 0xbe, 0x20, 0xb6, 0x04, 0x3e, 0x71, 0x47, 0x20, 0xbe,
    0xc0, 0xd3, 0x0e, 0x3f, 0xaa, 0xaf, 0x5e, 0x3e, 0x57, 0x92, 0x0e, 0xbf,
    0x9d, 0x2e, 0xdc, 0x3d, 0x2b, 0x10, 0x94, 0xbe, 0xfb, 0xf8, 0xd5, 0x3e,
    0x5f, 0xfd, 0xb1, 0x3e, 0x40, 0xb4, 0x10, 0xbc, 0x19, 0xb0, 0x56, 0xbe,
    0xeb, 0x0b, 0x19, 0x3d, 0x75, 0xf3, 0xb0, 0x3e, 0xfa, 0xc8, 0xcf, 0xbd,
    0x4c, 0x9d, 0x2c, 0x3d, 0xe9, 0x3f, 0x83, 0x3e, 0xe5, 0x2d, 0x8d, 0xbe,
    0xda, 0x42, 0x28, 0xbe, 0x42, 0xe5, 0xb7, 0xbc, 0x68, 0xde, 0x87, 0xbe,
    0xf6, 0x74, 0x82, 0xbe, 0x06, 0x52, 0xc8, 0xbe, 0x51, 0x8a, 0xbe, 0x3e,
    0x71, 0x1b, 0x60, 0x3e, 0x3e, 0x44, 0xcb, 0xbd, 0x1f, 0xa0, 0x8e, 0xbd,
    0x4d, 0x3c, 0x69, 0xbe, 0xed, 0xaa, 0xc9, 0xbe, 0x9c, 0xd5, 0xd3, 0x3e,
    0x59, 0x7e, 0x36, 0xbe, 0x42, 0x51, 0x92, 0xbe, 0x9e, 0xcb, 0x2f, 0xbd,
    0x48, 0x4f, 0x58, 0x3e, 0x05, 0xb5, 0x07, 0x3e, 0x98, 0xf8, 0x55, 0x3e,
    0x1d, 0x82, 0x90, 0xbd, 0xe8, 0x44, 0x01, 0x3f, 0xfd, 0x9c, 0x2b, 0x3e,
    0x7c, 0x4b, 0xa6, 0x3e, 0xd8, 0xc4, 0x79, 0x3e, 0xdf, 0x6e, 0x47, 0x3e,
    0xcf, 0x58, 0x03, 0x3f, 0xf1, 0x29, 0x06, 0x3f, 0xbb, 0x4f, 0x1f, 0xbb,
    0x86, 0xea, 0x3c, 0x3c, 0x63, 0x38, 0xab, 0xbe, 0xa8, 0xed, 0x64, 0xbd,
    0x58, 0x3a, 0x8b, 0x3c, 0xa0, 0x04, 0xa0, 0x3e, 0xff, 0x93, 0xc7, 0x3b,
    0x82, 0x8a, 0xc8, 0x3b, 0x8a, 0x17, 0xdd, 0x3e, 0x4e, 0x2b, 0xd4, 0xbd,
    0x54, 0xc9, 0xa9, 0xbe, 0x0f, 0x58, 0xc7, 0x3e, 0x2d, 0xd5, 0x68, 0xbe,
    0x16, 0x29, 0x42, 0xbe, 0xd6, 0x19, 0xf7, 0x3e, 0x72, 0x65, 0x87, 0xbd,
    0xc7, 0x8b, 0xc7, 0xbe, 0x9b, 0xde, 0x35, 0xbe, 0x27, 0x33, 0x9d, 0x3e,
    0x98, 0x70, 0x52, 0xbe, 0x68, 0x12, 0x49, 0xbf, 0x0b, 0x00, 0x05, 0x3e,
    0x01, 0x16, 0xee, 0xbe, 0x43, 0xe9, 0xf1, 0xbe, 0xcc, 0x7a, 0x5f, 0x3e,
    0xad, 0xcd, 0x0a, 0xbf, 0xcf, 0x56, 0x04, 0xbf, 0xd1, 0x4e, 0xab, 0xbe,
    0x92, 0xe8, 0x76, 0xbe, 0xf4, 0x11, 0x8e, 0x3d, 0x28, 0x75, 0xf9, 0xbe,
    0xa6, 0x98, 0xc5, 0xbe, 0xe7, 0x82, 0xcd, 0xbb, 0xbf, 0xf6, 0xc0, 0xbe,
    0x77, 0x50, 0xd0, 0x3e, 0xc2, 0x95, 0x83, 0xbe, 0xed, 0x3f, 0xd2, 0x3e,
    0xee, 0xf8, 0x16, 0x3f, 0x64, 0x18, 0xb5, 0xbe, 0x6b, 0x97, 0x39, 0xbd,
    0x6a, 0x2f, 0x08, 0x3f, 0xb4, 0x3a, 0xa1, 0x3e, 0x36, 0x22, 0xcc, 0x3e,
    0x59, 0x45, 0x12, 0x3e, 0xbd, 0x12, 0x93, 0x3e, 0xfd, 0xac, 0x9e, 0x3e,
    0xca, 0xe7, 0xd3, 0xbd, 0xde, 0x54, 0x2c, 0xbe, 0xad, 0xbf, 0xa0, 0xbe,
    0xbe, 0xfc, 0x68, 0x3e, 0xfc, 0xbd, 0x26, 0xbe, 0xd3, 0x29, 0xf8, 0xbe,
    0x70, 0x1e, 0xcb, 0xbd, 0x6e, 0x9e, 0xcf, 0x3d, 0xf3, 0xfd, 0xca, 0xbd,
    0xb4, 0x5c, 0x3b, 0xbe, 0xb6, 0xba, 0xab, 0xbe, 0xcc, 0xe0, 0x7e, 0xbd,
    0x4f, 0x07, 0xb6, 0x3e, 0x7d, 0x86, 0x95, 0x3e, 0x12, 0x43, 0x15, 0x3e,
    0xc8, 0xa0, 0xa8, 0xbc, 0x1c, 0x71, 0x95, 0x3e, 0x56, 0xfe, 0xff, 0xff,
    0x04, 0x00, 0x00, 0x00, 0x40, 0x00, 0x00, 0x00, 0x1a, 0x7a, 0x6c, 0x3d,
    0x66, 0xe5, 0x12, 0xbd, 0x7f, 0x05, 0x95, 0x3d, 0x7a, 0xca, 0xc8, 0xbd,
    0x16, 0x56, 0xa4, 0xbd, 0x83, 0x0d, 0xa2, 0x3d, 0xfa, 0xc9, 0x25, 0x3c,
    0x3c, 0xb2, 0x88, 0xbd, 0xc2, 0xf2, 0xec, 0x3d, 0xf6, 0xfe, 0x1c, 0x3e,
    0xe7, 0x08, 0x73, 0x3c, 0x83, 0x13, 0x99, 0x3d, 0x53, 0xd4, 0x01, 0xbe,
    0x05, 0xee, 0x6c, 0x3d, 0x4b, 0x35, 0x81, 0x3e, 0xe0, 0xdd, 0x31, 0xbd,
    0xa2, 0xfe, 0xff, 0xff, 0x04, 0x00, 0x00, 0x00, 0x40, 0x00, 0x00, 0x00,
    0x21, 0x9d, 0xa3, 0xbd, 0xb7, 0x74, 0xee, 0x3c, 0x1b, 0x54, 0xc2, 0x3d,
    0xb5, 0xc5, 0xd6, 0x3d, 0x24, 0x45, 0x0f, 0xbd, 0x05, 0x9d, 0xd9, 0xba,
    0xcd, 0x7a, 0xc1, 0xbd, 0x38, 0x34, 0x1a, 0x3d, 0x7f, 0x16, 0xbb, 0xbc,
    0x74, 0x96, 0x6b, 0x3d, 0x99, 0x4f, 0xe8, 0xbc, 0x4c, 0x98, 0x42, 0xbc,
    0x66, 0x52, 0x9b, 0x3d, 0x09, 0x51, 0x6e, 0xbd, 0xd4, 0x70, 0x2b, 0xbe,
    0xb5, 0xbc, 0xcf, 0x3c, 0xee, 0xfe, 0xff, 0xff, 0x04, 0x00, 0x00, 0x00,
    0x40, 0x00, 0x00, 0x00, 0x00, 0x00, 0x00, 0x00, 0x22, 0xae, 0x8f, 0xbb,
    0x1a, 0x3b, 0x82, 0xbb, 0xda, 0x61, 0x16, 0xbe, 0x50, 0xe3, 0x53, 0xbd,
    0x37, 0xee, 0x0f, 0xbd, 0x02, 0xf7, 0x0b, 0xbe, 0x11, 0xd9, 0xb3, 0x3c,
    0x0b, 0x54, 0x82, 0xbc, 0x8f, 0x29, 0xec, 0x3d, 0x00, 0x00, 0x00, 0x00,
    0x00, 0x00, 0x00, 0x00, 0x2c, 0x1d, 0x2e, 0x3e, 0x3d, 0xcc, 0x79, 0x3d,
    0x8d, 0x91, 0x94, 0xbc, 0xf9, 0x3f, 0xf6, 0x3a, 0x3a, 0xff, 0xff, 0xff,
    0x04, 0x00, 0x00, 0x00, 0x20, 0x00, 0x00, 0x00, 0xe6, 0x91, 0x06, 0xbe,
    0x32, 0x15, 0xde, 0xbc, 0x7f, 0x16, 0x7d, 0xbd, 0x05, 0x51, 0x12, 0x3e,
    0x46, 0x21, 0x55, 0x3e, 0x34, 0x38, 0x15, 0xbe, 0x6e, 0x17, 0x83, 0xbc,
    0x6b, 0xcb, 0x2b, 0xbc, 0xe0, 0xf8, 0xff, 0xff, 0xe4, 0xf8, 0xff, 0xff,
    0x0f, 0x00, 0x00, 0x00, 0x4d, 0x4c, 0x49, 0x52, 0x20, 0x43, 0x6f, 0x6e,
    0x76, 0x65, 0x72, 0x74, 0x65, 0x64, 0x2e, 0x00, 0x01, 0x00, 0x00, 0x00,
    0x14, 0x00, 0x00, 0x00, 0x00, 0x00, 0x0e, 0x00, 0x18, 0x00, 0x14, 0x00,
    0x10, 0x00, 0x0c, 0x00, 0x08, 0x00, 0x04, 0x00, 0x0e, 0x00, 0x00, 0x00,
    0x14, 0x00, 0x00, 0x00, 0x1c, 0x00, 0x00, 0x00, 0x5c, 0x01, 0x00, 0x00,
    0x60, 0x01, 0x00, 0x00, 0x64, 0x01, 0x00, 0x00, 0x04, 0x00, 0x00, 0x00,
    0x6d, 0x61, 0x69, 0x6e, 0x00, 0x00, 0x00, 0x00, 0x05, 0x00, 0x00, 0x00,
    0x04, 0x01, 0x00, 0x00, 0xbc, 0x00, 0x00, 0x00, 0x84, 0x00, 0x00, 0x00,
    0x50, 0x00, 0x00, 0x00, 0x14, 0x00, 0x00, 0x00, 0x00, 0x00, 0x0e, 0x00,
    0x1a, 0x00, 0x14, 0x00, 0x10, 0x00, 0x0c, 0x00, 0x0b, 0x00, 0x04, 0x00,
    0x0e, 0x00, 0x00, 0x00, 0x1c, 0x00, 0x00, 0x00, 0x00, 0x00, 0x00, 0x09,
    0x1c, 0x00, 0x00, 0x00, 0x20, 0x00, 0x00, 0x00, 0x01, 0x00, 0x00, 0x00,
    0x00, 0x00, 0x06, 0x00, 0x08, 0x00, 0x04, 0x00, 0x06, 0x00, 0x00, 0x00,
    0x00, 0x00, 0x80, 0x3f, 0x01, 0x00, 0x00, 0x00, 0x0d, 0x00, 0x00, 0x00,
    0x01, 0x00, 0x00, 0x00, 0x0c, 0x00, 0x00, 0x00, 0x66, 0xff, 0xff, 0xff,
    0x10, 0x00, 0x00, 0x00, 0x00, 0x00, 0x00, 0x08, 0x0c, 0x00, 0x00, 0x00,
    0x10, 0x00, 0x00, 0x00, 0xac, 0xf9, 0xff, 0xff, 0x01, 0x00, 0x00, 0x00,
    0x0c, 0x00, 0x00, 0x00, 0x03, 0x00, 0x00, 0x00, 0x0b, 0x00, 0x00, 0x00,
    0x08, 0x00, 0x00, 0x00, 0x01, 0x00, 0x00, 0x00, 0x96, 0xff, 0xff, 0xff,
    0x10, 0x00, 0x00, 0x00, 0x00, 0x00, 0x00, 0x08, 0x10, 0x00, 0x00, 0x00,
    0x14, 0x00, 0x00, 0x00, 0x86, 0xff, 0xff, 0xff, 0x00, 0x00, 0x00, 0x01,
    0x01, 0x00, 0x00, 0x00, 0x0b, 0x00, 0x00, 0x00, 0x03, 0x00, 0x00, 0x00,
    0x0a, 0x00, 0x00, 0x00, 0x07, 0x00, 0x00, 0x00, 0x02, 0x00, 0x00, 0x00,
    0xca, 0xff, 0xff, 0xff, 0x10, 0x00, 0x00, 0x00, 0x00, 0x00, 0x00, 0x08,
    0x10, 0x00, 0x00, 0x00, 0x14, 0x00, 0x00, 0x00, 0xba, 0xff, 0xff, 0xff,
    0x00, 0x00, 0x00, 0x01, 0x01, 0x00, 0x00, 0x00, 0x0a, 0x00, 0x00, 0x00,
    0x03, 0x00, 0x00, 0x00, 0x09, 0x00, 0x00, 0x00, 0x06, 0x00, 0x00, 0x00,
    0x03, 0x00, 0x00, 0x00, 0x00, 0x00, 0x0e, 0x00, 0x16, 0x00, 0x00, 0x00,
    0x10, 0x00, 0x0c, 0x00, 0x0b, 0x00, 0x04, 0x00, 0x0e, 0x00, 0x00, 0x00,
    0x18, 0x00, 0x00, 0x00, 0x00, 0x00, 0x00, 0x08, 0x18, 0x00, 0x00, 0x00,
    0x1c, 0x00, 0x00, 0x00, 0x00, 0x00, 0x06, 0x00, 0x08, 0x00, 0x07, 0x00,
    0x06, 0x00, 0x00, 0x00, 0x00, 0x00, 0x00, 0x01, 0x01, 0x00, 0x00, 0x00,
    0x09, 0x00, 0x00, 0x00, 0x03, 0x00, 0x00, 0x00, 0x00, 0x00, 0x00, 0x00,
    0x05, 0x00, 0x00, 0x00, 0x04, 0x00, 0x00, 0x00, 0x01, 0x00, 0x00, 0x00,
    0x0d, 0x00, 0x00, 0x00, 0x01, 0x00, 0x00, 0x00, 0x00, 0x00, 0x00, 0x00,
    0x0e, 0x00, 0x00, 0x00, 0x48, 0x05, 0x00, 0x00, 0xd8, 0x04, 0x00, 0x00,
    0x68, 0x04, 0x00, 0x00, 0x10, 0x04, 0x00, 0x00, 0xb8, 0x03, 0x00, 0x00,
    0x6c, 0x03, 0x00, 0x00, 0x20, 0x03, 0x00, 0x00, 0xd4, 0x02, 0x00, 0x00,
    0x88, 0x02, 0x00, 0x00, 0xf8, 0x01, 0x00, 0x00, 0x68, 0x01, 0x00, 0x00,
    0xd8, 0x00, 0x00, 0x00, 0x60, 0x00, 0x00, 0x00, 0x04, 0x00, 0x00, 0x00,
    0x06, 0xfb, 0xff, 0xff, 0x00, 0x00, 0x00, 0x01, 0x14, 0x00, 0x00, 0x00,
    0x1c, 0x00, 0x00, 0x00, 0x1c, 0x00, 0x00, 0x00, 0x0e, 0x00, 0x00, 0x00,
    0x34, 0x00, 0x00, 0x00, 0x02, 0x00, 0x00, 0x00, 0xff, 0xff, 0xff, 0xff,
    0x08, 0x00, 0x00, 0x00, 0xf0, 0xfa, 0xff, 0xff, 0x19, 0x00, 0x00, 0x00,
    0x53, 0x74, 0x61, 0x74, 0x65, 0x66, 0x75, 0x6c, 0x50, 0x61, 0x72, 0x74,
    0x69, 0x74, 0x69, 0x6f, 0x6e, 0x65, 0x64, 0x43, 0x61, 0x6c, 0x6c, 0x3a,
    0x30, 0x00, 0x00, 0x00, 0x02, 0x00, 0x00, 0x00, 0x01, 0x00, 0x00, 0x00,
    0x08, 0x00, 0x00, 0x00, 0x5e, 0xfb, 0xff, 0xff, 0x00, 0x00, 0x00, 0x01,
    0x14, 0x00, 0x00, 0x00, 0x1c, 0x00, 0x00, 0x00, 0x1c, 0x00, 0x00, 0x00,
    0x0d, 0x00, 0x00, 0x00, 0x50, 0x00, 0x00, 0x00, 0x02, 0x00, 0x00, 0x00,
    0xff, 0xff, 0xff, 0xff, 0x08, 0x00, 0x00, 0x00, 0x48, 0xfb, 0xff, 0xff,
    0x34, 0x00, 0x00, 0x00, 0x6c, 0x77, 0x31, 0x36, 0x5f, 0x6d, 0x64, 0x32,
    0x2f, 0x64, 0x65, 0x6e, 0x73, 0x65, 0x5f, 0x31, 0x36, 0x37, 0x2f, 0x4d,
    0x61, 0x74, 0x4d, 0x75, 0x6c, 0x3b, 0x6c, 0x77, 0x31, 0x36, 0x5f, 0x6d,
    0x64, 0x32, 0x2f, 0x64, 0x65, 0x6e, 0x73, 0x65, 0x5f, 0x31, 0x36, 0x37,
    0x2f, 0x42, 0x69, 0x61, 0x73, 0x41, 0x64, 0x64, 0x00, 0x00, 0x00, 0x00,
    0x02, 0x00, 0x00, 0x00, 0x01, 0x00, 0x00, 0x00, 0x08, 0x00, 0x00, 0x00,
    0xd2, 0xfb, 0xff, 0xff, 0x00, 0x00, 0x00, 0x01, 0x14, 0x00, 0x00, 0x00,
    0x1c, 0x00, 0x00, 0x00, 0x1c, 0x00, 0x00, 0x00, 0x0c, 0x00, 0x00, 0x00,
    0x68, 0x00, 0x00, 0x00, 0x02, 0x00, 0x00, 0x00, 0xff, 0xff, 0xff, 0xff,
    0x10, 0x00, 0x00, 0x00, 0xbc, 0xfb, 0xff, 0xff, 0x4c, 0x00, 0x00, 0x00,
    0x6c, 0x77, 0x31, 0x36, 0x5f, 0x6d, 0x64, 0x32, 0x2f, 0x64, 0x65, 0x6e,
    0x73, 0x65, 0x5f, 0x31, 0x36, 0x36, 0x2f, 0x4d, 0x61, 0x74, 0x4d, 0x75,
    0x6c, 0x3b, 0x6c, 0x77, 0x31, 0x36, 0x5f, 0x6d, 0x64, 0x32, 0x2f, 0x64,
    0x65, 0x6e, 0x73, 0x65, 0x5f, 0x31, 0x36, 0x36, 0x2f, 0x52, 0x65, 0x6c,
    0x75, 0x3b, 0x6c, 0x77, 0x31, 0x36, 0x5f, 0x6d, 0x64, 0x32, 0x2f, 0x64,
    0x65, 0x6e, 0x73, 0x65, 0x5f, 0x31, 0x36, 0x36, 0x2f, 0x42, 0x69, 0x61,
    0x73, 0x41, 0x64, 0x64, 0x00, 0x00, 0x00, 0x00, 0x02, 0x00, 0x00, 0x00,
    0x01, 0x00, 0x00, 0x00, 0x10, 0x00, 0x00, 0x00, 0x5e, 0xfc, 0xff, 0xff,
    0x00, 0x00, 0x00, 0x01, 0x14, 0x00, 0x00, 0x00, 0x1c, 0x00, 0x00, 0x00,
    0x1c, 0x00, 0x00, 0x00, 0x0b, 0x00, 0x00, 0x00, 0x68, 0x00, 0x00, 0x00,
    0x02, 0x00, 0x00, 0x00, 0xff, 0xff, 0xff, 0xff, 0x10, 0x00, 0x00, 0x00,
    0x48, 0xfc, 0xff, 0xff, 0x4c, 0x00, 0x00, 0x00, 0x6c, 0x77, 0x31, 0x36,
    0x5f, 0x6d, 0x64, 0x32, 0x2f, 0x64, 0x65, 0x6e, 0x73, 0x65, 0x5f, 0x31,
    0x36, 0x35, 0x2f, 0x4d, 0x61, 0x74, 0x4d, 0x75, 0x6c, 0x3b, 0x6c, 0x77,
    0x31, 0x36, 0x5f, 0x6d, 0x64, 0x32, 0x2f, 0x64, 0x65, 0x6e, 0x73, 0x65,
    0x5f, 0x31, 0x36, 0x35, 0x2f, 0x52, 0x65, 0x6c, 0x75, 0x3b, 0x6c, 0x77,
    0x31, 0x36, 0x5f, 0x6d, 0x64, 0x32, 0x2f, 0x64, 0x65, 0x6e, 0x73, 0x65,
    0x5f, 0x31, 0x36, 0x35, 0x2f, 0x42, 0x69, 0x61, 0x73, 0x41, 0x64, 0x64,
    0x00, 0x00, 0x00, 0x00, 0x02, 0x00, 0x00, 0x00, 0x01, 0x00, 0x00, 0x00,
    0x10, 0x00, 0x00, 0x00, 0xea, 0xfc, 0xff, 0xff, 0x00, 0x00, 0x00, 0x01,
    0x14, 0x00, 0x00, 0x00, 0x1c, 0x00, 0x00, 0x00, 0x1c, 0x00, 0x00, 0x00,
    0x0a, 0x00, 0x00, 0x00, 0x68, 0x00, 0x00, 0x00, 0x02, 0x00, 0x00, 0x00,
    0xff, 0xff, 0xff, 0xff, 0x10, 0x00, 0x00, 0x00, 0xd4, 0xfc, 0xff, 0xff,
    0x4c, 0x00, 0x00, 0x00, 0x6c, 0x77, 0x31, 0x36, 0x5f, 0x6d, 0x64, 0x32,
    0x2f, 0x64, 0x65, 0x6e, 0x73, 0x65, 0x5f, 0x31, 0x36, 0x34, 0x2f, 0x4d,
    0x61, 0x74, 0x4d, 0x75, 0x6c, 0x3b, 0x6c, 0x77, 0x31, 0x36, 0x5f, 0x6d,
    0x64, 0x32, 0x2f, 0x64, 0x65, 0x6e, 0x73, 0x65, 0x5f, 0x31, 0x36, 0x34,
    0x2f, 0x52, 0x65, 0x6c, 0x75, 0x3b, 0x6c, 0x77, 0x31, 0x36, 0x5f, 0x6d,
    0x64, 0x32, 0x2f, 0x64, 0x65, 0x6e, 0x73, 0x65, 0x5f, 0x31, 0x36, 0x34,
    0x2f, 0x42, 0x69, 0x61, 0x73, 0x41, 0x64, 0x64, 0x00, 0x00, 0x00, 0x00,
    0x02, 0x00, 0x00, 0x00, 0x01, 0x00, 0x00, 0x00, 0x10, 0x00, 0x00, 0x00,
    0xe2, 0xfd, 0xff, 0xff, 0x00, 0x00, 0x00, 0x01, 0x10, 0x00, 0x00, 0x00,
    0x10, 0x00, 0x00, 0x00, 0x09, 0x00, 0x00, 0x00, 0x28, 0x00, 0x00, 0x00,
    0x50, 0xfd, 0xff, 0xff, 0x19, 0x00, 0x00, 0x00, 0x6c, 0x77, 0x31, 0x36,
    0x5f, 0x6d, 0x64, 0x32, 0x2f, 0x64, 0x65, 0x6e, 0x73, 0x65, 0x5f, 0x31,
    0x36, 0x37, 0x2f, 0x4d, 0x61, 0x74, 0x4d, 0x75, 0x6c, 0x00, 0x00, 0x00,
    0x02, 0x00, 0x00, 0x00, 0x08, 0x00, 0x00, 0x00, 0x10, 0x00, 0x00, 0x00,
    0x2a, 0xfe, 0xff, 0xff, 0x00, 0x00, 0x00, 0x01, 0x10, 0x00, 0x00, 0x00,
    0x10, 0x00, 0x00, 0x00, 0x08, 0x00, 0x00, 0x00, 0x28, 0x00, 0x00, 0x00,
    0x98, 0xfd, 0xff, 0xff, 0x19, 0x00, 0x00, 0x00, 0x6c, 0x77, 0x31, 0x36,
    0x5f, 0x6d, 0x64, 0x32, 0x2f, 0x64, 0x65, 0x6e, 0x73, 0x65, 0x5f, 0x31,
    0x36, 0x36, 0x2f, 0x4d, 0x61, 0x74, 0x4d, 0x75, 0x6c, 0x00, 0x00, 0x00,
    0x02, 0x00, 0x00, 0x00, 0x10, 0x00, 0x00, 0x00, 0x10, 0x00, 0x00, 0x00,
    0x72, 0xfe, 0xff, 0xff, 0x00, 0x00, 0x00, 0x01, 0x10, 0x00, 0x00, 0x00,
    0x10, 0x00, 0x00, 0x00, 0x07, 0x00, 0x00, 0x00, 0x28, 0x00, 0x00, 0x00,
    0xe0, 0xfd, 0xff, 0xff, 0x19, 0x00, 0x00, 0x00, 0x6c, 0x77, 0x31, 0x36,
    0x5f, 0x6d, 0x64, 0x32, 0x2f, 0x64, 0x65, 0x6e, 0x73, 0x65, 0x5f, 0x31,
    0x36, 0x35, 0x2f, 0x4d, 0x61, 0x74, 0x4d, 0x75, 0x6c, 0x00, 0x00, 0x00,
    0x02, 0x00, 0x00, 0x00, 0x10, 0x00, 0x00, 0x00, 0x10, 0x00, 0x00, 0x00,
    0xba, 0xfe, 0xff, 0xff, 0x00, 0x00, 0x00, 0x01, 0x10, 0x00, 0x00, 0x00,
    0x10, 0x00, 0x00, 0x00, 0x06, 0x00, 0x00, 0x00, 0x28, 0x00, 0x00, 0x00,
    0x28, 0xfe, 0xff, 0xff, 0x19, 0x00, 0x00, 0x00, 0x6c, 0x77, 0x31, 0x36,
    0x5f, 0x6d, 0x64, 0x32, 0x2f, 0x64, 0x65, 0x6e, 0x73, 0x65, 0x5f, 0x31,
    0x36, 0x34, 0x2f, 0x4d, 0x61, 0x74, 0x4d, 0x75, 0x6c, 0x00, 0x00, 0x00,
    0x02, 0x00, 0x00, 0x00, 0x10, 0x00, 0x00, 0x00, 0x0f, 0x00, 0x00, 0x00,
    0x02, 0xff, 0xff, 0xff, 0x00, 0x00, 0x00, 0x01, 0x10, 0x00, 0x00, 0x00,
    0x10, 0x00, 0x00, 0x00, 0x05, 0x00, 0x00, 0x00, 0x38, 0x00, 0x00, 0x00,
    0x70, 0xfe, 0xff, 0xff, 0x29, 0x00, 0x00, 0x00, 0x6c, 0x77, 0x31, 0x36,
    0x5f, 0x6d, 0x64, 0x32, 0x2f, 0x64, 0x65, 0x6e, 0x73, 0x65, 0x5f, 0x31,
    0x36, 0x34, 0x2f, 0x42, 0x69, 0x61, 0x73, 0x41, 0x64, 0x64, 0x2f, 0x52,
    0x65, 0x61, 0x64, 0x56, 0x61, 0x72, 0x69, 0x61, 0x62, 0x6c, 0x65, 0x4f,
    0x70, 0x00, 0x00, 0x00, 0x01, 0x00, 0x00, 0x00, 0x10, 0x00, 0x00, 0x00,
    0x56, 0xff, 0xff, 0xff, 0x00, 0x00, 0x00, 0x01, 0x10, 0x00, 0x00, 0x00,
    0x10, 0x00, 0x00, 0x00, 0x04, 0x00, 0x00, 0x00, 0x38, 0x00, 0x00, 0x00,
    0xc4, 0xfe, 0xff, 0xff, 0x29, 0x00, 0x00, 0x00, 0x6c, 0x77, 0x31, 0x36,
    0x5f, 0x6d, 0x64, 0x32, 0x2f, 0x64, 0x65, 0x6e, 0x73, 0x65, 0x5f, 0x31,
    0x36, 0x35, 0x2f, 0x42, 0x69, 0x61, 0x73, 0x41, 0x64, 0x64, 0x2f, 0x52,
    0x65, 0x61, 0x64, 0x56, 0x61, 0x72, 0x69, 0x61, 0x62, 0x6c, 0x65, 0x4f,
    0x70, 0x00, 0x00, 0x00, 0x01, 0x00, 0x00, 0x00, 0x10, 0x00, 0x00, 0x00,
    0xaa, 0xff, 0xff, 0xff, 0x00, 0x00, 0x00, 0x01, 0x10, 0x00, 0x00, 0x00,
    0x10, 0x00, 0x00, 0x00, 0x03, 0x00, 0x00, 0x00, 0x38, 0x00, 0x00, 0x00,
    0x18, 0xff, 0xff, 0xff, 0x29, 0x00, 0x00, 0x00, 0x6c, 0x77, 0x31, 0x36,
    0x5f, 0x6d, 0x64, 0x32, 0x2f, 0x64, 0x65, 0x6e, 0x73, 0x65, 0x5f, 0x31,
    0x36, 0x36, 0x2f, 0x42, 0x69, 0x61, 0x73, 0x41, 0x64, 0x64, 0x2f, 0x52,
    0x65, 0x61, 0x64, 0x56, 0x61, 0x72, 0x69, 0x61, 0x62, 0x6c, 0x65, 0x4f,
    0x70, 0x00, 0x00, 0x00, 0x01, 0x00, 0x00, 0x00, 0x10, 0x00, 0x00, 0x00,
    0x00, 0x00, 0x16, 0x00, 0x18, 0x00, 0x14, 0x00, 0x00, 0x00, 0x10, 0x00,
    0x0c, 0x00, 0x08, 0x00, 0x00, 0x00, 0x00, 0x00, 0x00, 0x00, 0x07, 0x00,
    0x16, 0x00, 0x00, 0x00, 0x00, 0x00, 0x00, 0x01, 0x10, 0x00, 0x00, 0x00,
    0x10, 0x00, 0x00, 0x00, 0x02, 0x00, 0x00, 0x00, 0x38, 0x00, 0x00, 0x00,
    0x84, 0xff, 0xff, 0xff, 0x29, 0x00, 0x00, 0x00, 0x6c, 0x77, 0x31, 0x36,
    0x5f, 0x6d, 0x64, 0x32, 0x2f, 0x64, 0x65, 0x6e, 0x73, 0x65, 0x5f, 0x31,
    0x36, 0x37, 0x2f, 0x42, 0x69, 0x61, 0x73, 0x41, 0x64, 0x64, 0x2f, 0x52,
    0x65, 0x61, 0x64, 0x56, 0x61, 0x72, 0x69, 0x61, 0x62, 0x6c, 0x65, 0x4f,
    0x70, 0x00, 0x00, 0x00, 0x01, 0x00, 0x00, 0x00, 0x08, 0x00, 0x00, 0x00,
    0x00, 0x00, 0x16, 0x00, 0x1c, 0x00, 0x18, 0x00, 0x00, 0x00, 0x14, 0x00,
    0x10, 0x00, 0x0c, 0x00, 0x00, 0x00, 0x00, 0x00, 0x08, 0x00, 0x07, 0x00,
    0x16, 0x00, 0x00, 0x00, 0x00, 0x00, 0x00, 0x01, 0x14, 0x00, 0x00, 0x00,
    0x20, 0x00, 0x00, 0x00, 0x20, 0x00, 0x00, 0x00, 0x01, 0x00, 0x00, 0x00,
    0x40, 0x00, 0x00, 0x00, 0x02, 0x00, 0x00, 0x00, 0xff, 0xff, 0xff, 0xff,
    0x0f, 0x00, 0x00, 0x00, 0x04, 0x00, 0x04, 0x00, 0x04, 0x00, 0x00, 0x00,
    0x21, 0x00, 0x00, 0x00, 0x73, 0x65, 0x72, 0x76, 0x69, 0x6e, 0x67, 0x5f,
    0x64, 0x65, 0x66, 0x61, 0x75, 0x6c, 0x74, 0x5f, 0x64, 0x65, 0x6e, 0x73,
    0x65, 0x5f, 0x31, 0x36, 0x34, 0x5f, 0x69, 0x6e, 0x70, 0x75, 0x74, 0x3a,
    0x30, 0x00, 0x00, 0x00, 0x02, 0x00, 0x00, 0x00, 0x01, 0x00, 0x00, 0x00,
    0x0f, 0x00, 0x00, 0x00, 0x02, 0x00, 0x00, 0x00, 0x20, 0x00, 0x00, 0x00,
    0x04, 0x00, 0x00, 0x00, 0xf4, 0xff, 0xff, 0xff, 0x19, 0x00, 0x00, 0x00,
    0x00, 0x00, 0x00, 0x19, 0x0c, 0x00, 0x0c, 0x00, 0x0b, 0x00, 0x00, 0x00,
    0x00, 0x00, 0x04, 0x00, 0x0c, 0x00, 0x00, 0x00, 0x09, 0x00, 0x00, 0x00,
    0x00, 0x00, 0x00, 0x09};
unsigned int lw16_md2_len = 6268;
