unsigned char lw4_md1[] = {
    0x1c, 0x00, 0x00, 0x00, 0x54, 0x46, 0x4c, 0x33, 0x14, 0x00, 0x20, 0x00,
    0x1c, 0x00, 0x18, 0x00, 0x14, 0x00, 0x10, 0x00, 0x0c, 0x00, 0x00, 0x00,
    0x08, 0x00, 0x04, 0x00, 0x14, 0x00, 0x00, 0x00, 0x1c, 0x00, 0x00, 0x00,
    0x98, 0x00, 0x00, 0x00, 0xf0, 0x00, 0x00, 0x00, 0xf4, 0x03, 0x00, 0x00,
    0x04, 0x04, 0x00, 0x00, 0xc8, 0x09, 0x00, 0x00, 0x03, 0x00, 0x00, 0x00,
    0x01, 0x00, 0x00, 0x00, 0x10, 0x00, 0x00, 0x00, 0x00, 0x00, 0x0a, 0x00,
    0x10, 0x00, 0x0c, 0x00, 0x08, 0x00, 0x04, 0x00, 0x0a, 0x00, 0x00, 0x00,
    0x0c, 0x00, 0x00, 0x00, 0x1c, 0x00, 0x00, 0x00, 0x3c, 0x00, 0x00, 0x00,
    0x0f, 0x00, 0x00, 0x00, 0x73, 0x65, 0x72, 0x76, 0x69, 0x6e, 0x67, 0x5f,
    0x64, 0x65, 0x66, 0x61, 0x75, 0x6c, 0x74, 0x00, 0x01, 0x00, 0x00, 0x00,
    0x04, 0x00, 0x00, 0x00, 0x90, 0xff, 0xff, 0xff, 0x0a, 0x00, 0x00, 0x00,
    0x04, 0x00, 0x00, 0x00, 0x09, 0x00, 0x00, 0x00, 0x64, 0x65, 0x6e, 0x73,
    0x65, 0x5f, 0x31, 0x31, 0x37, 0x00, 0x00, 0x00, 0x01, 0x00, 0x00, 0x00,
    0x04, 0x00, 0x00, 0x00, 0xf2, 0xfb, 0xff, 0xff, 0x04, 0x00, 0x00, 0x00,
    0x0f, 0x00, 0x00, 0x00, 0x64, 0x65, 0x6e, 0x73, 0x65, 0x5f, 0x31, 0x31,
    0x35, 0x5f, 0x69, 0x6e, 0x70, 0x75, 0x74, 0x00, 0x02, 0x00, 0x00, 0x00,
    0x34, 0x00, 0x00, 0x00, 0x04, 0x00, 0x00, 0x00, 0xdc, 0xff, 0xff, 0xff,
    0x0d, 0x00, 0x00, 0x00, 0x04, 0x00, 0x00, 0x00, 0x13, 0x00, 0x00, 0x00,
    0x43, 0x4f, 0x4e, 0x56, 0x45, 0x52, 0x53, 0x49, 0x4f, 0x4e, 0x5f, 0x4d,
    0x45, 0x54, 0x41, 0x44, 0x41, 0x54, 0x41, 0x00, 0x08, 0x00, 0x0c, 0x00,
    0x08, 0x00, 0x04, 0x00, 0x08, 0x00, 0x00, 0x00, 0x0c, 0x00, 0x00, 0x00,
    0x04, 0x00, 0x00, 0x00, 0x13, 0x00, 0x00, 0x00, 0x6d, 0x69, 0x6e, 0x5f,
    0x72, 0x75, 0x6e, 0x74, 0x69, 0x6d, 0x65, 0x5f, 0x76, 0x65, 0x72, 0x73,
    0x69, 0x6f, 0x6e, 0x00, 0x0e, 0x00, 0x00, 0x00, 0x00, 0x03, 0x00, 0x00,
    0xf8, 0x02, 0x00, 0x00, 0xc8, 0x02, 0x00, 0x00, 0xa8, 0x02, 0x00, 0x00,
    0x88, 0x02, 0x00, 0x00, 0x88, 0x01, 0x00, 0x00, 0x38, 0x01, 0x00, 0x00,
    0xa8, 0x00, 0x00, 0x00, 0xa0, 0x00, 0x00, 0x00, 0x98, 0x00, 0x00, 0x00,
    0x90, 0x00, 0x00, 0x00, 0x88, 0x00, 0x00, 0x00, 0x68, 0x00, 0x00, 0x00,
    0x04, 0x00, 0x00, 0x00, 0xa6, 0xfc, 0xff, 0xff, 0x04, 0x00, 0x00, 0x00,
    0x54, 0x00, 0x00, 0x00, 0x0c, 0x00, 0x00, 0x00, 0x08, 0x00, 0x0e, 0x00,
    0x08, 0x00, 0x04, 0x00, 0x08, 0x00, 0x00, 0x00, 0x10, 0x00, 0x00, 0x00,
    0x24, 0x00, 0x00, 0x00, 0x00, 0x00, 0x06, 0x00, 0x08, 0x00, 0x04, 0x00,
    0x06, 0x00, 0x00, 0x00, 0x04, 0x00, 0x00, 0x00, 0x00, 0x00, 0x00, 0x00,
    0x00, 0x00, 0x0a, 0x00, 0x10, 0x00, 0x0c, 0x00, 0x08, 0x00, 0x04, 0x00,
    0x0a, 0x00, 0x00, 0x00, 0x02, 0x00, 0x00, 0x00, 0x02, 0x00, 0x00, 0x00,
    0x04, 0x00, 0x00, 0x00, 0x06, 0x00, 0x00, 0x00, 0x32, 0x2e, 0x31, 0x34,
    0x2e, 0x30, 0x00, 0x00, 0x06, 0xfd, 0xff, 0xff, 0x04, 0x00, 0x00, 0x00,
    0x10, 0x00, 0x00, 0x00, 0x31, 0x2e, 0x35, 0x2e, 0x30, 0x00, 0x00, 0x00,
    0x00, 0x00, 0x00, 0x00, 0x00, 0x00, 0x00, 0x00, 0x10, 0xf8, 0xff, 0xff,
    0x14, 0xf8, 0xff, 0xff, 0x18, 0xf8, 0xff, 0xff, 0x1c, 0xf8, 0xff, 0xff,
    0x32, 0xfd, 0xff, 0xff, 0x04, 0x00, 0x00, 0x00, 0x80, 0x00, 0x00, 0x00,
    0x5e, 0x95, 0x77, 0xbe, 0x1f, 0xde, 0xbb, 0x3f, 0x6c, 0x08, 0x10, 0xc0,
    0x5d, 0x3b, 0x39, 0x3f, 0x54, 0x59, 0x16, 0xbf, 0xca, 0xea, 0x37, 0x40,
    0xfb, 0x9a, 0x09, 0x40, 0x7c, 0xa6, 0x2d, 0x40, 0xc3, 0x25, 0x22, 0xbe,
    0x8f, 0xb5, 0x5e, 0x3f, 0xf2, 0xd3, 0xb8, 0x3f, 0xfc, 0x70, 0x86, 0xbf,
    0xa8, 0x3e, 0x02, 0x3f, 0x59, 0x58, 0xaa, 0xbf, 0x91, 0x02, 0x6b, 0xbf,
    0xf5, 0xac, 0xaa, 0xbe, 0x72, 0xc7, 0x1d, 0x3f, 0xeb, 0xcb, 0xd6, 0xbf,
    0xc1, 0xba, 0xa1, 0xbf, 0x34, 0xe9, 0x8c, 0xc0, 0xc8, 0xee, 0x3e, 0x3d,
    0x49, 0x04, 0xe1, 0x3e, 0xfb, 0xe9, 0x38, 0xbf, 0x37, 0xd6, 0xae, 0xbf,
    0x7d, 0x7b, 0xa6, 0x3e, 0x2b, 0x64, 0x9e, 0xbf, 0x53, 0xd3, 0x9a, 0xbf,
    0x92, 0x9c, 0x4e, 0xbe, 0x62, 0x33, 0x3c, 0x3f, 0x89, 0xe6, 0xdd, 0xbf,
    0x96, 0x35, 0x18, 0xbf, 0x3c, 0x78, 0x11, 0x3f, 0xbe, 0xfd, 0xff, 0xff,
    0x04, 0x00, 0x00, 0x00, 0x40, 0x00, 0x00, 0x00, 0x21, 0x33, 0x38, 0x3f,
    0x12, 0xa2, 0x0f, 0x3f, 0x16, 0xa6, 0xb7, 0x3f, 0x1b, 0xec, 0xb1, 0x3f,
    0xb9, 0x71, 0xd2, 0x3f, 0x8f, 0xcd, 0xd7, 0xbe, 0x3d, 0x26, 0x2d, 0xc0,
    0x4c, 0xe0, 0x51, 0x3f, 0x72, 0x5d, 0xc0, 0x3f, 0xdb, 0x80, 0x71, 0x3f,
    0x52, 0x83, 0xd2, 0xc0, 0xcb, 0x22, 0xf9, 0xbe, 0xd0, 0x99, 0x0b, 0xbe,
    0x58, 0x12, 0xb8, 0x3f, 0x25, 0x0d, 0x36, 0x3f, 0x57, 0xb6, 0x2f, 0xbe,
    0x0a, 0xfe, 0xff, 0xff, 0x04, 0x00, 0x00, 0x00, 0xf0, 0x00, 0x00, 0x00,
    0x4e, 0x17, 0xae, 0xbe, 0xca, 0x05, 0x46, 0xbe, 0xd9, 0x2f, 0xab, 0x3d,
    0x5c, 0x3b, 0x8b, 0xbe, 0x47, 0x4c, 0x66, 0xbf, 0x23, 0x36, 0x2b, 0x3f,
    0xde, 0x8b, 0x43, 0xbe, 0xa7, 0x77, 0x5e, 0xbf, 0x4e, 0x4c, 0x40, 0x3d,
    0x62, 0xc5, 0x1d, 0x3f, 0x4a, 0x87, 0xf6, 0xbd, 0x35, 0xb0, 0x17, 0x3f,
    0x54, 0x2e, 0x09, 0x3e, 0x33, 0x95, 0x0e, 0x3e, 0x6e, 0xd3, 0xf3, 0x3e,
    0x07, 0x6f, 0xbf, 0x3e, 0x28, 0x3d, 0xc6, 0x3e, 0xfe, 0xf1, 0x03, 0x3f,
    0xb6, 0x41, 0xd3, 0x3b, 0xdf, 0x30, 0x19, 0x3f, 0xd1, 0x01, 0x99, 0xbd,
    0x9c, 0x31, 0x54, 0xbf, 0xa8, 0xa5, 0x17, 0xc0, 0x7c, 0xee, 0xcd, 0x3d,
    0x90, 0x44, 0x12, 0x3f, 0x48, 0xeb, 0x0a, 0x3f, 0x99, 0x10, 0xd6, 0x3e,
    0x3d, 0xf8, 0xa0, 0xbe, 0x17, 0xc5, 0x3f, 0xbf, 0x66, 0x18, 0x24, 0x3f,
    0x00, 0xe5, 0xb4, 0xbf, 0xb5, 0x81, 0x98, 0xbf, 0x60, 0xf7, 0x80, 0xbe,
    0x0e, 0x08, 0xaa, 0xbf, 0x6d, 0x91, 0x84, 0xbf, 0x2c, 0x0c, 0x5f, 0x3e,
    0xd8, 0x09, 0xc0, 0x3b, 0x9f, 0xbe, 0x05, 0xbe, 0x31, 0x0b, 0x14, 0x3e,
    0x97, 0x4f, 0x19, 0xbf, 0x6e, 0x69, 0xd9, 0xbe, 0x3d, 0x1a, 0xa6, 0xbe,
    0x1b, 0x99, 0xf1, 0xbd, 0xae, 0x8d, 0x76, 0xbe, 0x63, 0x12, 0x00, 0x3e,
    0x26, 0xd1, 0xa5, 0x3e, 0x74, 0x43, 0x38, 0x3f, 0xce, 0x9f, 0xed, 0x3f,
    0xa6, 0x3c, 0x56, 0x3f, 0x99, 0x70, 0xc7, 0x3e, 0x2b, 0xc3, 0x19, 0x40,
    0x45, 0x57, 0x97, 0x3d, 0x27, 0x8e, 0x3a, 0x3f, 0x8e, 0x81, 0x08, 0xbf,
    0x21, 0x57, 0x2a, 0x3e, 0x9e, 0x77, 0xf6, 0x3e, 0x9e, 0xb5, 0xd8, 0x3e,
    0x93, 0xb3, 0x80, 0x3e, 0x49, 0xd8, 0x6f, 0xbe, 0xb6, 0x12, 0x2d, 0xbf,
    0x06, 0xff, 0xff, 0xff, 0x04, 0x00, 0x00, 0x00, 0x10, 0x00, 0x00, 0x00,
    0x4d, 0xc7, 0xc1, 0xbe, 0x95, 0x70, 0xb2, 0xbf, 0xd5, 0xcc, 0xb1, 0xbe,
    0xa1, 0xab, 0x94, 0x3f, 0x22, 0xff, 0xff, 0xff, 0x04, 0x00, 0x00, 0x00,
    0x10, 0x00, 0x00, 0x00, 0x27, 0x27, 0xf2, 0xbc, 0x17, 0xd6, 0xe0, 0xbf,
    0xf3, 0xb5, 0x9a, 0x3e, 0x66, 0x28, 0xe9, 0xbf, 0x3e, 0xff, 0xff, 0xff,
    0x04, 0x00, 0x00, 0x00, 0x20, 0x00, 0x00, 0x00, 0x33, 0xb1, 0xf9, 0xbf,
    0x5f, 0xfe, 0x81, 0xbe, 0x7b, 0xf5, 0xa2, 0x3e, 0xd1, 0x89, 0x4b, 0x3d,
    0x36, 0xaf, 0x0a, 0x40, 0x75, 0x6d, 0x35, 0x3f, 0x8d, 0xe5, 0xa9, 0xbe,
    0x93, 0xeb, 0xa5, 0xbf, 0x58, 0xfa, 0xff, 0xff, 0x5c, 0xfa, 0xff, 0xff,
    0x0f, 0x00, 0x00, 0x00, 0x4d, 0x4c, 0x49, 0x52, 0x20, 0x43, 0x6f, 0x6e,
    0x76, 0x65, 0x72, 0x74, 0x65, 0x64, 0x2e, 0x00, 0x01, 0x00, 0x00, 0x00,
    0x14, 0x00, 0x00, 0x00, 0x00, 0x00, 0x0e, 0x00, 0x18, 0x00, 0x14, 0x00,
    0x10, 0x00, 0x0c, 0x00, 0x08, 0x00, 0x04, 0x00, 0x0e, 0x00, 0x00, 0x00,
    0x14, 0x00, 0x00, 0x00, 0x1c, 0x00, 0x00, 0x00, 0x24, 0x01, 0x00, 0x00,
    0x28, 0x01, 0x00, 0x00, 0x2c, 0x01, 0x00, 0x00, 0x04, 0x00, 0x00, 0x00,
    0x6d, 0x61, 0x69, 0x6e, 0x00, 0x00, 0x00, 0x00, 0x04, 0x00, 0x00, 0x00,
    0xcc, 0x00, 0x00, 0x00, 0x84, 0x00, 0x00, 0x00, 0x50, 0x00, 0x00, 0x00,
    0x14, 0x00, 0x00, 0x00, 0x00, 0x00, 0x0e, 0x00, 0x1a, 0x00, 0x14, 0x00,
    0x10, 0x00, 0x0c, 0x00, 0x0b, 0x00, 0x04, 0x00, 0x0e, 0x00, 0x00, 0x00,
    0x1c, 0x00, 0x00, 0x00, 0x00, 0x00, 0x00, 0x09, 0x1c, 0x00, 0x00, 0x00,
    0x20, 0x00, 0x00, 0x00, 0x01, 0x00, 0x00, 0x00, 0x00, 0x00, 0x06, 0x00,
    0x08, 0x00, 0x04, 0x00, 0x06, 0x00, 0x00, 0x00, 0x00, 0x00, 0x80, 0x3f,
    0x01, 0x00, 0x00, 0x00, 0x0a, 0x00, 0x00, 0x00, 0x01, 0x00, 0x00, 0x00,
    0x09, 0x00, 0x00, 0x00, 0x9a, 0xff, 0xff, 0xff, 0x10, 0x00, 0x00, 0x00,
    0x00, 0x00, 0x00, 0x08, 0x0c, 0x00, 0x00, 0x00, 0x10, 0x00, 0x00, 0x00,
    0x20, 0xfb, 0xff, 0xff, 0x01, 0x00, 0x00, 0x00, 0x09, 0x00, 0x00, 0x00,
    0x03, 0x00, 0x00, 0x00, 0x08, 0x00, 0x00, 0x00, 0x06, 0x00, 0x00, 0x00,
    0x01, 0x00, 0x00, 0x00, 0xca, 0xff, 0xff, 0xff, 0x10, 0x00, 0x00, 0x00,
    0x00, 0x00, 0x00, 0x08, 0x10, 0x00, 0x00, 0x00, 0x14, 0x00, 0x00, 0x00,
    0xba, 0xff, 0xff, 0xff, 0x00, 0x00, 0x00, 0x01, 0x01, 0x00, 0x00, 0x00,
    0x08, 0x00, 0x00, 0x00, 0x03, 0x00, 0x00, 0x00, 0x07, 0x00, 0x00, 0x00,
    0x05, 0x00, 0x00, 0x00, 0x02, 0x00, 0x00, 0x00, 0x00, 0x00, 0x0e, 0x00,
    0x16, 0x00, 0x00, 0x00, 0x10, 0x00, 0x0c, 0x00, 0x0b, 0x00, 0x04, 0x00,
    0x0e, 0x00, 0x00, 0x00, 0x18, 0x00, 0x00, 0x00, 0x00, 0x00, 0x00, 0x08,
    0x18, 0x00, 0x00, 0x00, 0x1c, 0x00, 0x00, 0x00, 0x00, 0x00, 0x06, 0x00,
    0x08, 0x00, 0x07, 0x00, 0x06, 0x00, 0x00, 0x00, 0x00, 0x00, 0x00, 0x01,
    0x01, 0x00, 0x00, 0x00, 0x07, 0x00, 0x00, 0x00, 0x03, 0x00, 0x00, 0x00,
    0x00, 0x00, 0x00, 0x00, 0x04, 0x00, 0x00, 0x00, 0x03, 0x00, 0x00, 0x00,
    0x01, 0x00, 0x00, 0x00, 0x0a, 0x00, 0x00, 0x00, 0x01, 0x00, 0x00, 0x00,
    0x00, 0x00, 0x00, 0x00, 0x0b, 0x00, 0x00, 0x00, 0x08, 0x04, 0x00, 0x00,
    0x98, 0x03, 0x00, 0x00, 0x28, 0x03, 0x00, 0x00, 0xd0, 0x02, 0x00, 0x00,
    0x84, 0x02, 0x00, 0x00, 0x38, 0x02, 0x00, 0x00, 0xec, 0x01, 0x00, 0x00,
    0x60, 0x01, 0x00, 0x00, 0xd4, 0x00, 0x00, 0x00, 0x60, 0x00, 0x00, 0x00,
    0x04, 0x00, 0x00, 0x00, 0x3a, 0xfc, 0xff, 0xff, 0x00, 0x00, 0x00, 0x01,
    0x14, 0x00, 0x00, 0x00, 0x1c, 0x00, 0x00, 0x00, 0x1c, 0x00, 0x00, 0x00,
    0x0b, 0x00, 0x00, 0x00, 0x34, 0x00, 0x00, 0x00, 0x02, 0x00, 0x00, 0x00,
    0xff, 0xff, 0xff, 0xff, 0x08, 0x00, 0x00, 0x00, 0x24, 0xfc, 0xff, 0xff,
    0x19, 0x00, 0x00, 0x00, 0x53, 0x74, 0x61, 0x74, 0x65, 0x66, 0x75, 0x6c,
    0x50, 0x61, 0x72, 0x74, 0x69, 0x74, 0x69, 0x6f, 0x6e, 0x65, 0x64, 0x43,
    0x61, 0x6c, 0x6c, 0x3a, 0x30, 0x00, 0x00, 0x00, 0x02, 0x00, 0x00, 0x00,
    0x01, 0x00, 0x00, 0x00, 0x08, 0x00, 0x00, 0x00, 0x92, 0xfc, 0xff, 0xff,
    0x00, 0x00, 0x00, 0x01, 0x14, 0x00, 0x00, 0x00, 0x1c, 0x00, 0x00, 0x00,
    0x1c, 0x00, 0x00, 0x00, 0x0a, 0x00, 0x00, 0x00, 0x4c, 0x00, 0x00, 0x00,
    0x02, 0x00, 0x00, 0x00, 0xff, 0xff, 0xff, 0xff, 0x08, 0x00, 0x00, 0x00,
    0x7c, 0xfc, 0xff, 0xff, 0x32, 0x00, 0x00, 0x00, 0x6c, 0x77, 0x34, 0x5f,
    0x6d, 0x64, 0x31, 0x2f, 0x64, 0x65, 0x6e, 0x73, 0x65, 0x5f, 0x31, 0x31,
    0x37, 0x2f, 0x4d, 0x61, 0x74, 0x4d, 0x75, 0x6c, 0x3b, 0x6c, 0x77, 0x34,
    0x5f, 0x6d, 0x64, 0x31, 0x2f, 0x64, 0x65, 0x6e, 0x73, 0x65, 0x5f, 0x31,
    0x31, 0x37, 0x2f, 0x42, 0x69, 0x61, 0x73, 0x41, 0x64, 0x64, 0x00, 0x00,
    0x02, 0x00, 0x00, 0x00, 0x01, 0x00, 0x00, 0x00, 0x08, 0x00, 0x00, 0x00,
    0x02, 0xfd, 0xff, 0xff, 0x00, 0x00, 0x00, 0x01, 0x14, 0x00, 0x00, 0x00,
    0x1c, 0x00, 0x00, 0x00, 0x1c, 0x00, 0x00, 0x00, 0x09, 0x00, 0x00, 0x00,
    0x64, 0x00, 0x00, 0x00, 0x02, 0x00, 0x00, 0x00, 0xff, 0xff, 0xff, 0xff,
    0x04, 0x00, 0x00, 0x00, 0xec, 0xfc, 0xff, 0xff, 0x49, 0x00, 0x00, 0x00,
    0x6c, 0x77, 0x34, 0x5f, 0x6d, 0x64, 0x31, 0x2f, 0x64, 0x65, 0x6e, 0x73,
    0x65, 0x5f, 0x31, 0x31, 0x36, 0x2f, 0x4d, 0x61, 0x74, 0x4d, 0x75, 0x6c,
    0x3b, 0x6c, 0x77, 0x34, 0x5f, 0x6d, 0x64, 0x31, 0x2f, 0x64, 0x65, 0x6e,
    0x73, 0x65, 0x5f, 0x31, 0x31, 0x36, 0x2f, 0x52, 0x65, 0x6c, 0x75, 0x3b,
    0x6c, 0x77, 0x34, 0x5f, 0x6d, 0x64, 0x31, 0x2f, 0x64, 0x65, 0x6e, 0x73,
    0x65, 0x5f, 0x31, 0x31, 0x36, 0x2f, 0x42, 0x69, 0x61, 0x73, 0x41, 0x64,
    0x64, 0x00, 0x00, 0x00, 0x02, 0x00, 0x00, 0x00, 0x01, 0x00, 0x00, 0x00,
    0x04, 0x00, 0x00, 0x00, 0x8a, 0xfd, 0xff, 0xff, 0x00, 0x00, 0x00, 0x01,
    0x14, 0x00, 0x00, 0x00, 0x1c, 0x00, 0x00, 0x00, 0x1c, 0x00, 0x00, 0x00,
    0x08, 0x00, 0x00, 0x00, 0x64, 0x00, 0x00, 0x00, 0x02, 0x00, 0x00, 0x00,
    0xff, 0xff, 0xff, 0xff, 0x04, 0x00, 0x00, 0x00, 0x74, 0xfd, 0xff, 0xff,
    0x49, 0x00, 0x00, 0x00, 0x6c, 0x77, 0x34, 0x5f, 0x6d, 0x64, 0x31, 0x2f,
    0x64, 0x65, 0x6e, 0x73, 0x65, 0x5f, 0x31, 0x31, 0x35, 0x2f, 0x4d, 0x61,
    0x74, 0x4d, 0x75, 0x6c, 0x3b, 0x6c, 0x77, 0x34, 0x5f, 0x6d, 0x64, 0x31,
    0x2f, 0x64, 0x65, 0x6e, 0x73, 0x65, 0x5f, 0x31, 0x31, 0x35, 0x2f, 0x52,
    0x65, 0x6c, 0x75, 0x3b, 0x6c, 0x77, 0x34, 0x5f, 0x6d, 0x64, 0x31, 0x2f,
    0x64, 0x65, 0x6e, 0x73, 0x65, 0x5f, 0x31, 0x31, 0x35, 0x2f, 0x42, 0x69,
    0x61, 0x73, 0x41, 0x64, 0x64, 0x00, 0x00, 0x00, 0x02, 0x00, 0x00, 0x00,
    0x01, 0x00, 0x00, 0x00, 0x04, 0x00, 0x00, 0x00, 0x7e, 0xfe, 0xff, 0xff,
    0x00, 0x00, 0x00, 0x01, 0x10, 0x00, 0x00, 0x00, 0x10, 0x00, 0x00, 0x00,
    0x07, 0x00, 0x00, 0x00, 0x28, 0x00, 0x00, 0x00, 0xec, 0xfd, 0xff, 0xff,
    0x18, 0x00, 0x00, 0x00, 0x6c, 0x77, 0x34, 0x5f, 0x6d, 0x64, 0x31, 0x2f,
    0x64, 0x65, 0x6e, 0x73, 0x65, 0x5f, 0x31, 0x31, 0x37, 0x2f, 0x4d, 0x61,
    0x74, 0x4d, 0x75, 0x6c, 0x00, 0x00, 0x00, 0x00, 0x02, 0x00, 0x00, 0x00,
    0x08, 0x00, 0x00, 0x00, 0x04, 0x00, 0x00, 0x00, 0xc6, 0xfe, 0xff, 0xff,
    0x00, 0x00, 0x00, 0x01, 0x10, 0x00, 0x00, 0x00, 0x10, 0x00, 0x00, 0x00,
    0x06, 0x00, 0x00, 0x00, 0x28, 0x00, 0x00, 0x00, 0x34, 0xfe, 0xff, 0xff,
    0x18, 0x00, 0x00, 0x00, 0x6c, 0x77, 0x34, 0x5f, 0x6d, 0x64, 0x31, 0x2f,
    0x64, 0x65, 0x6e, 0x73, 0x65, 0x5f, 0x31, 0x31, 0x36, 0x2f, 0x4d, 0x61,
    0x74, 0x4d, 0x75, 0x6c, 0x00, 0x00, 0x00, 0x00, 0x02, 0x00, 0x00, 0x00,
    0x04, 0x00, 0x00, 0x00, 0x04, 0x00, 0x00, 0x00, 0x0e, 0xff, 0xff, 0xff,
    0x00, 0x00, 0x00, 0x01, 0x10, 0x00, 0x00, 0x00, 0x10, 0x00, 0x00, 0x00,
    0x05, 0x00, 0x00, 0x00, 0x28, 0x00, 0x00, 0x00, 0x7c, 0xfe, 0xff, 0xff,
    0x18, 0x00, 0x00, 0x00, 0x6c, 0x77, 0x34, 0x5f, 0x6d, 0x64, 0x31, 0x2f,
    0x64, 0x65, 0x6e, 0x73, 0x65, 0x5f, 0x31, 0x31, 0x35, 0x2f, 0x4d, 0x61,
    0x74, 0x4d, 0x75, 0x6c, 0x00, 0x00, 0x00, 0x00, 0x02, 0x00, 0x00, 0x00,
    0x04, 0x00, 0x00, 0x00, 0x0f, 0x00, 0x00, 0x00, 0x56, 0xff, 0xff, 0xff,
    0x00, 0x00, 0x00, 0x01, 0x10, 0x00, 0x00, 0x00, 0x10, 0x00, 0x00, 0x00,
    0x04, 0x00, 0x00, 0x00, 0x38, 0x00, 0x00, 0x00, 0xc4, 0xfe, 0xff, 0xff,
    0x28, 0x00, 0x00, 0x00, 0x6c, 0x77, 0x34, 0x5f, 0x6d, 0x64, 0x31, 0x2f,
    0x64, 0x65, 0x6e, 0x73, 0x65, 0x5f, 0x31, 0x31, 0x35, 0x2f, 0x42, 0x69,
    0x61, 0x73, 0x41, 0x64, 0x64, 0x2f, 0x52, 0x65, 0x61, 0x64, 0x56, 0x61,
    0x72, 0x69, 0x61, 0x62, 0x6c, 0x65, 0x4f, 0x70, 0x00, 0x00, 0x00, 0x00,
    0x01, 0x00, 0x00, 0x00, 0x04, 0x00, 0x00, 0x00, 0xaa, 0xff, 0xff, 0xff,
    0x00, 0x00, 0x00, 0x01, 0x10, 0x00, 0x00, 0x00, 0x10, 0x00, 0x00, 0x00,
    0x03, 0x00, 0x00, 0x00, 0x38, 0x00, 0x00, 0x00, 0x18, 0xff, 0xff, 0xff,
    0x28, 0x00, 0x00, 0x00, 0x6c, 0x77, 0x34, 0x5f, 0x6d, 0x64, 0x31, 0x2f,
    0x64, 0x65, 0x6e, 0x73, 0x65, 0x5f, 0x31, 0x31, 0x36, 0x2f, 0x42, 0x69,
    0x61, 0x73, 0x41, 0x64, 0x64, 0x2f, 0x52, 0x65, 0x61, 0x64, 0x56, 0x61,
    0x72, 0x69, 0x61, 0x62, 0x6c, 0x65, 0x4f, 0x70, 0x00, 0x00, 0x00, 0x00,
    0x01, 0x00, 0x00, 0x00, 0x04, 0x00, 0x00, 0x00, 0x00, 0x00, 0x16, 0x00,
    0x18, 0x00, 0x14, 0x00, 0x00, 0x00, 0x10, 0x00, 0x0c, 0x00, 0x08, 0x00,
    0x00, 0x00, 0x00, 0x00, 0x00, 0x00, 0x07, 0x00, 0x16, 0x00, 0x00, 0x00,
    0x00, 0x00, 0x00, 0x01, 0x10, 0x00, 0x00, 0x00, 0x10, 0x00, 0x00, 0x00,
    0x02, 0x00, 0x00, 0x00, 0x38, 0x00, 0x00, 0x00, 0x84, 0xff, 0xff, 0xff,
    0x28, 0x00, 0x00, 0x00, 0x6c, 0x77, 0x34, 0x5f, 0x6d, 0x64, 0x31, 0x2f,
    0x64, 0x65, 0x6e, 0x73, 0x65, 0x5f, 0x31, 0x31, 0x37, 0x2f, 0x42, 0x69,
    0x61, 0x73, 0x41, 0x64, 0x64, 0x2f, 0x52, 0x65, 0x61, 0x64, 0x56, 0x61,
    0x72, 0x69, 0x61, 0x62, 0x6c, 0x65, 0x4f, 0x70, 0x00, 0x00, 0x00, 0x00,
    0x01, 0x00, 0x00, 0x00, 0x08, 0x00, 0x00, 0x00, 0x00, 0x00, 0x16, 0x00,
    0x1c, 0x00, 0x18, 0x00, 0x00, 0x00, 0x14, 0x00, 0x10, 0x00, 0x0c, 0x00,
    0x00, 0x00, 0x00, 0x00, 0x08, 0x00, 0x07, 0x00, 0x16, 0x00, 0x00, 0x00,
    0x00, 0x00, 0x00, 0x01, 0x14, 0x00, 0x00, 0x00, 0x20, 0x00, 0x00, 0x00,
    0x20, 0x00, 0x00, 0x00, 0x01, 0x00, 0x00, 0x00, 0x40, 0x00, 0x00, 0x00,
    0x02, 0x00, 0x00, 0x00, 0xff, 0xff, 0xff, 0xff, 0x0f, 0x00, 0x00, 0x00,
    0x04, 0x00, 0x04, 0x00, 0x04, 0x00, 0x00, 0x00, 0x21, 0x00, 0x00, 0x00,
    0x73, 0x65, 0x72, 0x76, 0x69, 0x6e, 0x67, 0x5f, 0x64, 0x65, 0x66, 0x61,
    0x75, 0x6c, 0x74, 0x5f, 0x64, 0x65, 0x6e, 0x73, 0x65, 0x5f, 0x31, 0x31,
    0x35, 0x5f, 0x69, 0x6e, 0x70, 0x75, 0x74, 0x3a, 0x30, 0x00, 0x00, 0x00,
    0x02, 0x00, 0x00, 0x00, 0x01, 0x00, 0x00, 0x00, 0x0f, 0x00, 0x00, 0x00,
    0x02, 0x00, 0x00, 0x00, 0x20, 0x00, 0x00, 0x00, 0x04, 0x00, 0x00, 0x00,
    0xf4, 0xff, 0xff, 0xff, 0x19, 0x00, 0x00, 0x00, 0x00, 0x00, 0x00, 0x19,
    0x0c, 0x00, 0x0c, 0x00, 0x0b, 0x00, 0x00, 0x00, 0x00, 0x00, 0x04, 0x00,
    0x0c, 0x00, 0x00, 0x00, 0x09, 0x00, 0x00, 0x00, 0x00, 0x00, 0x00, 0x09};
unsigned int lw4_md1_len = 2604;
