unsigned char lw16_md8[] = {
    0x1c, 0x00, 0x00, 0x00, 0x54, 0x46, 0x4c, 0x33, 0x14, 0x00, 0x20, 0x00,
    0x1c, 0x00, 0x18, 0x00, 0x14, 0x00, 0x10, 0x00, 0x0c, 0x00, 0x00, 0x00,
    0x08, 0x00, 0x04, 0x00, 0x14, 0x00, 0x00, 0x00, 0x1c, 0x00, 0x00, 0x00,
    0x98, 0x00, 0x00, 0x00, 0xf0, 0x00, 0x00, 0x00, 0x3c, 0x2b, 0x00, 0x00,
    0x4c, 0x2b, 0x00, 0x00, 0x10, 0x3b, 0x00, 0x00, 0x03, 0x00, 0x00, 0x00,
    0x01, 0x00, 0x00, 0x00, 0x10, 0x00, 0x00, 0x00, 0x00, 0x00, 0x0a, 0x00,
    0x10, 0x00, 0x0c, 0x00, 0x08, 0x00, 0x04, 0x00, 0x0a, 0x00, 0x00, 0x00,
    0x0c, 0x00, 0x00, 0x00, 0x1c, 0x00, 0x00, 0x00, 0x3c, 0x00, 0x00, 0x00,
    0x0f, 0x00, 0x00, 0x00, 0x73, 0x65, 0x72, 0x76, 0x69, 0x6e, 0x67, 0x5f,
    0x64, 0x65, 0x66, 0x61, 0x75, 0x6c, 0x74, 0x00, 0x01, 0x00, 0x00, 0x00,
    0x04, 0x00, 0x00, 0x00, 0x90, 0xff, 0xff, 0xff, 0x1f, 0x00, 0x00, 0x00,
    0x04, 0x00, 0x00, 0x00, 0x09, 0x00, 0x00, 0x00, 0x64, 0x65, 0x6e, 0x73,
    0x65, 0x5f, 0x31, 0x38, 0x33, 0x00, 0x00, 0x00, 0x01, 0x00, 0x00, 0x00,
    0x04, 0x00, 0x00, 0x00, 0x8e, 0xd4, 0xff, 0xff, 0x04, 0x00, 0x00, 0x00,
    0x0f, 0x00, 0x00, 0x00, 0x64, 0x65, 0x6e, 0x73, 0x65, 0x5f, 0x31, 0x37,
    0x34, 0x5f, 0x69, 0x6e, 0x70, 0x75, 0x74, 0x00, 0x02, 0x00, 0x00, 0x00,
    0x34, 0x00, 0x00, 0x00, 0x04, 0x00, 0x00, 0x00, 0xdc, 0xff, 0xff, 0xff,
    0x22, 0x00, 0x00, 0x00, 0x04, 0x00, 0x00, 0x00, 0x13, 0x00, 0x00, 0x00,
    0x43, 0x4f, 0x4e, 0x56, 0x45, 0x52, 0x53, 0x49, 0x4f, 0x4e, 0x5f, 0x4d,
    0x45, 0x54, 0x41, 0x44, 0x41, 0x54, 0x41, 0x00, 0x08, 0x00, 0x0c, 0x00,
    0x08, 0x00, 0x04, 0x00, 0x08, 0x00, 0x00, 0x00, 0x21, 0x00, 0x00, 0x00,
    0x04, 0x00, 0x00, 0x00, 0x13, 0x00, 0x00, 0x00, 0x6d, 0x69, 0x6e, 0x5f,
    0x72, 0x75, 0x6e, 0x74, 0x69, 0x6d, 0x65, 0x5f, 0x76, 0x65, 0x72, 0x73,
    0x69, 0x6f, 0x6e, 0x00, 0x23, 0x00, 0x00, 0x00, 0x48, 0x2a, 0x00, 0x00,
    0x40, 0x2a, 0x00, 0x00, 0x10, 0x2a, 0x00, 0x00, 0xc0, 0x29, 0x00, 0x00,
    0x70, 0x29, 0x00, 0x00, 0x20, 0x29, 0x00, 0x00, 0xd0, 0x28, 0x00, 0x00,
    0x80, 0x28, 0x00, 0x00, 0x30, 0x28, 0x00, 0x00, 0xe0, 0x27, 0x00, 0x00,
    0x90, 0x27, 0x00, 0x00, 0x40, 0x27, 0x00, 0x00, 0x70, 0x23, 0x00, 0x00,
    0x60, 0x1f, 0x00, 0x00, 0x50, 0x1b, 0x00, 0x00, 0x40, 0x17, 0x00, 0x00,
    0x30, 0x13, 0x00, 0x00, 0x20, 0x0f, 0x00, 0x00, 0x10, 0x0b, 0x00, 0x00,
    0x00, 0x07, 0x00, 0x00, 0xf0, 0x02, 0x00, 0x00, 0xe0, 0x00, 0x00, 0x00,
    0xd8, 0x00, 0x00, 0x00, 0xd0, 0x00, 0x00, 0x00, 0xc8, 0x00, 0x00, 0x00,
    0xc0, 0x00, 0x00, 0x00, 0xb8, 0x00, 0x00, 0x00, 0xb0, 0x00, 0x00, 0x00,
    0xa8, 0x00, 0x00, 0x00, 0xa0, 0x00, 0x00, 0x00, 0x98, 0x00, 0x00, 0x00,
    0x90, 0x00, 0x00, 0x00, 0x88, 0x00, 0x00, 0x00, 0x68, 0x00, 0x00, 0x00,
    0x04, 0x00, 0x00, 0x00, 0x96, 0xd5, 0xff, 0xff, 0x04, 0x00, 0x00, 0x00,
    0x54, 0x00, 0x00, 0x00, 0x0c, 0x00, 0x00, 0x00, 0x08, 0x00, 0x0e, 0x00,
    0x08, 0x00, 0x04, 0x00, 0x08, 0x00, 0x00, 0x00, 0x10, 0x00, 0x00, 0x00,
    0x24, 0x00, 0x00, 0x00, 0x00, 0x00, 0x06, 0x00, 0x08, 0x00, 0x04, 0x00,
    0x06, 0x00, 0x00, 0x00, 0x04, 0x00, 0x00, 0x00, 0x00, 0x00, 0x00, 0x00,
    0x00, 0x00, 0x0a, 0x00, 0x10, 0x00, 0x0c, 0x00, 0x08, 0x00, 0x04, 0x00,
    0x0a, 0x00, 0x00, 0x00, 0x02, 0x00, 0x00, 0x00, 0x02, 0x00, 0x00, 0x00,
    0x04, 0x00, 0x00, 0x00, 0x06, 0x00, 0x00, 0x00, 0x32, 0x2e, 0x31, 0x34,
    0x2e, 0x30, 0x00, 0x00, 0xf6, 0xd5, 0xff, 0xff, 0x04, 0x00, 0x00, 0x00,
    0x10, 0x00, 0x00, 0x00, 0x31, 0x2e, 0x35, 0x2e, 0x30, 0x00, 0x00, 0x00,
    0x00, 0x00, 0x00, 0x00, 0x00, 0x00, 0x00, 0x00, 0x1c, 0xc7, 0xff, 0xff,
    0x20, 0xc7, 0xff, 0xff, 0x24, 0xc7, 0xff, 0xff, 0x28, 0xc7, 0xff, 0xff,
    0x2c, 0xc7, 0xff, 0xff, 0x30, 0xc7, 0xff, 0xff, 0x34, 0xc7, 0xff, 0xff,
    0x38, 0xc7, 0xff, 0xff, 0x3c, 0xc7, 0xff, 0xff, 0x40, 0xc7, 0xff, 0xff,
    0x44, 0xc7, 0xff, 0xff, 0x3e, 0xd6, 0xff, 0xff, 0x04, 0x00, 0x00, 0x00,
    0x00, 0x02, 0x00, 0x00, 0x1c, 0x8c, 0x8d, 0x3e, 0xc0, 0xdc, 0xd4, 0xbc,
    0xd4, 0xa8, 0x9f, 0xbe, 0x3f, 0x9d, 0x49, 0xbe, 0x1f, 0xfc, 0xbf, 0xbe,
    0x85, 0x32, 0x0f, 0xbf, 0xb1, 0xdc, 0x6e, 0x3e, 0x18, 0xd6, 0xa2, 0xbd,
    0x99, 0xc6, 0x30, 0x3e, 0xe8, 0x7f, 0x3d, 0x3e, 0x2a, 0x5e, 0xd3, 0xbe,
    0x84, 0x44, 0xea, 0xbe, 0xec, 0xe3, 0x11, 0xbf, 0x38, 0x14, 0x22, 0xbe,
    0xe4, 0x4e, 0x18, 0xbf, 0xc7, 0x0c, 0xcf, 0x3d, 0xa8, 0xd2, 0xc2, 0x3e,
    0xc0, 0x4f, 0x72, 0xbd, 0x77, 0xa6, 0xb2, 0x3e, 0x6f, 0x2f, 0x1e, 0x3e,
    0x26, 0x76, 0xda, 0x3e, 0x14, 0x52, 0x61, 0x3e, 0xfd, 0x67, 0x9e, 0xbe,
    0x79, 0x46, 0x0c, 0xbc, 0x0d, 0xc3, 0xa3, 0x3e, 0x80, 0xf8, 0xd6, 0xbe,
    0x5b, 0xe0, 0xb9, 0x3e, 0x80, 0xb6, 0x50, 0x3e, 0x7f, 0xaf, 0x8f, 0x3e,
    0xd8, 0x2e, 0xc0, 0x3e, 0x19, 0x51, 0x7e, 0x3e, 0x6d, 0xcd, 0xaa, 0xbe,
    0xe8, 0x5f, 0xa6, 0xbe, 0xb8, 0xa7, 0xcc, 0xbe, 0x8a, 0x04, 0xcd, 0x3e,
    0x33, 0x04, 0x7c, 0xbe, 0xe8, 0x35, 0x04, 0x3e, 0x69, 0x59, 0xdd, 0x3e,
    0x21, 0x01, 0x86, 0x3e, 0x88, 0x16, 0xf3, 0xbe, 0x2d, 0x76, 0xb9, 0xbd,
    0xc3, 0x84, 0xc4, 0xbd, 0x62, 0xb8, 0x08, 0xbf, 0x04, 0x05, 0x83, 0xbe,
    0xea, 0x9c, 0xe6, 0x3d, 0x40, 0xf6, 0xc0, 0x3c, 0x7d, 0x62, 0xc9, 0x3e,
    0x03, 0x60, 0x9f, 0x3e, 0xf0, 0xdc, 0x7e, 0xbe, 0x50, 0x08, 0x8b, 0xbe,
    0xcc, 0xb6, 0xc8, 0x3d, 0x5d, 0x3c, 0xfe, 0xbc, 0xd8, 0x1c, 0x8f, 0x3e,
    0xc6, 0xcd, 0x93, 0xbe, 0x0d, 0x5c, 0xc6, 0xbe, 0x53, 0x4a, 0x31, 0xbb,
    0xa9, 0x02, 0x8e, 0xbe, 0x3b, 0x30, 0x43, 0x3e, 0x34, 0xad, 0x47, 0x3e,
    0xb8, 0x80, 0xb7, 0xbe, 0x51, 0x0b, 0xf9, 0x3e, 0xc4, 0x6d, 0xb4, 0xbe,
    0xf0, 0x25, 0xf3, 0xbd, 0xbb, 0xe1, 0x2c, 0x3e, 0xc0, 0x86, 0x52, 0x3d,
    0x78, 0x96, 0x5d, 0x3e, 0x6c, 0x81, 0x33, 0xbf, 0xb6, 0x16, 0xd4, 0xbe,
    0x9b, 0x53, 0xc6, 0xbc, 0x04, 0xf9, 0x12, 0x3e, 0xcf, 0x85, 0x4f, 0xbe,
    0xba, 0x62, 0x0f, 0x3f, 0xac, 0x0a, 0xbf, 0x3e, 0x4f, 0x42, 0x53, 0x3e,
    0x4f, 0x3e, 0xbc, 0xbd, 0xd8, 0x9e, 0x9b, 0x3e, 0x0f, 0x73, 0x2f, 0xbf,
    0x10, 0x47, 0x28, 0xbe, 0x0b, 0xf8, 0xcb, 0x3e, 0xdd, 0x10, 0x1a, 0xbe,
    0x40, 0x11, 0xf3, 0x3d, 0x5c, 0x98, 0x83, 0xbe, 0x29, 0x47, 0xa0, 0x3c,
    0xf9, 0xc1, 0x7c, 0x3e, 0xe7, 0x86, 0x52, 0xbe, 0x18, 0x2d, 0x22, 0xbd,
    0x7d, 0xf7, 0x60, 0x3e, 0x41, 0xb9, 0x61, 0x3c, 0xef, 0xf8, 0x9f, 0xbb,
    0x0b, 0x7a, 0xcb, 0xbe, 0x99, 0x48, 0x8d, 0x3e, 0x3c, 0x40, 0xdf, 0x3e,
    0x6d, 0xaf, 0xa2, 0x3e, 0xf8, 0x1c, 0x96, 0xbe, 0xc4, 0x81, 0x17, 0xbf,
    0x3c, 0xc4, 0xc5, 0x3e, 0x0c, 0x9d, 0xad, 0xbe, 0xb4, 0x69, 0xa1, 0xbe,
    0xc0, 0x58, 0x64, 0x3e, 0xca, 0xfd, 0x76, 0xbe, 0x52, 0xcf, 0x37, 0xbe,
    0x9d, 0x4c, 0xc2, 0x3e, 0xbf, 0x30, 0xf4, 0x3e, 0xea, 0x54, 0x80, 0x3e,
    0x52, 0xf1, 0x18, 0xbf, 0xe4, 0xc5, 0x99, 0x3e, 0x3c, 0x8d, 0x8e, 0xbe,
    0xf0, 0x31, 0x3a, 0xbe, 0xd6, 0xe0, 0xb9, 0x3e, 0xb0, 0x93, 0xa2, 0xbd,
    0x9d, 0x63, 0x21, 0x3e, 0xf0, 0xbb, 0x11, 0xbf, 0xb4, 0x50, 0xd6, 0xbe,
    0xa8, 0x1e, 0x97, 0x3e, 0x70, 0x19, 0x07, 0xbe, 0x56, 0x9e, 0xac, 0x3e,
    0x53, 0x99, 0x08, 0x3f, 0xcb, 0x88, 0xec, 0x3e, 0xe1, 0x63, 0xeb, 0x3d,
    0xb9, 0x09, 0x80, 0x3e, 0x47, 0xd0, 0x82, 0x3e, 0x15, 0x9c, 0x49, 0xbe,
    0x1f, 0x0e, 0x5c, 0x3d, 0x5c, 0xab, 0xef, 0xbe, 0x2d, 0xb8, 0x21, 0xbe,
    0xc8, 0x60, 0xb9, 0xbe, 0x9b, 0x09, 0x81, 0xbd, 0xb4, 0xca, 0x7b, 0xbb,
    0x4a, 0xd8, 0xff, 0xff, 0x04, 0x00, 0x00, 0x00, 0x00, 0x04, 0x00, 0x00,
    0x66, 0x03, 0x73, 0x3e, 0xf0, 0xa9, 0x0f, 0xbd, 0xda, 0x23, 0x24, 0xbe,
    0xea, 0xbf, 0xc9, 0xbe, 0x6f, 0x7f, 0xdd, 0xbe, 0x10, 0xa3, 0x80, 0xbe,
    0x28, 0x4f, 0xce, 0xbd, 0x43, 0x90, 0x87, 0xbe, 0x57, 0x68, 0xd9, 0xbe,
    0xb4, 0x3b, 0xb8, 0xbe, 0x7a, 0x3d, 0x35, 0x3e, 0xb0, 0xef, 0x2e, 0x3d,
    0xe8, 0x76, 0xc7, 0xbd, 0x14, 0x0d, 0xa3, 0x3d, 0xd2, 0xd3, 0xbf, 0xbe,
    0xfd, 0x5d, 0x93, 0xbe, 0x98, 0xe9, 0xb8, 0xbd, 0x20, 0x01, 0x64, 0xbd,
    0x90, 0x0b, 0x8b, 0x3c, 0xd8, 0x56, 0x9b, 0xbe, 0xb0, 0x9f, 0x76, 0xbe,
    0x14, 0x11, 0x8a, 0xbe, 0xeb, 0x63, 0xd2, 0xbe, 0xa8, 0x2c, 0x0c, 0xbe,
    0x2a, 0x96, 0x32, 0x3e, 0x39, 0x19, 0xdc, 0xbe, 0x86, 0x8b, 0x28, 0xbe,
    0xa7, 0xf6, 0x54, 0xbe, 0xbd, 0xbb, 0xae, 0x3e, 0xe7, 0x4c, 0xb6, 0x3e,
    0x57, 0x3f, 0xa5, 0x3e, 0xd8, 0xbf, 0x62, 0xbd, 0x2e, 0xd8, 0xfb, 0x3d,
    0xd9, 0xe1, 0xc5, 0x3e, 0x3d, 0x9e, 0x49, 0xbe, 0xb2, 0xdf, 0x81, 0x3d,
    0xb8, 0x54, 0x44, 0xbe, 0x9b, 0x78, 0xbf, 0x3d, 0x68, 0x34, 0xab, 0xbe,
    0xd3, 0x62, 0xb3, 0xbe, 0xc8, 0xa4, 0xb7, 0xbe, 0x34, 0x0f, 0x49, 0x3d,
    0x7f, 0xd6, 0x84, 0x3e, 0xe4, 0xf9, 0xe7, 0x3d, 0x11, 0x0f, 0x7a, 0xbe,
    0x28, 0x17, 0x4c, 0x3e, 0x97, 0xbf, 0xdd, 0x3a, 0x6f, 0xd5, 0xc8, 0xbd,
    0x3f, 0x9d, 0x72, 0xbe, 0x74, 0x4f, 0x8b, 0x3d, 0x21, 0x94, 0x39, 0xbd,
    0xc8, 0x15, 0x8e, 0xbe, 0x34, 0x77, 0x45, 0xbe, 0x58, 0xf3, 0xcd, 0xbc,
    0xd2, 0x15, 0x82, 0x3e, 0xae, 0x20, 0x90, 0xbe, 0x36, 0x67, 0x3e, 0x3e,
    0x11, 0xc9, 0xcb, 0x3e, 0x25, 0xdb, 0x3d, 0x3d, 0x26, 0x63, 0x58, 0x3e,
    0xf2, 0x99, 0x9e, 0xbd, 0x29, 0x7f, 0xa1, 0xbe, 0xe6, 0xef, 0xa2, 0x3e,
    0xc6, 0x01, 0x6c, 0x3e, 0xda, 0x43, 0xb6, 0x3d, 0x94, 0xb2, 0x8e, 0xbe,
    0x49, 0xd7, 0x6d, 0xbe, 0x78, 0xbc, 0x16, 0x3e, 0x82, 0x22, 0x9b, 0xbc,
    0x96, 0xff, 0x55, 0x3e, 0xa2, 0xaf, 0x7f, 0xbe, 0xa4, 0xbf, 0x07, 0xbe,
    0x4d, 0xf8, 0x87, 0xbe, 0xa8, 0x89, 0x0e, 0x3f, 0x5d, 0xb4, 0x2d, 0x3c,
    0x80, 0x7e, 0x6d, 0xbb, 0x80, 0x48, 0x02, 0xbf, 0xf5, 0xed, 0x89, 0x3b,
    0xaa, 0x69, 0x87, 0x3e, 0xa8, 0xb0, 0xcf, 0xbb, 0x52, 0xd6, 0x17, 0x3e,
    0x42, 0xa7, 0x2d, 0xbe, 0x55, 0x36, 0xfd, 0xbd, 0xe2, 0x40, 0xdb, 0xbd,
    0xe5, 0x2a, 0xb1, 0xbd, 0x4a, 0x26, 0xd1, 0x3e, 0x00, 0xad, 0xb2, 0xbd,
    0xd0, 0xea, 0x53, 0x3e, 0xa8, 0x3d, 0xaa, 0xbe, 0xc9, 0xcc, 0x4d, 0xbd,
    0x10, 0xbe, 0x93, 0xbe, 0x82, 0xed, 0x2f, 0x3e, 0x6e, 0xd2, 0x06, 0x3e,
    0x70, 0x1b, 0x37, 0xbe, 0xd3, 0xe5, 0x7a, 0x3e, 0xc4, 0x52, 0x56, 0x3b,
    0x3c, 0x5c, 0x01, 0x3d, 0x02, 0xdf, 0x85, 0xbe, 0x7c, 0x62, 0xb4, 0x3d,
    0xe0, 0xd2, 0xae, 0x3c, 0xd8, 0x5d, 0xcd, 0xbe, 0xc0, 0xc7, 0xb9, 0x3e,
    0x39, 0xec, 0x83, 0xbe, 0xde, 0xdf, 0x41, 0x3e, 0xa0, 0x13, 0x97, 0x3c,
    0x29, 0xdb, 0xd4, 0xbe, 0xb8, 0xb0, 0xce, 0xbe, 0x6a, 0xc2, 0x73, 0x3e,
    0x98, 0x84, 0xaa, 0x3d, 0x92, 0x80, 0x2f, 0x3e, 0x76, 0x8f, 0x37, 0xbe,
    0xce, 0xa8, 0xb8, 0xbe, 0xa7, 0x16, 0x56, 0x3c, 0x13, 0x9a, 0xa2, 0xbe,
    0xa1, 0x62, 0x4f, 0x3d, 0x55, 0x28, 0xa4, 0x3e, 0x9f, 0x25, 0x28, 0x3f,
    0xa5, 0xff, 0xb3, 0xbe, 0x79, 0xbf, 0xb9, 0xbe, 0xb9, 0x89, 0xbe, 0xbd,
    0xea, 0xce, 0xae, 0x3e, 0xc9, 0x39, 0xcb, 0x3e, 0x28, 0x9e, 0xb1, 0x3e,
    0xfd, 0xc2, 0x93, 0xbe, 0x6c, 0x2d, 0x7a, 0x3e, 0x64, 0x1a, 0xd0, 0xbe,
    0x51, 0x0d, 0xd0, 0xbe, 0xe1, 0x17, 0x96, 0x3e, 0xc5, 0x4b, 0xe5, 0xbd,
    0x53, 0x79, 0x9a, 0xbe, 0xf8, 0x6c, 0x11, 0xbe, 0x0e, 0xf7, 0x91, 0xbe,
    0xeb, 0x25, 0x90, 0x3e, 0xef, 0x93, 0x93, 0xbe, 0x3a, 0x2f, 0xc7, 0x3d,
    0x63, 0xfe, 0x5d, 0xbe, 0xa4, 0x6a, 0x0b, 0xbe, 0x2c, 0xc2, 0xaf, 0x3e,
    0x5f, 0x42, 0x16, 0xbe, 0x03, 0x6b, 0xa6, 0x3e, 0x32, 0xae, 0x66, 0x3d,
    0x0a, 0x05, 0xbf, 0xbe, 0x18, 0x02, 0xda, 0xbe, 0x8d, 0x7c, 0x1c, 0xbe,
    0x14, 0xdb, 0xbe, 0x3b, 0x37, 0x71, 0xbf, 0x3e, 0x81, 0xd5, 0xb3, 0x3e,
    0x6d, 0x25, 0x3c, 0xbd, 0x4a, 0x0b, 0x1c, 0xbe, 0x94, 0xfa, 0x2c, 0xbe,
    0x52, 0x89, 0x77, 0x3e, 0x50, 0xca, 0x40, 0xbe, 0x42, 0x30, 0x2c, 0xbe,
    0x7f, 0xa1, 0x63, 0xbc, 0x67, 0x43, 0xb2, 0xbe, 0x2b, 0x97, 0x85, 0x3e,
    0x81, 0xcf, 0x29, 0xbe, 0xd5, 0xcc, 0x9f, 0x3e, 0xe0, 0xf9, 0x15, 0x3e,
    0x12, 0x5a, 0x70, 0xbd, 0x82, 0xb7, 0xd8, 0x3d, 0x30, 0x52, 0x06, 0xbe,
    0x45, 0x54, 0x82, 0xbe, 0x28, 0xdd, 0x73, 0xbe, 0xe5, 0x80, 0xa4, 0xbe,
    0x63, 0x3b, 0x85, 0xbe, 0x2f, 0x95, 0xa5, 0xbe, 0x7a, 0x19, 0x91, 0xbe,
    0xfb, 0xf5, 0x77, 0x3e, 0x80, 0xbc, 0xb3, 0x3e, 0x04, 0x5d, 0x1c, 0xbe,
    0xb6, 0x8a, 0x99, 0xbe, 0x2c, 0x93, 0x6d, 0x3d, 0xa0, 0xb2, 0x9b, 0x3c,
    0x72, 0x50, 0xb5, 0x3e, 0xfc, 0x4e, 0x52, 0xbe, 0xa2, 0xba, 0xb6, 0xbe,
    0xa8, 0xea, 0x17, 0xbe, 0xb8, 0xf7, 0x24, 0xbd, 0x7c, 0x12, 0xa1, 0x3d,
    0x70, 0x16, 0xcc, 0xbc, 0x76, 0xc7, 0x66, 0x3e, 0x0b, 0x59, 0x46, 0xbe,
    0xe0, 0xa4, 0x78, 0xbc, 0x04, 0x39, 0x89, 0xbd, 0xa6, 0x74, 0x1f, 0xbe,
    0xcf, 0x6a, 0xd0, 0x3e, 0x00, 0x9f, 0x1a, 0xbd, 0xd0, 0x4f, 0x02, 0xbe,
    0x76, 0xec, 0x15, 0x3e, 0xe9, 0x57, 0xbf, 0x3e, 0x4e, 0xf1, 0x98, 0xbe,
    0x36, 0xde, 0xe3, 0xbc, 0x82, 0xe2, 0x01, 0x3e, 0x11, 0x13, 0x0d, 0xbe,
    0x86, 0x71, 0x52, 0xbd, 0x4f, 0xf0, 0x90, 0xbe, 0xf3, 0x4c, 0x15, 0x3d,
    0x66, 0x4c, 0x16, 0xbe, 0x3b, 0x5a, 0xa0, 0xbe, 0x38, 0xe0, 0xc6, 0xbd,
    0xde, 0x24, 0x44, 0x3e, 0x96, 0xe5, 0x89, 0x3c, 0x00, 0x3e, 0x44, 0x3b,
    0x2e, 0x6a, 0x99, 0xbe, 0xd0, 0x09, 0x8e, 0x3e, 0xa2, 0x3e, 0x2f, 0x3e,
    0xb7, 0x5a, 0xc2, 0xbd, 0x26, 0x24, 0x23, 0x3e, 0xc2, 0x06, 0x7b, 0x3e,
    0x14, 0x79, 0xaa, 0xbd, 0xba, 0x38, 0x4d, 0x3e, 0x58, 0x90, 0x35, 0xbe,
    0xe2, 0x67, 0xa3, 0xbe, 0xfb, 0x88, 0x42, 0xbe, 0xbe, 0xeb, 0xd6, 0xbe,
    0x28, 0x60, 0xce, 0xbd, 0xf0, 0x50, 0x70, 0x3d, 0xec, 0xd4, 0x84, 0xbe,
    0xda, 0xd3, 0x71, 0xbe, 0x7e, 0x59, 0x48, 0x3e, 0xd2, 0x9f, 0x50, 0x3e,
    0xe6, 0x3e, 0x1c, 0xbe, 0xea, 0xb6, 0xb1, 0xbe, 0x99, 0xe8, 0xfd, 0x3e,
    0xd3, 0x4c, 0x95, 0x3e, 0x4a, 0x98, 0x92, 0xbd, 0x9f, 0x18, 0x91, 0x3e,
    0x93, 0x39, 0xde, 0x3c, 0x3d, 0x64, 0x09, 0xbe, 0x16, 0x04, 0xc2, 0x3e,
    0xd9, 0x0c, 0x9e, 0xbe, 0x47, 0x96, 0xc3, 0x3e, 0x6d, 0x95, 0x8f, 0xbe,
    0xa3, 0x9c, 0xe1, 0x3e, 0x6b, 0xf8, 0xb6, 0xbe, 0x4e, 0x89, 0x07, 0x3d,
    0xbd, 0xaf, 0x3a, 0xbd, 0xf3, 0xb7, 0x3b, 0x3e, 0xff, 0x05, 0xe4, 0x3e,
    0x5a, 0x86, 0xac, 0x3e, 0x38, 0x9b, 0x99, 0xbe, 0x8e, 0xae, 0x4b, 0x3e,
    0x81, 0x20, 0xb9, 0x3e, 0xc3, 0xc6, 0x94, 0x3d, 0xe0, 0x5f, 0x97, 0x3e,
    0x75, 0x5c, 0x59, 0x3e, 0x5f, 0x41, 0xed, 0xbe, 0xc4, 0x49, 0x3d, 0x3e,
    0xfd, 0x54, 0x32, 0x3d, 0x90, 0x24, 0x55, 0x3e, 0x1d, 0x64, 0x80, 0xbe,
    0x70, 0xfc, 0x8c, 0xbe, 0x56, 0x5a, 0x81, 0x3e, 0xc4, 0xc7, 0xdf, 0xbe,
    0x01, 0x58, 0x55, 0xbc, 0x56, 0xdc, 0xff, 0xff, 0x04, 0x00, 0x00, 0x00,
    0x00, 0x04, 0x00, 0x00, 0x6f, 0xfc, 0xd5, 0x3e, 0xe6, 0xd3, 0x06, 0xbe,
    0x2d, 0x89, 0x1e, 0x3e, 0x87, 0xca, 0xff, 0xbd, 0xb5, 0x72, 0xe4, 0x3e,
    0x15, 0x46, 0x43, 0xbd, 0xdc, 0x79, 0xdc, 0x3d, 0xb3, 0x7f, 0x4e, 0x3d,
    0x98, 0xb0, 0xcc, 0xbd, 0x04, 0x26, 0x6f, 0xbe, 0xff, 0x76, 0x6b, 0xbe,
    0xe5, 0x55, 0x03, 0xbe, 0xbc, 0xee, 0xac, 0xbd, 0xf6, 0xf0, 0x17, 0x3d,
    0x5b, 0x94, 0xa9, 0x3e, 0x8e, 0x8c, 0x64, 0x3e, 0x60, 0x7a, 0x8d, 0xbd,
    0x61, 0xde, 0x3a, 0xbe, 0x53, 0xe6, 0x68, 0xbd, 0xa7, 0xdf, 0xa6, 0x3e,
    0xce, 0x2b, 0xd3, 0xbe, 0x15, 0x57, 0x82, 0x3d, 0xa2, 0x6f, 0x71, 0x3e,
    0x25, 0x1c, 0xec, 0x3d, 0x56, 0x13, 0x3c, 0x3e, 0x40, 0xb7, 0xd8, 0xbe,
    0x61, 0xfc, 0x4f, 0xbd, 0xd6, 0x24, 0x7e, 0x3e, 0xf0, 0x33, 0x55, 0xbd,
    0x61, 0x3c, 0x3d, 0xbe, 0xcf, 0xfa, 0xd5, 0x3c, 0x16, 0xd3, 0x14, 0x3d,
    0x26, 0x0c, 0x6e, 0xbe, 0x52, 0x08, 0x97, 0x3e, 0xea, 0x44, 0x41, 0x3e,
    0xf6, 0x71, 0xce, 0xbe, 0x56, 0x5a, 0x9b, 0xbe, 0x40, 0x37, 0xd9, 0xbe,
    0xec, 0x8c, 0xa6, 0xbe, 0x99, 0xed, 0xbe, 0x3e, 0x5f, 0xf9, 0xd9, 0xbe,
    0x32, 0xaf, 0x34, 0x3e, 0xa5, 0x40, 0xb6, 0xbe, 0xab, 0xb7, 0x86, 0x3e,
    0x6f, 0x62, 0x6a, 0xbe, 0xb5, 0xbf, 0x93, 0xbe, 0xba, 0x30, 0x68, 0x3e,
    0xac, 0xf7, 0xf1, 0xbe, 0x9b, 0xc2, 0xac, 0xbe, 0x37, 0x7c, 0xd8, 0x3b,
    0x52, 0x71, 0x17, 0x3d, 0xdd, 0x80, 0xb9, 0x3e, 0xfa, 0x81, 0x99, 0xbe,
    0xcb, 0xc4, 0x99, 0xbc, 0x02, 0x55, 0x0c, 0x3e, 0xc5, 0x2e, 0xe6, 0xbc,
    0xb2, 0xb6, 0x85, 0xbe, 0x2e, 0x0c, 0x5b, 0x3e, 0x59, 0x9b, 0x21, 0xbe,
    0x72, 0xb7, 0x34, 0x3e, 0x34, 0xbc, 0xff, 0x3d, 0xaa, 0xe8, 0x89, 0x3e,
    0x02, 0xa9, 0x1b, 0xbd, 0x2b, 0x0f, 0xa5, 0x3d, 0x00, 0x4c, 0xdb, 0xbe,
    0xc8, 0x6f, 0xe0, 0xbe, 0xd4, 0x24, 0x06, 0x3e, 0x21, 0x5c, 0x19, 0xbd,
    0x66, 0x84, 0xb9, 0xbe, 0x3d, 0x3a, 0x64, 0x3e, 0x43, 0x5b, 0xcd, 0x3e,
    0xed, 0x97, 0x0f, 0x3f, 0x14, 0x1b, 0x0e, 0xbe, 0x74, 0xca, 0xc8, 0x3d,
    0xe0, 0xb3, 0x7d, 0x3e, 0x2f, 0xb3, 0x86, 0x3e, 0x33, 0xe7, 0xd6, 0x3e,
    0xe3, 0x53, 0x90, 0xbe, 0xa5, 0x2d, 0xdf, 0x3e, 0xeb, 0x20, 0x0f, 0x3d,
    0x6c, 0x44, 0xe7, 0x3d, 0x87, 0xc4, 0xb8, 0xbc, 0x62, 0x6d, 0x6e, 0x3e,
    0xa1, 0x09, 0x17, 0x3e, 0xc7, 0x40, 0x6f, 0x3d, 0xc8, 0x4c, 0x7f, 0x3d,
    0x06, 0xff, 0x29, 0xbe, 0xac, 0xc8, 0xda, 0xbe, 0xa4, 0x56, 0xe0, 0xbd,
    0x9e, 0xdb, 0xbf, 0xbe, 0xe1, 0x12, 0x8a, 0xbe, 0xbf, 0xb6, 0x2b, 0x3e,
    0x33, 0x8e, 0x8b, 0x3e, 0xf9, 0xba, 0xaf, 0xbe, 0x2d, 0x4f, 0x06, 0x3e,
    0x50, 0x36, 0xde, 0xbe, 0xd3, 0x66, 0x4f, 0xbe, 0xec, 0xaf, 0xa4, 0x3e,
    0x8f, 0x6c, 0xe0, 0xbd, 0x40, 0x8a, 0x69, 0x3e, 0x91, 0x8e, 0xd6, 0x3e,
    0xa8, 0xe3, 0x93, 0x3e, 0x5e, 0x85, 0xbd, 0xbe, 0x87, 0x77, 0xc8, 0x3e,
    0xb9, 0x54, 0x96, 0x3e, 0x1c, 0xbf, 0xaa, 0x3d, 0x3b, 0x82, 0x8f, 0x3e,
    0x1e, 0x9a, 0x75, 0x3e, 0x50, 0x14, 0xf5, 0xbc, 0xca, 0xac, 0xb7, 0xbe,
    0x24, 0x52, 0x10, 0xbe, 0x7b, 0xbb, 0x9b, 0xbe, 0x25, 0xcf, 0x40, 0xbe,
    0x53, 0xc1, 0x49, 0x3d, 0xf1, 0x4e, 0x22, 0x3e, 0x93, 0x3e, 0xc7, 0x3c,
    0x98, 0x45, 0xc1, 0xbe, 0x20, 0xdf, 0x39, 0xbd, 0x34, 0xee, 0x87, 0x3d,
    0xc5, 0xed, 0xac, 0xbe, 0x5c, 0x91, 0x95, 0x3d, 0xec, 0xc0, 0x9c, 0xbe,
    0x99, 0x19, 0x95, 0x3e, 0x88, 0xd2, 0xb6, 0x3e, 0xec, 0x2f, 0xdd, 0x3d,
    0x86, 0x05, 0x45, 0x3d, 0x44, 0x2d, 0x9a, 0xbe, 0xcf, 0x79, 0x9e, 0x3e,
    0xac, 0x06, 0xc2, 0x3d, 0x93, 0xbf, 0xaf, 0xbe, 0x12, 0xb5, 0xb9, 0xbe,
    0x92, 0x35, 0xd7, 0xbe, 0xb5, 0xc3, 0xa8, 0x3e, 0x08, 0x05, 0xb2, 0xbe,
    0xa9, 0x17, 0xb9, 0xbe, 0xdd, 0x8f, 0xd4, 0x3e, 0xbc, 0x47, 0xbb, 0xbe,
    0x32, 0xa2, 0x2c, 0xbe, 0x84, 0xbb, 0x97, 0x3d, 0xec, 0x3c, 0xac, 0x3d,
    0x9a, 0x86, 0x21, 0xbe, 0x2f, 0x43, 0x86, 0x3e, 0x37, 0x33, 0x50, 0xbe,
    0x67, 0xaa, 0xe5, 0xbd, 0x8a, 0x68, 0xc4, 0xbe, 0x6f, 0x0a, 0xf8, 0x3d,
    0x5a, 0x0c, 0x5a, 0x3e, 0x85, 0x62, 0xc1, 0xbe, 0xb5, 0x2f, 0xe7, 0x3e,
    0x83, 0x69, 0x3e, 0x3e, 0xb4, 0xfc, 0xc4, 0x3d, 0xa7, 0xfe, 0xb7, 0xbe,
    0xd4, 0xd7, 0xb2, 0xbe, 0x9a, 0xab, 0x38, 0x3e, 0xbc, 0xc3, 0x82, 0x3e,
    0x9b, 0x61, 0x49, 0x3e, 0xd3, 0x10, 0xd6, 0x3e, 0xce, 0xd9, 0xbc, 0x3e,
    0x00, 0xa9, 0x2c, 0x3e, 0x94, 0xb9, 0xd2, 0x3e, 0xdf, 0xc5, 0xad, 0xbe,
    0x6b, 0xd9, 0x3c, 0x3e, 0x2e, 0x76, 0x49, 0x3e, 0x75, 0x51, 0x81, 0x3e,
    0xc5, 0x9a, 0x26, 0xbe, 0xdc, 0x7b, 0xa1, 0x3e, 0xc2, 0x11, 0x87, 0xbe,
    0xe8, 0xe2, 0xd5, 0xbd, 0x60, 0x0f, 0x28, 0x3d, 0x2d, 0x92, 0xb7, 0x3e,
    0x5c, 0xb5, 0x9e, 0x3e, 0xa4, 0x69, 0x34, 0xbe, 0xce, 0x69, 0x17, 0x3e,
    0xc2, 0x96, 0x86, 0xbe, 0xb5, 0x1f, 0x41, 0x3e, 0x59, 0x3d, 0xbd, 0x3e,
    0x02, 0x68, 0x43, 0xbe, 0x27, 0x5c, 0x40, 0xbe, 0xd1, 0x07, 0x41, 0xbe,
    0xd6, 0xf3, 0x44, 0xbe, 0x1b, 0xb9, 0xd8, 0xbe, 0xe0, 0x05, 0xe1, 0xbc,
    0x94, 0x0f, 0xad, 0xbd, 0xbc, 0xea, 0x99, 0xbe, 0xc8, 0xd6, 0x39, 0xbd,
    0x92, 0x3e, 0x0d, 0x3e, 0xc8, 0x4b, 0x82, 0x3d, 0x5e, 0xbf, 0x60, 0x3e,
    0x8a, 0xde, 0x2d, 0x3e, 0x00, 0xde, 0x14, 0x3d, 0x2a, 0xb7, 0x0c, 0x3e,
    0xce, 0xe8, 0x64, 0x3e, 0x69, 0x00, 0xb9, 0x3e, 0xe5, 0x56, 0xfe, 0x3c,
    0x59, 0x66, 0x3d, 0xbd, 0x46, 0xf3, 0xc8, 0x3e, 0xff, 0x3b, 0x8d, 0x3e,
    0xd8, 0xa1, 0x30, 0x3e, 0xfa, 0xe3, 0x64, 0x3e, 0xd7, 0x89, 0x5a, 0x3e,
    0xb7, 0xf3, 0xaa, 0x3e, 0x41, 0xbf, 0x8b, 0x3e, 0xbd, 0x00, 0x82, 0x3e,
    0x2c, 0x33, 0x1b, 0x3e, 0xd0, 0x25, 0x9f, 0xbe, 0x53, 0xb2, 0x76, 0xbe,
    0x29, 0x3c, 0xc1, 0x3e, 0x0a, 0xe0, 0xb5, 0xbe, 0x83, 0x44, 0x94, 0xbe,
    0x4e, 0xf5, 0xb0, 0xbe, 0xb6, 0xa5, 0x7a, 0xbe, 0x52, 0x45, 0xd6, 0x3b,
    0xe0, 0x2f, 0x8d, 0x3e, 0x77, 0x65, 0x43, 0xbe, 0x75, 0x2b, 0xaf, 0xbe,
    0x2e, 0xc2, 0x7c, 0xbd, 0xc6, 0x4f, 0x80, 0xbe, 0xf6, 0x09, 0x2d, 0x3e,
    0xd4, 0xf6, 0x1e, 0xbe, 0xd1, 0xcb, 0xbb, 0xbe, 0x30, 0xf3, 0x30, 0xbe,
    0x8f, 0xf2, 0xbc, 0xbe, 0xe8, 0xe5, 0x30, 0x3e, 0x47, 0x45, 0xa1, 0xbe,
    0xf2, 0xa8, 0x2a, 0x3e, 0x4e, 0xa1, 0x6b, 0x3e, 0xe9, 0x74, 0xb1, 0x3e,
    0xd5, 0xba, 0xb9, 0xbe, 0x34, 0x4f, 0x78, 0xbe, 0x54, 0x71, 0xca, 0x3d,
    0xa2, 0xa8, 0xa6, 0xbe, 0x16, 0xee, 0x85, 0x3c, 0x0e, 0x67, 0x23, 0x3e,
    0xbd, 0x8f, 0x83, 0x3e, 0x08, 0xa2, 0x8f, 0xbe, 0x1d, 0xc2, 0xb0, 0xbe,
    0xa4, 0xfb, 0xa2, 0x3d, 0x8b, 0xf8, 0x02, 0x3f, 0x67, 0xad, 0x43, 0xbe,
    0x09, 0xe3, 0xe1, 0x3d, 0xa8, 0x0e, 0x4c, 0xbd, 0xea, 0x05, 0x1e, 0xbe,
    0xf0, 0xa7, 0x60, 0xbd, 0x5f, 0xc3, 0x3f, 0xbe, 0xee, 0x0b, 0x9b, 0x3e,
    0x2e, 0x2e, 0xa1, 0x3e, 0x54, 0x28, 0x82, 0x3d, 0x2e, 0x26, 0xf9, 0x3e,
    0xa7, 0x5e, 0x96, 0xbe, 0xc6, 0x3a, 0x0a, 0xbe, 0xfe, 0x90, 0xa2, 0x3d,
    0x20, 0xff, 0x30, 0x3e, 0x20, 0x44, 0xdb, 0xbe, 0xe9, 0xf4, 0x47, 0x3e,
    0x90, 0xb9, 0x3a, 0x3d, 0x1a, 0xe7, 0x7b, 0x3d, 0x62, 0xe0, 0xff, 0xff,
    0x04, 0x00, 0x00, 0x00, 0x00, 0x04, 0x00, 0x00, 0x90, 0xb2, 0x47, 0xbe,
    0xad, 0xb8, 0xc2, 0x3e, 0x2c, 0xce, 0xcd, 0xbd, 0x6f, 0xd1, 0x8a, 0xbe,
    0x18, 0x7e, 0x4f, 0x3d, 0x96, 0x7c, 0x0e, 0xbe, 0x0c, 0xb4, 0xa0, 0xbd,
    0x22, 0x2f, 0x4c, 0x3e, 0xbe, 0x61, 0x24, 0xbe, 0xb7, 0x98, 0x95, 0x3e,
    0x80, 0xcf, 0x06, 0xbc, 0x12, 0xaa, 0x85, 0xbe, 0xfb, 0xaf, 0xd0, 0x3e,
    0xde, 0xa4, 0x61, 0x3e, 0x4c, 0x59, 0x8c, 0x3d, 0x78, 0x26, 0xdd, 0xbd,
    0xf0, 0x46, 0xc6, 0x3d, 0x12, 0x1e, 0xac, 0xbe, 0xbe, 0xc3, 0xaa, 0xbe,
    0xca, 0x99, 0xd5, 0x3d, 0x78, 0xe4, 0x9c, 0xbd, 0x7a, 0xf4, 0xa8, 0xbd,
    0x08, 0x64, 0x04, 0x3e, 0x9c, 0x3e, 0x95, 0xbd, 0x25, 0x6e, 0x97, 0xbe,
    0x5d, 0x45, 0x7c, 0x3e, 0x8c, 0x89, 0x9b, 0x3e, 0x22, 0x5e, 0xc2, 0x3e,
    0xba, 0x93, 0x2e, 0xbe, 0x31, 0x6e, 0xda, 0x3e, 0x80, 0x33, 0xda, 0xbd,
    0x97, 0x8a, 0x61, 0xbe, 0x0c, 0x52, 0xfa, 0x3e, 0x49, 0x07, 0x36, 0xbe,
    0x08, 0xdf, 0xd3, 0x3e, 0x22, 0x2d, 0xa7, 0x3e, 0xfb, 0xac, 0x9f, 0xbe,
    0x1c, 0x6b, 0x7d, 0x3e, 0x27, 0x3c, 0x90, 0x3e, 0xee, 0x33, 0x4e, 0x3e,
    0xdd, 0x3f, 0xaa, 0x3e, 0x52, 0xcc, 0xbf, 0xbe, 0x17, 0x8f, 0x97, 0x3d,
    0xcf, 0xa2, 0xca, 0x3e, 0x28, 0x77, 0xcc, 0xbe, 0x59, 0xb1, 0x9f, 0xbe,
    0x2e, 0x90, 0x66, 0x3e, 0x98, 0xff, 0x51, 0x3d, 0x8d, 0xda, 0x91, 0x3d,
    0x6e, 0xd3, 0x2d, 0x3e, 0xae, 0x7e, 0xde, 0xbe, 0xff, 0x4c, 0x57, 0xbb,
    0x60, 0x4e, 0x79, 0xbd, 0x52, 0xcd, 0x15, 0x3e, 0x51, 0xd2, 0x22, 0xbd,
    0x20, 0x2c, 0xfc, 0xbd, 0x59, 0xb3, 0x50, 0x3e, 0x11, 0xdd, 0xb3, 0xbe,
    0x07, 0xaa, 0xd5, 0x3e, 0xfa, 0xfa, 0x83, 0x3e, 0x68, 0xe9, 0x1b, 0xbe,
    0x50, 0x4b, 0x77, 0xbd, 0x96, 0x21, 0x3d, 0xbe, 0x4e, 0x94, 0x10, 0x3e,
    0x6f, 0x44, 0x8f, 0x3d, 0x77, 0x15, 0x2c, 0xbe, 0xf8, 0xfb, 0x3f, 0x3e,
    0x1f, 0x67, 0x77, 0x3e, 0x0d, 0xa6, 0xa9, 0xbe, 0x59, 0xf0, 0x61, 0x3e,
    0xc9, 0xd0, 0x53, 0x3e, 0x12, 0x36, 0x50, 0x3e, 0xd2, 0xd3, 0xbd, 0x3e,
    0xc9, 0xbe, 0x21, 0x3e, 0xa2, 0xca, 0x1c, 0xbe, 0xe0, 0xcc, 0x91, 0xbe,
    0x3a, 0xd1, 0xcd, 0xbe, 0x62, 0x93, 0xcf, 0x3e, 0x3c, 0x46, 0x02, 0xbe,
    0x20, 0x47, 0x67, 0x3c, 0xe6, 0xcd, 0xb3, 0xbe, 0xc8, 0x0a, 0xb2, 0x3e,
    0x06, 0x23, 0xbf, 0xbd, 0x43, 0x74, 0x6a, 0xbe, 0x0a, 0x8e, 0x38, 0x3e,
    0xf2, 0xec, 0xb1, 0x3e, 0x5a, 0xe2, 0x0d, 0x3e, 0x00, 0xdb, 0xc7, 0x3b,
    0x5e, 0x68, 0xa9, 0xbe, 0x46, 0xc0, 0x6b, 0xbd, 0x39, 0x7b, 0x91, 0x3e,
    0xc7, 0x9a, 0xd0, 0xbe, 0xb9, 0x20, 0xc8, 0xbe, 0x55, 0x7d, 0x92, 0x3e,
    0x0e, 0x02, 0xb2, 0xbe, 0x2e, 0x5b, 0x4c, 0x3e, 0x20, 0xbc, 0x5b, 0xbd,
    0x1c, 0xd6, 0x32, 0xbe, 0x2e, 0x51, 0x1d, 0x3e, 0x80, 0xea, 0xef, 0xbc,
    0x86, 0x20, 0x26, 0x3e, 0x92, 0x68, 0x78, 0x3e, 0x9e, 0xce, 0x97, 0xbe,
    0x02, 0x87, 0x32, 0x3e, 0x6e, 0x74, 0x29, 0xbe, 0xc0, 0x0d, 0xfb, 0xbd,
    0x2c, 0x8a, 0xd2, 0xbe, 0x35, 0xf9, 0x95, 0x3e, 0xfc, 0x7b, 0x0b, 0xbe,
    0x23, 0xa6, 0xb5, 0x3e, 0x72, 0x98, 0x1d, 0x3e, 0x28, 0xee, 0x50, 0xbd,
    0x87, 0xfb, 0xb6, 0xbc, 0x3c, 0xec, 0x73, 0x3e, 0x87, 0x8d, 0xc2, 0x3b,
    0x99, 0xf6, 0x38, 0x3e, 0xbb, 0x06, 0x3e, 0xbe, 0x4e, 0x27, 0x94, 0x3e,
    0x96, 0x64, 0xe1, 0xbe, 0x90, 0xfa, 0x87, 0xbc, 0x7c, 0xc2, 0x94, 0xbe,
    0xbd, 0x01, 0x9d, 0xbe, 0xf3, 0x4c, 0x71, 0x3e, 0x43, 0xd5, 0x3d, 0xbe,
    0x81, 0xf7, 0xb8, 0x3e, 0x90, 0x9b, 0xe7, 0x3c, 0xa7, 0x4a, 0xb0, 0x3e,
    0x84, 0x52, 0xc5, 0x3d, 0xc0, 0x53, 0xb1, 0xbc, 0xa4, 0x8e, 0xae, 0x3d,
    0x1f, 0x67, 0xdb, 0x3e, 0xdd, 0x12, 0xa6, 0xbe, 0xa1, 0x1f, 0xa1, 0x3e,
    0x12, 0x5c, 0x49, 0x3e, 0x6a, 0x09, 0x27, 0xbe, 0xca, 0x59, 0x88, 0xbe,
    0xf0, 0x9c, 0xb3, 0xbc, 0xb4, 0x8b, 0x8d, 0x3d, 0x2a, 0xc0, 0x87, 0xbe,
    0x78, 0xc0, 0x22, 0xbd, 0x1a, 0xa4, 0x7c, 0xbe, 0xe9, 0xe8, 0xce, 0x3e,
    0xd8, 0xe3, 0x77, 0x3d, 0x80, 0x0c, 0xb6, 0xbc, 0x21, 0x79, 0x7f, 0xbe,
    0x40, 0xb3, 0xf0, 0x3c, 0x4f, 0xd9, 0x8a, 0xbe, 0x20, 0x46, 0xae, 0xbe,
    0x48, 0x4e, 0x17, 0x3d, 0xa0, 0x38, 0xbf, 0xbe, 0xd6, 0xcd, 0x42, 0x3e,
    0xd4, 0xf4, 0xd3, 0xbd, 0xe6, 0xe9, 0xa7, 0xbe, 0x20, 0x10, 0xa6, 0xbc,
    0xed, 0x1d, 0xbc, 0xbe, 0x73, 0x99, 0xbb, 0x3e, 0x70, 0x42, 0x8e, 0xbe,
    0x6e, 0xec, 0x36, 0x3e, 0x2e, 0x6b, 0x2b, 0x3e, 0xed, 0x74, 0xa8, 0x3e,
    0x3c, 0xf0, 0xd9, 0x3d, 0xfc, 0x55, 0xb4, 0xbd, 0x9d, 0x5a, 0xc1, 0xbe,
    0x73, 0xe6, 0xcc, 0xbe, 0x78, 0x85, 0x44, 0x3d, 0x62, 0xd6, 0x97, 0x3e,
    0x1c, 0x4f, 0xae, 0x3e, 0x62, 0xb2, 0x49, 0x3e, 0xee, 0x32, 0xc2, 0x3d,
    0xac, 0x0f, 0x38, 0xbd, 0x83, 0xf9, 0x05, 0xbe, 0xba, 0xbc, 0xb0, 0x3e,
    0x7f, 0x1f, 0xdd, 0x3e, 0x64, 0x31, 0xe0, 0x3d, 0xee, 0xb3, 0x32, 0x3e,
    0xa2, 0x3c, 0x01, 0x3e, 0xa0, 0xdb, 0xbc, 0x3e, 0xb6, 0xd3, 0x74, 0xbe,
    0x1a, 0x00, 0xd9, 0xbe, 0x89, 0xf9, 0x25, 0xbe, 0xb3, 0xe0, 0xa5, 0x3e,
    0xfd, 0xf7, 0xd0, 0xbe, 0xff, 0xe0, 0xd0, 0x3e, 0x7e, 0x39, 0x46, 0x3e,
    0x7a, 0x60, 0x22, 0x3e, 0x26, 0x3d, 0x00, 0x3e, 0xfe, 0x8a, 0x68, 0x3c,
    0x82, 0x2e, 0xa4, 0x3e, 0xea, 0xe8, 0x52, 0x3e, 0x4f, 0x9c, 0x58, 0xbe,
    0x68, 0x0d, 0x21, 0xbd, 0xb6, 0x43, 0xca, 0xbe, 0xcb, 0xed, 0xdc, 0x3e,
    0xc1, 0x46, 0x81, 0x3e, 0x70, 0xc4, 0xf6, 0xbc, 0xe2, 0x67, 0x87, 0xbe,
    0x00, 0x8e, 0x43, 0x3d, 0x0b, 0xee, 0xb4, 0xbe, 0x71, 0x25, 0xcf, 0xbe,
    0x40, 0x17, 0x92, 0xbd, 0xf9, 0x53, 0x98, 0xbe, 0x8b, 0xeb, 0x89, 0xbe,
    0xc2, 0xe6, 0x52, 0x3e, 0x8c, 0x5e, 0xbb, 0xbe, 0xba, 0xdb, 0x94, 0xbe,
    0xd1, 0xd6, 0x48, 0xbe, 0x52, 0x77, 0x8c, 0xbe, 0x6f, 0x6c, 0x9d, 0x3e,
    0x83, 0xd2, 0x88, 0xbe, 0xee, 0x32, 0xad, 0x3e, 0xfa, 0xbc, 0xa6, 0x3e,
    0xe6, 0x04, 0xdd, 0x3e, 0xb6, 0x9e, 0x01, 0x3e, 0x46, 0x98, 0xf9, 0xbe,
    0xc8, 0xfe, 0x34, 0x3e, 0x06, 0x4c, 0x74, 0x3e, 0x0d, 0x07, 0xe8, 0xbd,
    0xc4, 0xb1, 0xa8, 0x3d, 0x3b, 0x3c, 0xe6, 0xbe, 0xf7, 0x11, 0x0b, 0x3f,
    0xb5, 0x6c, 0x4e, 0xbe, 0x26, 0x7e, 0x8f, 0x3e, 0x4a, 0x30, 0xd3, 0xbe,
    0x30, 0x13, 0xdc, 0xbe, 0x67, 0x27, 0xbc, 0x3d, 0x34, 0x55, 0x5c, 0x3e,
    0x3a, 0x9f, 0xe2, 0x3d, 0x9a, 0x5c, 0xbd, 0x3e, 0x8b, 0x87, 0xa3, 0x3e,
    0x04, 0xfa, 0x4c, 0x3e, 0x19, 0xee, 0xbb, 0xbd, 0x7c, 0x48, 0xf0, 0xbd,
    0x0c, 0x46, 0x4e, 0xbd, 0xf9, 0x42, 0x00, 0x3d, 0xce, 0xdc, 0x07, 0x3f,
    0xb5, 0xaf, 0x44, 0xbe, 0x00, 0xf6, 0x16, 0xbc, 0x23, 0x88, 0x27, 0x3d,
    0xed, 0x66, 0xcd, 0x3e, 0x2f, 0xc6, 0xc7, 0x3e, 0x64, 0x0f, 0x2f, 0xbd,
    0x19, 0x2f, 0x01, 0x3b, 0xb8, 0x6a, 0xbb, 0x3e, 0x85, 0xcc, 0xed, 0x3e,
    0x22, 0x43, 0x14, 0x3e, 0xde, 0x27, 0x08, 0x3e, 0xc2, 0x30, 0x2c, 0xbe,
    0xf2, 0x73, 0x49, 0xbe, 0x8c, 0xef, 0xe2, 0xbd, 0x75, 0x96, 0x1d, 0x3e,
    0xa2, 0x45, 0xb2, 0x3b, 0x70, 0xae, 0x93, 0xbe, 0x85, 0x05, 0xa6, 0x3e,
    0x22, 0xda, 0x06, 0x3d, 0x86, 0x0f, 0x07, 0x3e, 0x3c, 0x18, 0xca, 0x3d,
    0x6e, 0xe4, 0xff, 0xff, 0x04, 0x00, 0x00, 0x00, 0x00, 0x04, 0x00, 0x00,
    0x79, 0x32, 0xf7, 0x3d, 0x05, 0xf0, 0x27, 0x3e, 0x3d, 0x36, 0x95, 0xbe,
    0x77, 0xee, 0xd1, 0xbe, 0x7a, 0x4d, 0x41, 0x3e, 0x6c, 0x75, 0x19, 0x3e,
    0xe0, 0xf1, 0x27, 0x3c, 0x47, 0x9c, 0x48, 0x3e, 0xce, 0xed, 0x8a, 0x3e,
    0x9d, 0x50, 0x86, 0xbe, 0xa1, 0x2c, 0xd7, 0x3e, 0xcc, 0xb6, 0x85, 0xbe,
    0x1c, 0xf2, 0x96, 0x3e, 0xc6, 0x3d, 0xab, 0x3e, 0xfb, 0x8e, 0xbb, 0x3e,
    0x9e, 0x39, 0x61, 0x3e, 0x5c, 0x56, 0x8b, 0xbe, 0x5c, 0x13, 0x9a, 0x3e,
    0xc8, 0xc7, 0x4d, 0xbe, 0xae, 0x85, 0x04, 0x3e, 0x84, 0xdf, 0x86, 0x3d,
    0x5d, 0xec, 0x9d, 0x3e, 0xd9, 0xb8, 0xc3, 0xbe, 0x98, 0xd6, 0x7e, 0xbe,
    0x46, 0xd7, 0xb2, 0x3e, 0x20, 0xce, 0xe4, 0xbd, 0x6e, 0x1e, 0x93, 0xbe,
    0xef, 0x8f, 0xdb, 0xbe, 0x46, 0xeb, 0xbc, 0xbd, 0xec, 0xb8, 0x0c, 0xbe,
    0xef, 0x4c, 0x92, 0x3e, 0xa6, 0x1a, 0x7c, 0xbe, 0x6f, 0x32, 0x77, 0xbe,
    0x18, 0xaa, 0x78, 0x3e, 0x54, 0x20, 0x7a, 0x3e, 0x47, 0xcb, 0x8f, 0x3e,
    0xcc, 0x4e, 0xbb, 0x3d, 0x32, 0x29, 0xff, 0xbe, 0xee, 0xfc, 0x4a, 0x3e,
    0x47, 0x68, 0x70, 0xbe, 0x90, 0x97, 0x6a, 0x3e, 0x14, 0x47, 0xff, 0xbd,
    0x50, 0xec, 0xa3, 0x3e, 0xeb, 0xf2, 0x8a, 0x3e, 0x0c, 0xbf, 0x46, 0x3e,
    0xe4, 0x01, 0xa9, 0xbe, 0x2f, 0x86, 0xc1, 0x3e, 0xd3, 0xb0, 0xa7, 0xbe,
    0xee, 0x4e, 0xc8, 0xbd, 0xa6, 0xe6, 0xe4, 0x3c, 0x25, 0x8f, 0xfa, 0x3e,
    0x5c, 0xeb, 0x1d, 0xbd, 0x40, 0xe0, 0x5f, 0x3d, 0x62, 0x73, 0x0b, 0x3c,
    0x20, 0x3c, 0x9c, 0xbe, 0xce, 0xbd, 0xc9, 0x3e, 0xfd, 0xd4, 0xb4, 0x3e,
    0x25, 0xe0, 0x12, 0xbe, 0xb9, 0xa4, 0xa9, 0xbd, 0x44, 0x0f, 0x4e, 0xbe,
    0x37, 0x66, 0xfd, 0x3e, 0xd9, 0xec, 0x90, 0xbe, 0x10, 0x23, 0x6c, 0x3d,
    0xd8, 0x04, 0x8f, 0xbd, 0xb2, 0xc9, 0x68, 0x3e, 0xf0, 0x7a, 0xeb, 0x3c,
    0x9d, 0x74, 0xd9, 0xbe, 0x60, 0x50, 0xd4, 0xbe, 0xbc, 0xd8, 0xd9, 0xbd,
    0xa4, 0xd5, 0xef, 0x3d, 0x85, 0x26, 0xb9, 0x3e, 0x2a, 0xdb, 0x49, 0x3e,
    0xee, 0xf9, 0xab, 0xbe, 0x74, 0x21, 0x74, 0xbe, 0xf2, 0x9a, 0xd3, 0xbe,
    0x58, 0x09, 0x74, 0x3d, 0x90, 0xe8, 0xf4, 0xbd, 0x70, 0x1e, 0xc5, 0xbd,
    0x2a, 0x95, 0x95, 0xbe, 0xb8, 0xbf, 0x0a, 0x3d, 0x28, 0xd7, 0xde, 0x3e,
    0x0c, 0x44, 0xb0, 0x3e, 0x19, 0x4f, 0x47, 0x3d, 0x78, 0x59, 0xb7, 0xbe,
    0x49, 0x54, 0x63, 0xbe, 0xda, 0xca, 0x30, 0x3f, 0x29, 0xe4, 0xd5, 0xbe,
    0xd9, 0x7f, 0xc7, 0x3e, 0x24, 0x20, 0x69, 0xbe, 0xad, 0x9a, 0xc8, 0x3e,
    0xc5, 0x60, 0xba, 0x3d, 0x44, 0x52, 0x08, 0x3d, 0x78, 0x81, 0x12, 0x3d,
    0x49, 0x7f, 0xa2, 0x3e, 0xa8, 0xd6, 0x16, 0x3d, 0x58, 0xab, 0xda, 0xbd,
    0xd2, 0xf2, 0xca, 0x3e, 0x3b, 0x93, 0x9a, 0x3e, 0xbd, 0x86, 0x79, 0x3e,
    0xe8, 0x79, 0x6a, 0x3e, 0x96, 0xa3, 0x68, 0x3e, 0xd4, 0xde, 0x12, 0xbf,
    0xc0, 0x65, 0x9d, 0xbe, 0xc1, 0xfe, 0xc0, 0x3e, 0x92, 0xff, 0x93, 0xbc,
    0xda, 0xa6, 0xa1, 0xbc, 0x31, 0xe4, 0x99, 0x3e, 0xf7, 0x6a, 0x90, 0xbe,
    0xdb, 0x7a, 0x21, 0x3e, 0x5a, 0xf4, 0x01, 0xbf, 0xa6, 0x63, 0x8c, 0xbe,
    0x5d, 0x10, 0xb3, 0x3e, 0x4a, 0x1e, 0xa9, 0xbe, 0xd0, 0x8d, 0x9c, 0xbe,
    0x31, 0x03, 0xa8, 0xbe, 0x38, 0xaa, 0x69, 0x3d, 0x6a, 0x35, 0x17, 0xbe,
    0xaa, 0x11, 0x34, 0xbe, 0x3b, 0x50, 0xcf, 0x3e, 0xab, 0xa5, 0xb6, 0x3e,
    0x20, 0x6f, 0x4d, 0xbd, 0x49, 0x2c, 0xb7, 0xbe, 0xd3, 0xe4, 0xd8, 0x3e,
    0x25, 0x9b, 0xae, 0x3e, 0x04, 0xbe, 0xcc, 0x3d, 0x72, 0x8f, 0x83, 0xbe,
    0x9a, 0x50, 0x9d, 0xbe, 0x2a, 0x52, 0x94, 0xbe, 0xcd, 0x11, 0x9d, 0x3e,
    0xdd, 0xa3, 0x19, 0x3e, 0x0e, 0x68, 0x05, 0x3e, 0x3e, 0xa9, 0x94, 0x3e,
    0xc1, 0x01, 0x9d, 0xbe, 0x4f, 0x82, 0x88, 0xbe, 0xa8, 0x59, 0xa5, 0xbe,
    0x51, 0xef, 0xc8, 0xbe, 0xd5, 0x9f, 0xc9, 0x3e, 0x0f, 0x50, 0x97, 0x3d,
    0x9d, 0x32, 0xac, 0xbe, 0xf1, 0x62, 0xc3, 0x3e, 0xb2, 0x0d, 0x9d, 0x3e,
    0x40, 0x5f, 0xd6, 0xbe, 0x8c, 0xd9, 0x8e, 0xbd, 0xfc, 0x3b, 0xb1, 0xbd,
    0x2e, 0x5e, 0x7b, 0x3e, 0x32, 0x10, 0xde, 0x3c, 0x61, 0xaf, 0x7f, 0xbe,
    0x94, 0x48, 0xbc, 0xbe, 0x90, 0x5a, 0xa0, 0xbe, 0x86, 0x4f, 0x83, 0x3c,
    0x75, 0xbd, 0xa6, 0xbe, 0xc2, 0xb2, 0xf5, 0x3d, 0xb6, 0x81, 0x75, 0x3d,
    0x4b, 0xee, 0x25, 0x3e, 0x3d, 0x87, 0xab, 0x3e, 0x94, 0x83, 0xc5, 0x3e,
    0x2a, 0x66, 0xc1, 0xbe, 0x2c, 0x9e, 0x2c, 0x3e, 0xdf, 0xd7, 0xd7, 0x3e,
    0x2e, 0x60, 0x67, 0x3e, 0x4a, 0xa7, 0xa1, 0xbe, 0x8f, 0xed, 0xf8, 0x3c,
    0xa0, 0xac, 0x0e, 0x3c, 0x0e, 0x22, 0x51, 0xbe, 0x82, 0x2a, 0x76, 0x3e,
    0x0e, 0x1e, 0x9e, 0x3e, 0xde, 0x37, 0x95, 0xbe, 0x1a, 0x4d, 0x4e, 0xbd,
    0x60, 0x83, 0xce, 0xbd, 0x61, 0x21, 0xcd, 0x3e, 0x7b, 0x62, 0x91, 0x3e,
    0xc7, 0xfe, 0x70, 0xbd, 0x95, 0x01, 0xae, 0x3c, 0x70, 0x80, 0xfd, 0x3e,
    0x04, 0xfa, 0xb9, 0xbd, 0x8c, 0xad, 0xf9, 0x3d, 0x76, 0xc1, 0xbe, 0x3e,
    0xf1, 0x1f, 0x68, 0xbd, 0x22, 0xc3, 0xee, 0x3e, 0x82, 0xad, 0xb0, 0x3e,
    0x60, 0xb7, 0xd0, 0xbc, 0x4a, 0xa5, 0x0a, 0xbe, 0xda, 0x94, 0xae, 0xbe,
    0xa3, 0x06, 0x75, 0x3e, 0x61, 0xa4, 0x76, 0xbe, 0x79, 0xc0, 0x38, 0xbe,
    0xe7, 0x88, 0x06, 0x3c, 0x1f, 0xf6, 0xbb, 0xbe, 0x90, 0xab, 0xe2, 0x3d,
    0xc8, 0x85, 0xe9, 0xbe, 0xea, 0x23, 0x6a, 0x3e, 0x4e, 0xc9, 0x81, 0xbe,
    0xba, 0xcc, 0x20, 0x3e, 0xf8, 0x46, 0xd6, 0xbe, 0xc0, 0xa1, 0x22, 0x3d,
    0x80, 0x3d, 0x5a, 0xbc, 0x92, 0x42, 0xd6, 0xbe, 0xc4, 0x75, 0x84, 0x3d,
    0x83, 0x1e, 0xcc, 0x3e, 0x80, 0xcb, 0x9b, 0xbc, 0x20, 0x2c, 0x2f, 0x3c,
    0x4c, 0x10, 0x9a, 0xbe, 0x98, 0xad, 0x7b, 0xbd, 0x14, 0x24, 0x86, 0x3d,
    0x6c, 0xf3, 0xe5, 0x3d, 0xcc, 0x4c, 0x95, 0xbe, 0x0a, 0x97, 0x47, 0x3e,
    0xd6, 0x63, 0xc5, 0xbe, 0xe4, 0x4d, 0xea, 0xbd, 0x8f, 0x87, 0xba, 0x3e,
    0xca, 0x53, 0xcb, 0xbe, 0x6d, 0x94, 0xdc, 0x3e, 0xb8, 0x48, 0xd7, 0xbd,
    0xe0, 0x48, 0x62, 0x3d, 0x8b, 0xd1, 0x98, 0x3e, 0x16, 0x54, 0xc0, 0x3d,
    0x52, 0xe6, 0x6e, 0x3e, 0x4c, 0xfe, 0x72, 0xbe, 0x7a, 0x7f, 0x2e, 0x3e,
    0x86, 0x9a, 0x58, 0x3e, 0xa6, 0x12, 0xc3, 0x3a, 0xbf, 0x4c, 0x90, 0xbe,
    0x01, 0xed, 0xbf, 0xbe, 0xc1, 0xb5, 0xc7, 0xbe, 0x1e, 0xc9, 0x49, 0x3e,
    0x76, 0xa1, 0x3d, 0xbe, 0xd5, 0x06, 0xd4, 0xbe, 0xc5, 0x90, 0x98, 0x3e,
    0x3f, 0xd7, 0x93, 0x3e, 0xb2, 0x9e, 0x27, 0x3e, 0xbf, 0xfd, 0xd7, 0xbe,
    0x4e, 0x3d, 0x0f, 0x3e, 0xaa, 0x30, 0xc6, 0xbe, 0xd2, 0xe8, 0x00, 0xbe,
    0x65, 0x2a, 0xd2, 0xbe, 0x47, 0x19, 0xc2, 0x3e, 0x58, 0x08, 0xa7, 0xbe,
    0xf2, 0x7e, 0x9f, 0xbe, 0x4a, 0xb9, 0x4f, 0x3e, 0x4f, 0xd9, 0xaf, 0x3e,
    0x2c, 0x16, 0x39, 0xbe, 0xf4, 0xa2, 0x92, 0x3d, 0xe0, 0xd8, 0x99, 0xbe,
    0xb0, 0x0c, 0xfa, 0xbc, 0x27, 0x18, 0xc2, 0x3e, 0x40, 0xe4, 0x71, 0xbc,
    0xd0, 0xa8, 0x4d, 0xbd, 0xa7, 0x40, 0x6e, 0xbe, 0x4c, 0x70, 0x5c, 0xbe,
    0x02, 0x8a, 0x4b, 0x3e, 0x6d, 0x8a, 0xcc, 0x3e, 0x56, 0x0f, 0x10, 0x3e,
    0xa2, 0x76, 0x0d, 0x3e, 0x8d, 0xde, 0xce, 0x3e, 0x74, 0xaf, 0xcd, 0xbe,
    0x30, 0xfb, 0x87, 0xbc, 0x7a, 0xe8, 0xff, 0xff, 0x04, 0x00, 0x00, 0x00,
    0x00, 0x04, 0x00, 0x00, 0x8a, 0x7d, 0x2a, 0x3e, 0x2e, 0x5e, 0xd1, 0xbd,
    0xca, 0x54, 0xca, 0x3e, 0xd6, 0x1e, 0xa9, 0x3e, 0xdf, 0x07, 0x80, 0x3e,
    0x6e, 0xe1, 0xa9, 0xbe, 0x2d, 0x1b, 0xc6, 0xbe, 0x16, 0x68, 0x07, 0xbd,
    0x8a, 0x67, 0xc9, 0xbe, 0x59, 0x26, 0x36, 0xbe, 0x68, 0x7a, 0x77, 0xbd,
    0xd8, 0x12, 0x1c, 0x3d, 0xae, 0x6f, 0x92, 0x3e, 0xc8, 0xd8, 0xef, 0x3c,
    0x74, 0x74, 0xcf, 0xbc, 0x24, 0x41, 0x91, 0xbe, 0xe2, 0xef, 0x0a, 0xbe,
    0x29, 0xdc, 0xb3, 0x3e, 0x77, 0xb7, 0x86, 0xbe, 0xb5, 0xc7, 0x71, 0x3e,
    0xa9, 0x53, 0x6e, 0x3e, 0x31, 0x42, 0x98, 0x3e, 0xa7, 0x39, 0x8e, 0x3e,
    0xd4, 0xcd, 0x6c, 0xbe, 0xbc, 0x8e, 0xd3, 0xbd, 0x46, 0xf2, 0x9c, 0x3a,
    0xa6, 0x40, 0x03, 0x3e, 0xb8, 0xdc, 0x36, 0x3d, 0x2c, 0x19, 0x91, 0x3e,
    0x1f, 0xb4, 0x3b, 0xbe, 0x4b, 0x2a, 0x94, 0x3e, 0xf2, 0x8d, 0x0b, 0x3e,
    0x76, 0x9f, 0x67, 0x3e, 0x67, 0xe6, 0xfd, 0x3e, 0x51, 0xd2, 0xcd, 0x3e,
    0x10, 0x2f, 0xd3, 0x3d, 0xd4, 0xff, 0x63, 0xbe, 0xbe, 0xf2, 0x2f, 0xbd,
    0xda, 0x82, 0x01, 0x3f, 0x79, 0xe0, 0xfa, 0x3e, 0x99, 0xdf, 0x72, 0xbe,
    0x5a, 0x33, 0x83, 0x3d, 0x47, 0x7c, 0xd2, 0x3e, 0x86, 0x45, 0x2f, 0xbf,
    0x0a, 0xd9, 0x64, 0x3e, 0x94, 0x25, 0x9b, 0xbe, 0xac, 0xf7, 0x11, 0x3e,
    0x14, 0x34, 0x38, 0x3e, 0x52, 0xf4, 0xb4, 0xbe, 0xbf, 0x19, 0x90, 0xbe,
    0x5a, 0xe7, 0xe2, 0xbd, 0xcc, 0xfe, 0xd4, 0xbe, 0xe2, 0x02, 0x84, 0xbe,
    0x00, 0xc5, 0x0c, 0x3c, 0x20, 0x81, 0x1a, 0xbe, 0x5c, 0x51, 0xc9, 0x3e,
    0x57, 0xf4, 0x85, 0xbd, 0x9d, 0x99, 0xa4, 0x3e, 0xc6, 0xdd, 0xc3, 0xbe,
    0x25, 0xac, 0xa7, 0xbe, 0x15, 0xa9, 0xce, 0x3e, 0x87, 0x6a, 0x60, 0xbe,
    0x15, 0x0e, 0xa6, 0xbe, 0x4c, 0xd6, 0xbc, 0xbe, 0x2c, 0xbf, 0xd3, 0x3d,
    0x00, 0xe9, 0x47, 0x3b, 0xed, 0xa9, 0x68, 0xbe, 0x14, 0xce, 0xa9, 0x3d,
    0xaa, 0xc6, 0x7b, 0x3e, 0xd6, 0xf4, 0x52, 0x3e, 0x54, 0x4b, 0xbe, 0xbd,
    0x78, 0x92, 0x7e, 0xbd, 0x63, 0xfe, 0xbe, 0x3e, 0x64, 0x26, 0x9e, 0xbe,
    0x0f, 0x15, 0x94, 0x3e, 0x76, 0x2f, 0x34, 0x3e, 0x2b, 0x03, 0x7e, 0xbe,
    0xc8, 0x13, 0x1b, 0xbd, 0xb1, 0xab, 0x9e, 0x3e, 0x46, 0x95, 0x90, 0xbe,
    0x40, 0x0a, 0xbd, 0x3b, 0x37, 0x4e, 0xc2, 0xbe, 0x7e, 0x6a, 0xf0, 0x3e,
    0xfc, 0x34, 0x3b, 0x3e, 0xa3, 0xe1, 0xa1, 0x3d, 0x15, 0x37, 0xec, 0xbe,
    0x18, 0x44, 0xb8, 0x3d, 0xa5, 0xe8, 0xa8, 0x3e, 0x13, 0x8b, 0xb8, 0xbe,
    0x1c, 0x8f, 0x65, 0xbe, 0x4c, 0xf2, 0x89, 0xbd, 0x71, 0xa5, 0x35, 0x3f,
    0x22, 0xb0, 0xd4, 0x3d, 0xe9, 0xea, 0x71, 0x3e, 0xfe, 0xe6, 0xcf, 0xbe,
    0xee, 0xce, 0x71, 0x3e, 0x9b, 0x51, 0xc4, 0x3e, 0xf6, 0x4a, 0xaa, 0xbe,
    0x51, 0xf2, 0x9a, 0x3e, 0x29, 0x6f, 0xb5, 0x3e, 0xc3, 0x0d, 0x5c, 0xbe,
    0x4f, 0x10, 0x87, 0x3e, 0x50, 0x31, 0x8c, 0xbe, 0xee, 0xf1, 0x35, 0x3e,
    0x7f, 0xd7, 0x80, 0x3e, 0xc7, 0xf9, 0xd6, 0x3e, 0x86, 0xc5, 0x63, 0x3e,
    0xef, 0xcd, 0x3c, 0xbe, 0x12, 0x69, 0xa3, 0xbe, 0xcb, 0x4d, 0xd4, 0xbe,
    0x85, 0x9d, 0x73, 0xbe, 0xcc, 0x92, 0xaf, 0xbe, 0x87, 0x5d, 0xa2, 0x3e,
    0xfa, 0x7a, 0xd1, 0x3e, 0x95, 0xfc, 0xa7, 0xbe, 0x4a, 0x2b, 0xe6, 0x3e,
    0xa7, 0x5c, 0x95, 0x3e, 0x43, 0x3c, 0x8b, 0x3e, 0xc3, 0x17, 0x63, 0xbd,
    0x98, 0x2f, 0x16, 0x3e, 0xb2, 0x3a, 0x71, 0x3e, 0x90, 0xe9, 0x81, 0x3e,
    0xc4, 0xd7, 0xe8, 0x3d, 0xb2, 0xa3, 0x05, 0x3f, 0xdb, 0x4a, 0xc8, 0xbe,
    0x04, 0x89, 0xae, 0xbe, 0x80, 0x43, 0xca, 0x3e, 0xa1, 0x73, 0x5f, 0xbe,
    0xff, 0xbe, 0xb8, 0x3e, 0x49, 0x5e, 0xba, 0x3e, 0x8c, 0x07, 0xc8, 0x3e,
    0x5d, 0xb2, 0xb7, 0xbe, 0xd3, 0x9f, 0xba, 0xbe, 0x20, 0x63, 0xee, 0x3c,
    0xb5, 0x28, 0xed, 0x3e, 0x8e, 0x69, 0x79, 0x3e, 0xb3, 0xc7, 0xfb, 0xbd,
    0x4e, 0x90, 0x66, 0xbd, 0x8c, 0x2c, 0xb3, 0xbd, 0x0f, 0x09, 0xb6, 0xba,
    0xbf, 0x92, 0xad, 0x3e, 0xb5, 0xf5, 0xca, 0xbe, 0xaf, 0x28, 0xe3, 0xbd,
    0xea, 0x73, 0x74, 0xbe, 0xa0, 0xc2, 0x18, 0x3c, 0xa7, 0xa9, 0x44, 0x3e,
    0xec, 0xff, 0xfe, 0xbd, 0x66, 0x85, 0x21, 0x3e, 0xf6, 0x1e, 0x92, 0xbe,
    0x56, 0x40, 0xc4, 0xbe, 0x81, 0xca, 0xf5, 0x3d, 0xd3, 0x26, 0xb8, 0x3e,
    0x36, 0xb7, 0x6b, 0x3e, 0x7a, 0x9d, 0x05, 0x3e, 0x36, 0x95, 0x0a, 0x3e,
    0x7f, 0xc0, 0xb9, 0x3e, 0x39, 0xd6, 0xf1, 0xbe, 0x91, 0xa9, 0xda, 0xbe,
    0x3e, 0x35, 0x17, 0x3b, 0xbd, 0x4e, 0x90, 0xba, 0x6c, 0x3d, 0x2b, 0xbe,
    0xcd, 0xc9, 0xc2, 0xbe, 0xd1, 0xa1, 0xa6, 0xbe, 0x74, 0xc8, 0xbd, 0xbd,
    0x6c, 0x9d, 0x1e, 0x3e, 0x1e, 0xcc, 0xcb, 0xbe, 0xc2, 0x5b, 0x26, 0x3d,
    0x12, 0xc6, 0x65, 0x3e, 0x0a, 0x8a, 0x14, 0x3e, 0xd9, 0xb6, 0x9e, 0x3d,
    0x70, 0x76, 0x9d, 0x3c, 0xb1, 0xd0, 0xa5, 0x3e, 0xe6, 0x44, 0x3a, 0xbe,
    0x50, 0xdb, 0x10, 0x3e, 0x8d, 0xbf, 0xc0, 0xbe, 0x06, 0x05, 0x9c, 0xbe,
    0x7c, 0xe4, 0x79, 0xbe, 0x8c, 0xfe, 0x8b, 0xbd, 0x8f, 0x89, 0x9a, 0x3e,
    0x99, 0xc9, 0x6c, 0x3d, 0x2d, 0x11, 0xcb, 0xbe, 0x00, 0xa2, 0x78, 0xba,
    0x02, 0x76, 0xc6, 0xbe, 0xa0, 0xe2, 0xbf, 0x3e, 0x72, 0x30, 0xaf, 0xbe,
    0x59, 0xce, 0xad, 0x3d, 0x97, 0x73, 0xa1, 0x3e, 0xf8, 0xd5, 0x83, 0x3c,
    0x40, 0xf4, 0xad, 0xbe, 0x02, 0x9a, 0x88, 0xbe, 0xe4, 0x08, 0x49, 0xbe,
    0x02, 0x14, 0x8d, 0xbe, 0xaa, 0x0b, 0x06, 0x3e, 0x8a, 0xed, 0x69, 0x3d,
    0xf6, 0xbe, 0xb1, 0x3e, 0xde, 0x4b, 0x67, 0xbe, 0xb4, 0x41, 0xe4, 0x3e,
    0xb9, 0xa2, 0x8b, 0x3e, 0xab, 0x69, 0xa5, 0x3e, 0x74, 0x4b, 0xf0, 0xbd,
    0xc0, 0xb8, 0x0e, 0xbc, 0xb8, 0x51, 0x2e, 0x3e, 0x34, 0x2d, 0xf9, 0x3d,
    0x3e, 0xef, 0x1e, 0xbf, 0x19, 0x5f, 0xff, 0x3e, 0x88, 0x5e, 0x49, 0xbe,
    0x50, 0x1a, 0x93, 0xbe, 0x45, 0xc1, 0x67, 0xbc, 0xfa, 0xfb, 0x82, 0xbe,
    0x27, 0x07, 0x53, 0x3e, 0x8b, 0xd3, 0x67, 0x3e, 0xcd, 0x3a, 0x3e, 0x3b,
    0x1a, 0x49, 0x04, 0xbf, 0x67, 0xf2, 0x1d, 0xbf, 0xc8, 0x04, 0x23, 0xbe,
    0xd7, 0x11, 0xa3, 0x3d, 0x53, 0xa2, 0xe3, 0xbd, 0xa9, 0x98, 0xfa, 0xbe,
    0x74, 0x49, 0xb3, 0x3d, 0xbb, 0x18, 0xcd, 0x3e, 0x5e, 0x83, 0x2f, 0xbe,
    0xe0, 0xec, 0xb2, 0xbe, 0xbd, 0x7d, 0xcd, 0xbd, 0x61, 0xc9, 0x89, 0xbe,
    0xcd, 0x40, 0x3f, 0xbe, 0x72, 0x1e, 0x4a, 0x3e, 0x93, 0xee, 0x4c, 0xbe,
    0x8a, 0xd8, 0x73, 0x3e, 0xf8, 0xe7, 0x66, 0xbd, 0xa1, 0xda, 0xa5, 0x3e,
    0xf5, 0x0c, 0x5b, 0xbe, 0x00, 0xe8, 0xe8, 0x3b, 0x28, 0x86, 0x87, 0xbe,
    0xba, 0xe8, 0x59, 0xbe, 0x57, 0x22, 0x9b, 0x3e, 0xa4, 0xbf, 0x9f, 0xbe,
    0x74, 0xa0, 0x3a, 0xbe, 0x50, 0xb9, 0xc2, 0x3c, 0xc9, 0x0e, 0xaf, 0x3e,
    0xec, 0x4e, 0xcb, 0xbe, 0xd9, 0xf2, 0x8b, 0xbe, 0x96, 0x3b, 0x5b, 0xbe,
    0x6e, 0x1c, 0xcd, 0xbe, 0x61, 0xb4, 0x9c, 0xbe, 0x22, 0xbf, 0x81, 0xbe,
    0x34, 0x05, 0xa2, 0x3d, 0xb5, 0x4d, 0x49, 0xbe, 0xb6, 0x3e, 0xa9, 0xbe,
    0xb4, 0x20, 0x90, 0xbe, 0xec, 0x1b, 0xd5, 0xbd, 0x55, 0xa9, 0xb2, 0xbe,
    0xb3, 0xea, 0xd1, 0x3e, 0x4a, 0x94, 0x6c, 0x3e, 0x52, 0x8a, 0x75, 0x3e,
    0x1c, 0xad, 0xa2, 0xbd, 0x40, 0x9a, 0xb3, 0x3b, 0x86, 0xec, 0xff, 0xff,
    0x04, 0x00, 0x00, 0x00, 0x00, 0x04, 0x00, 0x00, 0xfc, 0x3f, 0x80, 0xbe,
    0x81, 0xe2, 0xad, 0x3e, 0xb3, 0x78, 0x54, 0xbe, 0xfc, 0x6f, 0xcc, 0xbe,
    0x30, 0x0e, 0xcf, 0xbc, 0xdf, 0x7b, 0x87, 0x3e, 0x80, 0xf9, 0x7c, 0xbb,
    0x46, 0x95, 0x58, 0xbe, 0x4f, 0x90, 0xbf, 0x3e, 0xe4, 0x1a, 0xde, 0xbd,
    0x07, 0x32, 0xa1, 0xbe, 0xd9, 0x3e, 0x83, 0x3e, 0x7a, 0x3f, 0x3b, 0x3e,
    0xfe, 0xea, 0x47, 0x3e, 0xc2, 0xaf, 0x12, 0x3e, 0xd6, 0x84, 0xcc, 0xbe,
    0x6d, 0xb4, 0xcc, 0x3e, 0x87, 0xd4, 0x96, 0x3e, 0xa0, 0x73, 0xa5, 0xbe,
    0x7f, 0xf0, 0x76, 0x3d, 0x90, 0x5d, 0x8c, 0x3e, 0xc7, 0x93, 0x70, 0xbe,
    0x9c, 0x3c, 0x0f, 0x3f, 0x07, 0x7f, 0x87, 0x3e, 0xde, 0x26, 0xf0, 0xbe,
    0x1f, 0x4d, 0xb4, 0x3d, 0xb6, 0xb0, 0xd7, 0x3e, 0xc8, 0x83, 0x43, 0x3e,
    0xe9, 0xfb, 0xd7, 0xbe, 0xb9, 0xb2, 0xc1, 0xbd, 0x02, 0x28, 0x9b, 0x3e,
    0xd1, 0x2f, 0xed, 0x3e, 0x09, 0x1b, 0xef, 0x3e, 0x5c, 0x67, 0xd9, 0x3e,
    0xae, 0x01, 0x30, 0xbe, 0x2b, 0xff, 0xd0, 0x3e, 0xc6, 0x84, 0x66, 0xbd,
    0xd3, 0xb0, 0xed, 0xbc, 0x13, 0x41, 0x87, 0x3e, 0xb8, 0xb7, 0xa4, 0xbe,
    0x06, 0x8b, 0xd0, 0x3c, 0x12, 0xa6, 0xd5, 0x3e, 0x73, 0x4f, 0x92, 0xbe,
    0x16, 0xdc, 0xf7, 0x3e, 0xf4, 0xd1, 0x86, 0x3d, 0x73, 0x67, 0x66, 0x3e,
    0x96, 0x01, 0xa9, 0xba, 0xc1, 0x6c, 0xb1, 0xbe, 0x96, 0x89, 0x5a, 0x3c,
    0x33, 0x2a, 0xc0, 0xbe, 0xce, 0x1a, 0x2b, 0xbe, 0x0d, 0x1a, 0x54, 0x3e,
    0x09, 0xcc, 0xa8, 0x3e, 0x4d, 0xea, 0x3a, 0xbe, 0xfc, 0x88, 0x69, 0x3e,
    0xcc, 0x8c, 0x36, 0x3e, 0x1c, 0x6f, 0xd5, 0xbe, 0xb0, 0xab, 0x07, 0x3e,
    0x5b, 0xde, 0x03, 0xbf, 0x89, 0x47, 0x8b, 0x3d, 0xc5, 0xd1, 0x7d, 0xbe,
    0x6e, 0xf9, 0xb8, 0x3e, 0x9e, 0x15, 0xfe, 0x3d, 0x67, 0xa7, 0x21, 0xbe,
    0x33, 0x7a, 0x89, 0x3e, 0x7d, 0x6d, 0x89, 0xbd, 0xc8, 0x84, 0x18, 0xbe,
    0xa6, 0xd2, 0xd1, 0xbe, 0x71, 0x94, 0x0e, 0xbe, 0xb8, 0xa5, 0x3a, 0x3e,
    0x43, 0x90, 0xda, 0x3e, 0x54, 0xf4, 0x54, 0xbe, 0xfa, 0xb4, 0x61, 0x3e,
    0x3b, 0x3d, 0xb3, 0x3d, 0xef, 0x4d, 0xde, 0xbd, 0xb0, 0x79, 0x9d, 0x3e,
    0xaa, 0xfa, 0x94, 0x3e, 0x53, 0x62, 0xcb, 0x3e, 0x03, 0xba, 0x0a, 0xbd,
    0x2b, 0x3e, 0x84, 0x3e, 0xf1, 0x2f, 0x8a, 0x3e, 0xe3, 0xa3, 0x89, 0xbe,
    0xb2, 0x26, 0x58, 0x3e, 0x70, 0xc7, 0x8e, 0xbe, 0xcd, 0x7b, 0xd4, 0x3b,
    0x96, 0xc0, 0x5f, 0xbe, 0xf5, 0x6c, 0x90, 0x3d, 0x89, 0x50, 0x89, 0xbd,
    0x18, 0xf5, 0x08, 0xbf, 0xd2, 0xd5, 0x1b, 0x3e, 0x2f, 0x88, 0xdb, 0x3e,
    0x57, 0x92, 0x51, 0x3e, 0x10, 0x68, 0x86, 0xbc, 0x2a, 0x65, 0x12, 0xbe,
    0xd6, 0x9d, 0xc4, 0x3d, 0xd7, 0xbd, 0x1a, 0xbe, 0xe4, 0x81, 0xff, 0x3e,
    0xa3, 0x82, 0x80, 0xbe, 0x52, 0x74, 0x02, 0xbe, 0x8f, 0xbd, 0xc3, 0x3e,
    0xe6, 0xf3, 0x9f, 0x3e, 0x6e, 0x4f, 0xc6, 0x3d, 0x9f, 0x4c, 0x0f, 0xbe,
    0xdd, 0x2e, 0xcb, 0x3e, 0x03, 0xc7, 0xe3, 0xbe, 0x20, 0xc5, 0x96, 0x3e,
    0x35, 0x47, 0x74, 0x3e, 0x69, 0x91, 0xf7, 0xbc, 0x2e, 0x89, 0x92, 0x3e,
    0x66, 0x75, 0x13, 0x3d, 0x5c, 0x15, 0x7a, 0x3e, 0x04, 0x69, 0xbb, 0x3e,
    0xe2, 0x4f, 0x08, 0x3d, 0x93, 0xce, 0xb4, 0x3d, 0x34, 0xbf, 0xd1, 0x3d,
    0xee, 0xda, 0x1a, 0xbe, 0x0e, 0x32, 0xa4, 0x3e, 0x92, 0x12, 0xa1, 0xbe,
    0x11, 0xc9, 0x74, 0x3c, 0x49, 0x03, 0x8d, 0x3e, 0x22, 0x73, 0xfa, 0x3e,
    0xbb, 0x60, 0xe9, 0x3e, 0xe3, 0xed, 0xa1, 0xbe, 0xce, 0xb8, 0xa9, 0xbe,
    0x1c, 0x2f, 0xd6, 0x3e, 0x34, 0x26, 0xb2, 0xbd, 0xd1, 0xab, 0xda, 0x3d,
    0x4d, 0x57, 0xc6, 0x3e, 0x80, 0xb7, 0x26, 0xbc, 0xac, 0x6b, 0xa2, 0x3d,
    0x52, 0xd0, 0x01, 0xbe, 0xe7, 0x71, 0x2f, 0x3b, 0xc0, 0xe9, 0xcc, 0x3b,
    0x26, 0xb4, 0x91, 0xbe, 0x62, 0x12, 0x8b, 0xbe, 0xda, 0x7d, 0x0d, 0x3d,
    0x2d, 0x28, 0x43, 0x3e, 0x95, 0x46, 0x18, 0xbd, 0xde, 0xc9, 0xb1, 0xbe,
    0xb2, 0x73, 0x3a, 0x3e, 0xd9, 0xae, 0xb8, 0x3e, 0x3c, 0xa0, 0xfc, 0x3d,
    0x86, 0x35, 0x1a, 0xbe, 0x47, 0xd7, 0x0d, 0xbe, 0xf2, 0x6a, 0xa2, 0xbe,
    0x9a, 0x71, 0x85, 0xbe, 0x20, 0xbc, 0x78, 0x3d, 0xca, 0x28, 0xbc, 0xbd,
    0x06, 0xf7, 0x0d, 0xbe, 0x8b, 0x0d, 0x34, 0x3e, 0x9e, 0x86, 0xc6, 0x3d,
    0xe3, 0xb6, 0xa5, 0x3e, 0x51, 0xf0, 0xa1, 0xbe, 0x1f, 0xe1, 0x09, 0x3e,
    0xe3, 0x52, 0x48, 0x3e, 0x26, 0x4f, 0xda, 0x3e, 0x1d, 0x36, 0xc4, 0xbc,
    0x5a, 0x06, 0x28, 0xbe, 0xef, 0x93, 0x55, 0xbe, 0x4d, 0xe8, 0x0d, 0xbe,
    0x56, 0xfb, 0xab, 0xbe, 0xd8, 0x18, 0xde, 0xbd, 0xd4, 0x64, 0xa4, 0xbd,
    0x6e, 0xc6, 0xbd, 0xbe, 0x8a, 0x88, 0x0f, 0xbe, 0x35, 0x08, 0xa2, 0x3e,
    0x80, 0xe8, 0x4a, 0xbe, 0xa2, 0xb1, 0x42, 0x3e, 0xcb, 0x7b, 0x46, 0xbe,
    0x46, 0x68, 0x64, 0xbe, 0x48, 0x4a, 0xd7, 0xbd, 0xb2, 0x6f, 0x25, 0x3e,
    0xf6, 0x28, 0x41, 0x3e, 0x10, 0xea, 0x10, 0xbe, 0x3a, 0xbe, 0x6e, 0xbe,
    0xf1, 0xd4, 0x86, 0x3e, 0x7e, 0x7e, 0x21, 0x3e, 0xb8, 0xb5, 0xc5, 0x3e,
    0x10, 0x2f, 0x1a, 0x3d, 0x03, 0x4d, 0x22, 0xbe, 0xb3, 0x24, 0x12, 0x3d,
    0x5a, 0x3e, 0x82, 0xbe, 0xf4, 0x98, 0xe1, 0xbe, 0xc3, 0x6b, 0x08, 0x3e,
    0xba, 0x0e, 0x11, 0x3f, 0x34, 0xcf, 0x64, 0xbe, 0x01, 0xbc, 0x9c, 0x3e,
    0x26, 0xe9, 0x45, 0xbe, 0x8e, 0x55, 0x2f, 0xbe, 0xde, 0xc7, 0x7d, 0xbe,
    0x75, 0x36, 0x85, 0x3e, 0x71, 0xce, 0x9a, 0xbe, 0x7a, 0x57, 0x18, 0x3e,
    0x24, 0x20, 0x82, 0x3e, 0xb3, 0x1a, 0xab, 0x3e, 0x3e, 0x1e, 0xc4, 0x3d,
    0xf7, 0x07, 0x77, 0x3d, 0x16, 0x4f, 0xb4, 0x3e, 0x20, 0x1e, 0x71, 0x3e,
    0xe2, 0x61, 0xdf, 0x3e, 0xba, 0x9a, 0x39, 0xbf, 0xf3, 0x8e, 0xc2, 0xbe,
    0xf6, 0xd5, 0xe3, 0x3d, 0x7e, 0xb2, 0x23, 0x3e, 0x99, 0x48, 0x8a, 0xbe,
    0xed, 0xd9, 0xc0, 0x3e, 0x82, 0xbf, 0x02, 0x3e, 0xdc, 0xa1, 0x33, 0x3e,
    0x72, 0x65, 0xa5, 0x3d, 0x48, 0x0f, 0x70, 0x3d, 0x2c, 0x41, 0xc0, 0xbe,
    0xc9, 0x35, 0x24, 0xbe, 0xe9, 0x14, 0x23, 0xbe, 0xa2, 0x31, 0x9e, 0xbe,
    0x7f, 0xed, 0xc6, 0xbe, 0x5a, 0xbc, 0x5b, 0x3d, 0x0c, 0xbc, 0x53, 0x3e,
    0xd1, 0xc4, 0x30, 0xbe, 0x92, 0xf9, 0x1d, 0xbc, 0xa2, 0x32, 0x77, 0xbe,
    0xba, 0xbe, 0x24, 0xbe, 0x06, 0x85, 0xc1, 0xbe, 0x3a, 0xa4, 0x71, 0xbe,
    0x0c, 0x44, 0x95, 0x3e, 0x95, 0x6c, 0x88, 0xbe, 0xad, 0x91, 0x89, 0xbd,
    0x14, 0x64, 0x96, 0x3d, 0xfa, 0x50, 0x76, 0x3e, 0xa1, 0x83, 0x3e, 0xbe,
    0x1a, 0x7a, 0x22, 0x3d, 0x55, 0x2a, 0x53, 0x3e, 0xfa, 0x7a, 0x60, 0x3d,
    0x91, 0x37, 0x0f, 0xbd, 0x8f, 0x12, 0xe3, 0x3e, 0x52, 0x86, 0x9e, 0xbe,
    0x5a, 0x17, 0xc6, 0xbe, 0x24, 0xbd, 0xd3, 0x3d, 0x4a, 0x93, 0xbd, 0x3e,
    0x9c, 0x4a, 0x3a, 0xbe, 0x99, 0x8a, 0x84, 0xbe, 0x5b, 0x1a, 0xba, 0x3e,
    0xab, 0x0c, 0x8e, 0x3d, 0x7e, 0xb3, 0x77, 0x3e, 0x4c, 0xb2, 0xd4, 0xbe,
    0xd6, 0x57, 0x32, 0x3e, 0x4f, 0xff, 0x85, 0x3e, 0x86, 0x34, 0x80, 0x3e,
    0x23, 0x0b, 0xd0, 0x3d, 0xd0, 0x9b, 0x7a, 0xbd, 0xc8, 0x33, 0x6f, 0xbe,
    0x0c, 0xb7, 0x8c, 0x3e, 0xb2, 0x2f, 0x84, 0x3e, 0xef, 0x4e, 0x9f, 0x3e,
    0xc0, 0x9f, 0x9b, 0xbc, 0x28, 0x96, 0x56, 0xbe, 0xf1, 0x4e, 0x88, 0xbe,
    0x92, 0xf0, 0xff, 0xff, 0x04, 0x00, 0x00, 0x00, 0x00, 0x04, 0x00, 0x00,
    0xd7, 0x45, 0x8a, 0xbe, 0x56, 0xcb, 0xba, 0x3c, 0x85, 0xb3, 0xed, 0x3d,
    0xa3, 0x85, 0x88, 0xbe, 0xe8, 0x01, 0x8d, 0xbe, 0x86, 0xa3, 0x6a, 0x3e,
    0x6b, 0x08, 0x71, 0x3e, 0x70, 0x7b, 0x63, 0x3d, 0x9f, 0x76, 0x5f, 0x3e,
    0x0a, 0x4c, 0xca, 0xbe, 0xb7, 0x9b, 0xa7, 0x3e, 0x9e, 0x93, 0x2a, 0x3f,
    0x9d, 0xb2, 0xb3, 0xbe, 0x0c, 0xe0, 0x1a, 0x3e, 0xa8, 0xf1, 0x80, 0x3e,
    0x94, 0xf9, 0x22, 0xbe, 0xc5, 0x0f, 0x68, 0xbe, 0xfd, 0xa5, 0x85, 0xbe,
    0xbd, 0x1b, 0xa6, 0x3e, 0x2d, 0x6b, 0x36, 0xbe, 0xd8, 0xff, 0xb5, 0xbe,
    0xe3, 0xaa, 0x88, 0xbe, 0x05, 0xab, 0xac, 0xbe, 0x75, 0x4a, 0xc4, 0x3e,
    0xe9, 0x0f, 0xa3, 0x3d, 0x3a, 0x8f, 0xdd, 0x3e, 0xe0, 0x47, 0x8b, 0x3d,
    0x5e, 0xa9, 0xd5, 0x3e, 0x00, 0xa7, 0xeb, 0x3e, 0xe6, 0x16, 0x55, 0x3c,
    0x8d, 0xb5, 0xa0, 0x3e, 0x5f, 0x0c, 0xc8, 0xbd, 0xc2, 0x67, 0x3a, 0xbe,
    0xe8, 0x74, 0xb7, 0xbe, 0xf4, 0xa9, 0xd3, 0x3d, 0x14, 0x09, 0xda, 0x3d,
    0x5e, 0xb4, 0x27, 0x3e, 0x42, 0x9f, 0x0a, 0xbe, 0x96, 0xb7, 0xd2, 0xbe,
    0x5a, 0x40, 0x3d, 0x3e, 0x5a, 0x2b, 0x3a, 0x3e, 0x58, 0x7f, 0xd8, 0xbd,
    0x5c, 0xc5, 0xa2, 0xbd, 0xc3, 0x7f, 0x5e, 0xbe, 0xfb, 0xd8, 0x8a, 0x3e,
    0x5a, 0x45, 0xae, 0xbe, 0x8d, 0x2a, 0x83, 0x3e, 0x7c, 0x10, 0xc6, 0x3d,
    0xc8, 0xdc, 0xf9, 0x3e, 0x79, 0x9e, 0x9f, 0x3e, 0x73, 0x2e, 0xd4, 0x3e,
    0xdd, 0x5c, 0xc7, 0x3e, 0x38, 0x50, 0xb9, 0xbe, 0x73, 0xe1, 0x95, 0x3e,
    0x8f, 0x8e, 0x45, 0xbe, 0xf7, 0x93, 0xa3, 0x3e, 0x1e, 0x85, 0xc1, 0x3e,
    0x7f, 0x09, 0x06, 0x3e, 0x74, 0x1b, 0x9f, 0x3e, 0xc4, 0x74, 0x0a, 0x3e,
    0xb4, 0xb8, 0x89, 0xbd, 0x9c, 0xc9, 0xc0, 0x3e, 0xbd, 0xf6, 0x5b, 0xbe,
    0x0f, 0x53, 0xcc, 0x3e, 0x1f, 0xe1, 0x12, 0xbd, 0x13, 0xc0, 0x27, 0xbe,
    0xa3, 0xee, 0x4f, 0x3e, 0xd9, 0xe1, 0xbe, 0x3e, 0xc6, 0x12, 0x8e, 0xbe,
    0x34, 0x6b, 0x2f, 0xbd, 0x44, 0x75, 0xa6, 0x3e, 0x3e, 0x22, 0x26, 0x3e,
    0x98, 0xe9, 0xb8, 0xbe, 0x37, 0xe6, 0xb3, 0x3e, 0xfd, 0x48, 0xcf, 0xbe,
    0xf0, 0x27, 0x89, 0x3e, 0x6e, 0x33, 0xc5, 0x3e, 0xf7, 0xee, 0x3e, 0xbe,
    0x43, 0x10, 0x39, 0xba, 0x30, 0xb2, 0xb8, 0x3c, 0xdc, 0x53, 0x23, 0x3c,
    0x06, 0x4c, 0xb2, 0xbe, 0x32, 0x04, 0x8a, 0xbd, 0xd0, 0xed, 0x90, 0x3e,
    0x0b, 0x5d, 0xc8, 0x3d, 0x63, 0xbf, 0x58, 0x3e, 0x85, 0x7b, 0xaf, 0xbe,
    0x34, 0x1e, 0x0c, 0xbe, 0x4e, 0x7b, 0xd0, 0x3e, 0x33, 0xde, 0x93, 0xbe,
    0xfd, 0xb9, 0x06, 0xbe, 0x6b, 0x40, 0x71, 0xbe, 0xc5, 0x16, 0x53, 0xbd,
    0x1d, 0xe8, 0xa9, 0xbd, 0xcc, 0xa2, 0x96, 0x3d, 0xf3, 0x2e, 0xc0, 0xbd,
    0xf8, 0x30, 0x83, 0x3e, 0x35, 0x5a, 0x77, 0xbe, 0x8a, 0x9b, 0xc0, 0xbd,
    0xb2, 0x79, 0x2a, 0x3c, 0x9f, 0x6e, 0x2f, 0x3e, 0x90, 0x11, 0x25, 0xbe,
    0xa6, 0xb6, 0xcd, 0xbd, 0x48, 0xc8, 0x05, 0x3d, 0xed, 0xf5, 0x6f, 0x3e,
    0x0e, 0xaf, 0xc6, 0x3e, 0x30, 0x7c, 0x97, 0x3e, 0x89, 0xb4, 0x61, 0xbd,
    0xc4, 0xf1, 0x40, 0xbf, 0x44, 0x8a, 0x14, 0x3d, 0xdb, 0x25, 0xb6, 0xbe,
    0x79, 0xa3, 0x82, 0x3e, 0x91, 0x9e, 0x82, 0x3d, 0x03, 0x6d, 0x2e, 0xbe,
    0x41, 0xc5, 0x4d, 0xbe, 0x2d, 0xa2, 0x3c, 0x3d, 0x59, 0x80, 0x15, 0x3d,
    0xf7, 0xa3, 0xa5, 0x3e, 0x9f, 0x32, 0x7d, 0xbe, 0x80, 0x48, 0x8f, 0xbb,
    0x75, 0xe0, 0xe5, 0x3e, 0xd5, 0xf7, 0xc6, 0x3d, 0xab, 0x63, 0xdf, 0x3e,
    0x45, 0x71, 0xbc, 0x3e, 0x97, 0xa4, 0x01, 0xbf, 0x76, 0xd7, 0xd9, 0x3e,
    0xc3, 0x50, 0x2a, 0xbd, 0x71, 0x1f, 0x56, 0x3e, 0x29, 0xac, 0xb5, 0x3e,
    0xe6, 0x07, 0xd0, 0xbe, 0xcc, 0xcf, 0x75, 0x3e, 0x60, 0xb8, 0x97, 0x3e,
    0x61, 0x33, 0x30, 0x3e, 0x20, 0x03, 0xe2, 0xbe, 0xc3, 0x17, 0x88, 0xbe,
    0xc4, 0xff, 0x92, 0xbe, 0x76, 0xcc, 0xfb, 0xbe, 0x23, 0xfa, 0x41, 0xbe,
    0xf8, 0x9d, 0x6a, 0x3e, 0xfe, 0xa0, 0x02, 0xbf, 0xad, 0xdc, 0xee, 0x3e,
    0xe2, 0x64, 0xce, 0xbb, 0xd6, 0x13, 0x99, 0xbe, 0x10, 0xf5, 0x20, 0x3d,
    0x56, 0xd1, 0xb7, 0xbe, 0x62, 0x8f, 0x77, 0xbe, 0xcc, 0xb0, 0xba, 0x3e,
    0x4d, 0x71, 0xca, 0x3e, 0xf2, 0x4d, 0x29, 0xbd, 0x2d, 0x26, 0x84, 0x3d,
    0x54, 0xbb, 0x9b, 0x3e, 0xc7, 0xf6, 0xd9, 0x3e, 0xbb, 0x19, 0xcd, 0x3e,
    0x93, 0xee, 0x17, 0x3e, 0xd7, 0xeb, 0xa9, 0x3c, 0x8e, 0x08, 0x24, 0x3f,
    0x16, 0x18, 0x0a, 0x3c, 0x06, 0xa2, 0xa4, 0x3e, 0x3a, 0xf6, 0x32, 0x3e,
    0x7c, 0xa5, 0x3c, 0xbc, 0x77, 0x52, 0xc9, 0x3d, 0x20, 0xb1, 0x1c, 0x3d,
    0xc6, 0xd7, 0xaa, 0x3e, 0xa6, 0x58, 0x9d, 0xbe, 0x7f, 0x19, 0x55, 0xbe,
    0x2b, 0xae, 0x39, 0xbe, 0x11, 0x31, 0xca, 0xbd, 0x45, 0x11, 0xdd, 0xbe,
    0x4e, 0x72, 0xa0, 0x3e, 0xf4, 0x11, 0xbf, 0x3e, 0xfd, 0x29, 0x1e, 0x3e,
    0x9b, 0xf7, 0x49, 0x3e, 0xc2, 0x48, 0x8b, 0xbd, 0xa3, 0xe4, 0xc4, 0x3e,
    0x1d, 0x13, 0x5f, 0xbe, 0xc5, 0x12, 0xb8, 0x3e, 0x85, 0x96, 0xaf, 0xbe,
    0xa1, 0xa5, 0xd6, 0x3e, 0x8e, 0x96, 0xb9, 0x3e, 0xe0, 0xfa, 0xe9, 0x3e,
    0x39, 0x1e, 0x97, 0xbe, 0xae, 0x88, 0x64, 0x3e, 0xf7, 0x6f, 0xba, 0x3d,
    0x60, 0xf0, 0x9f, 0xbc, 0xe1, 0xd8, 0xed, 0x3e, 0x63, 0x7c, 0xb3, 0xbe,
    0x57, 0x08, 0xfd, 0xbc, 0xcc, 0xe2, 0xf0, 0x3d, 0x8d, 0xa4, 0xf9, 0xbe,
    0x88, 0xa2, 0x12, 0x3e, 0x78, 0xc9, 0xdc, 0x3e, 0x5e, 0x2e, 0x9b, 0x3e,
    0x0f, 0xae, 0x98, 0xbd, 0x3c, 0xc0, 0xab, 0xbe, 0x32, 0x1d, 0x52, 0xba,
    0x66, 0x0a, 0x9a, 0xbe, 0xeb, 0x13, 0x78, 0x3e, 0xad, 0xe0, 0xb3, 0x3e,
    0x03, 0x82, 0x3c, 0xbe, 0x2d, 0x47, 0x9e, 0xbe, 0x32, 0x77, 0x94, 0xbd,
    0x39, 0x71, 0xc5, 0xbc, 0xd3, 0x1d, 0x6e, 0xbe, 0x6c, 0xfc, 0xc2, 0xbe,
    0x03, 0x87, 0x28, 0xbe, 0x6c, 0xae, 0x38, 0x3e, 0xf9, 0x28, 0x3d, 0xbe,
    0x7f, 0x5e, 0xd3, 0xbe, 0x83, 0x97, 0x30, 0xbe, 0x0c, 0xf4, 0x3c, 0xbe,
    0xc6, 0x6c, 0x9f, 0xbd, 0x9c, 0x7e, 0xd8, 0x3d, 0xe5, 0x3d, 0x0d, 0xbd,
    0x09, 0x9b, 0x26, 0x3e, 0x83, 0x41, 0xaf, 0x3d, 0x51, 0xaa, 0xa4, 0x3e,
    0x68, 0xa7, 0xd6, 0xbe, 0xc8, 0x62, 0xc9, 0x3e, 0x85, 0x90, 0x50, 0xbd,
    0xd0, 0x9c, 0xde, 0x3c, 0x35, 0xfd, 0xb0, 0x3e, 0x54, 0x54, 0x9d, 0xbe,
    0xe1, 0x0e, 0xb8, 0x3e, 0xcb, 0x33, 0x97, 0x3e, 0xd4, 0x75, 0x41, 0xbd,
    0x2e, 0x11, 0xd0, 0xbe, 0xc2, 0x59, 0xe0, 0x3b, 0x78, 0x27, 0x1e, 0x3e,
    0x51, 0x91, 0x5f, 0x3e, 0x99, 0x5f, 0xd5, 0xbd, 0x98, 0xfa, 0x5c, 0xbe,
    0xde, 0x6a, 0x90, 0xbe, 0xef, 0xf6, 0xc6, 0x3e, 0x5f, 0xe8, 0x52, 0xbe,
    0xea, 0xbb, 0x95, 0x3e, 0xf6, 0xef, 0x86, 0x3d, 0x5c, 0x55, 0x19, 0xbe,
    0x5f, 0x6f, 0xaf, 0xbd, 0x98, 0x0a, 0x41, 0xbe, 0xd0, 0xc8, 0x8a, 0xbe,
    0x99, 0x85, 0x93, 0x3e, 0xbf, 0x5a, 0xc7, 0x3d, 0xce, 0x3d, 0x49, 0x3e,
    0xa4, 0x9c, 0xbc, 0xbe, 0xb7, 0x2d, 0x36, 0xbe, 0x4a, 0x8f, 0x5d, 0x3e,
    0x2d, 0x39, 0xb1, 0x3d, 0xd4, 0x73, 0xd2, 0x3d, 0xc3, 0x3d, 0xba, 0x3d,
    0xe0, 0x6d, 0x70, 0xbe, 0x4b, 0xf6, 0x57, 0xbe, 0xde, 0x05, 0x3a, 0x3f,
    0x97, 0x1e, 0xd0, 0xbe, 0xe7, 0xd5, 0xea, 0x3e, 0x83, 0xbb, 0x98, 0x3e,
    0x11, 0x95, 0x28, 0x3e, 0x9e, 0xf4, 0xff, 0xff, 0x04, 0x00, 0x00, 0x00,
    0x00, 0x04, 0x00, 0x00, 0xde, 0xd6, 0x9f, 0xbd, 0x3d, 0xa9, 0xb2, 0x3e,
    0x22, 0x93, 0x31, 0x3e, 0xca, 0x6e, 0xc3, 0x3d, 0x70, 0x07, 0x8b, 0xbe,
    0x8e, 0xa6, 0x52, 0x3e, 0x21, 0xfd, 0xcf, 0xbe, 0x1e, 0x5c, 0x9b, 0x3e,
    0x45, 0xa9, 0x6b, 0xbe, 0x46, 0x66, 0xa1, 0x3e, 0x75, 0xaf, 0xea, 0xbe,
    0x77, 0x55, 0xc5, 0xbe, 0x1a, 0xa6, 0xa8, 0x3e, 0x80, 0x25, 0xd4, 0x3d,
    0xf0, 0x15, 0x16, 0xbc, 0x7a, 0x07, 0x8b, 0x3e, 0x7d, 0xdc, 0xe5, 0x3e,
    0x80, 0x86, 0x8c, 0xbe, 0x41, 0xac, 0xfc, 0x3d, 0xd2, 0xf2, 0xff, 0xbe,
    0x4a, 0x99, 0x9d, 0xbe, 0x61, 0xd1, 0x72, 0xbe, 0x86, 0xfd, 0x6d, 0xbe,
    0x12, 0x8d, 0x08, 0xbf, 0x43, 0x5d, 0x6f, 0xbd, 0x39, 0x63, 0xbc, 0x3e,
    0xb8, 0x0f, 0xbc, 0x3e, 0x1e, 0x12, 0x89, 0x3e, 0xd6, 0x4e, 0xaf, 0x3e,
    0x25, 0x3f, 0x91, 0x3b, 0x04, 0xa3, 0xe0, 0x3e, 0x54, 0x40, 0x78, 0x3e,
    0xf7, 0x4a, 0xc6, 0x3e, 0x5c, 0xb2, 0x65, 0xbd, 0x51, 0x51, 0x89, 0x3e,
    0x24, 0x22, 0x15, 0xbc, 0x06, 0x87, 0x9a, 0x3e, 0x77, 0x62, 0x15, 0x3e,
    0xac, 0xf0, 0x0d, 0xbe, 0xb4, 0xd1, 0x57, 0xbe, 0xd3, 0x8a, 0xcf, 0x3e,
    0x8b, 0xd2, 0x89, 0x3c, 0x99, 0x12, 0x71, 0x3e, 0x54, 0xec, 0x2e, 0x3e,
    0xa9, 0xd5, 0xe8, 0x3e, 0x75, 0xba, 0x6f, 0xbd, 0x7b, 0xbe, 0x93, 0x3e,
    0xfd, 0xcd, 0x20, 0xbd, 0x01, 0x90, 0x18, 0x3e, 0xf4, 0x4f, 0xf7, 0xbc,
    0x19, 0x9e, 0x76, 0x3e, 0x21, 0x79, 0xe0, 0xbe, 0xfc, 0xe6, 0xd7, 0xbe,
    0x73, 0x33, 0x58, 0x3d, 0x99, 0xe5, 0x46, 0x3e, 0x70, 0x38, 0xd2, 0xbd,
    0xa9, 0xc5, 0x58, 0x3a, 0xb0, 0xfa, 0x3d, 0x3d, 0x9b, 0x76, 0x46, 0x3c,
    0xc4, 0xa3, 0x9d, 0x3d, 0x2b, 0x51, 0x04, 0x3e, 0xc3, 0x95, 0x81, 0xbe,
    0xcd, 0xc9, 0x97, 0xbe, 0x06, 0x97, 0xc7, 0x3e, 0xf4, 0x55, 0x69, 0x3d,
    0x4e, 0xa7, 0xc4, 0x3e, 0xed, 0x48, 0xd2, 0xbe, 0xfa, 0x40, 0xdc, 0xbe,
    0x8a, 0xee, 0x91, 0x3e, 0xd9, 0x56, 0x39, 0xbe, 0xee, 0xfb, 0x10, 0xbd,
    0x32, 0x7f, 0xc0, 0x3e, 0xd0, 0xd0, 0x18, 0xbe, 0xfd, 0xa3, 0x79, 0x3e,
    0xa9, 0x9b, 0x1a, 0x3e, 0xf3, 0xa7, 0xb4, 0x3c, 0xe7, 0x32, 0xec, 0xbd,
    0xd6, 0xcb, 0x9b, 0x3d, 0xd6, 0xb3, 0xd9, 0xbe, 0xed, 0xbb, 0x33, 0x3c,
    0x17, 0x77, 0x3a, 0x3c, 0xd1, 0x84, 0x29, 0x3e, 0x97, 0x11, 0xcb, 0xbd,
    0x2f, 0x32, 0x62, 0x3e, 0x14, 0x1f, 0x70, 0xbe, 0x2a, 0xcb, 0x9a, 0xbd,
    0x85, 0xb8, 0x50, 0x3e, 0xe4, 0x5e, 0x74, 0x3e, 0x57, 0xc9, 0xa0, 0xbe,
    0x8a, 0x36, 0x7b, 0x3d, 0xd1, 0x70, 0x35, 0x3e, 0x2b, 0x10, 0xd5, 0x3e,
    0x6e, 0xb9, 0xbd, 0xbd, 0xf8, 0xcc, 0x4f, 0xbe, 0x9e, 0x69, 0x8f, 0x3e,
    0x96, 0x97, 0x82, 0xbe, 0x99, 0x3c, 0x16, 0x3e, 0x45, 0x23, 0x0e, 0xbb,
    0x88, 0x59, 0x3b, 0xbd, 0xc5, 0x42, 0x21, 0x3e, 0xb0, 0x15, 0x73, 0x3e,
    0x90, 0x1e, 0xe9, 0x3d, 0x87, 0x31, 0xae, 0xbe, 0x79, 0xdc, 0xe7, 0xbd,
    0xc1, 0xd4, 0xa1, 0xbe, 0xfb, 0x13, 0xfb, 0x3d, 0x77, 0xb3, 0xd2, 0x3e,
    0x61, 0xa0, 0x76, 0x3e, 0xad, 0xb8, 0x9a, 0xbd, 0x2b, 0x7d, 0x8e, 0x3e,
    0x9a, 0x4c, 0xae, 0xbd, 0x04, 0xf8, 0x87, 0x3d, 0xc3, 0xed, 0xcc, 0xbe,
    0x20, 0x67, 0xf6, 0x3c, 0xce, 0xff, 0xda, 0xbe, 0x23, 0xd0, 0x98, 0x3e,
    0xbe, 0xe9, 0x23, 0xbe, 0x00, 0x3b, 0x86, 0x3b, 0x18, 0xbf, 0x86, 0x3d,
    0x48, 0xf4, 0x39, 0xbe, 0xb8, 0x5f, 0xd6, 0xbe, 0xec, 0xa7, 0xd4, 0xbd,
    0xb8, 0xaa, 0xca, 0xbd, 0xf4, 0xe3, 0xa6, 0xbe, 0x84, 0x9e, 0xd0, 0xbe,
    0x5b, 0x16, 0x40, 0xbe, 0x92, 0xf3, 0x2a, 0x3e, 0xdf, 0x7c, 0x7e, 0xbe,
    0xfd, 0x27, 0x9c, 0x3e, 0x84, 0x55, 0x84, 0x3d, 0x78, 0x39, 0x39, 0x3f,
    0x91, 0x4e, 0xbe, 0xbe, 0x3c, 0x31, 0x17, 0x3d, 0xee, 0x07, 0x8a, 0x3e,
    0xac, 0x5f, 0xc8, 0x3e, 0x1a, 0xb8, 0x0a, 0xbf, 0x72, 0x81, 0x81, 0x3e,
    0x9a, 0x20, 0xab, 0x3e, 0x53, 0x0d, 0xa5, 0x3e, 0x6b, 0xc1, 0x41, 0x3d,
    0x82, 0xd5, 0xa3, 0x3e, 0x3d, 0x58, 0x5b, 0x3d, 0xa9, 0xd5, 0xa2, 0x3e,
    0xbe, 0x16, 0xbf, 0x3e, 0x54, 0xb5, 0xef, 0x3d, 0x0f, 0x66, 0xba, 0xbd,
    0x63, 0x8f, 0xd3, 0x3d, 0x0c, 0xba, 0x99, 0xbe, 0x20, 0x9d, 0xda, 0xbd,
    0x56, 0x2b, 0x08, 0x3e, 0x22, 0x53, 0xdb, 0xbe, 0x8b, 0xc7, 0x53, 0xbd,
    0x9f, 0xa4, 0x1e, 0xbe, 0x97, 0x95, 0xbe, 0x3d, 0x50, 0xe2, 0xbf, 0xbe,
    0x02, 0x25, 0xae, 0x3e, 0xeb, 0x54, 0xac, 0xbd, 0x3a, 0xb7, 0x97, 0x3e,
    0x1f, 0x28, 0x6a, 0xbc, 0x90, 0xc2, 0x77, 0xbe, 0xeb, 0x76, 0x22, 0x3e,
    0x07, 0x63, 0x18, 0xbe, 0x49, 0x91, 0x3f, 0x3f, 0x24, 0x65, 0xc2, 0x3e,
    0x16, 0xf1, 0x03, 0x3e, 0x74, 0xbe, 0x5b, 0x3e, 0xa8, 0x67, 0x8b, 0xbe,
    0x4d, 0xaa, 0x5d, 0x3e, 0x71, 0x99, 0x9b, 0x3e, 0xd7, 0x62, 0x3e, 0xbe,
    0xc0, 0x5f, 0xa1, 0xbe, 0xe5, 0x41, 0xe8, 0xbe, 0xeb, 0x33, 0x03, 0x3e,
    0x8b, 0x63, 0x04, 0x3e, 0x50, 0xb3, 0xd4, 0x3e, 0xbd, 0x56, 0x5c, 0x3e,
    0x97, 0x74, 0xd1, 0x3e, 0xf8, 0x2a, 0xa1, 0x3e, 0x99, 0x40, 0x6b, 0x3e,
    0xb0, 0x0b, 0x9f, 0xbe, 0x36, 0xd9, 0x6d, 0xbd, 0xb2, 0x57, 0xd1, 0x3e,
    0x9c, 0x56, 0x19, 0xbe, 0x49, 0x88, 0xf2, 0x3d, 0xd9, 0xf5, 0x95, 0xbe,
    0x6e, 0x3e, 0x06, 0xbe, 0xf0, 0x21, 0xf5, 0x3e, 0x7e, 0x60, 0xcd, 0x3e,
    0xeb, 0xc4, 0xcd, 0x3e, 0xc2, 0x6d, 0x19, 0x3d, 0x0e, 0x74, 0x3d, 0xbe,
    0xf7, 0x11, 0x52, 0xbe, 0xbc, 0x7b, 0xb3, 0xbc, 0xa2, 0x35, 0x21, 0xbe,
    0x14, 0xa6, 0xc8, 0xbe, 0xa5, 0x90, 0x65, 0x3e, 0x61, 0xd7, 0xf9, 0x3d,
    0xac, 0x4f, 0x5c, 0x3e, 0x80, 0xfb, 0xd7, 0xba, 0xfb, 0x01, 0xd7, 0x3d,
    0x8e, 0xe9, 0xc4, 0xbe, 0xde, 0x10, 0x45, 0xbf, 0xe3, 0x7a, 0xe7, 0xbe,
    0x66, 0x6f, 0xce, 0x3e, 0x62, 0x98, 0xee, 0x3e, 0xb9, 0x9f, 0x8a, 0x3e,
    0xee, 0x7c, 0xb2, 0x3d, 0xa2, 0x00, 0x5d, 0xbe, 0xa2, 0x7d, 0x04, 0xbe,
    0x3a, 0xf9, 0x21, 0xbe, 0x5c, 0xa0, 0xb3, 0x3c, 0x1d, 0x8b, 0xc8, 0x3e,
    0x6d, 0xf0, 0xec, 0x3e, 0x2c, 0x7f, 0xbc, 0x3e, 0x75, 0x11, 0xc9, 0x3e,
    0xad, 0xaa, 0x17, 0xbe, 0x60, 0x97, 0x91, 0xbe, 0x6a, 0x4a, 0x0c, 0x3f,
    0xb4, 0x46, 0x8a, 0x3e, 0x41, 0x83, 0x93, 0xbe, 0x2e, 0x9b, 0x48, 0x3e,
    0xf4, 0x85, 0xfe, 0x3e, 0x56, 0xa1, 0x9d, 0x3e, 0x82, 0x39, 0x7e, 0x3e,
    0xa8, 0x0a, 0xa7, 0xbd, 0xc9, 0x4f, 0x6a, 0xbe, 0x5e, 0xc6, 0x9b, 0xbd,
    0x20, 0x27, 0xc3, 0x3e, 0x32, 0x54, 0x92, 0xbe, 0x6a, 0x88, 0x24, 0x3e,
    0xc0, 0x53, 0x06, 0x3c, 0x13, 0xb6, 0x6e, 0xbe, 0x2a, 0x4f, 0xa9, 0xbe,
    0x80, 0xcd, 0x45, 0x3e, 0x27, 0xeb, 0xb6, 0x3d, 0x74, 0x21, 0x41, 0xbe,
    0x31, 0xe1, 0xe7, 0x3d, 0x0a, 0x77, 0xa8, 0x3e, 0x53, 0x86, 0xd8, 0xbb,
    0xb5, 0x99, 0xb3, 0xbe, 0xd0, 0xac, 0x2b, 0xbe, 0x64, 0x7d, 0xef, 0x3d,
    0xf3, 0x4a, 0xa4, 0x3e, 0x84, 0xa5, 0x89, 0xbe, 0x10, 0xbb, 0xca, 0xbe,
    0x1a, 0x9c, 0xc1, 0x3e, 0xd0, 0x3c, 0x99, 0xbe, 0xce, 0xb3, 0x21, 0x3e,
    0x95, 0xee, 0x5e, 0xbe, 0x40, 0xf3, 0x48, 0x3c, 0x30, 0xbc, 0x5b, 0xbd,
    0x5f, 0x5b, 0x7a, 0xbe, 0xc8, 0x02, 0xac, 0xbe, 0xbf, 0xc2, 0x90, 0x3e,
    0x45, 0x65, 0x31, 0xbd, 0xa8, 0xa8, 0x1d, 0xbe, 0xaa, 0xf8, 0xff, 0xff,
    0x04, 0x00, 0x00, 0x00, 0xc0, 0x03, 0x00, 0x00, 0xf0, 0x69, 0xa8, 0xbe,
    0xc3, 0x41, 0x4e, 0xbd, 0xf9, 0x0e, 0x79, 0xbe, 0xd6, 0x87, 0xce, 0xbe,
    0x85, 0x8c, 0xe8, 0x3e, 0x68, 0xb4, 0x86, 0xbd, 0xd8, 0x0a, 0x84, 0xbd,
    0x30, 0xc1, 0x5a, 0x3d, 0x3e, 0xbc, 0xf1, 0x3e, 0x7d, 0x97, 0x5f, 0xbe,
    0x3d, 0x66, 0xbc, 0xbd, 0x45, 0x9f, 0x8b, 0x3e, 0x32, 0xaa, 0xa7, 0x3e,
    0x78, 0x9b, 0x2f, 0xbd, 0xa4, 0x86, 0xdd, 0x3e, 0xae, 0x09, 0x09, 0x3e,
    0xd3, 0x05, 0x8a, 0xbe, 0x05, 0xd3, 0x8e, 0x3e, 0xd9, 0xbf, 0xc8, 0x3d,
    0x57, 0x78, 0x63, 0x3e, 0x23, 0xfb, 0xa1, 0x3e, 0x86, 0x35, 0xa0, 0xbe,
    0xa7, 0xbe, 0x94, 0xbe, 0xcb, 0xdd, 0xf6, 0xbd, 0x69, 0xaf, 0x89, 0xbe,
    0xb3, 0x1e, 0x3d, 0xbd, 0xd6, 0xc9, 0x8b, 0xbe, 0x67, 0xdc, 0xb4, 0x3e,
    0x55, 0x39, 0xa1, 0xbd, 0x9a, 0x60, 0xea, 0x3e, 0xaf, 0x86, 0xbb, 0x3e,
    0xad, 0xb2, 0x08, 0xbf, 0xb6, 0xa7, 0x80, 0xbd, 0xf2, 0x97, 0x6c, 0xbe,
    0x4b, 0x96, 0x50, 0xbf, 0x1b, 0xad, 0x84, 0xbe, 0xb1, 0x46, 0x27, 0x3e,
    0x35, 0xd3, 0x74, 0x3d, 0x0b, 0x21, 0xd8, 0x3d, 0x01, 0x58, 0x09, 0xbd,
    0xb4, 0x0d, 0x39, 0x3e, 0xa7, 0xce, 0x0c, 0xbe, 0xf7, 0xbe, 0x8b, 0x3e,
    0x3f, 0x71, 0x07, 0xbf, 0x45, 0x22, 0x83, 0xbe, 0x1d, 0x39, 0x9f, 0xbd,
    0x61, 0xf5, 0x44, 0x3e, 0x64, 0x11, 0xab, 0x3d, 0x01, 0xbd, 0xa9, 0x3e,
    0xb6, 0x0a, 0xe6, 0x3e, 0x03, 0xb6, 0x84, 0xbb, 0x96, 0x93, 0x94, 0xbd,
    0x5d, 0x05, 0x07, 0x3f, 0xd7, 0x85, 0x76, 0x3e, 0x93, 0xf1, 0xa9, 0xbd,
    0x8e, 0x6f, 0x33, 0x3e, 0xc5, 0xa5, 0x2a, 0x3d, 0xaf, 0x4b, 0x2a, 0x3e,
    0xbd, 0x0b, 0xaa, 0xbe, 0x6e, 0x90, 0x57, 0x3d, 0xe8, 0xfa, 0x04, 0xbf,
    0x9b, 0x4d, 0x25, 0xbe, 0x74, 0xc4, 0x13, 0x3e, 0x88, 0xeb, 0x83, 0x3a,
    0xcd, 0x38, 0xe1, 0xbd, 0xe5, 0x62, 0xf3, 0xbe, 0x09, 0xf1, 0xe4, 0xbe,
    0x65, 0xa4, 0xea, 0xbd, 0x07, 0x39, 0xf8, 0xbd, 0xd0, 0x21, 0xae, 0xbc,
    0x3e, 0x42, 0xe7, 0x3e, 0x25, 0x86, 0x4f, 0x3e, 0x70, 0x66, 0x4e, 0xbe,
    0xa3, 0xcb, 0xe3, 0xbd, 0x26, 0xcc, 0x6c, 0xbe, 0x9f, 0x49, 0x57, 0xbe,
    0xa2, 0x98, 0x8f, 0xbe, 0xc2, 0x0a, 0x54, 0x3e, 0x8c, 0x93, 0xe7, 0x3d,
    0xe7, 0x7d, 0xe3, 0xbd, 0x46, 0xa1, 0xc5, 0xbe, 0x51, 0xde, 0xd8, 0x3e,
    0x9c, 0xb6, 0x1a, 0x3e, 0x05, 0xdf, 0xa4, 0x3e, 0x8a, 0xdc, 0x9a, 0xbe,
    0x91, 0x32, 0x83, 0xbd, 0xec, 0x3e, 0x10, 0xbe, 0x17, 0x7b, 0x85, 0xbe,
    0x8c, 0x3e, 0xc8, 0x3c, 0xed, 0xcf, 0x8e, 0x3d, 0x72, 0xe9, 0xc8, 0xbe,
    0x52, 0x40, 0x6c, 0xbe, 0x3f, 0xb7, 0x80, 0xbe, 0x4a, 0x1d, 0x9e, 0x3e,
    0x26, 0xea, 0xab, 0xbd, 0x45, 0x44, 0x2a, 0x3d, 0x12, 0xe6, 0x96, 0x3e,
    0xad, 0x28, 0xa5, 0x3e, 0xd4, 0x55, 0x9a, 0x3d, 0xf0, 0x36, 0x96, 0x3e,
    0x8c, 0x31, 0x93, 0xbe, 0x50, 0xcd, 0x0b, 0xbe, 0xe9, 0x8b, 0xd4, 0x3e,
    0x50, 0x62, 0xaa, 0xbe, 0xee, 0x12, 0xeb, 0x3e, 0x1d, 0x7c, 0xd1, 0xbe,
    0x64, 0x17, 0x08, 0x3c, 0x56, 0xe2, 0x1f, 0x3e, 0xf9, 0xe8, 0xe9, 0xbe,
    0x85, 0xdb, 0x47, 0x3e, 0xb4, 0x9d, 0x8a, 0x3e, 0x2d, 0x59, 0xdb, 0x3d,
    0xae, 0x3d, 0x09, 0x3f, 0x99, 0x20, 0x4b, 0xbe, 0x60, 0xe3, 0xe1, 0xbe,
    0xd3, 0xe0, 0x97, 0xbe, 0x50, 0x95, 0xb3, 0x3d, 0xfa, 0x7d, 0x6e, 0x3d,
    0x0c, 0xd1, 0x7f, 0xbe, 0x12, 0x0f, 0x09, 0xbe, 0xe3, 0xf6, 0x9a, 0x3d,
    0x36, 0x63, 0xe2, 0x3e, 0x42, 0x91, 0xee, 0xbd, 0x1a, 0x09, 0xf3, 0xbe,
    0x9e, 0x6d, 0x94, 0xbe, 0xb5, 0x5e, 0x9e, 0xbe, 0x3b, 0x91, 0xde, 0x3d,
    0x26, 0x26, 0x88, 0x3b, 0x0d, 0xcb, 0x99, 0xbe, 0x73, 0xa2, 0xbc, 0xbd,
    0x5a, 0x7e, 0x21, 0x3b, 0x0b, 0x0b, 0xd8, 0x3e, 0x3d, 0xb4, 0x94, 0xbe,
    0x87, 0xab, 0xfa, 0xbe, 0x11, 0x1b, 0x53, 0xbd, 0x5e, 0x43, 0x21, 0x3e,
    0x55, 0xd5, 0xa8, 0x3e, 0xde, 0x44, 0x79, 0x3d, 0xcb, 0x0f, 0x8b, 0xbe,
    0xf2, 0x23, 0x60, 0xbe, 0xd9, 0x3d, 0xd4, 0x3e, 0xca, 0xaa, 0x7d, 0x3c,
    0xa2, 0x67, 0x0b, 0xbf, 0x78, 0x45, 0xc7, 0xbe, 0x7e, 0xac, 0xd8, 0x3e,
    0xb1, 0xf8, 0xd0, 0xbd, 0x13, 0xb5, 0x88, 0x3e, 0x84, 0xfe, 0x95, 0x3e,
    0xa5, 0x3b, 0xcc, 0xbd, 0x4b, 0xde, 0xd5, 0x3e, 0xc4, 0x8b, 0xd7, 0x3e,
    0xd7, 0x43, 0x9d, 0xbe, 0x8e, 0x1a, 0xb0, 0x3d, 0xf6, 0x75, 0x21, 0x3c,
    0x66, 0x5c, 0xd0, 0xbd, 0x7c, 0xf8, 0x37, 0xbe, 0x75, 0xc8, 0x82, 0x3e,
    0xce, 0xef, 0xc1, 0xbe, 0x96, 0x04, 0xec, 0xbd, 0x55, 0x56, 0x98, 0xbe,
    0x32, 0x27, 0x49, 0x3c, 0xa1, 0xdb, 0x73, 0x3e, 0x3f, 0xfd, 0x03, 0xbe,
    0x26, 0x77, 0xd4, 0xbe, 0x48, 0xdb, 0x6d, 0xbe, 0xe0, 0xe5, 0x17, 0x3e,
    0xa4, 0x76, 0x1b, 0xbd, 0x28, 0x0e, 0xed, 0xbd, 0x43, 0x99, 0x44, 0x3f,
    0x09, 0x46, 0x60, 0x3e, 0x0b, 0xfd, 0x04, 0x3e, 0x66, 0x4a, 0xb4, 0x3d,
    0xa8, 0xa2, 0x19, 0x3e, 0x05, 0x31, 0x8d, 0xbe, 0x31, 0x8e, 0x8b, 0x3e,
    0xca, 0x0b, 0xad, 0x3e, 0x19, 0xe7, 0x9b, 0xbd, 0x52, 0x14, 0xa2, 0x3d,
    0xd5, 0xb6, 0x4d, 0x3e, 0x4a, 0xf7, 0x27, 0xbe, 0x27, 0xec, 0xce, 0xbe,
    0xf3, 0xb6, 0x2e, 0xbe, 0x73, 0x24, 0xa4, 0xbd, 0xf9, 0x14, 0xcd, 0xbe,
    0xd5, 0x12, 0x54, 0xbe, 0x4a, 0xdd, 0xe3, 0x3e, 0x87, 0x68, 0x5a, 0x3d,
    0x86, 0x44, 0x5a, 0x3d, 0x8b, 0x50, 0x3c, 0xbe, 0xfa, 0x1f, 0xb6, 0xbe,
    0x08, 0x29, 0xcb, 0x3e, 0x3b, 0x07, 0x77, 0x3e, 0x5b, 0xd3, 0xcd, 0x3e,
    0x35, 0xa1, 0x27, 0xbc, 0x00, 0x32, 0xa7, 0xbe, 0xe6, 0x0d, 0xcd, 0xbe,
    0xc3, 0xe2, 0xc2, 0x3d, 0x67, 0x02, 0xad, 0xbe, 0xdb, 0xe9, 0xc6, 0xbe,
    0xd2, 0x1c, 0x80, 0xbe, 0x41, 0x49, 0x9f, 0xba, 0x8a, 0x22, 0x73, 0x3e,
    0x50, 0xbf, 0xbf, 0xbe, 0x76, 0xd8, 0x44, 0x3e, 0x61, 0x05, 0x99, 0x3e,
    0x14, 0x47, 0xb0, 0x3e, 0xf3, 0x47, 0x8e, 0x3e, 0x6a, 0x77, 0x90, 0x3e,
    0xd2, 0x88, 0x8e, 0xbe, 0xd7, 0x56, 0xc1, 0xbe, 0x8e, 0x87, 0x43, 0xbd,
    0x9e, 0xd7, 0x53, 0x3e, 0x9b, 0xb9, 0x6e, 0xbe, 0x2e, 0xd8, 0xae, 0xbe,
    0x57, 0x9b, 0x2b, 0xbe, 0xbb, 0x73, 0x85, 0x3e, 0xce, 0x83, 0xb0, 0x3e,
    0x5f, 0x39, 0x45, 0xbe, 0xb3, 0x8b, 0xa0, 0xbe, 0x42, 0x0c, 0x94, 0x3e,
    0xa0, 0x7e, 0x7b, 0x3e, 0x75, 0xb8, 0xe9, 0x3e, 0xc0, 0x07, 0xc8, 0xbe,
    0x50, 0x91, 0x03, 0xbf, 0x69, 0xdd, 0xff, 0x3d, 0x14, 0x9f, 0xe2, 0xbd,
    0x19, 0xf1, 0x54, 0x3e, 0x5c, 0x97, 0x2f, 0xbe, 0x6f, 0xef, 0xbe, 0xbe,
    0x05, 0xd5, 0xdd, 0xbe, 0xfd, 0x44, 0xc4, 0x3e, 0xd3, 0xfe, 0xc0, 0xbe,
    0x17, 0x04, 0xe2, 0x3e, 0x0b, 0x7f, 0x9d, 0xbe, 0x59, 0xf8, 0xa2, 0x3e,
    0xbf, 0x5a, 0xc6, 0xbd, 0x32, 0xf4, 0xdb, 0xbe, 0x0a, 0x15, 0x99, 0x3e,
    0xeb, 0xe9, 0x92, 0x3e, 0xfd, 0x52, 0xb6, 0x3c, 0x76, 0xfc, 0xff, 0xff,
    0x04, 0x00, 0x00, 0x00, 0x40, 0x00, 0x00, 0x00, 0x5b, 0x98, 0xa8, 0x3c,
    0xd7, 0xd7, 0x7c, 0xbd, 0x1c, 0x2c, 0xb3, 0x3d, 0x52, 0x2a, 0x03, 0x3e,
    0x5b, 0xb6, 0x78, 0xbd, 0xe0, 0x3f, 0x58, 0x3d, 0xa4, 0xa4, 0xac, 0x3c,
    0xec, 0xe0, 0xb7, 0x3d, 0xb3, 0xdf, 0x75, 0xbd, 0xda, 0x89, 0x1e, 0xbe,
    0xb1, 0x88, 0xd8, 0xbd, 0x7e, 0xbe, 0xa7, 0x3d, 0x8f, 0xce, 0x10, 0xbd,
    0xb1, 0xf1, 0xcc, 0xbd, 0xb4, 0xe8, 0x8b, 0xbd, 0xb4, 0xe8, 0x5b, 0x3d,
    0xc2, 0xfc, 0xff, 0xff, 0x04, 0x00, 0x00, 0x00, 0x40, 0x00, 0x00, 0x00,
    0x6a, 0x88, 0x5c, 0xbd, 0xae, 0x02, 0x12, 0xbe, 0x8d, 0x50, 0xf7, 0xbc,
    0x2a, 0x7a, 0xa0, 0xbc, 0x47, 0x60, 0x44, 0xbd, 0xde, 0x95, 0x14, 0x3d,
    0x06, 0x30, 0x0f, 0xbe, 0x00, 0x00, 0x00, 0x00, 0x3f, 0x77, 0x86, 0xbd,
    0xd5, 0x72, 0xa8, 0xbc, 0xdc, 0x3e, 0x0d, 0xba, 0x1a, 0xa0, 0x1b, 0xbd,
    0xe4, 0xc7, 0xf3, 0x3d, 0xfd, 0x1a, 0xab, 0xbd, 0x53, 0x2d, 0x37, 0x3d,
    0x3a, 0xe5, 0xa6, 0x3c, 0x0e, 0xfd, 0xff, 0xff, 0x04, 0x00, 0x00, 0x00,
    0x40, 0x00, 0x00, 0x00, 0xcc, 0x0b, 0x15, 0xbd, 0xe1, 0xd6, 0xbc, 0x3d,
    0x00, 0x00, 0x00, 0x00, 0x3f, 0x63, 0xba, 0xbc, 0x7e, 0x21, 0x51, 0xbc,
    0x70, 0xf4, 0xe2, 0x3b, 0x80, 0x3c, 0x16, 0xbe, 0xce, 0x9a, 0xdd, 0xbd,
    0x06, 0x06, 0xc2, 0x3d, 0x14, 0xc8, 0xa3, 0xbd, 0xfc, 0x3d, 0x8b, 0xbd,
    0x6d, 0x0f, 0xb4, 0xbd, 0x14, 0x51, 0x22, 0xbd, 0x39, 0x86, 0x47, 0x3a,
    0xdc, 0xde, 0x68, 0xbb, 0x9c, 0xc6, 0xde, 0xbd, 0x5a, 0xfd, 0xff, 0xff,
    0x04, 0x00, 0x00, 0x00, 0x40, 0x00, 0x00, 0x00, 0x00, 0x00, 0x00, 0x00,
    0xc9, 0x0b, 0x7c, 0xbd, 0xbb, 0x1d, 0x79, 0x3c, 0x9a, 0xdc, 0x8b, 0xbd,
    0xc6, 0x56, 0x75, 0x3a, 0x7c, 0x5e, 0xdf, 0xbd, 0x9c, 0x8d, 0x2d, 0xbd,
    0x7f, 0xe0, 0xa3, 0x3d, 0xe8, 0x0e, 0xc4, 0xbb, 0xc4, 0xf0, 0x12, 0xbe,
    0x00, 0x00, 0x00, 0x00, 0xf4, 0x4b, 0x18, 0x3e, 0xa8, 0xd5, 0xa0, 0xbd,
    0xac, 0x19, 0x97, 0xbc, 0x17, 0x2c, 0x47, 0x3c, 0x29, 0x73, 0xf1, 0x3a,
    0xa6, 0xfd, 0xff, 0xff, 0x04, 0x00, 0x00, 0x00, 0x40, 0x00, 0x00, 0x00,
    0x54, 0xfe, 0x08, 0xbd, 0x05, 0x43, 0x49, 0xbd, 0x6f, 0x7d, 0x20, 0xbd,
    0xc4, 0xa1, 0xc0, 0x3b, 0x00, 0x00, 0x00, 0x00, 0x91, 0x2f, 0x20, 0x3e,
    0x00, 0x00, 0x00, 0x00, 0xcb, 0xf3, 0x61, 0x3d, 0x88, 0x43, 0xd2, 0xbc,
    0x43, 0x46, 0xac, 0x3d, 0x89, 0x90, 0xc1, 0x3b, 0x40, 0x83, 0x25, 0xbd,
    0x5a, 0x51, 0x0a, 0xbd, 0xd5, 0xc2, 0xeb, 0x3d, 0x00, 0x00, 0x00, 0x00,
    0x00, 0x00, 0x00, 0x00, 0xf2, 0xfd, 0xff, 0xff, 0x04, 0x00, 0x00, 0x00,
    0x40, 0x00, 0x00, 0x00, 0x28, 0x48, 0xd3, 0x3c, 0xac, 0xc8, 0x07, 0x3d,
    0xcb, 0x0b, 0x2a, 0xbd, 0x34, 0xe9, 0xce, 0xbb, 0x00, 0x00, 0x00, 0x00,
    0x85, 0xd4, 0xdc, 0x3d, 0xdc, 0xd7, 0xe2, 0xbd, 0x00, 0x00, 0x00, 0x00,
    0x36, 0xf5, 0xbe, 0xbd, 0x96, 0x4b, 0x0d, 0x3d, 0x54, 0x83, 0xa2, 0x3d,
    0x4d, 0xb9, 0xde, 0xbd, 0x00, 0x00, 0x00, 0x00, 0xba, 0x0b, 0x44, 0xbc,
    0x00, 0x00, 0x00, 0x00, 0x00, 0x00, 0x00, 0x00, 0x3e, 0xfe, 0xff, 0xff,
    0x04, 0x00, 0x00, 0x00, 0x40, 0x00, 0x00, 0x00, 0x00, 0x00, 0x00, 0x00,
    0x66, 0xff, 0xf6, 0x3a, 0xa4, 0x39, 0x9e, 0xbd, 0x75, 0xb9, 0x0b, 0x3d,
    0x50, 0x63, 0xcb, 0xbb, 0xb5, 0x60, 0x3e, 0x3d, 0x00, 0x00, 0x00, 0x00,
    0x3f, 0x22, 0xb6, 0x3d, 0x00, 0x00, 0x00, 0x00, 0x00, 0x00, 0x00, 0x00,
    0x59, 0xed, 0x9f, 0xbb, 0x73, 0x6b, 0x5e, 0xbb, 0x00, 0x00, 0x00, 0x00,
    0xd8, 0xf1, 0x82, 0xbd, 0xb5, 0x4c, 0x5e, 0x3e, 0x9d, 0x6e, 0xac, 0x3c,
    0x8a, 0xfe, 0xff, 0xff, 0x04, 0x00, 0x00, 0x00, 0x40, 0x00, 0x00, 0x00,
    0xfd, 0x1d, 0xf5, 0x3d, 0xe4, 0xba, 0x00, 0xbd, 0x4b, 0xd5, 0xc2, 0xbc,
    0xd1, 0x87, 0x55, 0x3e, 0x81, 0x4d, 0x36, 0x3e, 0x35, 0x03, 0x1b, 0xbd,
    0xca, 0x48, 0x86, 0x3c, 0xb3, 0xa8, 0xb9, 0xbb, 0x94, 0xa7, 0xa7, 0xbc,
    0xe8, 0xdc, 0x4a, 0xbd, 0xb0, 0xc8, 0xbd, 0x3d, 0x00, 0x00, 0x00, 0x00,
    0xe0, 0x3f, 0x99, 0x3d, 0xa7, 0x30, 0x46, 0xbc, 0xfe, 0xae, 0xdd, 0xbd,
    0xab, 0x2b, 0x1f, 0x3e, 0xd6, 0xfe, 0xff, 0xff, 0x04, 0x00, 0x00, 0x00,
    0x40, 0x00, 0x00, 0x00, 0x00, 0x00, 0x00, 0x00, 0x00, 0x00, 0x00, 0x00,
    0xdd, 0xc0, 0x3b, 0xbe, 0x65, 0xb8, 0x04, 0xbe, 0x21, 0xfc, 0xc1, 0xbc,
    0x07, 0x78, 0x89, 0x3c, 0x24, 0xbc, 0xc4, 0xbb, 0x62, 0x96, 0x5a, 0x3e,
    0x6d, 0xd7, 0x60, 0x3c, 0x4a, 0x4e, 0xc2, 0xbc, 0x33, 0x5e, 0x0e, 0xbc,
    0x00, 0x00, 0x00, 0x00, 0x55, 0x84, 0x11, 0xbe, 0x00, 0x00, 0x00, 0x00,
    0xe6, 0xcc, 0x06, 0x3e, 0xc4, 0xea, 0x40, 0x3b, 0x22, 0xff, 0xff, 0xff,
    0x04, 0x00, 0x00, 0x00, 0x20, 0x00, 0x00, 0x00, 0x3e, 0xd2, 0xce, 0xbd,
    0xf4, 0x95, 0x5c, 0xbd, 0xf8, 0x4c, 0xa9, 0xbd, 0x89, 0x0e, 0x94, 0x3d,
    0xad, 0xb9, 0x83, 0x3e, 0x4a, 0xe6, 0x88, 0xbd, 0x2d, 0xaf, 0xe7, 0xbd,
    0xb5, 0x92, 0x1c, 0x3c, 0x58, 0xf0, 0xff, 0xff, 0x5c, 0xf0, 0xff, 0xff,
    0x0f, 0x00, 0x00, 0x00, 0x4d, 0x4c, 0x49, 0x52, 0x20, 0x43, 0x6f, 0x6e,
    0x76, 0x65, 0x72, 0x74, 0x65, 0x64, 0x2e, 0x00, 0x01, 0x00, 0x00, 0x00,
    0x14, 0x00, 0x00, 0x00, 0x00, 0x00, 0x0e, 0x00, 0x18, 0x00, 0x14, 0x00,
    0x10, 0x00, 0x0c, 0x00, 0x08, 0x00, 0x04, 0x00, 0x0e, 0x00, 0x00, 0x00,
    0x14, 0x00, 0x00, 0x00, 0x1c, 0x00, 0x00, 0x00, 0xac, 0x02, 0x00, 0x00,
    0xb0, 0x02, 0x00, 0x00, 0xb4, 0x02, 0x00, 0x00, 0x04, 0x00, 0x00, 0x00,
    0x6d, 0x61, 0x69, 0x6e, 0x00, 0x00, 0x00, 0x00, 0x0b, 0x00, 0x00, 0x00,
    0x54, 0x02, 0x00, 0x00, 0x0c, 0x02, 0x00, 0x00, 0xd4, 0x01, 0x00, 0x00,
    0x9c, 0x01, 0x00, 0x00, 0x64, 0x01, 0x00, 0x00, 0x2c, 0x01, 0x00, 0x00,
    0xf4, 0x00, 0x00, 0x00, 0xbc, 0x00, 0x00, 0x00, 0x84, 0x00, 0x00, 0x00,
    0x50, 0x00, 0x00, 0x00, 0x14, 0x00, 0x00, 0x00, 0x00, 0x00, 0x0e, 0x00,
    0x1a, 0x00, 0x14, 0x00, 0x10, 0x00, 0x0c, 0x00, 0x0b, 0x00, 0x04, 0x00,
    0x0e, 0x00, 0x00, 0x00, 0x1c, 0x00, 0x00, 0x00, 0x00, 0x00, 0x00, 0x09,
    0x1c, 0x00, 0x00, 0x00, 0x20, 0x00, 0x00, 0x00, 0x01, 0x00, 0x00, 0x00,
    0x00, 0x00, 0x06, 0x00, 0x08, 0x00, 0x04, 0x00, 0x06, 0x00, 0x00, 0x00,
    0x00, 0x00, 0x80, 0x3f, 0x01, 0x00, 0x00, 0x00, 0x1f, 0x00, 0x00, 0x00,
    0x01, 0x00, 0x00, 0x00, 0x1e, 0x00, 0x00, 0x00, 0x2e, 0xfe, 0xff, 0xff,
    0x10, 0x00, 0x00, 0x00, 0x00, 0x00, 0x00, 0x08, 0x0c, 0x00, 0x00, 0x00,
    0x10, 0x00, 0x00, 0x00, 0x3c, 0xf1, 0xff, 0xff, 0x01, 0x00, 0x00, 0x00,
    0x1e, 0x00, 0x00, 0x00, 0x03, 0x00, 0x00, 0x00, 0x1d, 0x00, 0x00, 0x00,
    0x14, 0x00, 0x00, 0x00, 0x01, 0x00, 0x00, 0x00, 0x5e, 0xfe, 0xff, 0xff,
    0x10, 0x00, 0x00, 0x00, 0x00, 0x00, 0x00, 0x08, 0x10, 0x00, 0x00, 0x00,
    0x14, 0x00, 0x00, 0x00, 0x4e, 0xfe, 0xff, 0xff, 0x00, 0x00, 0x00, 0x01,
    0x01, 0x00, 0x00, 0x00, 0x1d, 0x00, 0x00, 0x00, 0x03, 0x00, 0x00, 0x00,
    0x1c, 0x00, 0x00, 0x00, 0x13, 0x00, 0x00, 0x00, 0x02, 0x00, 0x00, 0x00,
    0x92, 0xfe, 0xff, 0xff, 0x10, 0x00, 0x00, 0x00, 0x00, 0x00, 0x00, 0x08,
    0x10, 0x00, 0x00, 0x00, 0x14, 0x00, 0x00, 0x00, 0x82, 0xfe, 0xff, 0xff,
    0x00, 0x00, 0x00, 0x01, 0x01, 0x00, 0x00, 0x00, 0x1c, 0x00, 0x00, 0x00,
    0x03, 0x00, 0x00, 0x00, 0x1b, 0x00, 0x00, 0x00, 0x12, 0x00, 0x00, 0x00,
    0x03, 0x00, 0x00, 0x00, 0xc6, 0xfe, 0xff, 0xff, 0x10, 0x00, 0x00, 0x00,
    0x00, 0x00, 0x00, 0x08, 0x10, 0x00, 0x00, 0x00, 0x14, 0x00, 0x00, 0x00,
    0xb6, 0xfe, 0xff, 0xff, 0x00, 0x00, 0x00, 0x01, 0x01, 0x00, 0x00, 0x00,
    0x1b, 0x00, 0x00, 0x00, 0x03, 0x00, 0x00, 0x00, 0x1a, 0x00, 0x00, 0x00,
    0x11, 0x00, 0x00, 0x00, 0x04, 0x00, 0x00, 0x00, 0xfa, 0xfe, 0xff, 0xff,
    0x10, 0x00, 0x00, 0x00, 0x00, 0x00, 0x00, 0x08, 0x10, 0x00, 0x00, 0x00,
    0x14, 0x00, 0x00, 0x00, 0xea, 0xfe, 0xff, 0xff, 0x00, 0x00, 0x00, 0x01,
    0x01, 0x00, 0x00, 0x00, 0x1a, 0x00, 0x00, 0x00, 0x03, 0x00, 0x00, 0x00,
    0x19, 0x00, 0x00, 0x00, 0x10, 0x00, 0x00, 0x00, 0x05, 0x00, 0x00, 0x00,
    0x2e, 0xff, 0xff, 0xff, 0x10, 0x00, 0x00, 0x00, 0x00, 0x00, 0x00, 0x08,
    0x10, 0x00, 0x00, 0x00, 0x14, 0x00, 0x00, 0x00, 0x1e, 0xff, 0xff, 0xff,
    0x00, 0x00, 0x00, 0x01, 0x01, 0x00, 0x00, 0x00, 0x19, 0x00, 0x00, 0x00,
    0x03, 0x00, 0x00, 0x00, 0x18, 0x00, 0x00, 0x00, 0x0f, 0x00, 0x00, 0x00,
    0x06, 0x00, 0x00, 0x00, 0x62, 0xff, 0xff, 0xff, 0x10, 0x00, 0x00, 0x00,
    0x00, 0x00, 0x00, 0x08, 0x10, 0x00, 0x00, 0x00, 0x14, 0x00, 0x00, 0x00,
    0x52, 0xff, 0xff, 0xff, 0x00, 0x00, 0x00, 0x01, 0x01, 0x00, 0x00, 0x00,
    0x18, 0x00, 0x00, 0x00, 0x03, 0x00, 0x00, 0x00, 0x17, 0x00, 0x00, 0x00,
    0x0e, 0x00, 0x00, 0x00, 0x07, 0x00, 0x00, 0x00, 0x96, 0xff, 0xff, 0xff,
    0x10, 0x00, 0x00, 0x00, 0x00, 0x00, 0x00, 0x08, 0x10, 0x00, 0x00, 0x00,
    0x14, 0x00, 0x00, 0x00, 0x86, 0xff, 0xff, 0xff, 0x00, 0x00, 0x00, 0x01,
    0x01, 0x00, 0x00, 0x00, 0x17, 0x00, 0x00, 0x00, 0x03, 0x00, 0x00, 0x00,
    0x16, 0x00, 0x00, 0x00, 0x0d, 0x00, 0x00, 0x00, 0x08, 0x00, 0x00, 0x00,
    0xca, 0xff, 0xff, 0xff, 0x10, 0x00, 0x00, 0x00, 0x00, 0x00, 0x00, 0x08,
    0x10, 0x00, 0x00, 0x00, 0x14, 0x00, 0x00, 0x00, 0xba, 0xff, 0xff, 0xff,
    0x00, 0x00, 0x00, 0x01, 0x01, 0x00, 0x00, 0x00, 0x16, 0x00, 0x00, 0x00,
    0x03, 0x00, 0x00, 0x00, 0x15, 0x00, 0x00, 0x00, 0x0c, 0x00, 0x00, 0x00,
    0x09, 0x00, 0x00, 0x00, 0x00, 0x00, 0x0e, 0x00, 0x16, 0x00, 0x00, 0x00,
    0x10, 0x00, 0x0c, 0x00, 0x0b, 0x00, 0x04, 0x00, 0x0e, 0x00, 0x00, 0x00,
    0x18, 0x00, 0x00, 0x00, 0x00, 0x00, 0x00, 0x08, 0x18, 0x00, 0x00, 0x00,
    0x1c, 0x00, 0x00, 0x00, 0x00, 0x00, 0x06, 0x00, 0x08, 0x00, 0x07, 0x00,
    0x06, 0x00, 0x00, 0x00, 0x00, 0x00, 0x00, 0x01, 0x01, 0x00, 0x00, 0x00,
    0x15, 0x00, 0x00, 0x00, 0x03, 0x00, 0x00, 0x00, 0x00, 0x00, 0x00, 0x00,
    0x0b, 0x00, 0x00, 0x00, 0x0a, 0x00, 0x00, 0x00, 0x01, 0x00, 0x00, 0x00,
    0x1f, 0x00, 0x00, 0x00, 0x01, 0x00, 0x00, 0x00, 0x00, 0x00, 0x00, 0x00,
    0x20, 0x00, 0x00, 0x00, 0x80, 0x0c, 0x00, 0x00, 0x10, 0x0c, 0x00, 0x00,
    0xa0, 0x0b, 0x00, 0x00, 0x48, 0x0b, 0x00, 0x00, 0xf0, 0x0a, 0x00, 0x00,
    0x98, 0x0a, 0x00, 0x00, 0x40, 0x0a, 0x00, 0x00, 0xe8, 0x09, 0x00, 0x00,
    0x90, 0x09, 0x00, 0x00, 0x38, 0x09, 0x00, 0x00, 0xe0, 0x08, 0x00, 0x00,
    0x94, 0x08, 0x00, 0x00, 0x48, 0x08, 0x00, 0x00, 0xfc, 0x07, 0x00, 0x00,
    0xb0, 0x07, 0x00, 0x00, 0x64, 0x07, 0x00, 0x00, 0x18, 0x07, 0x00, 0x00,
    0xcc, 0x06, 0x00, 0x00, 0x80, 0x06, 0x00, 0x00, 0x34, 0x06, 0x00, 0x00,
    0xe8, 0x05, 0x00, 0x00, 0x58, 0x05, 0x00, 0x00, 0xc8, 0x04, 0x00, 0x00,
    0x38, 0x04, 0x00, 0x00, 0xa8, 0x03, 0x00, 0x00, 0x18, 0x03, 0x00, 0x00,
    0x88, 0x02, 0x00, 0x00, 0xf8, 0x01, 0x00, 0x00, 0x68, 0x01, 0x00, 0x00,
    0xd8, 0x00, 0x00, 0x00, 0x60, 0x00, 0x00, 0x00, 0x04, 0x00, 0x00, 0x00,
    0x16, 0xf4, 0xff, 0xff, 0x00, 0x00, 0x00, 0x01, 0x14, 0x00, 0x00, 0x00,
    0x1c, 0x00, 0x00, 0x00, 0x1c, 0x00, 0x00, 0x00, 0x20, 0x00, 0x00, 0x00,
    0x34, 0x00, 0x00, 0x00, 0x02, 0x00, 0x00, 0x00, 0xff, 0xff, 0xff, 0xff,
    0x08, 0x00, 0x00, 0x00, 0x00, 0xf4, 0xff, 0xff, 0x19, 0x00, 0x00, 0x00,
    0x53, 0x74, 0x61, 0x74, 0x65, 0x66, 0x75, 0x6c, 0x50, 0x61, 0x72, 0x74,
    0x69, 0x74, 0x69, 0x6f, 0x6e, 0x65, 0x64, 0x43, 0x61, 0x6c, 0x6c, 0x3a,
    0x30, 0x00, 0x00, 0x00, 0x02, 0x00, 0x00, 0x00, 0x01, 0x00, 0x00, 0x00,
    0x08, 0x00, 0x00, 0x00, 0x6e, 0xf4, 0xff, 0xff, 0x00, 0x00, 0x00, 0x01,
    0x14, 0x00, 0x00, 0x00, 0x1c, 0x00, 0x00, 0x00, 0x1c, 0x00, 0x00, 0x00,
    0x1f, 0x00, 0x00, 0x00, 0x50, 0x00, 0x00, 0x00, 0x02, 0x00, 0x00, 0x00,
    0xff, 0xff, 0xff, 0xff, 0x08, 0x00, 0x00, 0x00, 0x58, 0xf4, 0xff, 0xff,
    0x34, 0x00, 0x00, 0x00, 0x6c, 0x77, 0x31, 0x36, 0x5f, 0x6d, 0x64, 0x38,
    0x2f, 0x64, 0x65, 0x6e, 0x73, 0x65, 0x5f, 0x31, 0x38, 0x33, 0x2f, 0x4d,
    0x61, 0x74, 0x4d, 0x75, 0x6c, 0x3b, 0x6c, 0x77, 0x31, 0x36, 0x5f, 0x6d,
    0x64, 0x38, 0x2f, 0x64, 0x65, 0x6e, 0x73, 0x65, 0x5f, 0x31, 0x38, 0x33,
    0x2f, 0x42, 0x69, 0x61, 0x73, 0x41, 0x64, 0x64, 0x00, 0x00, 0x00, 0x00,
    0x02, 0x00, 0x00, 0x00, 0x01, 0x00, 0x00, 0x00, 0x08, 0x00, 0x00, 0x00,
    0xe2, 0xf4, 0xff, 0xff, 0x00, 0x00, 0x00, 0x01, 0x14, 0x00, 0x00, 0x00,
    0x1c, 0x00, 0x00, 0x00, 0x1c, 0x00, 0x00, 0x00, 0x1e, 0x00, 0x00, 0x00,
    0x68, 0x00, 0x00, 0x00, 0x02, 0x00, 0x00, 0x00, 0xff, 0xff, 0xff, 0xff,
    0x10, 0x00, 0x00, 0x00, 0xcc, 0xf4, 0xff, 0xff, 0x4c, 0x00, 0x00, 0x00,
    0x6c, 0x77, 0x31, 0x36, 0x5f, 0x6d, 0x64, 0x38, 0x2f, 0x64, 0x65, 0x6e,
    0x73, 0x65, 0x5f, 0x31, 0x38, 0x32, 0x2f, 0x4d, 0x61, 0x74, 0x4d, 0x75,
    0x6c, 0x3b, 0x6c, 0x77, 0x31, 0x36, 0x5f, 0x6d, 0x64, 0x38, 0x2f, 0x64,
    0x65, 0x6e, 0x73, 0x65, 0x5f, 0x31, 0x38, 0x32, 0x2f, 0x52, 0x65, 0x6c,
    0x75, 0x3b, 0x6c, 0x77, 0x31, 0x36, 0x5f, 0x6d, 0x64, 0x38, 0x2f, 0x64,
    0x65, 0x6e, 0x73, 0x65, 0x5f, 0x31, 0x38, 0x32, 0x2f, 0x42, 0x69, 0x61,
    0x73, 0x41, 0x64, 0x64, 0x00, 0x00, 0x00, 0x00, 0x02, 0x00, 0x00, 0x00,
    0x01, 0x00, 0x00, 0x00, 0x10, 0x00, 0x00, 0x00, 0x6e, 0xf5, 0xff, 0xff,
    0x00, 0x00, 0x00, 0x01, 0x14, 0x00, 0x00, 0x00, 0x1c, 0x00, 0x00, 0x00,
    0x1c, 0x00, 0x00, 0x00, 0x1d, 0x00, 0x00, 0x00, 0x68, 0x00, 0x00, 0x00,
    0x02, 0x00, 0x00, 0x00, 0xff, 0xff, 0xff, 0xff, 0x10, 0x00, 0x00, 0x00,
    0x58, 0xf5, 0xff, 0xff, 0x4c, 0x00, 0x00, 0x00, 0x6c, 0x77, 0x31, 0x36,
    0x5f, 0x6d, 0x64, 0x38, 0x2f, 0x64, 0x65, 0x6e, 0x73, 0x65, 0x5f, 0x31,
    0x38, 0x31, 0x2f, 0x4d, 0x61, 0x74, 0x4d, 0x75, 0x6c, 0x3b, 0x6c, 0x77,
    0x31, 0x36, 0x5f, 0x6d, 0x64, 0x38, 0x2f, 0x64, 0x65, 0x6e, 0x73, 0x65,
    0x5f, 0x31, 0x38, 0x31, 0x2f, 0x52, 0x65, 0x6c, 0x75, 0x3b, 0x6c, 0x77,
    0x31, 0x36, 0x5f, 0x6d, 0x64, 0x38, 0x2f, 0x64, 0x65, 0x6e, 0x73, 0x65,
    0x5f, 0x31, 0x38, 0x31, 0x2f, 0x42, 0x69, 0x61, 0x73, 0x41, 0x64, 0x64,
    0x00, 0x00, 0x00, 0x00, 0x02, 0x00, 0x00, 0x00, 0x01, 0x00, 0x00, 0x00,
    0x10, 0x00, 0x00, 0x00, 0xfa, 0xf5, 0xff, 0xff, 0x00, 0x00, 0x00, 0x01,
    0x14, 0x00, 0x00, 0x00, 0x1c, 0x00, 0x00, 0x00, 0x1c, 0x00, 0x00, 0x00,
    0x1c, 0x00, 0x00, 0x00, 0x68, 0x00, 0x00, 0x00, 0x02, 0x00, 0x00, 0x00,
    0xff, 0xff, 0xff, 0xff, 0x10, 0x00, 0x00, 0x00, 0xe4, 0xf5, 0xff, 0xff,
    0x4c, 0x00, 0x00, 0x00, 0x6c, 0x77, 0x31, 0x36, 0x5f, 0x6d, 0x64, 0x38,
    0x2f, 0x64, 0x65, 0x6e, 0x73, 0x65, 0x5f, 0x31, 0x38, 0x30, 0x2f, 0x4d,
    0x61, 0x74, 0x4d, 0x75, 0x6c, 0x3b, 0x6c, 0x77, 0x31, 0x36, 0x5f, 0x6d,
    0x64, 0x38, 0x2f, 0x64, 0x65, 0x6e, 0x73, 0x65, 0x5f, 0x31, 0x38, 0x30,
    0x2f, 0x52, 0x65, 0x6c, 0x75, 0x3b, 0x6c, 0x77, 0x31, 0x36, 0x5f, 0x6d,
    0x64, 0x38, 0x2f, 0x64, 0x65, 0x6e, 0x73, 0x65, 0x5f, 0x31, 0x38, 0x30,
    0x2f, 0x42, 0x69, 0x61, 0x73, 0x41, 0x64, 0x64, 0x00, 0x00, 0x00, 0x00,
    0x02, 0x00, 0x00, 0x00, 0x01, 0x00, 0x00, 0x00, 0x10, 0x00, 0x00, 0x00,
    0x86, 0xf6, 0xff, 0xff, 0x00, 0x00, 0x00, 0x01, 0x14, 0x00, 0x00, 0x00,
    0x1c, 0x00, 0x00, 0x00, 0x1c, 0x00, 0x00, 0x00, 0x1b, 0x00, 0x00, 0x00,
    0x68, 0x00, 0x00, 0x00, 0x02, 0x00, 0x00, 0x00, 0xff, 0xff, 0xff, 0xff,
    0x10, 0x00, 0x00, 0x00, 0x70, 0xf6, 0xff, 0xff, 0x4c, 0x00, 0x00, 0x00,
    0x6c, 0x77, 0x31, 0x36, 0x5f, 0x6d, 0x64, 0x38, 0x2f, 0x64, 0x65, 0x6e,
    0x73, 0x65, 0x5f, 0x31, 0x37, 0x39, 0x2f, 0x4d, 0x61, 0x74, 0x4d, 0x75,
    0x6c, 0x3b, 0x6c, 0x77, 0x31, 0x36, 0x5f, 0x6d, 0x64, 0x38, 0x2f, 0x64,
    0x65, 0x6e, 0x73, 0x65, 0x5f, 0x31, 0x37, 0x39, 0x2f, 0x52, 0x65, 0x6c,
    0x75, 0x3b, 0x6c, 0x77, 0x31, 0x36, 0x5f, 0x6d, 0x64, 0x38, 0x2f, 0x64,
    0x65, 0x6e, 0x73, 0x65, 0x5f, 0x31, 0x37, 0x39, 0x2f, 0x42, 0x69, 0x61,
    0x73, 0x41, 0x64, 0x64, 0x00, 0x00, 0x00, 0x00, 0x02, 0x00, 0x00, 0x00,
    0x01, 0x00, 0x00, 0x00, 0x10, 0x00, 0x00, 0x00, 0x12, 0xf7, 0xff, 0xff,
    0x00, 0x00, 0x00, 0x01, 0x14, 0x00, 0x00, 0x00, 0x1c, 0x00, 0x00, 0x00,
    0x1c, 0x00, 0x00, 0x00, 0x1a, 0x00, 0x00, 0x00, 0x68, 0x00, 0x00, 0x00,
    0x02, 0x00, 0x00, 0x00, 0xff, 0xff, 0xff, 0xff, 0x10, 0x00, 0x00, 0x00,
    0xfc, 0xf6, 0xff, 0xff, 0x4c, 0x00, 0x00, 0x00, 0x6c, 0x77, 0x31, 0x36,
    0x5f, 0x6d, 0x64, 0x38, 0x2f, 0x64, 0x65, 0x6e, 0x73, 0x65, 0x5f, 0x31,
    0x37, 0x38, 0x2f, 0x4d, 0x61, 0x74, 0x4d, 0x75, 0x6c, 0x3b, 0x6c, 0x77,
    0x31, 0x36, 0x5f, 0x6d, 0x64, 0x38, 0x2f, 0x64, 0x65, 0x6e, 0x73, 0x65,
    0x5f, 0x31, 0x37, 0x38, 0x2f, 0x52, 0x65, 0x6c, 0x75, 0x3b, 0x6c, 0x77,
    0x31, 0x36, 0x5f, 0x6d, 0x64, 0x38, 0x2f, 0x64, 0x65, 0x6e, 0x73, 0x65,
    0x5f, 0x31, 0x37, 0x38, 0x2f, 0x42, 0x69, 0x61, 0x73, 0x41, 0x64, 0x64,
    0x00, 0x00, 0x00, 0x00, 0x02, 0x00, 0x00, 0x00, 0x01, 0x00, 0x00, 0x00,
    0x10, 0x00, 0x00, 0x00, 0x9e, 0xf7, 0xff, 0xff, 0x00, 0x00, 0x00, 0x01,
    0x14, 0x00, 0x00, 0x00, 0x1c, 0x00, 0x00, 0x00, 0x1c, 0x00, 0x00, 0x00,
    0x19, 0x00, 0x00, 0x00, 0x68, 0x00, 0x00, 0x00, 0x02, 0x00, 0x00, 0x00,
    0xff, 0xff, 0xff, 0xff, 0x10, 0x00, 0x00, 0x00, 0x88, 0xf7, 0xff, 0xff,
    0x4c, 0x00, 0x00, 0x00, 0x6c, 0x77, 0x31, 0x36, 0x5f, 0x6d, 0x64, 0x38,
    0x2f, 0x64, 0x65, 0x6e, 0x73, 0x65, 0x5f, 0x31, 0x37, 0x37, 0x2f, 0x4d,
    0x61, 0x74, 0x4d, 0x75, 0x6c, 0x3b, 0x6c, 0x77, 0x31, 0x36, 0x5f, 0x6d,
    0x64, 0x38, 0x2f, 0x64, 0x65, 0x6e, 0x73, 0x65, 0x5f, 0x31, 0x37, 0x37,
    0x2f, 0x52, 0x65, 0x6c, 0x75, 0x3b, 0x6c, 0x77, 0x31, 0x36, 0x5f, 0x6d,
    0x64, 0x38, 0x2f, 0x64, 0x65, 0x6e, 0x73, 0x65, 0x5f, 0x31, 0x37, 0x37,
    0x2f, 0x42, 0x69, 0x61, 0x73, 0x41, 0x64, 0x64, 0x00, 0x00, 0x00, 0x00,
    0x02, 0x00, 0x00, 0x00, 0x01, 0x00, 0x00, 0x00, 0x10, 0x00, 0x00, 0x00,
    0x2a, 0xf8, 0xff, 0xff, 0x00, 0x00, 0x00, 0x01, 0x14, 0x00, 0x00, 0x00,
    0x1c, 0x00, 0x00, 0x00, 0x1c, 0x00, 0x00, 0x00, 0x18, 0x00, 0x00, 0x00,
    0x68, 0x00, 0x00, 0x00, 0x02, 0x00, 0x00, 0x00, 0xff, 0xff, 0xff, 0xff,
    0x10, 0x00, 0x00, 0x00, 0x14, 0xf8, 0xff, 0xff, 0x4c, 0x00, 0x00, 0x00,
    0x6c, 0x77, 0x31, 0x36, 0x5f, 0x6d, 0x64, 0x38, 0x2f, 0x64, 0x65, 0x6e,
    0x73, 0x65, 0x5f, 0x31, 0x37, 0x36, 0x2f, 0x4d, 0x61, 0x74, 0x4d, 0x75,
    0x6c, 0x3b, 0x6c, 0x77, 0x31, 0x36, 0x5f, 0x6d, 0x64, 0x38, 0x2f, 0x64,
    0x65, 0x6e, 0x73, 0x65, 0x5f, 0x31, 0x37, 0x36, 0x2f, 0x52, 0x65, 0x6c,
    0x75, 0x3b, 0x6c, 0x77, 0x31, 0x36, 0x5f, 0x6d, 0x64, 0x38, 0x2f, 0x64,
    0x65, 0x6e, 0x73, 0x65, 0x5f, 0x31, 0x37, 0x36, 0x2f, 0x42, 0x69, 0x61,
    0x73, 0x41, 0x64, 0x64, 0x00, 0x00, 0x00, 0x00, 0x02, 0x00, 0x00, 0x00,
    0x01, 0x00, 0x00, 0x00, 0x10, 0x00, 0x00, 0x00, 0xb6, 0xf8, 0xff, 0xff,
    0x00, 0x00, 0x00, 0x01, 0x14, 0x00, 0x00, 0x00, 0x1c, 0x00, 0x00, 0x00,
    0x1c, 0x00, 0x00, 0x00, 0x17, 0x00, 0x00, 0x00, 0x68, 0x00, 0x00, 0x00,
    0x02, 0x00, 0x00, 0x00, 0xff, 0xff, 0xff, 0xff, 0x10, 0x00, 0x00, 0x00,
    0xa0, 0xf8, 0xff, 0xff, 0x4c, 0x00, 0x00, 0x00, 0x6c, 0x77, 0x31, 0x36,
    0x5f, 0x6d, 0x64, 0x38, 0x2f, 0x64, 0x65, 0x6e, 0x73, 0x65, 0x5f, 0x31,
    0x37, 0x35, 0x2f, 0x4d, 0x61, 0x74, 0x4d, 0x75, 0x6c, 0x3b, 0x6c, 0x77,
    0x31, 0x36, 0x5f, 0x6d, 0x64, 0x38, 0x2f, 0x64, 0x65, 0x6e, 0x73, 0x65,
    0x5f, 0x31, 0x37, 0x35, 0x2f, 0x52, 0x65, 0x6c, 0x75, 0x3b, 0x6c, 0x77,
    0x31, 0x36, 0x5f, 0x6d, 0x64, 0x38, 0x2f, 0x64, 0x65, 0x6e, 0x73, 0x65,
    0x5f, 0x31, 0x37, 0x35, 0x2f, 0x42, 0x69, 0x61, 0x73, 0x41, 0x64, 0x64,
    0x00, 0x00, 0x00, 0x00, 0x02, 0x00, 0x00, 0x00, 0x01, 0x00, 0x00, 0x00,
    0x10, 0x00, 0x00, 0x00, 0x42, 0xf9, 0xff, 0xff, 0x00, 0x00, 0x00, 0x01,
    0x14, 0x00, 0x00, 0x00, 0x1c, 0x00, 0x00, 0x00, 0x1c, 0x00, 0x00, 0x00,
    0x16, 0x00, 0x00, 0x00, 0x68, 0x00, 0x00, 0x00, 0x02, 0x00, 0x00, 0x00,
    0xff, 0xff, 0xff, 0xff, 0x10, 0x00, 0x00, 0x00, 0x2c, 0xf9, 0xff, 0xff,
    0x4c, 0x00, 0x00, 0x00, 0x6c, 0x77, 0x31, 0x36, 0x5f, 0x6d, 0x64, 0x38,
    0x2f, 0x64, 0x65, 0x6e, 0x73, 0x65, 0x5f, 0x31, 0x37, 0x34, 0x2f, 0x4d,
    0x61, 0x74, 0x4d, 0x75, 0x6c, 0x3b, 0x6c, 0x77, 0x31, 0x36, 0x5f, 0x6d,
    0x64, 0x38, 0x2f, 0x64, 0x65, 0x6e, 0x73, 0x65, 0x5f, 0x31, 0x37, 0x34,
    0x2f, 0x52, 0x65, 0x6c, 0x75, 0x3b, 0x6c, 0x77, 0x31, 0x36, 0x5f, 0x6d,
    0x64, 0x38, 0x2f, 0x64, 0x65, 0x6e, 0x73, 0x65, 0x5f, 0x31, 0x37, 0x34,
    0x2f, 0x42, 0x69, 0x61, 0x73, 0x41, 0x64, 0x64, 0x00, 0x00, 0x00, 0x00,
    0x02, 0x00, 0x00, 0x00, 0x01, 0x00, 0x00, 0x00, 0x10, 0x00, 0x00, 0x00,
    0x3a, 0xfa, 0xff, 0xff, 0x00, 0x00, 0x00, 0x01, 0x10, 0x00, 0x00, 0x00,
    0x10, 0x00, 0x00, 0x00, 0x15, 0x00, 0x00, 0x00, 0x28, 0x00, 0x00, 0x00,
    0xa8, 0xf9, 0xff, 0xff, 0x19, 0x00, 0x00, 0x00, 0x6c, 0x77, 0x31, 0x36,
    0x5f, 0x6d, 0x64, 0x38, 0x2f, 0x64, 0x65, 0x6e, 0x73, 0x65, 0x5f, 0x31,
    0x38, 0x33, 0x2f, 0x4d, 0x61, 0x74, 0x4d, 0x75, 0x6c, 0x00, 0x00, 0x00,
    0x02, 0x00, 0x00, 0x00, 0x08, 0x00, 0x00, 0x00, 0x10, 0x00, 0x00, 0x00,
    0x82, 0xfa, 0xff, 0xff, 0x00, 0x00, 0x00, 0x01, 0x10, 0x00, 0x00, 0x00,
    0x10, 0x00, 0x00, 0x00, 0x14, 0x00, 0x00, 0x00, 0x28, 0x00, 0x00, 0x00,
    0xf0, 0xf9, 0xff, 0xff, 0x19, 0x00, 0x00, 0x00, 0x6c, 0x77, 0x31, 0x36,
    0x5f, 0x6d, 0x64, 0x38, 0x2f, 0x64, 0x65, 0x6e, 0x73, 0x65, 0x5f, 0x31,
    0x38, 0x32, 0x2f, 0x4d, 0x61, 0x74, 0x4d, 0x75, 0x6c, 0x00, 0x00, 0x00,
    0x02, 0x00, 0x00, 0x00, 0x10, 0x00, 0x00, 0x00, 0x10, 0x00, 0x00, 0x00,
    0xca, 0xfa, 0xff, 0xff, 0x00, 0x00, 0x00, 0x01, 0x10, 0x00, 0x00, 0x00,
    0x10, 0x00, 0x00, 0x00, 0x13, 0x00, 0x00, 0x00, 0x28, 0x00, 0x00, 0x00,
    0x38, 0xfa, 0xff, 0xff, 0x19, 0x00, 0x00, 0x00, 0x6c, 0x77, 0x31, 0x36,
    0x5f, 0x6d, 0x64, 0x38, 0x2f, 0x64, 0x65, 0x6e, 0x73, 0x65, 0x5f, 0x31,
    0x38, 0x31, 0x2f, 0x4d, 0x61, 0x74, 0x4d, 0x75, 0x6c, 0x00, 0x00, 0x00,
    0x02, 0x00, 0x00, 0x00, 0x10, 0x00, 0x00, 0x00, 0x10, 0x00, 0x00, 0x00,
    0x12, 0xfb, 0xff, 0xff, 0x00, 0x00, 0x00, 0x01, 0x10, 0x00, 0x00, 0x00,
    0x10, 0x00, 0x00, 0x00, 0x12, 0x00, 0x00, 0x00, 0x28, 0x00, 0x00, 0x00,
    0x80, 0xfa, 0xff, 0xff, 0x19, 0x00, 0x00, 0x00, 0x6c, 0x77, 0x31, 0x36,
    0x5f, 0x6d, 0x64, 0x38, 0x2f, 0x64, 0x65, 0x6e, 0x73, 0x65, 0x5f, 0x31,
    0x38, 0x30, 0x2f, 0x4d, 0x61, 0x74, 0x4d, 0x75, 0x6c, 0x00, 0x00, 0x00,
    0x02, 0x00, 0x00, 0x00, 0x10, 0x00, 0x00, 0x00, 0x10, 0x00, 0x00, 0x00,
    0x5a, 0xfb, 0xff, 0xff, 0x00, 0x00, 0x00, 0x01, 0x10, 0x00, 0x00, 0x00,
    0x10, 0x00, 0x00, 0x00, 0x11, 0x00, 0x00, 0x00, 0x28, 0x00, 0x00, 0x00,
    0xc8, 0xfa, 0xff, 0xff, 0x19, 0x00, 0x00, 0x00, 0x6c, 0x77, 0x31, 0x36,
    0x5f, 0x6d, 0x64, 0x38, 0x2f, 0x64, 0x65, 0x6e, 0x73, 0x65, 0x5f, 0x31,
    0x37, 0x39, 0x2f, 0x4d, 0x61, 0x74, 0x4d, 0x75, 0x6c, 0x00, 0x00, 0x00,
    0x02, 0x00, 0x00, 0x00, 0x10, 0x00, 0x00, 0x00, 0x10, 0x00, 0x00, 0x00,
    0xa2, 0xfb, 0xff, 0xff, 0x00, 0x00, 0x00, 0x01, 0x10, 0x00, 0x00, 0x00,
    0x10, 0x00, 0x00, 0x00, 0x10, 0x00, 0x00, 0x00, 0x28, 0x00, 0x00, 0x00,
    0x10, 0xfb, 0xff, 0xff, 0x19, 0x00, 0x00, 0x00, 0x6c, 0x77, 0x31, 0x36,
    0x5f, 0x6d, 0x64, 0x38, 0x2f, 0x64, 0x65, 0x6e, 0x73, 0x65, 0x5f, 0x31,
    0x37, 0x38, 0x2f, 0x4d, 0x61, 0x74, 0x4d, 0x75, 0x6c, 0x00, 0x00, 0x00,
    0x02, 0x00, 0x00, 0x00, 0x10, 0x00, 0x00, 0x00, 0x10, 0x00, 0x00, 0x00,
    0xea, 0xfb, 0xff, 0xff, 0x00, 0x00, 0x00, 0x01, 0x10, 0x00, 0x00, 0x00,
    0x10, 0x00, 0x00, 0x00, 0x0f, 0x00, 0x00, 0x00, 0x28, 0x00, 0x00, 0x00,
    0x58, 0xfb, 0xff, 0xff, 0x19, 0x00, 0x00, 0x00, 0x6c, 0x77, 0x31, 0x36,
    0x5f, 0x6d, 0x64, 0x38, 0x2f, 0x64, 0x65, 0x6e, 0x73, 0x65, 0x5f, 0x31,
    0x37, 0x37, 0x2f, 0x4d, 0x61, 0x74, 0x4d, 0x75, 0x6c, 0x00, 0x00, 0x00,
    0x02, 0x00, 0x00, 0x00, 0x10, 0x00, 0x00, 0x00, 0x10, 0x00, 0x00, 0x00,
    0x32, 0xfc, 0xff, 0xff, 0x00, 0x00, 0x00, 0x01, 0x10, 0x00, 0x00, 0x00,
    0x10, 0x00, 0x00, 0x00, 0x0e, 0x00, 0x00, 0x00, 0x28, 0x00, 0x00, 0x00,
    0xa0, 0xfb, 0xff, 0xff, 0x19, 0x00, 0x00, 0x00, 0x6c, 0x77, 0x31, 0x36,
    0x5f, 0x6d, 0x64, 0x38, 0x2f, 0x64, 0x65, 0x6e, 0x73, 0x65, 0x5f, 0x31,
    0x37, 0x36, 0x2f, 0x4d, 0x61, 0x74, 0x4d, 0x75, 0x6c, 0x00, 0x00, 0x00,
    0x02, 0x00, 0x00, 0x00, 0x10, 0x00, 0x00, 0x00, 0x10, 0x00, 0x00, 0x00,
    0x7a, 0xfc, 0xff, 0xff, 0x00, 0x00, 0x00, 0x01, 0x10, 0x00, 0x00, 0x00,
    0x10, 0x00, 0x00, 0x00, 0x0d, 0x00, 0x00, 0x00, 0x28, 0x00, 0x00, 0x00,
    0xe8, 0xfb, 0xff, 0xff, 0x19, 0x00, 0x00, 0x00, 0x6c, 0x77, 0x31, 0x36,
    0x5f, 0x6d, 0x64, 0x38, 0x2f, 0x64, 0x65, 0x6e, 0x73, 0x65, 0x5f, 0x31,
    0x37, 0x35, 0x2f, 0x4d, 0x61, 0x74, 0x4d, 0x75, 0x6c, 0x00, 0x00, 0x00,
    0x02, 0x00, 0x00, 0x00, 0x10, 0x00, 0x00, 0x00, 0x10, 0x00, 0x00, 0x00,
    0xc2, 0xfc, 0xff, 0xff, 0x00, 0x00, 0x00, 0x01, 0x10, 0x00, 0x00, 0x00,
    0x10, 0x00, 0x00, 0x00, 0x0c, 0x00, 0x00, 0x00, 0x28, 0x00, 0x00, 0x00,
    0x30, 0xfc, 0xff, 0xff, 0x19, 0x00, 0x00, 0x00, 0x6c, 0x77, 0x31, 0x36,
    0x5f, 0x6d, 0x64, 0x38, 0x2f, 0x64, 0x65, 0x6e, 0x73, 0x65, 0x5f, 0x31,
    0x37, 0x34, 0x2f, 0x4d, 0x61, 0x74, 0x4d, 0x75, 0x6c, 0x00, 0x00, 0x00,
    0x02, 0x00, 0x00, 0x00, 0x10, 0x00, 0x00, 0x00, 0x0f, 0x00, 0x00, 0x00,
    0x0a, 0xfd, 0xff, 0xff, 0x00, 0x00, 0x00, 0x01, 0x10, 0x00, 0x00, 0x00,
    0x10, 0x00, 0x00, 0x00, 0x0b, 0x00, 0x00, 0x00, 0x38, 0x00, 0x00, 0x00,
    0x78, 0xfc, 0xff, 0xff, 0x29, 0x00, 0x00, 0x00, 0x6c, 0x77, 0x31, 0x36,
    0x5f, 0x6d, 0x64, 0x38, 0x2f, 0x64, 0x65, 0x6e, 0x73, 0x65, 0x5f, 0x31,
    0x37, 0x34, 0x2f, 0x42, 0x69, 0x61, 0x73, 0x41, 0x64, 0x64, 0x2f, 0x52,
    0x65, 0x61, 0x64, 0x56, 0x61, 0x72, 0x69, 0x61, 0x62, 0x6c, 0x65, 0x4f,
    0x70, 0x00, 0x00, 0x00, 0x01, 0x00, 0x00, 0x00, 0x10, 0x00, 0x00, 0x00,
    0x5e, 0xfd, 0xff, 0xff, 0x00, 0x00, 0x00, 0x01, 0x10, 0x00, 0x00, 0x00,
    0x10, 0x00, 0x00, 0x00, 0x0a, 0x00, 0x00, 0x00, 0x38, 0x00, 0x00, 0x00,
    0xcc, 0xfc, 0xff, 0xff, 0x29, 0x00, 0x00, 0x00, 0x6c, 0x77, 0x31, 0x36,
    0x5f, 0x6d, 0x64, 0x38, 0x2f, 0x64, 0x65, 0x6e, 0x73, 0x65, 0x5f, 0x31,
    0x37, 0x35, 0x2f, 0x42, 0x69, 0x61, 0x73, 0x41, 0x64, 0x64, 0x2f, 0x52,
    0x65, 0x61, 0x64, 0x56, 0x61, 0x72, 0x69, 0x61, 0x62, 0x6c, 0x65, 0x4f,
    0x70, 0x00, 0x00, 0x00, 0x01, 0x00, 0x00, 0x00, 0x10, 0x00, 0x00, 0x00,
    0xb2, 0xfd, 0xff, 0xff, 0x00, 0x00, 0x00, 0x01, 0x10, 0x00, 0x00, 0x00,
    0x10, 0x00, 0x00, 0x00, 0x09, 0x00, 0x00, 0x00, 0x38, 0x00, 0x00, 0x00,
    0x20, 0xfd, 0xff, 0xff, 0x29, 0x00, 0x00, 0x00, 0x6c, 0x77, 0x31, 0x36,
    0x5f, 0x6d, 0x64, 0x38, 0x2f, 0x64, 0x65, 0x6e, 0x73, 0x65, 0x5f, 0x31,
    0x37, 0x36, 0x2f, 0x42, 0x69, 0x61, 0x73, 0x41, 0x64, 0x64, 0x2f, 0x52,
    0x65, 0x61, 0x64, 0x56, 0x61, 0x72, 0x69, 0x61, 0x62, 0x6c, 0x65, 0x4f,
    0x70, 0x00, 0x00, 0x00, 0x01, 0x00, 0x00, 0x00, 0x10, 0x00, 0x00, 0x00,
    0x06, 0xfe, 0xff, 0xff, 0x00, 0x00, 0x00, 0x01, 0x10, 0x00, 0x00, 0x00,
    0x10, 0x00, 0x00, 0x00, 0x08, 0x00, 0x00, 0x00, 0x38, 0x00, 0x00, 0x00,
    0x74, 0xfd, 0xff, 0xff, 0x29, 0x00, 0x00, 0x00, 0x6c, 0x77, 0x31, 0x36,
    0x5f, 0x6d, 0x64, 0x38, 0x2f, 0x64, 0x65, 0x6e, 0x73, 0x65, 0x5f, 0x31,
    0x37, 0x37, 0x2f, 0x42, 0x69, 0x61, 0x73, 0x41, 0x64, 0x64, 0x2f, 0x52,
    0x65, 0x61, 0x64, 0x56, 0x61, 0x72, 0x69, 0x61, 0x62, 0x6c, 0x65, 0x4f,
    0x70, 0x00, 0x00, 0x00, 0x01, 0x00, 0x00, 0x00, 0x10, 0x00, 0x00, 0x00,
    0x5a, 0xfe, 0xff, 0xff, 0x00, 0x00, 0x00, 0x01, 0x10, 0x00, 0x00, 0x00,
    0x10, 0x00, 0x00, 0x00, 0x07, 0x00, 0x00, 0x00, 0x38, 0x00, 0x00, 0x00,
    0xc8, 0xfd, 0xff, 0xff, 0x29, 0x00, 0x00, 0x00, 0x6c, 0x77, 0x31, 0x36,
    0x5f, 0x6d, 0x64, 0x38, 0x2f, 0x64, 0x65, 0x6e, 0x73, 0x65, 0x5f, 0x31,
    0x37, 0x38, 0x2f, 0x42, 0x69, 0x61, 0x73, 0x41, 0x64, 0x64, 0x2f, 0x52,
    0x65, 0x61, 0x64, 0x56, 0x61, 0x72, 0x69, 0x61, 0x62, 0x6c, 0x65, 0x4f,
    0x70, 0x00, 0x00, 0x00, 0x01, 0x00, 0x00, 0x00, 0x10, 0x00, 0x00, 0x00,
    0xae, 0xfe, 0xff, 0xff, 0x00, 0x00, 0x00, 0x01, 0x10, 0x00, 0x00, 0x00,
    0x10, 0x00, 0x00, 0x00, 0x06, 0x00, 0x00, 0x00, 0x38, 0x00, 0x00, 0x00,
    0x1c, 0xfe, 0xff, 0xff, 0x29, 0x00, 0x00, 0x00, 0x6c, 0x77, 0x31, 0x36,
    0x5f, 0x6d, 0x64, 0x38, 0x2f, 0x64, 0x65, 0x6e, 0x73, 0x65, 0x5f, 0x31,
    0x37, 0x39, 0x2f, 0x42, 0x69, 0x61, 0x73, 0x41, 0x64, 0x64, 0x2f, 0x52,
    0x65, 0x61, 0x64, 0x56, 0x61, 0x72, 0x69, 0x61, 0x62, 0x6c, 0x65, 0x4f,
    0x70, 0x00, 0x00, 0x00, 0x01, 0x00, 0x00, 0x00, 0x10, 0x00, 0x00, 0x00,
    0x02, 0xff, 0xff, 0xff, 0x00, 0x00, 0x00, 0x01, 0x10, 0x00, 0x00, 0x00,
    0x10, 0x00, 0x00, 0x00, 0x05, 0x00, 0x00, 0x00, 0x38, 0x00, 0x00, 0x00,
    0x70, 0xfe, 0xff, 0xff, 0x29, 0x00, 0x00, 0x00, 0x6c, 0x77, 0x31, 0x36,
    0x5f, 0x6d, 0x64, 0x38, 0x2f, 0x64, 0x65, 0x6e, 0x73, 0x65, 0x5f, 0x31,
    0x38, 0x30, 0x2f, 0x42, 0x69, 0x61, 0x73, 0x41, 0x64, 0x64, 0x2f, 0x52,
    0x65, 0x61, 0x64, 0x56, 0x61, 0x72, 0x69, 0x61, 0x62, 0x6c, 0x65, 0x4f,
    0x70, 0x00, 0x00, 0x00, 0x01, 0x00, 0x00, 0x00, 0x10, 0x00, 0x00, 0x00,
    0x56, 0xff, 0xff, 0xff, 0x00, 0x00, 0x00, 0x01, 0x10, 0x00, 0x00, 0x00,
    0x10, 0x00, 0x00, 0x00, 0x04, 0x00, 0x00, 0x00, 0x38, 0x00, 0x00, 0x00,
    0xc4, 0xfe, 0xff, 0xff, 0x29, 0x00, 0x00, 0x00, 0x6c, 0x77, 0x31, 0x36,
    0x5f, 0x6d, 0x64, 0x38, 0x2f, 0x64, 0x65, 0x6e, 0x73, 0x65, 0x5f, 0x31,
    0x38, 0x31, 0x2f, 0x42, 0x69, 0x61, 0x73, 0x41, 0x64, 0x64, 0x2f, 0x52,
    0x65, 0x61, 0x64, 0x56, 0x61, 0x72, 0x69, 0x61, 0x62, 0x6c, 0x65, 0x4f,
    0x70, 0x00, 0x00, 0x00, 0x01, 0x00, 0x00, 0x00, 0x10, 0x00, 0x00, 0x00,
    0xaa, 0xff, 0xff, 0xff, 0x00, 0x00, 0x00, 0x01, 0x10, 0x00, 0x00, 0x00,
    0x10, 0x00, 0x00, 0x00, 0x03, 0x00, 0x00, 0x00, 0x38, 0x00, 0x00, 0x00,
    0x18, 0xff, 0xff, 0xff, 0x29, 0x00, 0x00, 0x00, 0x6c, 0x77, 0x31, 0x36,
    0x5f, 0x6d, 0x64, 0x38, 0x2f, 0x64, 0x65, 0x6e, 0x73, 0x65, 0x5f, 0x31,
    0x38, 0x32, 0x2f, 0x42, 0x69, 0x61, 0x73, 0x41, 0x64, 0x64, 0x2f, 0x52,
    0x65, 0x61, 0x64, 0x56, 0x61, 0x72, 0x69, 0x61, 0x62, 0x6c, 0x65, 0x4f,
    0x70, 0x00, 0x00, 0x00, 0x01, 0x00, 0x00, 0x00, 0x10, 0x00, 0x00, 0x00,
    0x00, 0x00, 0x16, 0x00, 0x18, 0x00, 0x14, 0x00, 0x00, 0x00, 0x10, 0x00,
    0x0c, 0x00, 0x08, 0x00, 0x00, 0x00, 0x00, 0x00, 0x00, 0x00, 0x07, 0x00,
    0x16, 0x00, 0x00, 0x00, 0x00, 0x00, 0x00, 0x01, 0x10, 0x00, 0x00, 0x00,
    0x10, 0x00, 0x00, 0x00, 0x02, 0x00, 0x00, 0x00, 0x38, 0x00, 0x00, 0x00,
    0x84, 0xff, 0xff, 0xff, 0x29, 0x00, 0x00, 0x00, 0x6c, 0x77, 0x31, 0x36,
    0x5f, 0x6d, 0x64, 0x38, 0x2f, 0x64, 0x65, 0x6e, 0x73, 0x65, 0x5f, 0x31,
    0x38, 0x33, 0x2f, 0x42, 0x69, 0x61, 0x73, 0x41, 0x64, 0x64, 0x2f, 0x52,
    0x65, 0x61, 0x64, 0x56, 0x61, 0x72, 0x69, 0x61, 0x62, 0x6c, 0x65, 0x4f,
    0x70, 0x00, 0x00, 0x00, 0x01, 0x00, 0x00, 0x00, 0x08, 0x00, 0x00, 0x00,
    0x00, 0x00, 0x16, 0x00, 0x1c, 0x00, 0x18, 0x00, 0x00, 0x00, 0x14, 0x00,
    0x10, 0x00, 0x0c, 0x00, 0x00, 0x00, 0x00, 0x00, 0x08, 0x00, 0x07, 0x00,
    0x16, 0x00, 0x00, 0x00, 0x00, 0x00, 0x00, 0x01, 0x14, 0x00, 0x00, 0x00,
    0x20, 0x00, 0x00, 0x00, 0x20, 0x00, 0x00, 0x00, 0x01, 0x00, 0x00, 0x00,
    0x40, 0x00, 0x00, 0x00, 0x02, 0x00, 0x00, 0x00, 0xff, 0xff, 0xff, 0xff,
    0x0f, 0x00, 0x00, 0x00, 0x04, 0x00, 0x04, 0x00, 0x04, 0x00, 0x00, 0x00,
    0x21, 0x00, 0x00, 0x00, 0x73, 0x65, 0x72, 0x76, 0x69, 0x6e, 0x67, 0x5f,
    0x64, 0x65, 0x66, 0x61, 0x75, 0x6c, 0x74, 0x5f, 0x64, 0x65, 0x6e, 0x73,
    0x65, 0x5f, 0x31, 0x37, 0x34, 0x5f, 0x69, 0x6e, 0x70, 0x75, 0x74, 0x3a,
    0x30, 0x00, 0x00, 0x00, 0x02, 0x00, 0x00, 0x00, 0x01, 0x00, 0x00, 0x00,
    0x0f, 0x00, 0x00, 0x00, 0x02, 0x00, 0x00, 0x00, 0x20, 0x00, 0x00, 0x00,
    0x04, 0x00, 0x00, 0x00, 0xf4, 0xff, 0xff, 0xff, 0x19, 0x00, 0x00, 0x00,
    0x00, 0x00, 0x00, 0x19, 0x0c, 0x00, 0x0c, 0x00, 0x0b, 0x00, 0x00, 0x00,
    0x00, 0x00, 0x04, 0x00, 0x0c, 0x00, 0x00, 0x00, 0x09, 0x00, 0x00, 0x00,
    0x00, 0x00, 0x00, 0x09};
unsigned int lw16_md8_len = 15220;
