unsigned char lw16_md1[] = {
    0x1c, 0x00, 0x00, 0x00, 0x54, 0x46, 0x4c, 0x33, 0x14, 0x00, 0x20, 0x00,
    0x1c, 0x00, 0x18, 0x00, 0x14, 0x00, 0x10, 0x00, 0x0c, 0x00, 0x00, 0x00,
    0x08, 0x00, 0x04, 0x00, 0x14, 0x00, 0x00, 0x00, 0x1c, 0x00, 0x00, 0x00,
    0x98, 0x00, 0x00, 0x00, 0xf0, 0x00, 0x00, 0x00, 0x64, 0x0c, 0x00, 0x00,
    0x74, 0x0c, 0x00, 0x00, 0x44, 0x12, 0x00, 0x00, 0x03, 0x00, 0x00, 0x00,
    0x01, 0x00, 0x00, 0x00, 0x10, 0x00, 0x00, 0x00, 0x00, 0x00, 0x0a, 0x00,
    0x10, 0x00, 0x0c, 0x00, 0x08, 0x00, 0x04, 0x00, 0x0a, 0x00, 0x00, 0x00,
    0x0c, 0x00, 0x00, 0x00, 0x1c, 0x00, 0x00, 0x00, 0x3c, 0x00, 0x00, 0x00,
    0x0f, 0x00, 0x00, 0x00, 0x73, 0x65, 0x72, 0x76, 0x69, 0x6e, 0x67, 0x5f,
    0x64, 0x65, 0x66, 0x61, 0x75, 0x6c, 0x74, 0x00, 0x01, 0x00, 0x00, 0x00,
    0x04, 0x00, 0x00, 0x00, 0x90, 0xff, 0xff, 0xff, 0x0a, 0x00, 0x00, 0x00,
    0x04, 0x00, 0x00, 0x00, 0x09, 0x00, 0x00, 0x00, 0x64, 0x65, 0x6e, 0x73,
    0x65, 0x5f, 0x31, 0x36, 0x33, 0x00, 0x00, 0x00, 0x01, 0x00, 0x00, 0x00,
    0x04, 0x00, 0x00, 0x00, 0x82, 0xf3, 0xff, 0xff, 0x04, 0x00, 0x00, 0x00,
    0x0f, 0x00, 0x00, 0x00, 0x64, 0x65, 0x6e, 0x73, 0x65, 0x5f, 0x31, 0x36,
    0x31, 0x5f, 0x69, 0x6e, 0x70, 0x75, 0x74, 0x00, 0x02, 0x00, 0x00, 0x00,
    0x34, 0x00, 0x00, 0x00, 0x04, 0x00, 0x00, 0x00, 0xdc, 0xff, 0xff, 0xff,
    0x0d, 0x00, 0x00, 0x00, 0x04, 0x00, 0x00, 0x00, 0x13, 0x00, 0x00, 0x00,
    0x43, 0x4f, 0x4e, 0x56, 0x45, 0x52, 0x53, 0x49, 0x4f, 0x4e, 0x5f, 0x4d,
    0x45, 0x54, 0x41, 0x44, 0x41, 0x54, 0x41, 0x00, 0x08, 0x00, 0x0c, 0x00,
    0x08, 0x00, 0x04, 0x00, 0x08, 0x00, 0x00, 0x00, 0x0c, 0x00, 0x00, 0x00,
    0x04, 0x00, 0x00, 0x00, 0x13, 0x00, 0x00, 0x00, 0x6d, 0x69, 0x6e, 0x5f,
    0x72, 0x75, 0x6e, 0x74, 0x69, 0x6d, 0x65, 0x5f, 0x76, 0x65, 0x72, 0x73,
    0x69, 0x6f, 0x6e, 0x00, 0x0e, 0x00, 0x00, 0x00, 0x70, 0x0b, 0x00, 0x00,
    0x68, 0x0b, 0x00, 0x00, 0x38, 0x0b, 0x00, 0x00, 0xe8, 0x0a, 0x00, 0x00,
    0x98, 0x0a, 0x00, 0x00, 0xc8, 0x06, 0x00, 0x00, 0xb8, 0x02, 0x00, 0x00,
    0xa8, 0x00, 0x00, 0x00, 0xa0, 0x00, 0x00, 0x00, 0x98, 0x00, 0x00, 0x00,
    0x90, 0x00, 0x00, 0x00, 0x88, 0x00, 0x00, 0x00, 0x68, 0x00, 0x00, 0x00,
    0x04, 0x00, 0x00, 0x00, 0x36, 0xf4, 0xff, 0xff, 0x04, 0x00, 0x00, 0x00,
    0x54, 0x00, 0x00, 0x00, 0x0c, 0x00, 0x00, 0x00, 0x08, 0x00, 0x0e, 0x00,
    0x08, 0x00, 0x04, 0x00, 0x08, 0x00, 0x00, 0x00, 0x10, 0x00, 0x00, 0x00,
    0x24, 0x00, 0x00, 0x00, 0x00, 0x00, 0x06, 0x00, 0x08, 0x00, 0x04, 0x00,
    0x06, 0x00, 0x00, 0x00, 0x04, 0x00, 0x00, 0x00, 0x00, 0x00, 0x00, 0x00,
    0x00, 0x00, 0x0a, 0x00, 0x10, 0x00, 0x0c, 0x00, 0x08, 0x00, 0x04, 0x00,
    0x0a, 0x00, 0x00, 0x00, 0x02, 0x00, 0x00, 0x00, 0x02, 0x00, 0x00, 0x00,
    0x04, 0x00, 0x00, 0x00, 0x06, 0x00, 0x00, 0x00, 0x32, 0x2e, 0x31, 0x34,
    0x2e, 0x30, 0x00, 0x00, 0x96, 0xf4, 0xff, 0xff, 0x04, 0x00, 0x00, 0x00,
    0x10, 0x00, 0x00, 0x00, 0x31, 0x2e, 0x35, 0x2e, 0x30, 0x00, 0x00, 0x00,
    0x00, 0x00, 0x00, 0x00, 0x00, 0x00, 0x00, 0x00, 0x94, 0xef, 0xff, 0xff,
    0x98, 0xef, 0xff, 0xff, 0x9c, 0xef, 0xff, 0xff, 0xa0, 0xef, 0xff, 0xff,
    0xc2, 0xf4, 0xff, 0xff, 0x04, 0x00, 0x00, 0x00, 0x00, 0x02, 0x00, 0x00,
    0xd1, 0x61, 0x06, 0xbf, 0xbc, 0x9f, 0xf2, 0xbe, 0xdd, 0xef, 0xa3, 0xbe,
    0xdb, 0x35, 0x09, 0xbe, 0xc0, 0x63, 0x09, 0xbd, 0x03, 0x7b, 0x03, 0xbe,
    0x11, 0x78, 0x0e, 0xbf, 0x5f, 0xae, 0x26, 0x3e, 0xc2, 0x61, 0x21, 0xbf,
    0x49, 0xbb, 0x0a, 0xbf, 0x73, 0xd4, 0xa8, 0xbd, 0x97, 0xc0, 0x1e, 0xbf,
    0xc6, 0xb2, 0x68, 0xbe, 0x0b, 0xef, 0xed, 0xbe, 0xea, 0x81, 0xa4, 0xbe,
    0x1b, 0x12, 0x1c, 0x3d, 0x96, 0xf8, 0x8f, 0xbe, 0x0f, 0x0b, 0x16, 0xbf,
    0xd3, 0xc0, 0x89, 0xbe, 0x88, 0xf6, 0x04, 0xbf, 0xc0, 0xcc, 0xcc, 0xbe,
    0x83, 0xba, 0x1b, 0x3f, 0x38, 0x0b, 0xa5, 0x3e, 0x78, 0x70, 0x60, 0x3e,
    0xd4, 0xad, 0x3f, 0x3f, 0x8c, 0x8c, 0x50, 0x3d, 0xae, 0xeb, 0x33, 0x3f,
    0x6b, 0x44, 0xc3, 0x3d, 0x3b, 0x46, 0x0d, 0x3e, 0x27, 0x37, 0x71, 0x3f,
    0x0e, 0x66, 0xa4, 0xbe, 0x08, 0x6d, 0xff, 0x3d, 0x2c, 0x4d, 0xb0, 0x3c,
    0xb8, 0x0a, 0xdb, 0xbd, 0x14, 0x17, 0xec, 0xbe, 0xb7, 0xa2, 0x9f, 0x3e,
    0xc0, 0x9f, 0xe2, 0x3e, 0x36, 0x1c, 0x79, 0xbe, 0x27, 0xd1, 0x08, 0x3b,
    0x08, 0x58, 0x51, 0xbe, 0x4b, 0x3f, 0x1d, 0xbd, 0x81, 0x4d, 0x9f, 0xbe,
    0x60, 0x2a, 0x7b, 0xbe, 0x5d, 0x95, 0x9b, 0xbd, 0xeb, 0x45, 0x56, 0x3d,
    0x2c, 0x24, 0x9d, 0x3e, 0x9f, 0x47, 0x8a, 0x3e, 0x95, 0x03, 0x2f, 0xbe,
    0x1e, 0x25, 0x11, 0x3e, 0x8c, 0x01, 0x88, 0x3e, 0x0c, 0xc4, 0x6b, 0x3d,
    0xc7, 0x33, 0x92, 0x3e, 0x94, 0xa8, 0x86, 0xbe, 0x48, 0x86, 0x23, 0xba,
    0x18, 0x7b, 0x85, 0x3e, 0xaf, 0x28, 0xb0, 0x3e, 0xcc, 0xd5, 0xab, 0xbd,
    0x8c, 0x4d, 0x73, 0x3e, 0x90, 0x71, 0x8e, 0xbd, 0x54, 0x4a, 0x74, 0x3e,
    0x73, 0x6a, 0xd4, 0xbd, 0xe7, 0x1e, 0x2c, 0xbf, 0x9f, 0x09, 0xf2, 0xbe,
    0x15, 0x28, 0x87, 0xbe, 0xa2, 0xd7, 0x48, 0x3e, 0xae, 0x3a, 0x55, 0xbf,
    0xc3, 0xfa, 0xaa, 0x3d, 0xe7, 0x5a, 0x2b, 0x3e, 0xa8, 0x60, 0xba, 0x3e,
    0x34, 0x93, 0x93, 0xbe, 0xa5, 0x98, 0x01, 0x3e, 0x0c, 0xb8, 0x2e, 0x3e,
    0x64, 0x8e, 0xe9, 0xbd, 0xb7, 0xf1, 0x90, 0xbe, 0xce, 0xd0, 0xa8, 0xbe,
    0x57, 0x09, 0x10, 0x3f, 0x6e, 0x37, 0x23, 0xbe, 0xe6, 0x5e, 0x91, 0xbe,
    0x7b, 0x95, 0x09, 0xbd, 0xcf, 0x3d, 0xaa, 0x3e, 0x19, 0x08, 0x28, 0xbd,
    0x55, 0x40, 0xe7, 0xbe, 0xb1, 0x4a, 0xf4, 0x3e, 0x8f, 0xd9, 0x60, 0xbe,
    0x1c, 0xf1, 0xc6, 0xbe, 0xb5, 0x4d, 0x35, 0xbe, 0x72, 0x7c, 0xb5, 0xbd,
    0xb6, 0x16, 0x34, 0x3e, 0x20, 0xa1, 0xd0, 0x3e, 0x84, 0x36, 0xfe, 0xbe,
    0x79, 0x79, 0xdd, 0x3d, 0x58, 0x60, 0xc6, 0xbe, 0xc3, 0x45, 0xb9, 0xbd,
    0xe2, 0x0f, 0x93, 0xbe, 0xf4, 0x19, 0xd2, 0x3d, 0xcf, 0x69, 0xb3, 0x3d,
    0xc2, 0xa9, 0x85, 0xbe, 0xb5, 0x2d, 0x47, 0x3e, 0xc6, 0x46, 0x09, 0xbf,
    0xce, 0x91, 0xa1, 0xbe, 0x88, 0x9f, 0xca, 0xbe, 0x2e, 0x78, 0xaf, 0x3e,
    0xb8, 0x31, 0xac, 0x3e, 0xe7, 0x10, 0xab, 0xbd, 0x82, 0x29, 0xcf, 0x3d,
    0x8d, 0xf6, 0x4d, 0xbe, 0xac, 0x11, 0x71, 0xbb, 0x74, 0xc5, 0xf9, 0x3d,
    0x7b, 0x1d, 0x12, 0xbf, 0x74, 0x6e, 0x69, 0xbd, 0x09, 0x77, 0x84, 0xbe,
    0x24, 0x05, 0x03, 0xbf, 0xb4, 0xfa, 0x03, 0x3e, 0x1d, 0xe0, 0x90, 0x3d,
    0xb1, 0xa9, 0xc8, 0xbe, 0x37, 0x20, 0xea, 0x3d, 0x80, 0xe3, 0x57, 0xbe,
    0x4e, 0x69, 0x9b, 0x3e, 0xd8, 0x4d, 0x49, 0x3e, 0xe8, 0xd5, 0xe9, 0x3e,
    0xeb, 0xd8, 0xa9, 0x3e, 0x58, 0x25, 0xa1, 0x3e, 0x7f, 0xbb, 0x01, 0xbf,
    0xd2, 0xe5, 0x17, 0x3d, 0xe8, 0xa6, 0xcb, 0x3e, 0xee, 0xb5, 0x7e, 0xbf,
    0x15, 0xf2, 0xc4, 0x3d, 0xd3, 0x3c, 0x67, 0x3e, 0xce, 0xf6, 0xff, 0xff,
    0x04, 0x00, 0x00, 0x00, 0x00, 0x04, 0x00, 0x00, 0x68, 0xba, 0xb3, 0xbe,
    0x9f, 0xc4, 0x8f, 0xbb, 0xd1, 0xd9, 0xe0, 0x3e, 0xf3, 0xe4, 0xd8, 0xbd,
    0x30, 0xdf, 0xba, 0xbe, 0x4e, 0x7d, 0x0a, 0x3f, 0x14, 0xaa, 0x77, 0x3d,
    0x41, 0x2c, 0xbc, 0xbe, 0x46, 0xb7, 0x39, 0x3f, 0xe6, 0x38, 0x19, 0xbf,
    0xf2, 0x95, 0x87, 0xbe, 0x68, 0x1a, 0x10, 0xbe, 0x32, 0x87, 0xe4, 0x3d,
    0x7d, 0x01, 0xb4, 0x3e, 0x58, 0x8d, 0xcf, 0xbc, 0x26, 0x84, 0x86, 0x3e,
    0x60, 0xfd, 0xb4, 0xbe, 0xb1, 0x08, 0x9a, 0x3e, 0xad, 0x4d, 0xec, 0x3c,
    0xe9, 0x02, 0x53, 0x3e, 0x5d, 0xed, 0x06, 0xbf, 0x15, 0xfa, 0x09, 0xbf,
    0x40, 0xc1, 0x74, 0xbd, 0xe6, 0xb1, 0xd8, 0xbe, 0x18, 0x77, 0x49, 0xbd,
    0xeb, 0x80, 0x4f, 0xbd, 0x95, 0x00, 0xbf, 0xbe, 0x4c, 0xa6, 0x9d, 0xbd,
    0xf9, 0x9d, 0x9e, 0xbe, 0xf4, 0xb7, 0xe6, 0x3e, 0xda, 0x96, 0xb2, 0xbc,
    0xa3, 0x8a, 0xbd, 0x3e, 0xb8, 0x93, 0xa5, 0xbc, 0x30, 0xa6, 0x28, 0xbd,
    0xf7, 0xc9, 0x79, 0x3e, 0xbd, 0x8e, 0x86, 0x3d, 0xb4, 0x02, 0x04, 0x3e,
    0xe4, 0x02, 0xce, 0x3e, 0x80, 0xbb, 0xc5, 0xbb, 0xd6, 0x3d, 0x8d, 0x3e,
    0xf5, 0xf6, 0x8d, 0x3e, 0xb3, 0x14, 0x8c, 0xbd, 0x28, 0xca, 0xd3, 0xbe,
    0x70, 0x31, 0x94, 0xbe, 0x8d, 0xb8, 0xa2, 0x3d, 0x05, 0x99, 0xd8, 0x3d,
    0xef, 0x18, 0x99, 0xbb, 0xa8, 0xf1, 0x46, 0xbe, 0x4c, 0x9c, 0x17, 0x3e,
    0xbd, 0xf1, 0x97, 0x3c, 0xd8, 0xa5, 0x95, 0x3e, 0x97, 0x0c, 0x8f, 0xbe,
    0x59, 0x99, 0x22, 0xbf, 0xb7, 0x32, 0xb1, 0x3c, 0x61, 0x1e, 0xbd, 0xbe,
    0x43, 0x4b, 0x2b, 0xbe, 0x3d, 0xd9, 0x48, 0x3f, 0x84, 0x83, 0xaf, 0xbe,
    0xf8, 0xc1, 0x56, 0x3e, 0xb2, 0xf8, 0x03, 0x3e, 0x07, 0x42, 0x92, 0x3e,
    0xd9, 0x49, 0x1a, 0x3e, 0xe3, 0x77, 0xba, 0xbe, 0xa7, 0x66, 0x91, 0x3e,
    0x08, 0xfd, 0x62, 0xbe, 0xda, 0x8f, 0xcc, 0xbe, 0xce, 0x05, 0x32, 0xbe,
    0xe7, 0x91, 0x9c, 0x3e, 0x26, 0x97, 0xb5, 0xbe, 0xca, 0xef, 0x8e, 0xbe,
    0xc2, 0x4b, 0x0e, 0x3e, 0x2f, 0xb7, 0x4e, 0xbe, 0x0b, 0x31, 0xbe, 0x3e,
    0x2c, 0x2b, 0xf7, 0xbd, 0x1d, 0xb9, 0xb3, 0xbe, 0x88, 0xe6, 0x0b, 0xbe,
    0xa4, 0xad, 0xbe, 0xbe, 0x08, 0xeb, 0x1c, 0xbd, 0x88, 0xbc, 0x02, 0x3d,
    0x44, 0x02, 0xc1, 0xbe, 0x5a, 0x33, 0x1f, 0x3e, 0x0c, 0xb4, 0xab, 0x3b,
    0x3b, 0xa8, 0xae, 0x3e, 0xfd, 0x78, 0x32, 0x3a, 0x40, 0xdb, 0xf9, 0x3e,
    0x49, 0x66, 0x52, 0xbe, 0x26, 0x8f, 0xa5, 0x3e, 0x58, 0x6c, 0xaa, 0xbe,
    0xd4, 0xd0, 0x1d, 0xbf, 0x61, 0xc5, 0x8e, 0xbd, 0xea, 0x95, 0x1e, 0x3e,
    0x9b, 0xa0, 0xbd, 0x3e, 0xc8, 0xc3, 0x23, 0xbd, 0x9a, 0x6d, 0x8b, 0x3b,
    0xf9, 0xae, 0x4a, 0x3e, 0x94, 0x83, 0x94, 0x3e, 0x21, 0xec, 0xaf, 0xbe,
    0x16, 0x1a, 0x14, 0xbe, 0x69, 0xdf, 0x8b, 0xbd, 0x7f, 0x12, 0x7a, 0x3e,
    0x09, 0x30, 0x90, 0xbd, 0x2d, 0x06, 0xa9, 0xbd, 0xcf, 0x43, 0xfb, 0x3e,
    0xcf, 0x2d, 0x8e, 0xbe, 0xb2, 0x02, 0xea, 0xbe, 0xe9, 0xcd, 0x19, 0x3f,
    0xdc, 0x96, 0xa0, 0x3c, 0xe0, 0x9b, 0xb2, 0x3e, 0x44, 0x19, 0x2c, 0x3e,
    0x10, 0x76, 0xb6, 0x3e, 0x31, 0x3f, 0x84, 0x3e, 0x77, 0x14, 0xda, 0x3e,
    0xf1, 0x45, 0xc7, 0x3e, 0x90, 0xef, 0x51, 0xbe, 0xfd, 0xa1, 0x82, 0xbe,
    0x76, 0x86, 0x78, 0x3e, 0x32, 0x0c, 0x86, 0x3e, 0xff, 0x5c, 0xb1, 0xbe,
    0xc9, 0xf8, 0x47, 0xbd, 0x26, 0xd5, 0xd1, 0xbe, 0xeb, 0xbc, 0x80, 0x3e,
    0x04, 0x2f, 0x08, 0xbe, 0x31, 0x95, 0x65, 0x3e, 0x81, 0xd3, 0xde, 0x3d,
    0x7d, 0x0a, 0x15, 0x3e, 0x18, 0x1b, 0x57, 0x3e, 0x9b, 0x42, 0x62, 0xb8,
    0x96, 0x70, 0x3c, 0xbe, 0xc0, 0x3f, 0x0b, 0xbe, 0x25, 0xb9, 0x59, 0xbd,
    0xc3, 0x7b, 0x62, 0xbe, 0xdf, 0x13, 0xb6, 0xbe, 0x7c, 0x80, 0xaa, 0x3e,
    0x1c, 0xf4, 0x40, 0xbe, 0x92, 0x34, 0x88, 0xbe, 0x18, 0xa3, 0x0b, 0xbe,
    0xba, 0x2b, 0x6b, 0x3b, 0x7c, 0xe6, 0x1c, 0x3f, 0x1e, 0x2f, 0xc9, 0x3e,
    0x28, 0x45, 0x83, 0xbe, 0x88, 0x41, 0x3e, 0xbe, 0xbc, 0x84, 0xe0, 0x3d,
    0xcb, 0x05, 0x4b, 0xbe, 0xbe, 0x8a, 0xe0, 0x3e, 0xb5, 0xa1, 0xce, 0x3e,
    0x2d, 0x5a, 0x6c, 0xbe, 0x70, 0xa7, 0x8c, 0x3d, 0x71, 0xd4, 0xca, 0xbe,
    0x41, 0x31, 0xe9, 0xbe, 0xc9, 0xe7, 0x35, 0xbf, 0x4e, 0x54, 0xb5, 0x3e,
    0x3e, 0x55, 0xb6, 0xbe, 0x6a, 0xad, 0x19, 0xbe, 0x63, 0xb4, 0xe7, 0xbc,
    0x70, 0x96, 0xb5, 0xbe, 0x38, 0x6c, 0x59, 0x3d, 0x85, 0xfc, 0xbf, 0x3e,
    0xd5, 0xcc, 0xcb, 0x3d, 0x91, 0xc4, 0x70, 0xbe, 0x2a, 0x2f, 0xb8, 0x3e,
    0x56, 0xeb, 0xbd, 0x3e, 0x39, 0x2c, 0xce, 0xbd, 0xdd, 0x30, 0x80, 0xbb,
    0x5c, 0x54, 0x0e, 0x3e, 0xe9, 0x35, 0x1f, 0x3f, 0x27, 0xd4, 0x4c, 0xbe,
    0x00, 0x73, 0x70, 0x3e, 0x3e, 0x3f, 0xcd, 0xbd, 0xb0, 0x3a, 0x36, 0xbf,
    0x9a, 0x6a, 0x58, 0x3f, 0x44, 0x05, 0x17, 0x3e, 0xdc, 0xda, 0xd1, 0xbd,
    0xb6, 0xf0, 0x8f, 0xbe, 0xce, 0x53, 0x9a, 0xbe, 0x5e, 0x4b, 0xe9, 0x3d,
    0xbc, 0x2c, 0x10, 0x3e, 0xa1, 0x41, 0x0c, 0x3e, 0x81, 0x32, 0xe7, 0xbe,
    0xae, 0x1b, 0xf2, 0x3d, 0xda, 0x05, 0xcb, 0x3d, 0xa9, 0x39, 0x04, 0xbe,
    0xa5, 0x32, 0x9d, 0x3e, 0x0c, 0x12, 0x11, 0x3e, 0x72, 0xb2, 0xb6, 0xbc,
    0x82, 0x27, 0x0d, 0x3f, 0x7d, 0x4b, 0x76, 0x3c, 0x64, 0x87, 0x78, 0xbe,
    0x6a, 0xde, 0x56, 0xbe, 0x03, 0xdd, 0x21, 0x3e, 0x5b, 0x90, 0x0a, 0xbf,
    0xb8, 0x50, 0xab, 0x3d, 0x6e, 0x09, 0x40, 0x3e, 0x34, 0xfb, 0xc7, 0x3e,
    0x6f, 0x62, 0x9d, 0xbe, 0x62, 0x02, 0xcf, 0x3e, 0x88, 0x22, 0xee, 0xbc,
    0x64, 0x08, 0x6a, 0x3e, 0xf4, 0xab, 0x04, 0xbf, 0x20, 0x94, 0xc6, 0xbd,
    0x14, 0x55, 0x44, 0x3d, 0x2b, 0x49, 0x9e, 0xbe, 0xb7, 0x73, 0xc6, 0xbd,
    0x37, 0x7c, 0xc0, 0x3d, 0xfb, 0x3b, 0xd6, 0xbe, 0xd0, 0xb8, 0x92, 0xbe,
    0x4a, 0xdf, 0x1b, 0x3f, 0x53, 0x16, 0xac, 0x3e, 0xf4, 0x54, 0x01, 0x3c,
    0xe4, 0xf3, 0xc9, 0xbe, 0x08, 0xf2, 0x98, 0xbd, 0x0a, 0x58, 0x7d, 0x3e,
    0xe6, 0x89, 0xb6, 0x3d, 0x08, 0x55, 0x1e, 0xbe, 0x24, 0x2b, 0x97, 0xbe,
    0xba, 0x1e, 0xae, 0xbd, 0xee, 0x3b, 0x00, 0xbe, 0x16, 0x9f, 0x4e, 0xbf,
    0x7c, 0x67, 0x45, 0x3f, 0x87, 0x74, 0xac, 0x3e, 0x00, 0x18, 0xe5, 0x3b,
    0x0e, 0x82, 0xc5, 0xbb, 0x6c, 0xc2, 0xab, 0xbe, 0xc8, 0xf0, 0xb5, 0x3e,
    0x0a, 0x15, 0x1f, 0xbe, 0xdb, 0x6a, 0x3c, 0xbd, 0x39, 0xc6, 0xdc, 0xbe,
    0x2c, 0x11, 0xbd, 0xbe, 0x95, 0x55, 0xa5, 0x3c, 0x9c, 0x7c, 0xf6, 0xbd,
    0xf7, 0x70, 0xcd, 0xbe, 0x70, 0xb2, 0xaa, 0xbe, 0xcc, 0x3f, 0x42, 0xbe,
    0x03, 0x7f, 0x2f, 0xbe, 0x52, 0x1c, 0x0b, 0xbe, 0xdb, 0xb3, 0x96, 0xbe,
    0x8a, 0xef, 0xa2, 0x3e, 0xd0, 0xe8, 0x80, 0x3e, 0xb2, 0xae, 0x16, 0x3e,
    0xef, 0x1f, 0xa8, 0xbd, 0xde, 0x04, 0x7c, 0x3e, 0x17, 0x87, 0x29, 0xbe,
    0x38, 0x78, 0x41, 0xbe, 0x83, 0x45, 0x61, 0x3e, 0xad, 0xfe, 0x99, 0x3e,
    0xfb, 0x6e, 0x04, 0xbe, 0x1e, 0x77, 0x8d, 0x3e, 0x9c, 0x98, 0xde, 0x3e,
    0xe3, 0x82, 0xbc, 0x3d, 0xfb, 0xd7, 0xef, 0x3e, 0x89, 0x99, 0xa5, 0x3c,
    0x29, 0xaf, 0x67, 0x3b, 0x27, 0x2d, 0xe9, 0xbd, 0x5d, 0x9e, 0x04, 0xbe,
    0xa8, 0x10, 0xd1, 0x3c, 0x89, 0x8f, 0x90, 0xbe, 0x1e, 0x52, 0xdc, 0x3e,
    0xda, 0xfa, 0xff, 0xff, 0x04, 0x00, 0x00, 0x00, 0xc0, 0x03, 0x00, 0x00,
    0xd4, 0xa4, 0xc8, 0x3e, 0x38, 0x40, 0xb5, 0x3e, 0x4e, 0x4d, 0x98, 0x3d,
    0xbf, 0x63, 0xe9, 0xbe, 0x4c, 0xf6, 0x91, 0x3e, 0x76, 0x1c, 0xe1, 0x3d,
    0x17, 0xfd, 0x89, 0x3e, 0x70, 0x0c, 0x8c, 0x3c, 0x2b, 0x2e, 0xcf, 0xbe,
    0xad, 0x8b, 0x97, 0x3e, 0x94, 0x0b, 0x85, 0xbe, 0xee, 0xff, 0x38, 0xbe,
    0x35, 0xf3, 0x6b, 0x3e, 0xad, 0xd1, 0x67, 0x3e, 0x96, 0x2d, 0xe2, 0x3e,
    0x46, 0x09, 0x10, 0x3e, 0xcd, 0xd8, 0x9f, 0xbe, 0x98, 0xb3, 0x95, 0x3e,
    0x72, 0x61, 0x89, 0x3d, 0x5a, 0x05, 0x6c, 0x3e, 0x05, 0x63, 0x0b, 0x3e,
    0x4b, 0x1f, 0xe1, 0xbe, 0xe1, 0x48, 0x4e, 0xbd, 0x48, 0xf7, 0x96, 0xbe,
    0x3d, 0x8d, 0x49, 0xbe, 0x7d, 0xae, 0x52, 0xbe, 0xda, 0xa6, 0x5a, 0xbe,
    0x4b, 0x0c, 0xec, 0x3e, 0x5f, 0x02, 0xb0, 0x3e, 0xf9, 0x22, 0x10, 0x3d,
    0x09, 0xee, 0x6b, 0xbd, 0x3d, 0x2c, 0x42, 0x3e, 0x08, 0xaf, 0x56, 0x3d,
    0x3b, 0x8f, 0x87, 0xbe, 0x05, 0x8e, 0x4a, 0x3e, 0x24, 0x4d, 0x26, 0xbe,
    0x5f, 0x84, 0x10, 0xbe, 0xce, 0x15, 0x83, 0x3e, 0xe9, 0x6d, 0x2e, 0xbe,
    0xda, 0xa7, 0xd1, 0x3e, 0xc7, 0xe4, 0x0b, 0xbd, 0xf7, 0x05, 0x8b, 0xbe,
    0x50, 0x6b, 0x4c, 0xbe, 0x4e, 0x5d, 0xf5, 0xbe, 0xb6, 0x0f, 0xf3, 0xbe,
    0xd3, 0x54, 0x6d, 0x3e, 0xae, 0xc5, 0x64, 0xbe, 0x7a, 0x7c, 0xe5, 0xbe,
    0x31, 0xbc, 0x93, 0x3e, 0x49, 0xf8, 0x62, 0x3e, 0xcb, 0x7e, 0x69, 0x3d,
    0x31, 0xdb, 0x70, 0x3e, 0x1b, 0x83, 0x0a, 0x3e, 0xe3, 0x48, 0x6d, 0xbc,
    0x95, 0x03, 0xb9, 0xbe, 0x22, 0xde, 0x95, 0xbe, 0x19, 0x29, 0x90, 0x3e,
    0x40, 0xd9, 0xef, 0x3e, 0x69, 0xce, 0xb0, 0xbe, 0x1c, 0xec, 0xae, 0x3e,
    0x0d, 0x83, 0x93, 0xbe, 0x13, 0x17, 0x93, 0x3d, 0xa1, 0x50, 0x3e, 0x3f,
    0x5d, 0x1a, 0xd7, 0xbe, 0xe8, 0x49, 0x9a, 0x3e, 0xdc, 0x3d, 0xba, 0x3e,
    0x56, 0x29, 0x08, 0xbc, 0xa9, 0x4d, 0xa7, 0xbe, 0x0d, 0xb4, 0x24, 0x3e,
    0x94, 0xbf, 0xba, 0x3e, 0x3e, 0x72, 0xb4, 0x3e, 0x83, 0xb2, 0xb8, 0xbe,
    0x32, 0x84, 0x56, 0x3d, 0x1d, 0x2d, 0x2b, 0xbd, 0x96, 0x3c, 0xd7, 0x3e,
    0x6d, 0xa8, 0x12, 0xbe, 0xfb, 0x00, 0xf2, 0x3e, 0xec, 0x92, 0x56, 0xbd,
    0x13, 0xb9, 0x22, 0xbe, 0x4b, 0x76, 0xc8, 0x3e, 0xf9, 0x18, 0x96, 0x3d,
    0xf2, 0x49, 0xa2, 0xbe, 0xa3, 0xa4, 0x3f, 0x3f, 0xbe, 0xe7, 0xa8, 0x3e,
    0xb8, 0xc1, 0x37, 0xbb, 0x9b, 0x9b, 0xb0, 0xbe, 0xf3, 0x00, 0xa6, 0x3e,
    0x8d, 0x94, 0xc8, 0xbe, 0x8d, 0xce, 0xb3, 0x3e, 0x64, 0x1c, 0x6d, 0xbd,
    0x3b, 0x9a, 0x0c, 0x3e, 0xa3, 0x96, 0x80, 0x3e, 0x11, 0x87, 0xd3, 0x3e,
    0xf9, 0x21, 0x19, 0xbe, 0x85, 0x94, 0x92, 0xbe, 0x3a, 0x96, 0xc0, 0xbd,
    0x0b, 0xd5, 0x32, 0x3b, 0xc0, 0xfc, 0x67, 0xbe, 0x07, 0x35, 0x9b, 0xbd,
    0xce, 0x85, 0xbc, 0x3d, 0x82, 0x96, 0x6c, 0x3c, 0xff, 0x6a, 0xbb, 0x3e,
    0x03, 0x73, 0x79, 0xbe, 0x48, 0x14, 0x6c, 0x3e, 0x25, 0x29, 0xa9, 0xbe,
    0x72, 0xca, 0x5e, 0xbe, 0x01, 0x25, 0x9b, 0xbe, 0x31, 0xe2, 0x79, 0xbe,
    0xa6, 0x13, 0xae, 0x3e, 0xaf, 0xfc, 0xbe, 0xbd, 0xbf, 0x82, 0x43, 0xbb,
    0xfc, 0x9a, 0x00, 0x3d, 0xfe, 0x32, 0xd9, 0x3e, 0xed, 0xff, 0x51, 0x3d,
    0xc9, 0x31, 0xb1, 0xbc, 0xd7, 0x35, 0x3d, 0x3e, 0x7e, 0xd8, 0xb3, 0x3e,
    0x53, 0xec, 0xf5, 0x3d, 0x2c, 0x8d, 0xbb, 0x3e, 0x96, 0x3a, 0x84, 0xbe,
    0x7b, 0xea, 0xec, 0xbe, 0x69, 0x7c, 0x2e, 0xbe, 0x16, 0x65, 0xa7, 0xbe,
    0x77, 0x51, 0xd7, 0xbe, 0x41, 0x70, 0x60, 0xbe, 0x43, 0x86, 0x3b, 0x3e,
    0xea, 0xc2, 0x67, 0x3e, 0x84, 0x1f, 0x55, 0x3e, 0x53, 0x80, 0x8c, 0x3e,
    0xbf, 0x3a, 0x8b, 0xbe, 0xc7, 0x4e, 0xb7, 0xbd, 0xf8, 0x85, 0x7e, 0x3e,
    0x23, 0x3c, 0xc9, 0xbe, 0x21, 0x29, 0x3f, 0x3e, 0x45, 0x75, 0x32, 0xbd,
    0xbb, 0xbe, 0x0c, 0x3d, 0x91, 0xea, 0x01, 0xbf, 0x30, 0x34, 0x67, 0xbf,
    0x5b, 0x09, 0xec, 0x3d, 0xfb, 0x33, 0x26, 0xbe, 0x1d, 0x7d, 0xe0, 0xbe,
    0x70, 0x29, 0xa5, 0xbe, 0x90, 0x2e, 0xde, 0x3c, 0x3e, 0xb9, 0xac, 0xbe,
    0x29, 0xb6, 0x8a, 0x3d, 0x21, 0x9b, 0x86, 0xbe, 0xb6, 0x33, 0xac, 0xbd,
    0xcd, 0x5d, 0x12, 0xbe, 0xc8, 0xbf, 0xf8, 0x3d, 0x06, 0xf4, 0x6a, 0xbe,
    0xa1, 0x9e, 0x6b, 0x3e, 0x4f, 0x05, 0x39, 0x3e, 0x04, 0x8d, 0xb1, 0x3d,
    0x14, 0x87, 0x0f, 0xbd, 0x8b, 0x32, 0x8a, 0xbe, 0x7a, 0xed, 0x5b, 0xbe,
    0x57, 0x8c, 0x4b, 0xbd, 0xfe, 0x24, 0x84, 0x3e, 0x8f, 0xcb, 0xdb, 0x3e,
    0xcf, 0x10, 0x3a, 0x3d, 0x92, 0x42, 0xc0, 0xbe, 0xea, 0x61, 0xc7, 0x3e,
    0x32, 0x89, 0x5b, 0x3d, 0x83, 0x99, 0xe9, 0x3c, 0x63, 0x2f, 0x3c, 0xbe,
    0xf2, 0x57, 0xa6, 0xbe, 0x7f, 0xf8, 0xcb, 0xbe, 0x36, 0x73, 0x93, 0x3e,
    0xa3, 0x2b, 0x2a, 0xbe, 0x27, 0x78, 0x59, 0x3e, 0xe9, 0x42, 0x68, 0xbe,
    0x9d, 0x1b, 0x82, 0x3e, 0xa4, 0xf3, 0xd6, 0x3e, 0x9b, 0xbb, 0x98, 0x3e,
    0x15, 0x44, 0xc3, 0xbd, 0x34, 0x44, 0xe3, 0xbe, 0x66, 0x75, 0x8d, 0xbe,
    0x0e, 0x57, 0x9b, 0x3e, 0xd0, 0xab, 0x3b, 0xbe, 0x87, 0x19, 0xbd, 0x3e,
    0xe5, 0x7b, 0xd6, 0x3d, 0x07, 0xa4, 0x98, 0xbe, 0xfc, 0x5b, 0xb7, 0x3c,
    0x56, 0xad, 0x00, 0x3e, 0x29, 0x86, 0x43, 0xbe, 0x14, 0xfd, 0x00, 0x3e,
    0x79, 0xc8, 0xf4, 0x3d, 0xfb, 0x11, 0x8d, 0xbe, 0xeb, 0x96, 0xbb, 0x3e,
    0xd1, 0x87, 0xe7, 0x3d, 0x54, 0xb1, 0xc1, 0xbe, 0x51, 0xf0, 0x5a, 0x3e,
    0x20, 0xe0, 0x94, 0x3e, 0x1f, 0x05, 0xc3, 0x3e, 0x47, 0xac, 0x8b, 0xbd,
    0xed, 0xf3, 0xea, 0xbe, 0x87, 0xe6, 0x06, 0xbf, 0x92, 0x19, 0x01, 0x3e,
    0xc2, 0xd5, 0x10, 0x3e, 0xa3, 0x8f, 0x09, 0xbf, 0x4b, 0xb5, 0x9c, 0xbd,
    0x93, 0x38, 0x3e, 0xbe, 0x05, 0xa4, 0x81, 0xbe, 0x94, 0xb5, 0xfe, 0x3d,
    0x08, 0x5b, 0xeb, 0x3d, 0xe9, 0xff, 0xa5, 0xbd, 0x0e, 0xf7, 0x57, 0x3c,
    0x64, 0x54, 0xae, 0xbe, 0x52, 0x30, 0xd3, 0xbc, 0xc0, 0x98, 0xb3, 0x3e,
    0x6d, 0x76, 0xbb, 0xbe, 0x71, 0x3f, 0x9a, 0xbe, 0x1c, 0xc8, 0x61, 0xbe,
    0x50, 0xea, 0x55, 0xbe, 0x88, 0xc9, 0xd0, 0xbe, 0x1d, 0xdd, 0x42, 0x3e,
    0xd1, 0xeb, 0xbe, 0x3e, 0x50, 0x15, 0xe5, 0x3d, 0x56, 0x3c, 0xda, 0x3e,
    0xca, 0x2d, 0x82, 0xbd, 0x46, 0xe9, 0x32, 0xbe, 0x9a, 0x45, 0x88, 0xbe,
    0x47, 0x20, 0x36, 0xbe, 0x0a, 0x4e, 0x6a, 0x3e, 0xca, 0x9b, 0x8b, 0x3e,
    0x44, 0xae, 0xd4, 0xbc, 0xe3, 0x2c, 0x79, 0xbd, 0x46, 0x37, 0xcf, 0x3e,
    0xb7, 0x6a, 0x9b, 0x3d, 0x35, 0x69, 0xd8, 0x3d, 0x3e, 0x38, 0x8a, 0x3e,
    0x63, 0xa2, 0xd5, 0xbe, 0x64, 0x6c, 0x0d, 0xbf, 0x5f, 0x79, 0x88, 0xbe,
    0x33, 0x73, 0x12, 0x3f, 0xd1, 0xf9, 0xfd, 0x3d, 0xd3, 0xc9, 0x55, 0xbe,
    0x59, 0xd9, 0x05, 0xbe, 0x5c, 0xe9, 0x92, 0xbe, 0xca, 0x79, 0xe7, 0xbe,
    0xa6, 0xfe, 0xff, 0xff, 0x04, 0x00, 0x00, 0x00, 0x40, 0x00, 0x00, 0x00,
    0x5a, 0xea, 0x52, 0xbc, 0xbd, 0xde, 0x13, 0xbd, 0x02, 0x90, 0x90, 0x3d,
    0x51, 0x81, 0x6b, 0x3d, 0xed, 0x1e, 0xf6, 0xbd, 0x19, 0xd0, 0x8d, 0x3e,
    0xf7, 0xa2, 0x97, 0xbc, 0xa2, 0x7f, 0x49, 0xbd, 0x44, 0x9e, 0x19, 0x3e,
    0x20, 0xa2, 0x4a, 0x3c, 0x72, 0x72, 0x1d, 0x3d, 0x28, 0x8e, 0x18, 0x3d,
    0x57, 0x23, 0x53, 0xbd, 0x6f, 0x70, 0xe5, 0x3c, 0xe4, 0xce, 0x23, 0xbc,
    0xe9, 0xbe, 0xa7, 0x3c, 0xf2, 0xfe, 0xff, 0xff, 0x04, 0x00, 0x00, 0x00,
    0x40, 0x00, 0x00, 0x00, 0x14, 0xf7, 0xe2, 0x3d, 0xc8, 0x8f, 0xab, 0xba,
    0xc9, 0xeb, 0x62, 0x3d, 0x9b, 0x8e, 0x25, 0x3d, 0x00, 0x00, 0x00, 0x00,
    0x82, 0xda, 0x02, 0xbe, 0x65, 0x28, 0x81, 0x3c, 0xa7, 0xb2, 0x02, 0xbd,
    0xa4, 0x11, 0x19, 0xbd, 0x94, 0x55, 0x3e, 0xbd, 0xba, 0xf0, 0x8f, 0xbd,
    0x37, 0xe1, 0x46, 0x3e, 0xf9, 0x1a, 0xde, 0xbb, 0x63, 0x57, 0xbb, 0x3d,
    0xe7, 0x0c, 0x69, 0xbc, 0xc4, 0x6f, 0xe9, 0x3d, 0x3e, 0xff, 0xff, 0xff,
    0x04, 0x00, 0x00, 0x00, 0x20, 0x00, 0x00, 0x00, 0x5e, 0x17, 0x07, 0xbe,
    0xfb, 0x88, 0xa6, 0xbb, 0x03, 0xf2, 0x41, 0xbd, 0xa9, 0xa8, 0x62, 0xbd,
    0x88, 0x96, 0x55, 0x3e, 0x07, 0x78, 0x85, 0x3a, 0xdd, 0x6d, 0xc4, 0xbd,
    0x69, 0x8a, 0x55, 0xbc, 0x4c, 0xfa, 0xff, 0xff, 0x50, 0xfa, 0xff, 0xff,
    0x0f, 0x00, 0x00, 0x00, 0x4d, 0x4c, 0x49, 0x52, 0x20, 0x43, 0x6f, 0x6e,
    0x76, 0x65, 0x72, 0x74, 0x65, 0x64, 0x2e, 0x00, 0x01, 0x00, 0x00, 0x00,
    0x14, 0x00, 0x00, 0x00, 0x00, 0x00, 0x0e, 0x00, 0x18, 0x00, 0x14, 0x00,
    0x10, 0x00, 0x0c, 0x00, 0x08, 0x00, 0x04, 0x00, 0x0e, 0x00, 0x00, 0x00,
    0x14, 0x00, 0x00, 0x00, 0x1c, 0x00, 0x00, 0x00, 0x24, 0x01, 0x00, 0x00,
    0x28, 0x01, 0x00, 0x00, 0x2c, 0x01, 0x00, 0x00, 0x04, 0x00, 0x00, 0x00,
    0x6d, 0x61, 0x69, 0x6e, 0x00, 0x00, 0x00, 0x00, 0x04, 0x00, 0x00, 0x00,
    0xcc, 0x00, 0x00, 0x00, 0x84, 0x00, 0x00, 0x00, 0x50, 0x00, 0x00, 0x00,
    0x14, 0x00, 0x00, 0x00, 0x00, 0x00, 0x0e, 0x00, 0x1a, 0x00, 0x14, 0x00,
    0x10, 0x00, 0x0c, 0x00, 0x0b, 0x00, 0x04, 0x00, 0x0e, 0x00, 0x00, 0x00,
    0x1c, 0x00, 0x00, 0x00, 0x00, 0x00, 0x00, 0x09, 0x1c, 0x00, 0x00, 0x00,
    0x20, 0x00, 0x00, 0x00, 0x01, 0x00, 0x00, 0x00, 0x00, 0x00, 0x06, 0x00,
    0x08, 0x00, 0x04, 0x00, 0x06, 0x00, 0x00, 0x00, 0x00, 0x00, 0x80, 0x3f,
    0x01, 0x00, 0x00, 0x00, 0x0a, 0x00, 0x00, 0x00, 0x01, 0x00, 0x00, 0x00,
    0x09, 0x00, 0x00, 0x00, 0x9a, 0xff, 0xff, 0xff, 0x10, 0x00, 0x00, 0x00,
    0x00, 0x00, 0x00, 0x08, 0x0c, 0x00, 0x00, 0x00, 0x10, 0x00, 0x00, 0x00,
    0x14, 0xfb, 0xff, 0xff, 0x01, 0x00, 0x00, 0x00, 0x09, 0x00, 0x00, 0x00,
    0x03, 0x00, 0x00, 0x00, 0x08, 0x00, 0x00, 0x00, 0x06, 0x00, 0x00, 0x00,
    0x01, 0x00, 0x00, 0x00, 0xca, 0xff, 0xff, 0xff, 0x10, 0x00, 0x00, 0x00,
    0x00, 0x00, 0x00, 0x08, 0x10, 0x00, 0x00, 0x00, 0x14, 0x00, 0x00, 0x00,
    0xba, 0xff, 0xff, 0xff, 0x00, 0x00, 0x00, 0x01, 0x01, 0x00, 0x00, 0x00,
    0x08, 0x00, 0x00, 0x00, 0x03, 0x00, 0x00, 0x00, 0x07, 0x00, 0x00, 0x00,
    0x05, 0x00, 0x00, 0x00, 0x02, 0x00, 0x00, 0x00, 0x00, 0x00, 0x0e, 0x00,
    0x16, 0x00, 0x00, 0x00, 0x10, 0x00, 0x0c, 0x00, 0x0b, 0x00, 0x04, 0x00,
    0x0e, 0x00, 0x00, 0x00, 0x18, 0x00, 0x00, 0x00, 0x00, 0x00, 0x00, 0x08,
    0x18, 0x00, 0x00, 0x00, 0x1c, 0x00, 0x00, 0x00, 0x00, 0x00, 0x06, 0x00,
    0x08, 0x00, 0x07, 0x00, 0x06, 0x00, 0x00, 0x00, 0x00, 0x00, 0x00, 0x01,
    0x01, 0x00, 0x00, 0x00, 0x07, 0x00, 0x00, 0x00, 0x03, 0x00, 0x00, 0x00,
    0x00, 0x00, 0x00, 0x00, 0x04, 0x00, 0x00, 0x00, 0x03, 0x00, 0x00, 0x00,
    0x01, 0x00, 0x00, 0x00, 0x0a, 0x00, 0x00, 0x00, 0x01, 0x00, 0x00, 0x00,
    0x00, 0x00, 0x00, 0x00, 0x0b, 0x00, 0x00, 0x00, 0x14, 0x04, 0x00, 0x00,
    0xa4, 0x03, 0x00, 0x00, 0x34, 0x03, 0x00, 0x00, 0xdc, 0x02, 0x00, 0x00,
    0x90, 0x02, 0x00, 0x00, 0x44, 0x02, 0x00, 0x00, 0xf8, 0x01, 0x00, 0x00,
    0x68, 0x01, 0x00, 0x00, 0xd8, 0x00, 0x00, 0x00, 0x60, 0x00, 0x00, 0x00,
    0x04, 0x00, 0x00, 0x00, 0x2e, 0xfc, 0xff, 0xff, 0x00, 0x00, 0x00, 0x01,
    0x14, 0x00, 0x00, 0x00, 0x1c, 0x00, 0x00, 0x00, 0x1c, 0x00, 0x00, 0x00,
    0x0b, 0x00, 0x00, 0x00, 0x34, 0x00, 0x00, 0x00, 0x02, 0x00, 0x00, 0x00,
    0xff, 0xff, 0xff, 0xff, 0x08, 0x00, 0x00, 0x00, 0x18, 0xfc, 0xff, 0xff,
    0x19, 0x00, 0x00, 0x00, 0x53, 0x74, 0x61, 0x74, 0x65, 0x66, 0x75, 0x6c,
    0x50, 0x61, 0x72, 0x74, 0x69, 0x74, 0x69, 0x6f, 0x6e, 0x65, 0x64, 0x43,
    0x61, 0x6c, 0x6c, 0x3a, 0x30, 0x00, 0x00, 0x00, 0x02, 0x00, 0x00, 0x00,
    0x01, 0x00, 0x00, 0x00, 0x08, 0x00, 0x00, 0x00, 0x86, 0xfc, 0xff, 0xff,
    0x00, 0x00, 0x00, 0x01, 0x14, 0x00, 0x00, 0x00, 0x1c, 0x00, 0x00, 0x00,
    0x1c, 0x00, 0x00, 0x00, 0x0a, 0x00, 0x00, 0x00, 0x50, 0x00, 0x00, 0x00,
    0x02, 0x00, 0x00, 0x00, 0xff, 0xff, 0xff, 0xff, 0x08, 0x00, 0x00, 0x00,
    0x70, 0xfc, 0xff, 0xff, 0x34, 0x00, 0x00, 0x00, 0x6c, 0x77, 0x31, 0x36,
    0x5f, 0x6d, 0x64, 0x31, 0x2f, 0x64, 0x65, 0x6e, 0x73, 0x65, 0x5f, 0x31,
    0x36, 0x33, 0x2f, 0x4d, 0x61, 0x74, 0x4d, 0x75, 0x6c, 0x3b, 0x6c, 0x77,
    0x31, 0x36, 0x5f, 0x6d, 0x64, 0x31, 0x2f, 0x64, 0x65, 0x6e, 0x73, 0x65,
    0x5f, 0x31, 0x36, 0x33, 0x2f, 0x42, 0x69, 0x61, 0x73, 0x41, 0x64, 0x64,
    0x00, 0x00, 0x00, 0x00, 0x02, 0x00, 0x00, 0x00, 0x01, 0x00, 0x00, 0x00,
    0x08, 0x00, 0x00, 0x00, 0xfa, 0xfc, 0xff, 0xff, 0x00, 0x00, 0x00, 0x01,
    0x14, 0x00, 0x00, 0x00, 0x1c, 0x00, 0x00, 0x00, 0x1c, 0x00, 0x00, 0x00,
    0x09, 0x00, 0x00, 0x00, 0x68, 0x00, 0x00, 0x00, 0x02, 0x00, 0x00, 0x00,
    0xff, 0xff, 0xff, 0xff, 0x10, 0x00, 0x00, 0x00, 0xe4, 0xfc, 0xff, 0xff,
    0x4c, 0x00, 0x00, 0x00, 0x6c, 0x77, 0x31, 0x36, 0x5f, 0x6d, 0x64, 0x31,
    0x2f, 0x64, 0x65, 0x6e, 0x73, 0x65, 0x5f, 0x31, 0x36, 0x32, 0x2f, 0x4d,
    0x61, 0x74, 0x4d, 0x75, 0x6c, 0x3b, 0x6c, 0x77, 0x31, 0x36, 0x5f, 0x6d,
    0x64, 0x31, 0x2f, 0x64, 0x65, 0x6e, 0x73, 0x65, 0x5f, 0x31, 0x36, 0x32,
    0x2f, 0x52, 0x65, 0x6c, 0x75, 0x3b, 0x6c, 0x77, 0x31, 0x36, 0x5f, 0x6d,
    0x64, 0x31, 0x2f, 0x64, 0x65, 0x6e, 0x73, 0x65, 0x5f, 0x31, 0x36, 0x32,
    0x2f, 0x42, 0x69, 0x61, 0x73, 0x41, 0x64, 0x64, 0x00, 0x00, 0x00, 0x00,
    0x02, 0x00, 0x00, 0x00, 0x01, 0x00, 0x00, 0x00, 0x10, 0x00, 0x00, 0x00,
    0x86, 0xfd, 0xff, 0xff, 0x00, 0x00, 0x00, 0x01, 0x14, 0x00, 0x00, 0x00,
    0x1c, 0x00, 0x00, 0x00, 0x1c, 0x00, 0x00, 0x00, 0x08, 0x00, 0x00, 0x00,
    0x68, 0x00, 0x00, 0x00, 0x02, 0x00, 0x00, 0x00, 0xff, 0xff, 0xff, 0xff,
    0x10, 0x00, 0x00, 0x00, 0x70, 0xfd, 0xff, 0xff, 0x4c, 0x00, 0x00, 0x00,
    0x6c, 0x77, 0x31, 0x36, 0x5f, 0x6d, 0x64, 0x31, 0x2f, 0x64, 0x65, 0x6e,
    0x73, 0x65, 0x5f, 0x31, 0x36, 0x31, 0x2f, 0x4d, 0x61, 0x74, 0x4d, 0x75,
    0x6c, 0x3b, 0x6c, 0x77, 0x31, 0x36, 0x5f, 0x6d, 0x64, 0x31, 0x2f, 0x64,
    0x65, 0x6e, 0x73, 0x65, 0x5f, 0x31, 0x36, 0x31, 0x2f, 0x52, 0x65, 0x6c,
    0x75, 0x3b, 0x6c, 0x77, 0x31, 0x36, 0x5f, 0x6d, 0x64, 0x31, 0x2f, 0x64,
    0x65, 0x6e, 0x73, 0x65, 0x5f, 0x31, 0x36, 0x31, 0x2f, 0x42, 0x69, 0x61,
    0x73, 0x41, 0x64, 0x64, 0x00, 0x00, 0x00, 0x00, 0x02, 0x00, 0x00, 0x00,
    0x01, 0x00, 0x00, 0x00, 0x10, 0x00, 0x00, 0x00, 0x7e, 0xfe, 0xff, 0xff,
    0x00, 0x00, 0x00, 0x01, 0x10, 0x00, 0x00, 0x00, 0x10, 0x00, 0x00, 0x00,
    0x07, 0x00, 0x00, 0x00, 0x28, 0x00, 0x00, 0x00, 0xec, 0xfd, 0xff, 0xff,
    0x19, 0x00, 0x00, 0x00, 0x6c, 0x77, 0x31, 0x36, 0x5f, 0x6d, 0x64, 0x31,
    0x2f, 0x64, 0x65, 0x6e, 0x73, 0x65, 0x5f, 0x31, 0x36, 0x33, 0x2f, 0x4d,
    0x61, 0x74, 0x4d, 0x75, 0x6c, 0x00, 0x00, 0x00, 0x02, 0x00, 0x00, 0x00,
    0x08, 0x00, 0x00, 0x00, 0x10, 0x00, 0x00, 0x00, 0xc6, 0xfe, 0xff, 0xff,
    0x00, 0x00, 0x00, 0x01, 0x10, 0x00, 0x00, 0x00, 0x10, 0x00, 0x00, 0x00,
    0x06, 0x00, 0x00, 0x00, 0x28, 0x00, 0x00, 0x00, 0x34, 0xfe, 0xff, 0xff,
    0x19, 0x00, 0x00, 0x00, 0x6c, 0x77, 0x31, 0x36, 0x5f, 0x6d, 0x64, 0x31,
    0x2f, 0x64, 0x65, 0x6e, 0x73, 0x65, 0x5f, 0x31, 0x36, 0x32, 0x2f, 0x4d,
    0x61, 0x74, 0x4d, 0x75, 0x6c, 0x00, 0x00, 0x00, 0x02, 0x00, 0x00, 0x00,
    0x10, 0x00, 0x00, 0x00, 0x10, 0x00, 0x00, 0x00, 0x0e, 0xff, 0xff, 0xff,
    0x00, 0x00, 0x00, 0x01, 0x10, 0x00, 0x00, 0x00, 0x10, 0x00, 0x00, 0x00,
    0x05, 0x00, 0x00, 0x00, 0x28, 0x00, 0x00, 0x00, 0x7c, 0xfe, 0xff, 0xff,
    0x19, 0x00, 0x00, 0x00, 0x6c, 0x77, 0x31, 0x36, 0x5f, 0x6d, 0x64, 0x31,
    0x2f, 0x64, 0x65, 0x6e, 0x73, 0x65, 0x5f, 0x31, 0x36, 0x31, 0x2f, 0x4d,
    0x61, 0x74, 0x4d, 0x75, 0x6c, 0x00, 0x00, 0x00, 0x02, 0x00, 0x00, 0x00,
    0x10, 0x00, 0x00, 0x00, 0x0f, 0x00, 0x00, 0x00, 0x56, 0xff, 0xff, 0xff,
    0x00, 0x00, 0x00, 0x01, 0x10, 0x00, 0x00, 0x00, 0x10, 0x00, 0x00, 0x00,
    0x04, 0x00, 0x00, 0x00, 0x38, 0x00, 0x00, 0x00, 0xc4, 0xfe, 0xff, 0xff,
    0x29, 0x00, 0x00, 0x00, 0x6c, 0x77, 0x31, 0x36, 0x5f, 0x6d, 0x64, 0x31,
    0x2f, 0x64, 0x65, 0x6e, 0x73, 0x65, 0x5f, 0x31, 0x36, 0x31, 0x2f, 0x42,
    0x69, 0x61, 0x73, 0x41, 0x64, 0x64, 0x2f, 0x52, 0x65, 0x61, 0x64, 0x56,
    0x61, 0x72, 0x69, 0x61, 0x62, 0x6c, 0x65, 0x4f, 0x70, 0x00, 0x00, 0x00,
    0x01, 0x00, 0x00, 0x00, 0x10, 0x00, 0x00, 0x00, 0xaa, 0xff, 0xff, 0xff,
    0x00, 0x00, 0x00, 0x01, 0x10, 0x00, 0x00, 0x00, 0x10, 0x00, 0x00, 0x00,
    0x03, 0x00, 0x00, 0x00, 0x38, 0x00, 0x00, 0x00, 0x18, 0xff, 0xff, 0xff,
    0x29, 0x00, 0x00, 0x00, 0x6c, 0x77, 0x31, 0x36, 0x5f, 0x6d, 0x64, 0x31,
    0x2f, 0x64, 0x65, 0x6e, 0x73, 0x65, 0x5f, 0x31, 0x36, 0x32, 0x2f, 0x42,
    0x69, 0x61, 0x73, 0x41, 0x64, 0x64, 0x2f, 0x52, 0x65, 0x61, 0x64, 0x56,
    0x61, 0x72, 0x69, 0x61, 0x62, 0x6c, 0x65, 0x4f, 0x70, 0x00, 0x00, 0x00,
    0x01, 0x00, 0x00, 0x00, 0x10, 0x00, 0x00, 0x00, 0x00, 0x00, 0x16, 0x00,
    0x18, 0x00, 0x14, 0x00, 0x00, 0x00, 0x10, 0x00, 0x0c, 0x00, 0x08, 0x00,
    0x00, 0x00, 0x00, 0x00, 0x00, 0x00, 0x07, 0x00, 0x16, 0x00, 0x00, 0x00,
    0x00, 0x00, 0x00, 0x01, 0x10, 0x00, 0x00, 0x00, 0x10, 0x00, 0x00, 0x00,
    0x02, 0x00, 0x00, 0x00, 0x38, 0x00, 0x00, 0x00, 0x84, 0xff, 0xff, 0xff,
    0x29, 0x00, 0x00, 0x00, 0x6c, 0x77, 0x31, 0x36, 0x5f, 0x6d, 0x64, 0x31,
    0x2f, 0x64, 0x65, 0x6e, 0x73, 0x65, 0x5f, 0x31, 0x36, 0x33, 0x2f, 0x42,
    0x69, 0x61, 0x73, 0x41, 0x64, 0x64, 0x2f, 0x52, 0x65, 0x61, 0x64, 0x56,
    0x61, 0x72, 0x69, 0x61, 0x62, 0x6c, 0x65, 0x4f, 0x70, 0x00, 0x00, 0x00,
    0x01, 0x00, 0x00, 0x00, 0x08, 0x00, 0x00, 0x00, 0x00, 0x00, 0x16, 0x00,
    0x1c, 0x00, 0x18, 0x00, 0x00, 0x00, 0x14, 0x00, 0x10, 0x00, 0x0c, 0x00,
    0x00, 0x00, 0x00, 0x00, 0x08, 0x00, 0x07, 0x00, 0x16, 0x00, 0x00, 0x00,
    0x00, 0x00, 0x00, 0x01, 0x14, 0x00, 0x00, 0x00, 0x20, 0x00, 0x00, 0x00,
    0x20, 0x00, 0x00, 0x00, 0x01, 0x00, 0x00, 0x00, 0x40, 0x00, 0x00, 0x00,
    0x02, 0x00, 0x00, 0x00, 0xff, 0xff, 0xff, 0xff, 0x0f, 0x00, 0x00, 0x00,
    0x04, 0x00, 0x04, 0x00, 0x04, 0x00, 0x00, 0x00, 0x21, 0x00, 0x00, 0x00,
    0x73, 0x65, 0x72, 0x76, 0x69, 0x6e, 0x67, 0x5f, 0x64, 0x65, 0x66, 0x61,
    0x75, 0x6c, 0x74, 0x5f, 0x64, 0x65, 0x6e, 0x73, 0x65, 0x5f, 0x31, 0x36,
    0x31, 0x5f, 0x69, 0x6e, 0x70, 0x75, 0x74, 0x3a, 0x30, 0x00, 0x00, 0x00,
    0x02, 0x00, 0x00, 0x00, 0x01, 0x00, 0x00, 0x00, 0x0f, 0x00, 0x00, 0x00,
    0x02, 0x00, 0x00, 0x00, 0x20, 0x00, 0x00, 0x00, 0x04, 0x00, 0x00, 0x00,
    0xf4, 0xff, 0xff, 0xff, 0x19, 0x00, 0x00, 0x00, 0x00, 0x00, 0x00, 0x19,
    0x0c, 0x00, 0x0c, 0x00, 0x0b, 0x00, 0x00, 0x00, 0x00, 0x00, 0x04, 0x00,
    0x0c, 0x00, 0x00, 0x00, 0x09, 0x00, 0x00, 0x00, 0x00, 0x00, 0x00, 0x09};
unsigned int lw16_md1_len = 4776;
