unsigned char lw32_md1[] = {
    0x1c, 0x00, 0x00, 0x00, 0x54, 0x46, 0x4c, 0x33, 0x14, 0x00, 0x20, 0x00,
    0x1c, 0x00, 0x18, 0x00, 0x14, 0x00, 0x10, 0x00, 0x0c, 0x00, 0x00, 0x00,
    0x08, 0x00, 0x04, 0x00, 0x14, 0x00, 0x00, 0x00, 0x1c, 0x00, 0x00, 0x00,
    0x98, 0x00, 0x00, 0x00, 0xf0, 0x00, 0x00, 0x00, 0xa4, 0x1e, 0x00, 0x00,
    0xb4, 0x1e, 0x00, 0x00, 0x84, 0x24, 0x00, 0x00, 0x03, 0x00, 0x00, 0x00,
    0x01, 0x00, 0x00, 0x00, 0x10, 0x00, 0x00, 0x00, 0x00, 0x00, 0x0a, 0x00,
    0x10, 0x00, 0x0c, 0x00, 0x08, 0x00, 0x04, 0x00, 0x0a, 0x00, 0x00, 0x00,
    0x0c, 0x00, 0x00, 0x00, 0x1c, 0x00, 0x00, 0x00, 0x3c, 0x00, 0x00, 0x00,
    0x0f, 0x00, 0x00, 0x00, 0x73, 0x65, 0x72, 0x76, 0x69, 0x6e, 0x67, 0x5f,
    0x64, 0x65, 0x66, 0x61, 0x75, 0x6c, 0x74, 0x00, 0x01, 0x00, 0x00, 0x00,
    0x04, 0x00, 0x00, 0x00, 0x90, 0xff, 0xff, 0xff, 0x0a, 0x00, 0x00, 0x00,
    0x04, 0x00, 0x00, 0x00, 0x09, 0x00, 0x00, 0x00, 0x64, 0x65, 0x6e, 0x73,
    0x65, 0x5f, 0x31, 0x38, 0x36, 0x00, 0x00, 0x00, 0x01, 0x00, 0x00, 0x00,
    0x04, 0x00, 0x00, 0x00, 0x42, 0xe1, 0xff, 0xff, 0x04, 0x00, 0x00, 0x00,
    0x0f, 0x00, 0x00, 0x00, 0x64, 0x65, 0x6e, 0x73, 0x65, 0x5f, 0x31, 0x38,
    0x34, 0x5f, 0x69, 0x6e, 0x70, 0x75, 0x74, 0x00, 0x02, 0x00, 0x00, 0x00,
    0x34, 0x00, 0x00, 0x00, 0x04, 0x00, 0x00, 0x00, 0xdc, 0xff, 0xff, 0xff,
    0x0d, 0x00, 0x00, 0x00, 0x04, 0x00, 0x00, 0x00, 0x13, 0x00, 0x00, 0x00,
    0x43, 0x4f, 0x4e, 0x56, 0x45, 0x52, 0x53, 0x49, 0x4f, 0x4e, 0x5f, 0x4d,
    0x45, 0x54, 0x41, 0x44, 0x41, 0x54, 0x41, 0x00, 0x08, 0x00, 0x0c, 0x00,
    0x08, 0x00, 0x04, 0x00, 0x08, 0x00, 0x00, 0x00, 0x0c, 0x00, 0x00, 0x00,
    0x04, 0x00, 0x00, 0x00, 0x13, 0x00, 0x00, 0x00, 0x6d, 0x69, 0x6e, 0x5f,
    0x72, 0x75, 0x6e, 0x74, 0x69, 0x6d, 0x65, 0x5f, 0x76, 0x65, 0x72, 0x73,
    0x69, 0x6f, 0x6e, 0x00, 0x0e, 0x00, 0x00, 0x00, 0xb0, 0x1d, 0x00, 0x00,
    0xa8, 0x1d, 0x00, 0x00, 0x78, 0x1d, 0x00, 0x00, 0xe8, 0x1c, 0x00, 0x00,
    0x58, 0x1c, 0x00, 0x00, 0xc8, 0x14, 0x00, 0x00, 0xb8, 0x04, 0x00, 0x00,
    0xa8, 0x00, 0x00, 0x00, 0xa0, 0x00, 0x00, 0x00, 0x98, 0x00, 0x00, 0x00,
    0x90, 0x00, 0x00, 0x00, 0x88, 0x00, 0x00, 0x00, 0x68, 0x00, 0x00, 0x00,
    0x04, 0x00, 0x00, 0x00, 0xf6, 0xe1, 0xff, 0xff, 0x04, 0x00, 0x00, 0x00,
    0x54, 0x00, 0x00, 0x00, 0x0c, 0x00, 0x00, 0x00, 0x08, 0x00, 0x0e, 0x00,
    0x08, 0x00, 0x04, 0x00, 0x08, 0x00, 0x00, 0x00, 0x10, 0x00, 0x00, 0x00,
    0x24, 0x00, 0x00, 0x00, 0x00, 0x00, 0x06, 0x00, 0x08, 0x00, 0x04, 0x00,
    0x06, 0x00, 0x00, 0x00, 0x04, 0x00, 0x00, 0x00, 0x00, 0x00, 0x00, 0x00,
    0x00, 0x00, 0x0a, 0x00, 0x10, 0x00, 0x0c, 0x00, 0x08, 0x00, 0x04, 0x00,
    0x0a, 0x00, 0x00, 0x00, 0x02, 0x00, 0x00, 0x00, 0x02, 0x00, 0x00, 0x00,
    0x04, 0x00, 0x00, 0x00, 0x06, 0x00, 0x00, 0x00, 0x32, 0x2e, 0x31, 0x34,
    0x2e, 0x30, 0x00, 0x00, 0x56, 0xe2, 0xff, 0xff, 0x04, 0x00, 0x00, 0x00,
    0x10, 0x00, 0x00, 0x00, 0x31, 0x2e, 0x35, 0x2e, 0x30, 0x00, 0x00, 0x00,
    0x00, 0x00, 0x00, 0x00, 0x00, 0x00, 0x00, 0x00, 0x54, 0xdd, 0xff, 0xff,
    0x58, 0xdd, 0xff, 0xff, 0x5c, 0xdd, 0xff, 0xff, 0x60, 0xdd, 0xff, 0xff,
    0x82, 0xe2, 0xff, 0xff, 0x04, 0x00, 0x00, 0x00, 0x00, 0x04, 0x00, 0x00,
    0x34, 0x45, 0xf8, 0xbe, 0x04, 0xc4, 0x8a, 0xbe, 0xa2, 0xd2, 0x84, 0xbe,
    0x9c, 0x6d, 0x2b, 0xbf, 0xbf, 0xcc, 0x8a, 0xbe, 0xba, 0xed, 0x0b, 0xbe,
    0x5a, 0xa5, 0x56, 0x3e, 0xc3, 0x10, 0x80, 0xbe, 0x0a, 0xab, 0x95, 0x3e,
    0x70, 0x13, 0x3e, 0x3d, 0x7a, 0x6e, 0x51, 0x3c, 0x2a, 0x66, 0xad, 0xbd,
    0x7f, 0x7b, 0xc0, 0xbd, 0xf4, 0x68, 0xaa, 0x3e, 0x98, 0x2a, 0x3f, 0xbe,
    0xca, 0xf4, 0x38, 0xbf, 0xfd, 0x52, 0x3f, 0x3d, 0x68, 0x3d, 0xc3, 0x3d,
    0x6f, 0xd1, 0xb0, 0xbe, 0x6f, 0x21, 0x16, 0x3e, 0x08, 0xf1, 0x0f, 0xbd,
    0x90, 0x5a, 0x81, 0xbe, 0xba, 0x99, 0xe9, 0x3d, 0x68, 0x66, 0xdd, 0x3d,
    0x75, 0xa1, 0x4c, 0x3d, 0x28, 0x90, 0x2c, 0xbf, 0xcd, 0xb5, 0xd3, 0xbe,
    0x57, 0x54, 0x77, 0x3e, 0x48, 0xc9, 0x3a, 0xbf, 0x26, 0x5a, 0xb7, 0xbe,
    0x2e, 0xfb, 0xed, 0xbc, 0xe5, 0xea, 0x0b, 0xbd, 0x7b, 0x5c, 0x81, 0x3e,
    0xef, 0x61, 0x71, 0x3e, 0xa2, 0x1b, 0xc9, 0x3e, 0xcc, 0x6f, 0xa6, 0x3e,
    0x96, 0x70, 0xe0, 0x3c, 0x59, 0x4f, 0x81, 0x3e, 0xe8, 0xce, 0xdc, 0x3e,
    0x8a, 0x3b, 0x45, 0xbf, 0xf0, 0xf3, 0x24, 0xbe, 0x71, 0x3a, 0xab, 0x3d,
    0xa0, 0x94, 0x02, 0xbf, 0xc4, 0x0a, 0x17, 0xbe, 0xda, 0x75, 0xd9, 0x3d,
    0xa1, 0x3f, 0x99, 0xbe, 0xca, 0x3c, 0xbf, 0xbe, 0xe6, 0x09, 0x0a, 0x3f,
    0xbe, 0xdd, 0x92, 0x3c, 0x82, 0xd2, 0xb2, 0x3e, 0x44, 0xb0, 0xad, 0x3d,
    0x33, 0x07, 0xf8, 0xbe, 0xe7, 0x62, 0x25, 0x3d, 0x3d, 0x0f, 0x27, 0xbe,
    0x4f, 0x21, 0xb5, 0x3e, 0x5b, 0x55, 0x8b, 0x3e, 0xf4, 0xfc, 0xa6, 0xbe,
    0xde, 0xc2, 0x9f, 0x3e, 0xe6, 0x37, 0x87, 0x3e, 0x06, 0x5e, 0x85, 0xbe,
    0x77, 0xc8, 0x1e, 0x3f, 0x8e, 0xc0, 0x10, 0xbf, 0xeb, 0x3c, 0x61, 0x3e,
    0x66, 0xbb, 0x86, 0x3d, 0x45, 0x43, 0xb8, 0x3e, 0x65, 0x95, 0x26, 0xbe,
    0x6d, 0x60, 0x93, 0x3d, 0x21, 0x15, 0x8c, 0x3e, 0xb2, 0xd6, 0x7c, 0xbe,
    0x70, 0xe7, 0x56, 0x3e, 0x02, 0x10, 0xd2, 0xbe, 0xc4, 0xb5, 0x89, 0xbe,
    0x46, 0x67, 0xa4, 0x3d, 0x07, 0x75, 0x68, 0x3e, 0x4e, 0x46, 0xbf, 0xbe,
    0x01, 0xad, 0x0e, 0x3d, 0x5a, 0x0b, 0x59, 0x3d, 0x41, 0xfc, 0xb3, 0xbe,
    0xc2, 0x9a, 0x61, 0xbe, 0x21, 0x41, 0xe0, 0x3e, 0x1f, 0x29, 0x3f, 0xbe,
    0xcc, 0x04, 0x63, 0x3e, 0x80, 0x74, 0x95, 0xbb, 0xe5, 0x51, 0x8f, 0xbe,
    0xc2, 0x21, 0xca, 0xbe, 0x43, 0x4e, 0x95, 0x3e, 0xe9, 0x56, 0x0e, 0x3e,
    0x28, 0x23, 0x30, 0x3e, 0x4a, 0x6e, 0x43, 0x3e, 0xb7, 0xfd, 0xa4, 0xbd,
    0x72, 0xcf, 0xc1, 0x3d, 0x84, 0xa1, 0x15, 0x3e, 0x78, 0xb4, 0x8b, 0xbe,
    0x3c, 0xdb, 0x32, 0xbe, 0xc4, 0x53, 0xae, 0xbe, 0xc6, 0x7b, 0xc6, 0xbe,
    0x6d, 0xa8, 0x95, 0x3e, 0x28, 0x15, 0xa1, 0x3d, 0x5f, 0xcb, 0x70, 0x3e,
    0x1a, 0x1b, 0x6a, 0xbe, 0xaf, 0x98, 0x41, 0x3d, 0x71, 0xd5, 0xf7, 0x3d,
    0x88, 0x91, 0x1f, 0xbc, 0x84, 0x3d, 0x9d, 0x3c, 0x38, 0x93, 0x9c, 0x3e,
    0x4e, 0x1e, 0x4e, 0x3e, 0x94, 0x9c, 0x92, 0x3d, 0x61, 0xae, 0x81, 0xbe,
    0xfd, 0x4c, 0x3a, 0x3e, 0x24, 0xf5, 0x7f, 0x3e, 0xb8, 0x94, 0x81, 0xbd,
    0xdb, 0xcb, 0x9a, 0xbe, 0xbc, 0xe2, 0x18, 0x3e, 0xdd, 0x21, 0xf2, 0xbe,
    0x14, 0x08, 0xac, 0xbd, 0x9a, 0x5f, 0x79, 0x3e, 0xe9, 0x0b, 0xaf, 0x3e,
    0x5e, 0xcb, 0xa5, 0xbe, 0xfa, 0xd3, 0xb7, 0xbd, 0x36, 0x60, 0xf5, 0x3d,
    0xb6, 0xc8, 0xb1, 0x3e, 0x0d, 0x5d, 0x57, 0x3d, 0x0c, 0x1b, 0x39, 0x3e,
    0x31, 0x9f, 0x4a, 0x3e, 0x06, 0x73, 0xca, 0xbe, 0xfc, 0x83, 0xa8, 0xbe,
    0x7f, 0xc3, 0xec, 0x3c, 0x90, 0xc0, 0xfc, 0xbd, 0xb0, 0xc8, 0xa2, 0x3e,
    0x79, 0xaf, 0x3f, 0x3e, 0x14, 0xdb, 0x23, 0x3d, 0xfc, 0x0b, 0xaf, 0x3e,
    0x20, 0xc6, 0xd2, 0x3e, 0xd0, 0x8a, 0xcc, 0xbc, 0xb4, 0x1e, 0x88, 0xbe,
    0xe0, 0x7b, 0x9d, 0x3e, 0xed, 0x12, 0x8d, 0xbe, 0xb7, 0x48, 0x09, 0xbf,
    0x91, 0x61, 0xe6, 0x3e, 0x7d, 0x24, 0x92, 0xbe, 0x69, 0xd9, 0xd9, 0xbe,
    0x1f, 0xe0, 0x37, 0x3e, 0xaf, 0x09, 0x60, 0xbb, 0x3b, 0x9e, 0x66, 0xbe,
    0xa9, 0xf3, 0xf9, 0x3d, 0xa9, 0x22, 0x06, 0x3f, 0x10, 0x4c, 0x8a, 0xbd,
    0xe7, 0x55, 0x54, 0x3d, 0x1a, 0x59, 0xc9, 0x3e, 0x06, 0x77, 0x10, 0x3e,
    0x08, 0xea, 0x53, 0x3d, 0x24, 0x41, 0x5e, 0xbd, 0x53, 0x76, 0xdd, 0xbd,
    0x57, 0x3d, 0x1e, 0xbf, 0x4c, 0x37, 0xde, 0xbe, 0x3e, 0xb2, 0xc1, 0xbe,
    0x39, 0x24, 0xd3, 0xbd, 0x3f, 0xbe, 0x33, 0x3f, 0x2a, 0xc4, 0x75, 0x3e,
    0x8a, 0xf9, 0xe5, 0x3d, 0x1d, 0x1d, 0x35, 0xbe, 0x60, 0x83, 0x3b, 0x3e,
    0xc7, 0xb0, 0xf3, 0xbc, 0x8d, 0x5e, 0x17, 0xbd, 0xd2, 0x80, 0x69, 0x3e,
    0x08, 0x20, 0x67, 0x3e, 0x3a, 0x71, 0xad, 0xbe, 0x04, 0xcc, 0xbd, 0x3d,
    0xa8, 0x80, 0x5a, 0xbb, 0x20, 0x12, 0x4c, 0x3e, 0x0d, 0x2f, 0x1e, 0x3e,
    0x17, 0x65, 0x7b, 0x3e, 0x5a, 0x8f, 0x4b, 0xbe, 0xea, 0x32, 0x8c, 0x3d,
    0x73, 0x56, 0x15, 0x3e, 0xbf, 0xec, 0xb6, 0xbe, 0x33, 0x74, 0x32, 0x3e,
    0x2e, 0x7f, 0x77, 0x3d, 0x74, 0x42, 0x85, 0xbd, 0xac, 0x2b, 0x73, 0x3d,
    0x1b, 0x5c, 0x4d, 0xbe, 0x8f, 0xe5, 0x90, 0xbe, 0x98, 0x2b, 0x98, 0x3e,
    0x2a, 0xcc, 0x51, 0xbe, 0x5c, 0x76, 0x21, 0x3e, 0x0f, 0x4e, 0x51, 0xbe,
    0x4a, 0x3f, 0x7c, 0x3e, 0xea, 0xbd, 0x13, 0x3e, 0x3a, 0x42, 0x22, 0x3d,
    0x43, 0x22, 0x50, 0xbe, 0xab, 0x94, 0xb9, 0xbe, 0xc3, 0xca, 0x73, 0xbe,
    0x49, 0xad, 0x9f, 0x3d, 0xf7, 0xe2, 0x8c, 0xbc, 0x41, 0x86, 0xbe, 0xbd,
    0x30, 0xc0, 0xf0, 0x3d, 0x01, 0x27, 0x25, 0xbe, 0xe9, 0xd2, 0xbd, 0xbe,
    0x6f, 0x45, 0xd5, 0xbe, 0x81, 0xb1, 0x94, 0x3e, 0x63, 0x6c, 0xcc, 0xbe,
    0xfd, 0x06, 0x4d, 0x3d, 0xbe, 0xb6, 0xd4, 0x3c, 0xbf, 0xf8, 0x9f, 0xbe,
    0x72, 0x04, 0xae, 0xbd, 0x1a, 0x4a, 0xb5, 0xbe, 0xa5, 0xd1, 0xd1, 0xbe,
    0xe1, 0xde, 0x31, 0xbe, 0xa5, 0x01, 0xec, 0xbd, 0xb2, 0xac, 0xfb, 0x3d,
    0x02, 0x0f, 0x90, 0x3e, 0xce, 0x2b, 0x09, 0xbd, 0xd9, 0x04, 0x76, 0xbe,
    0x64, 0x75, 0x97, 0xbe, 0x86, 0x6c, 0x7b, 0xbe, 0xfe, 0x5d, 0x6a, 0x3e,
    0x39, 0xfe, 0x94, 0xbe, 0xe2, 0x13, 0x63, 0x3e, 0x59, 0x8d, 0xa6, 0xbe,
    0x5f, 0x75, 0x4e, 0xbd, 0x0d, 0x36, 0x01, 0x3e, 0x48, 0x35, 0xa5, 0xbd,
    0xe7, 0xc8, 0xad, 0x3e, 0xb4, 0xf7, 0x1e, 0x3e, 0x97, 0xa0, 0xd2, 0xbd,
    0x3e, 0x99, 0xc8, 0x3e, 0x93, 0xf6, 0x8f, 0x3d, 0x76, 0x8b, 0x8a, 0xbe,
    0x0e, 0x73, 0x22, 0x3d, 0xb4, 0x1d, 0x13, 0x3b, 0xfb, 0x3b, 0x5f, 0xbe,
    0x64, 0xba, 0xe0, 0x3e, 0xbc, 0x21, 0x8b, 0xbe, 0x85, 0xe3, 0x94, 0x3d,
    0x20, 0x7e, 0x07, 0xbe, 0x70, 0xf4, 0x41, 0xbe, 0x2f, 0xee, 0xa5, 0x3d,
    0xc6, 0x1b, 0x35, 0x3e, 0xea, 0x94, 0x83, 0xbe, 0xe9, 0xe8, 0xb4, 0xbe,
    0x6d, 0x24, 0xca, 0x3e, 0x31, 0xff, 0x57, 0xbe, 0x88, 0xec, 0x06, 0xbd,
    0xc7, 0x62, 0xcf, 0x3e, 0x29, 0x66, 0x0f, 0xbe, 0x5e, 0xe3, 0xa4, 0x3c,
    0x6d, 0x71, 0x06, 0x3e, 0x02, 0x50, 0xf0, 0xbd, 0x57, 0x0b, 0x1f, 0x3e,
    0xc8, 0xbd, 0x2f, 0x3e, 0x9e, 0x18, 0x38, 0x3e, 0x69, 0x1d, 0x3a, 0x3e,
    0x54, 0x6c, 0x43, 0xbf, 0x5c, 0x16, 0x57, 0xbe, 0xb6, 0xce, 0xe5, 0x3e,
    0x0a, 0xd6, 0xe4, 0x3e, 0x8e, 0xe6, 0xff, 0xff, 0x04, 0x00, 0x00, 0x00,
    0x00, 0x10, 0x00, 0x00, 0x7b, 0x42, 0xbd, 0xbd, 0x58, 0x49, 0x08, 0xbe,
    0x3e, 0xc9, 0x5f, 0xbe, 0xa7, 0x9a, 0xba, 0xbe, 0xc5, 0x36, 0x68, 0xbe,
    0xef, 0xa3, 0x57, 0xbd, 0x13, 0x84, 0xa7, 0x3e, 0x67, 0x7d, 0x0f, 0x3e,
    0xf6, 0x8f, 0x16, 0x3f, 0x7b, 0x46, 0x92, 0x3e, 0x39, 0x62, 0xf7, 0x3e,
    0x00, 0x66, 0x77, 0xbe, 0x1e, 0x69, 0xf5, 0x3d, 0x1b, 0x22, 0xa4, 0x3e,
    0x45, 0x34, 0xb6, 0x3d, 0x21, 0x52, 0xc1, 0x3d, 0x7b, 0x99, 0x5f, 0x3e,
    0xb7, 0xd2, 0xa3, 0x3e, 0x8c, 0x9a, 0x5b, 0xbe, 0x01, 0x75, 0xc7, 0x3e,
    0xc2, 0xfd, 0xb9, 0x3d, 0x57, 0xa2, 0x3f, 0xbe, 0xc8, 0xf4, 0xd9, 0x3d,
    0xa7, 0x66, 0xd8, 0xbc, 0xae, 0x5d, 0x3c, 0xbe, 0x7d, 0xd4, 0x9c, 0x3d,
    0x26, 0xee, 0x3b, 0x3e, 0xab, 0x14, 0x9e, 0x3c, 0x9c, 0x60, 0x47, 0xbe,
    0x4b, 0xac, 0xde, 0xbd, 0x2a, 0xd9, 0x8c, 0x3e, 0xaa, 0xae, 0xd1, 0x3c,
    0xe4, 0x19, 0x3e, 0xbe, 0xf0, 0x22, 0x99, 0x3d, 0xcc, 0x35, 0xe0, 0x3d,
    0xce, 0xe2, 0xd5, 0xbd, 0xa0, 0xa0, 0x8e, 0xbe, 0x31, 0x4d, 0x9a, 0x3e,
    0xe5, 0xef, 0x01, 0xbe, 0x1d, 0x6c, 0x35, 0x3e, 0x7d, 0xea, 0x93, 0x3e,
    0x94, 0xfd, 0x1b, 0xbe, 0xaf, 0x28, 0x3b, 0xbc, 0x2c, 0x35, 0xf6, 0xbc,
    0x94, 0xb6, 0xc9, 0x3e, 0x10, 0x05, 0xfe, 0x3d, 0x24, 0xdd, 0xba, 0x3e,
    0xd7, 0x95, 0x26, 0xbe, 0xf9, 0xa0, 0xc0, 0x3d, 0x55, 0xea, 0x7e, 0xbd,
    0x3c, 0xa3, 0xb8, 0xbe, 0x14, 0xf7, 0x85, 0xbd, 0xb0, 0x45, 0xd2, 0xbc,
    0x22, 0x43, 0x37, 0xbe, 0x07, 0x9f, 0x1c, 0xbe, 0x08, 0x50, 0x40, 0x3e,
    0x7d, 0x80, 0x86, 0xbe, 0xcd, 0x03, 0x37, 0x3e, 0x32, 0x86, 0x10, 0x3e,
    0xb7, 0x3a, 0x72, 0xbe, 0x3a, 0x95, 0xdf, 0xbd, 0xc2, 0xa4, 0x00, 0xbd,
    0xa3, 0xd3, 0x5f, 0x3e, 0xa6, 0xc8, 0x4a, 0x3e, 0xd1, 0xbc, 0xa3, 0x3d,
    0x06, 0x4a, 0xcc, 0x3d, 0xbc, 0xfd, 0x74, 0x3e, 0x90, 0x81, 0x96, 0xbe,
    0x21, 0x0b, 0xce, 0xbd, 0x29, 0xba, 0xc9, 0x3e, 0x75, 0xff, 0x69, 0x3e,
    0x59, 0xfc, 0x0c, 0xbe, 0xac, 0x97, 0x06, 0x3f, 0xc4, 0x39, 0x76, 0x3d,
    0xce, 0x8d, 0x25, 0xbe, 0xbb, 0x68, 0x7d, 0xbe, 0xb3, 0x9e, 0x2e, 0x3e,
    0x4c, 0x8f, 0xae, 0xbd, 0x06, 0xff, 0x15, 0xbc, 0x0c, 0xf9, 0x8d, 0x3e,
    0x9a, 0x7e, 0x41, 0x3e, 0xed, 0xf8, 0xf7, 0xbb, 0x36, 0x30, 0xb7, 0xbe,
    0x51, 0x23, 0xf7, 0x3e, 0x02, 0x47, 0x3e, 0x3b, 0x5e, 0x82, 0x43, 0x3e,
    0x13, 0x35, 0x32, 0x3e, 0x7c, 0x34, 0xe3, 0x3e, 0x85, 0x13, 0x84, 0x3e,
    0x0f, 0x1e, 0x1d, 0xbe, 0x8c, 0x65, 0x96, 0xbe, 0x69, 0x35, 0x35, 0x3e,
    0x6d, 0xb8, 0x92, 0x3e, 0x28, 0x05, 0x9b, 0x3e, 0x8e, 0xba, 0xb0, 0x3e,
    0xa2, 0x3f, 0x8a, 0x3e, 0x4e, 0xee, 0xad, 0x3e, 0x5d, 0x3d, 0xb1, 0x3e,
    0x5d, 0xa8, 0x12, 0xbe, 0x70, 0x87, 0xa1, 0xbe, 0x6d, 0xbf, 0xf8, 0x3d,
    0xc6, 0xb8, 0x1f, 0xbe, 0xf9, 0x20, 0xf0, 0x3e, 0xa1, 0xfc, 0x8e, 0x3d,
    0x70, 0x7b, 0x10, 0x3f, 0xa6, 0x91, 0x00, 0xbd, 0xe1, 0x0c, 0x05, 0x3f,
    0x81, 0x75, 0x02, 0xbe, 0xbb, 0xc5, 0x4d, 0x3e, 0x34, 0x39, 0xd3, 0x3d,
    0x65, 0xff, 0xd2, 0xbe, 0x03, 0x9f, 0xa5, 0x3e, 0xaf, 0x6e, 0x85, 0xbe,
    0x11, 0x06, 0x6c, 0x3e, 0xcb, 0xf5, 0x02, 0xbf, 0x8f, 0x69, 0x01, 0x3f,
    0xe0, 0x40, 0x0a, 0x3e, 0xce, 0x78, 0xc7, 0xbe, 0x8a, 0xbf, 0x3a, 0x3e,
    0x75, 0x09, 0x3d, 0x3e, 0x99, 0x82, 0x19, 0xbe, 0xad, 0x0d, 0x7d, 0x3e,
    0x56, 0x42, 0x05, 0x3f, 0xd7, 0x81, 0xaa, 0x3e, 0x11, 0xcb, 0x1b, 0x3e,
    0x36, 0xe4, 0x96, 0x3d, 0xe3, 0x47, 0x99, 0xbd, 0x54, 0x8b, 0x90, 0xbd,
    0x90, 0x4d, 0xa7, 0xbe, 0x1f, 0x5a, 0x99, 0x3e, 0xb5, 0xec, 0xc8, 0x3d,
    0xf0, 0x3f, 0x51, 0x3e, 0xad, 0xf1, 0x2a, 0xbe, 0x41, 0x50, 0x3f, 0xbe,
    0xf6, 0x6d, 0xf6, 0x3d, 0xea, 0xcc, 0x9d, 0xbe, 0x8a, 0x26, 0x55, 0xbe,
    0x76, 0x58, 0x20, 0x3e, 0x55, 0x5d, 0x21, 0x3e, 0x01, 0xfc, 0xf2, 0xbe,
    0x01, 0x44, 0xfc, 0x3d, 0x38, 0xc0, 0xd5, 0xbb, 0x1b, 0x0d, 0xab, 0xbe,
    0xdc, 0xf5, 0x1b, 0xbd, 0xad, 0xec, 0x1b, 0xbe, 0x80, 0x83, 0x7e, 0x3e,
    0x55, 0xfe, 0xfb, 0x3e, 0xec, 0x0d, 0xac, 0xbe, 0x5c, 0x6e, 0x31, 0x3d,
    0x75, 0xe7, 0xdd, 0xbb, 0x53, 0x2c, 0x85, 0xbd, 0x56, 0x75, 0x6c, 0xbe,
    0x05, 0x73, 0xdb, 0xbd, 0x79, 0x60, 0x24, 0x3e, 0x19, 0xe6, 0xb5, 0x3e,
    0xad, 0xe6, 0x40, 0xbe, 0x30, 0xc5, 0x98, 0xbe, 0x6a, 0xe3, 0xa3, 0x3e,
    0x86, 0xe5, 0x34, 0x3e, 0x2b, 0x83, 0x5e, 0xbd, 0xb3, 0x2e, 0x31, 0xbe,
    0xae, 0x5f, 0xd8, 0x3e, 0xf9, 0xba, 0x80, 0x3e, 0x54, 0xf0, 0xe5, 0xbe,
    0x48, 0xc5, 0xa9, 0x3e, 0xcc, 0x96, 0x3c, 0x3e, 0xa1, 0x1d, 0xa8, 0x3e,
    0x1e, 0xb8, 0x4e, 0x3e, 0xc4, 0x6d, 0x17, 0x3e, 0xf3, 0xf3, 0x4a, 0x3d,
    0xde, 0x65, 0x1c, 0xbe, 0xb4, 0xb7, 0x2f, 0xbe, 0x1d, 0xea, 0x42, 0xbe,
    0x0b, 0xb1, 0x04, 0x3e, 0x65, 0x6b, 0x44, 0xbe, 0xea, 0xad, 0x89, 0xbe,
    0x8b, 0x9c, 0x37, 0x3e, 0xbe, 0x10, 0xc1, 0x3e, 0x01, 0xe1, 0x7c, 0xbe,
    0xe9, 0xa6, 0x07, 0x3d, 0x2b, 0x9d, 0x04, 0x3d, 0x1b, 0xb0, 0xc1, 0x3c,
    0x34, 0xdf, 0x82, 0x3d, 0xb7, 0xdd, 0xeb, 0x3e, 0x8f, 0xa7, 0x0a, 0x3e,
    0x1b, 0x2c, 0x6a, 0x3d, 0x10, 0x3c, 0x68, 0x3e, 0xde, 0xa1, 0xfa, 0xbd,
    0x5f, 0x71, 0x95, 0xbc, 0x27, 0x9c, 0xb5, 0x3d, 0xab, 0x07, 0xd7, 0xbc,
    0x31, 0x35, 0x64, 0xbd, 0x5c, 0xd5, 0x8a, 0xbe, 0x71, 0xb2, 0x2b, 0x3e,
    0x92, 0xb0, 0x87, 0x3c, 0xd6, 0xa8, 0xa2, 0xbe, 0x7e, 0x4a, 0x6a, 0xbe,
    0xe0, 0x22, 0xa5, 0x3e, 0x80, 0x03, 0x75, 0x3e, 0x37, 0x50, 0x33, 0x3e,
    0x08, 0xcb, 0xc2, 0xbd, 0x9c, 0x73, 0x15, 0x3e, 0x2e, 0x1a, 0xe3, 0xbd,
    0xf1, 0xb6, 0xed, 0xbc, 0xd8, 0x41, 0x88, 0x3d, 0x30, 0x6a, 0x88, 0x3d,
    0x56, 0xae, 0xd2, 0xbd, 0x3e, 0x6a, 0x4b, 0xbd, 0x9e, 0x5d, 0x50, 0x3e,
    0x4c, 0x95, 0xa9, 0xbd, 0xd6, 0x31, 0xa3, 0xbe, 0x9b, 0x7f, 0xf5, 0x3d,
    0xb0, 0xed, 0x6f, 0xbe, 0x40, 0x14, 0x86, 0xbe, 0x30, 0x6c, 0x4d, 0x3d,
    0x54, 0x55, 0xa8, 0x3e, 0x80, 0xc9, 0x39, 0xbc, 0x48, 0x53, 0x37, 0xbd,
    0x74, 0xed, 0x39, 0x3d, 0xf2, 0x53, 0x6b, 0x3c, 0x24, 0x0a, 0x86, 0xbd,
    0x76, 0x93, 0x9c, 0x3e, 0x5b, 0xf2, 0x50, 0x3c, 0x64, 0x4d, 0xf6, 0xbc,
    0x88, 0x12, 0x2c, 0x3e, 0x96, 0xc2, 0x9a, 0xbe, 0xd7, 0xe7, 0xfb, 0x3d,
    0x65, 0x00, 0x08, 0xbf, 0xa3, 0xae, 0xa2, 0xbe, 0xd4, 0xcc, 0x57, 0xbe,
    0x21, 0x51, 0x0f, 0xbf, 0x2d, 0x83, 0x8e, 0x3e, 0x2e, 0xd6, 0x10, 0xbf,
    0x3e, 0xe6, 0x5c, 0xbe, 0x80, 0x0f, 0x20, 0xbe, 0x6f, 0x83, 0xea, 0xbc,
    0x3a, 0xac, 0xa1, 0x3e, 0x52, 0x45, 0x15, 0x3e, 0xd3, 0xbb, 0x4d, 0x3e,
    0x87, 0xa6, 0x95, 0xbe, 0x45, 0x62, 0x98, 0xbd, 0xde, 0x21, 0x80, 0xbd,
    0xe8, 0xae, 0xe5, 0xbe, 0xba, 0xce, 0xbd, 0xbd, 0xd9, 0x3e, 0xd7, 0xbd,
    0x00, 0x9c, 0x80, 0x3e, 0x37, 0xfa, 0x37, 0x3e, 0xc8, 0xaa, 0x4d, 0xbe,
    0x6a, 0xc0, 0x28, 0x3e, 0x45, 0x2b, 0x28, 0x3e, 0x06, 0x48, 0xd0, 0xbd,
    0xcd, 0xb5, 0x0c, 0xbe, 0x8c, 0x72, 0x86, 0x3d, 0x56, 0x7b, 0x68, 0x3e,
    0x73, 0xd5, 0xa2, 0xbd, 0xf7, 0xe0, 0xe4, 0xbd, 0xe8, 0x6d, 0x7c, 0xbe,
    0x1d, 0x24, 0x80, 0x3e, 0x23, 0x0a, 0xc9, 0xbd, 0xf6, 0xdb, 0x1f, 0xbe,
    0xec, 0xcb, 0x68, 0xbb, 0x60, 0x1f, 0x9d, 0xbe, 0x45, 0x83, 0x67, 0xbd,
    0xe9, 0xd8, 0x84, 0xbe, 0xd7, 0x08, 0xf8, 0x3d, 0xb6, 0xef, 0xb1, 0x3d,
    0xab, 0x1a, 0xd7, 0xbc, 0xd3, 0xb0, 0x14, 0xbe, 0xb4, 0xac, 0x24, 0xbe,
    0x8a, 0x36, 0x31, 0xbe, 0xa9, 0x05, 0x60, 0xbe, 0xa5, 0x3c, 0x25, 0x3d,
    0x1f, 0x16, 0x2d, 0xbe, 0xd3, 0xba, 0x37, 0xbd, 0x5f, 0x49, 0xfb, 0x3d,
    0x0c, 0x4e, 0x81, 0xbe, 0xa8, 0xc9, 0x92, 0x3d, 0xb2, 0x81, 0xa9, 0xbe,
    0x76, 0x4d, 0x23, 0x3e, 0xe1, 0xe4, 0x23, 0x3e, 0x24, 0xe7, 0x0f, 0xbe,
    0x11, 0x33, 0x43, 0x3e, 0x7f, 0x63, 0x33, 0xbe, 0x02, 0xb5, 0x58, 0x3e,
    0x00, 0x1c, 0x30, 0x3b, 0xb3, 0x97, 0x43, 0xbd, 0x6e, 0x12, 0x63, 0x3d,
    0xda, 0xd7, 0x00, 0x3e, 0x56, 0x42, 0x5d, 0x3b, 0xfa, 0x8c, 0x8f, 0x3d,
    0xe6, 0xc1, 0xd0, 0x3d, 0x1c, 0x87, 0xf1, 0x3c, 0xc6, 0xb4, 0x5c, 0xbe,
    0x37, 0xae, 0x84, 0x3e, 0x4c, 0xb2, 0x75, 0x3e, 0x1d, 0xff, 0xa9, 0x3c,
    0x7b, 0x82, 0xf8, 0xbc, 0x1b, 0xe1, 0x95, 0x3c, 0x94, 0x53, 0x52, 0x3c,
    0xc8, 0xe3, 0x82, 0x3e, 0xc1, 0x6b, 0x8c, 0x3d, 0x34, 0x62, 0xbb, 0xbd,
    0x58, 0x32, 0x8a, 0x3e, 0xb8, 0x34, 0xc5, 0xbe, 0xef, 0xd8, 0x82, 0xbd,
    0xd7, 0xc3, 0x84, 0x3e, 0xb0, 0xd8, 0x5b, 0xbe, 0xe6, 0x5d, 0x93, 0x3d,
    0xb2, 0xfc, 0x08, 0x3e, 0x0f, 0xff, 0x1e, 0xbe, 0xcf, 0xb1, 0x17, 0xbe,
    0x87, 0xac, 0x81, 0xbd, 0x57, 0xa6, 0x82, 0xbe, 0xc2, 0x76, 0x35, 0xbe,
    0x9f, 0x16, 0x08, 0xbf, 0xbb, 0xa2, 0x94, 0x3c, 0xf1, 0x2e, 0x92, 0x3e,
    0xf3, 0x01, 0x20, 0xbd, 0x03, 0xe8, 0xb9, 0x3d, 0xf9, 0x9e, 0x68, 0x3e,
    0x74, 0x28, 0x83, 0xbe, 0xd8, 0x27, 0xa5, 0x3d, 0x2f, 0x59, 0xb7, 0xbe,
    0xb1, 0xdf, 0xbf, 0x3e, 0x23, 0x04, 0x37, 0xbe, 0x0c, 0xf3, 0x44, 0xbe,
    0xd2, 0x31, 0xe9, 0xbe, 0x81, 0x6b, 0x09, 0x3c, 0x6c, 0xb6, 0x0c, 0xbe,
    0x9f, 0x73, 0x0f, 0x3e, 0x96, 0xc2, 0x20, 0xbd, 0xd1, 0xfe, 0x88, 0xbe,
    0xab, 0x02, 0x47, 0x3d, 0x70, 0xb1, 0x29, 0x3e, 0xc5, 0x91, 0x6a, 0x3d,
    0x18, 0x46, 0x2e, 0xbe, 0x6a, 0xd4, 0x48, 0x3e, 0x6d, 0xb3, 0x66, 0x3e,
    0xfc, 0x31, 0x93, 0x3e, 0xee, 0x59, 0x08, 0xbe, 0x15, 0x22, 0x41, 0xbd,
    0xa8, 0xe2, 0x07, 0xbe, 0x37, 0x20, 0x2d, 0xbe, 0x00, 0x6a, 0x66, 0x3e,
    0x33, 0xe5, 0x47, 0x3e, 0x3a, 0xf1, 0x80, 0xbe, 0xce, 0xd1, 0xc3, 0x3e,
    0x8e, 0xe2, 0x78, 0x3e, 0x87, 0xc8, 0x93, 0xbe, 0xdb, 0xb1, 0x56, 0x3e,
    0x32, 0xd8, 0x43, 0x3d, 0x76, 0x57, 0x86, 0xbe, 0x19, 0xc7, 0xad, 0x3b,
    0x78, 0x38, 0x5a, 0x3e, 0x04, 0xf3, 0x72, 0xbe, 0x2c, 0xaf, 0x94, 0xbe,
    0x3c, 0xda, 0x67, 0x3d, 0x3e, 0x6b, 0x69, 0x3d, 0x6a, 0xce, 0x22, 0x3e,
    0x15, 0xb6, 0x01, 0x3d, 0x9b, 0xfc, 0x30, 0x3e, 0xe7, 0x95, 0x9f, 0x3c,
    0xd5, 0xd3, 0x36, 0x3e, 0xbe, 0xee, 0x86, 0x3e, 0x70, 0x14, 0x45, 0xbe,
    0xfa, 0x33, 0x68, 0xbe, 0x63, 0x43, 0x16, 0xbe, 0x50, 0x6c, 0xcd, 0x3d,
    0x04, 0x83, 0x4c, 0x3e, 0x84, 0xb9, 0x6c, 0x3d, 0x76, 0xcb, 0x10, 0x3e,
    0xfb, 0x09, 0x4a, 0x3e, 0xf4, 0x87, 0x04, 0xbe, 0x25, 0x67, 0x69, 0xbc,
    0xb6, 0x09, 0x5d, 0x3e, 0x12, 0x8e, 0x81, 0x3e, 0xcb, 0x7f, 0x8c, 0xbe,
    0xfc, 0x9e, 0x66, 0x3e, 0xcd, 0xff, 0x85, 0xbe, 0xec, 0x7c, 0x1a, 0xbe,
    0xa0, 0x06, 0x83, 0xbe, 0xfe, 0xc5, 0xeb, 0xbd, 0xe1, 0xd9, 0x4d, 0xbe,
    0x3a, 0x90, 0x30, 0x3e, 0xcd, 0x88, 0x8f, 0xbe, 0x1a, 0x6e, 0x81, 0x3d,
    0x18, 0xda, 0x88, 0xbd, 0x31, 0xce, 0xca, 0xbe, 0x3a, 0x3c, 0x94, 0x3c,
    0x04, 0x43, 0xdc, 0x3d, 0x27, 0xf6, 0x1f, 0x3c, 0xac, 0xef, 0x53, 0x3d,
    0x7c, 0xe3, 0x3d, 0x3e, 0xc8, 0x16, 0x93, 0xbe, 0xc7, 0x0d, 0xb4, 0xbe,
    0x82, 0x65, 0xb4, 0xbd, 0xbd, 0x6c, 0x48, 0x3d, 0xbc, 0x61, 0x6a, 0x3e,
    0xdd, 0xb0, 0x8c, 0x3e, 0x95, 0x88, 0xbc, 0xbd, 0x00, 0xb2, 0x0f, 0xbd,
    0xb8, 0xb8, 0x86, 0x3d, 0x4f, 0x4d, 0x6c, 0x3d, 0xd6, 0xca, 0x77, 0x3e,
    0xd0, 0x93, 0x5f, 0xbe, 0x76, 0xd9, 0xb0, 0x3e, 0x31, 0x3e, 0x1f, 0xbe,
    0xa9, 0x5a, 0x23, 0x3e, 0x66, 0x50, 0x09, 0x3e, 0x98, 0xf0, 0x06, 0x3e,
    0xf7, 0xf5, 0xdc, 0xbe, 0x4b, 0xe7, 0x12, 0xbd, 0x74, 0x31, 0x0d, 0x3e,
    0xb7, 0xff, 0x0f, 0xbe, 0x39, 0xad, 0x8e, 0x3e, 0xf0, 0x5f, 0x8a, 0x3e,
    0x56, 0x56, 0xda, 0xbd, 0x98, 0x88, 0x43, 0xbe, 0x77, 0xcf, 0x98, 0xbd,
    0x56, 0xf7, 0x7a, 0xbd, 0xfc, 0x75, 0xe9, 0xbd, 0x52, 0xc0, 0x9b, 0xbe,
    0x77, 0xfe, 0x25, 0x3e, 0xdf, 0xdf, 0xf4, 0x3d, 0x64, 0x43, 0x34, 0x3e,
    0x32, 0x33, 0x06, 0x3d, 0x2b, 0x07, 0xad, 0x3b, 0x5e, 0x51, 0x69, 0xbe,
    0x15, 0xc2, 0xdc, 0xbd, 0x17, 0xb9, 0xd3, 0x3d, 0x6d, 0xfc, 0xb8, 0xb9,
    0x2f, 0xf5, 0xa4, 0x3d, 0xe9, 0xe1, 0x9e, 0xbe, 0xf4, 0x11, 0x23, 0xbe,
    0xc7, 0xfc, 0x49, 0x3d, 0xb7, 0x3d, 0x35, 0x3e, 0xf0, 0x1e, 0x73, 0x3d,
    0xb8, 0xd7, 0x29, 0xbd, 0x34, 0xb5, 0x90, 0xbd, 0xfd, 0xbc, 0x4d, 0xbe,
    0x07, 0x5d, 0x85, 0x3e, 0xbb, 0x02, 0xaa, 0xbe, 0x38, 0x1c, 0x7f, 0xbd,
    0xaa, 0xcc, 0x6b, 0xbd, 0x59, 0xdb, 0x18, 0xbe, 0xf3, 0x1c, 0x52, 0x3e,
    0x77, 0x5b, 0xb0, 0x3c, 0x5c, 0xef, 0xa7, 0xbe, 0x85, 0x71, 0x45, 0x3e,
    0x72, 0x22, 0x23, 0xbe, 0xdc, 0x0e, 0xc1, 0xbd, 0x30, 0xf1, 0x36, 0xbe,
    0xbd, 0x16, 0xbf, 0x3d, 0xd2, 0xe6, 0xbc, 0xbd, 0xa0, 0x7a, 0x5c, 0x3e,
    0x89, 0x50, 0x86, 0x3e, 0x5a, 0xfa, 0x42, 0x3e, 0xe2, 0x36, 0x6f, 0x3e,
    0x36, 0xe8, 0x19, 0x3c, 0x8f, 0x49, 0xc6, 0xbc, 0x08, 0xbd, 0x04, 0xbe,
    0xca, 0xe7, 0x12, 0xbe, 0x3d, 0x22, 0xb0, 0xbd, 0x78, 0xa4, 0x4b, 0xbd,
    0x60, 0xbc, 0x0f, 0xbe, 0xaa, 0x95, 0x03, 0x3e, 0x07, 0x89, 0x0d, 0xbe,
    0x3f, 0xad, 0x05, 0xbe, 0x5b, 0x19, 0x66, 0x3e, 0x98, 0x35, 0xbf, 0xbe,
    0x98, 0x69, 0x37, 0xbe, 0x7b, 0x18, 0x8a, 0xbe, 0xd6, 0x3d, 0x48, 0x3e,
    0xa9, 0xdc, 0xf1, 0x3d, 0xae, 0x26, 0x31, 0x3e, 0x4a, 0x28, 0x20, 0x3e,
    0x13, 0x60, 0xf0, 0xbd, 0xd0, 0xf1, 0x98, 0xbe, 0x9c, 0x66, 0xca, 0xbd,
    0xf1, 0xd3, 0xfb, 0x3a, 0x94, 0xef, 0x29, 0xbc, 0x0c, 0xf3, 0x5a, 0xbe,
    0xd7, 0xe8, 0x6a, 0x3e, 0x98, 0xd4, 0xd1, 0x3a, 0xbc, 0x07, 0x1c, 0x3e,
    0x40, 0x6f, 0x9d, 0x3e, 0xe9, 0xf1, 0x12, 0x3e, 0xee, 0x15, 0xc7, 0x3b,
    0x4f, 0x1e, 0xfd, 0x3e, 0xb8, 0x56, 0x86, 0xbe, 0x0e, 0x97, 0xa2, 0x3e,
    0x4b, 0xd5, 0x96, 0xbe, 0xf1, 0x6b, 0xe7, 0x3d, 0xf4, 0x2d, 0x53, 0xbe,
    0xe2, 0x7c, 0xe6, 0x3d, 0x2d, 0x88, 0x26, 0xbe, 0x95, 0x46, 0xf8, 0x3c,
    0x96, 0x9d, 0x92, 0xbb, 0xf3, 0xb8, 0x16, 0xbd, 0x10, 0x90, 0x8e, 0x3e,
    0x40, 0x8e, 0x31, 0x3d, 0x5e, 0x74, 0x03, 0x3e, 0x1b, 0x77, 0x12, 0xbe,
    0x1a, 0x6c, 0xc2, 0x3e, 0x28, 0x28, 0xdc, 0xbd, 0x06, 0xc1, 0x5b, 0xbe,
    0x8b, 0x9a, 0xd5, 0x3d, 0xce, 0xe3, 0x6d, 0x3e, 0x14, 0xce, 0x0a, 0xbe,
    0x0f, 0xea, 0x35, 0xbe, 0x21, 0xaf, 0x64, 0x3e, 0x20, 0x7b, 0xf3, 0xbc,
    0xaa, 0xcc, 0x6f, 0xbe, 0xcd, 0xf2, 0x71, 0xbe, 0x70, 0x48, 0x8d, 0x3e,
    0xc7, 0x52, 0x78, 0x3e, 0x83, 0x01, 0x3d, 0x3d, 0xbf, 0x20, 0x02, 0x3e,
    0xb6, 0x50, 0x70, 0x3d, 0xd5, 0x5c, 0x83, 0x3e, 0x84, 0x98, 0x90, 0xbe,
    0xcf, 0x69, 0x97, 0x3e, 0x7e, 0xd4, 0x69, 0xbd, 0x36, 0x33, 0xc9, 0x3b,
    0x1f, 0x04, 0x4d, 0xbe, 0xb6, 0x97, 0x9b, 0x3e, 0x06, 0x63, 0xbb, 0x3e,
    0xf3, 0xd6, 0x84, 0xbe, 0x34, 0xee, 0x15, 0xbe, 0x05, 0x74, 0x89, 0x3e,
    0xc4, 0x6f, 0xa3, 0x3d, 0x4b, 0xe3, 0x12, 0xbf, 0x8f, 0x17, 0x69, 0x3e,
    0x10, 0xad, 0x8b, 0x3e, 0x65, 0xff, 0x99, 0x3d, 0x2b, 0xa5, 0x9d, 0xbe,
    0x24, 0x27, 0x67, 0xbe, 0x06, 0x78, 0x27, 0xbe, 0x60, 0x74, 0x06, 0xbe,
    0x1b, 0x68, 0x31, 0x3c, 0xa1, 0x3c, 0x45, 0xbd, 0x7b, 0x85, 0x33, 0x3e,
    0x7b, 0xa3, 0x50, 0xbe, 0x20, 0x18, 0x21, 0x3e, 0x58, 0x4d, 0x83, 0x3e,
    0x2f, 0xf3, 0x00, 0xbe, 0x02, 0xc9, 0x31, 0x3e, 0xf2, 0x8c, 0x6c, 0xbd,
    0x31, 0xc6, 0x05, 0x3e, 0xf2, 0x9f, 0x9b, 0xbe, 0x87, 0x00, 0xe7, 0xbb,
    0xe1, 0xd2, 0x60, 0xbe, 0x3e, 0x14, 0x2b, 0x3f, 0xb3, 0x79, 0x35, 0x3d,
    0x34, 0x14, 0xbc, 0x3e, 0x05, 0x11, 0x46, 0xbe, 0x95, 0x97, 0xae, 0xbd,
    0x18, 0x65, 0x5b, 0x3e, 0x6f, 0x8a, 0x8c, 0x3e, 0x6a, 0xc7, 0x62, 0x3e,
    0x86, 0xb4, 0x99, 0xbc, 0xe9, 0x9c, 0x70, 0xbe, 0x8a, 0x2e, 0xb0, 0xbe,
    0x93, 0x61, 0x16, 0x3f, 0xd9, 0x9d, 0xc4, 0xbc, 0x70, 0x5a, 0x33, 0xbe,
    0x04, 0x18, 0xac, 0x3e, 0x6d, 0x62, 0xc5, 0x3e, 0xcd, 0x43, 0x2a, 0x3e,
    0x2e, 0x6c, 0x07, 0xbe, 0x0f, 0x46, 0x85, 0xbd, 0xec, 0xc7, 0x2a, 0x3d,
    0xc9, 0xd5, 0x2e, 0xbd, 0x33, 0xf2, 0x62, 0xbe, 0xc5, 0x1c, 0xa3, 0x3e,
    0xa1, 0x8b, 0x35, 0x3d, 0x5c, 0x6a, 0xd7, 0x3d, 0xe0, 0xf7, 0x52, 0xbc,
    0x2c, 0xfa, 0x5f, 0xbe, 0xbb, 0x4d, 0x8e, 0x3e, 0xca, 0x93, 0xff, 0xbd,
    0x72, 0xd5, 0x6e, 0xbe, 0x64, 0x86, 0x5e, 0xbe, 0xb9, 0x1c, 0x10, 0xbe,
    0x3c, 0xce, 0xd9, 0xbd, 0x34, 0xe6, 0xf5, 0xbd, 0x37, 0xdd, 0x0a, 0xbe,
    0x00, 0xa4, 0x51, 0xba, 0x0a, 0x08, 0x50, 0x3e, 0x9c, 0xb9, 0x7c, 0xbe,
    0x59, 0xdb, 0x63, 0xbe, 0xc0, 0xce, 0xf2, 0x3b, 0xaa, 0x61, 0x6d, 0x3e,
    0x0f, 0x95, 0x7a, 0xbe, 0xc9, 0xad, 0x84, 0xbe, 0x74, 0xd4, 0x87, 0x3d,
    0x06, 0x82, 0xef, 0xbd, 0x70, 0x15, 0x91, 0xbc, 0xd9, 0x31, 0x89, 0xbe,
    0xf8, 0xd2, 0x1f, 0x3d, 0x39, 0x68, 0x20, 0xbe, 0x1b, 0xbf, 0x07, 0xbe,
    0x4e, 0x05, 0x87, 0xbe, 0x42, 0x9b, 0x03, 0x3e, 0x00, 0xd0, 0x6a, 0x3c,
    0x57, 0x2f, 0x1d, 0xbe, 0x04, 0x45, 0x97, 0xbd, 0xd0, 0x56, 0xc7, 0x3c,
    0x99, 0x78, 0x84, 0x3e, 0xb9, 0xdb, 0xe8, 0xbd, 0x79, 0xdf, 0x02, 0xbe,
    0xa5, 0x1e, 0x17, 0x3f, 0xaa, 0x66, 0x9e, 0xbe, 0xff, 0xc6, 0x9b, 0x3d,
    0x3d, 0x5d, 0xe2, 0x3c, 0x3d, 0x59, 0xee, 0xbd, 0x2b, 0xd5, 0x99, 0xbc,
    0x5f, 0x34, 0x90, 0xbe, 0xb5, 0x4c, 0x03, 0xbf, 0xdc, 0x15, 0x06, 0x3f,
    0x58, 0x3e, 0x46, 0x3e, 0x6e, 0x20, 0xbf, 0xbd, 0x7d, 0x34, 0x01, 0x3e,
    0x57, 0x45, 0xa9, 0xbd, 0x43, 0x73, 0x64, 0x3d, 0xdf, 0xee, 0x74, 0x3e,
    0xe5, 0x61, 0xab, 0x3e, 0x9d, 0x65, 0x2f, 0x3e, 0x3e, 0x60, 0x42, 0xbe,
    0xdb, 0x9a, 0x15, 0xbe, 0xa4, 0xad, 0x91, 0xbe, 0xc5, 0x30, 0x00, 0xbe,
    0x3a, 0xd8, 0x59, 0x3e, 0x55, 0xdf, 0x3f, 0xbe, 0x91, 0x12, 0x57, 0x3e,
    0xe6, 0x4e, 0x9a, 0xbe, 0x21, 0x47, 0x6c, 0x3e, 0x39, 0xf4, 0xdd, 0x3d,
    0xdb, 0xa1, 0x16, 0x3e, 0x2a, 0x83, 0x5f, 0xbd, 0x62, 0x3a, 0x59, 0xbe,
    0x1b, 0x36, 0x82, 0x3e, 0xc5, 0x34, 0x12, 0x3e, 0x69, 0xa4, 0xf8, 0x3c,
    0xa8, 0xbc, 0xf1, 0xbd, 0xc9, 0x9e, 0xb6, 0xbd, 0x98, 0x06, 0xc4, 0xbb,
    0xf4, 0x5d, 0xaf, 0xbd, 0x9b, 0x66, 0xd6, 0xbd, 0xb2, 0x1b, 0x5e, 0x3e,
    0x84, 0xf7, 0x75, 0x3e, 0xfe, 0xd5, 0x95, 0xbe, 0xe4, 0x55, 0xdb, 0xbd,
    0x2c, 0xc6, 0x20, 0x3e, 0xf6, 0xbd, 0xda, 0x3d, 0xa5, 0x01, 0x02, 0xbc,
    0x90, 0x5a, 0x4a, 0xbd, 0xa5, 0x7f, 0x50, 0xbe, 0xf1, 0x10, 0x05, 0x3f,
    0xb6, 0x95, 0xfc, 0x3d, 0xcd, 0xfe, 0x83, 0xbc, 0x9f, 0x31, 0xa1, 0xbe,
    0x6c, 0xb6, 0x94, 0xbe, 0xdf, 0xb4, 0x19, 0x3e, 0xec, 0xbf, 0x8e, 0xbe,
    0xde, 0xf7, 0x15, 0x3e, 0x9a, 0x4d, 0x85, 0x3e, 0xa2, 0xc4, 0x8c, 0x3e,
    0xd2, 0x9a, 0x30, 0x3e, 0x83, 0xe5, 0x47, 0x3e, 0x9f, 0x82, 0x34, 0x3e,
    0x85, 0xec, 0x88, 0xbe, 0x86, 0x05, 0xf6, 0xbc, 0xfa, 0xb8, 0x3c, 0x3e,
    0xb8, 0x25, 0xfd, 0xbc, 0xd0, 0xd4, 0x12, 0x3d, 0xa0, 0x55, 0x81, 0xbe,
    0xb4, 0xfd, 0x94, 0xbe, 0x37, 0x73, 0xd5, 0x3d, 0x44, 0x7b, 0x91, 0xbb,
    0x3f, 0xea, 0x8e, 0x3e, 0xce, 0x3a, 0xab, 0x3d, 0xf3, 0xbd, 0x9a, 0xbd,
    0x8b, 0xe1, 0xb7, 0x3e, 0x42, 0x6a, 0xfe, 0x3d, 0x61, 0x87, 0xe8, 0xbd,
    0x48, 0xee, 0x3f, 0xbe, 0x79, 0x4b, 0x21, 0x3e, 0x98, 0x29, 0x26, 0xbe,
    0x11, 0xda, 0x82, 0x3e, 0x9e, 0xfd, 0x95, 0x3e, 0xed, 0xd4, 0x6b, 0xbd,
    0xb9, 0x31, 0x76, 0x3e, 0x54, 0xdc, 0xe6, 0x3d, 0xdf, 0x57, 0x98, 0xbe,
    0x5a, 0x02, 0x82, 0x3d, 0x56, 0x0c, 0x57, 0xbe, 0x40, 0x69, 0x2d, 0x3e,
    0x91, 0x6a, 0xc7, 0xbd, 0x36, 0x97, 0xc3, 0x3d, 0x07, 0xbc, 0x20, 0x3e,
    0x48, 0x74, 0xb2, 0xbb, 0x3f, 0x2d, 0x02, 0xbe, 0x9f, 0x83, 0x8f, 0x3e,
    0x95, 0x06, 0x8a, 0x3e, 0xae, 0xb2, 0x5a, 0xbe, 0xf4, 0x6d, 0xb7, 0xbd,
    0xf8, 0x92, 0xdb, 0x3d, 0x6a, 0x65, 0x71, 0xbe, 0x4e, 0xff, 0x2f, 0xbe,
    0xf8, 0xc8, 0x8c, 0xbe, 0xbe, 0x2a, 0x4a, 0x3e, 0x6a, 0x32, 0x8a, 0xbe,
    0xbc, 0xbd, 0x40, 0x3e, 0x5e, 0x4f, 0x54, 0xbe, 0x36, 0x8c, 0x42, 0xbe,
    0x97, 0xcf, 0x8a, 0x3e, 0xc8, 0xb3, 0x8b, 0xbe, 0xa3, 0xd5, 0x75, 0x3d,
    0xc9, 0xb5, 0x87, 0xbe, 0xec, 0xac, 0x50, 0xbe, 0x5e, 0x57, 0x36, 0x3c,
    0xd4, 0xb1, 0xa5, 0x3e, 0x30, 0x1b, 0x98, 0xbd, 0x00, 0x7c, 0x93, 0xbd,
    0x5e, 0x4b, 0xfc, 0xbc, 0x43, 0x36, 0xc6, 0x3d, 0x6c, 0xb9, 0xb9, 0xbd,
    0x96, 0x1b, 0x10, 0xbe, 0x7c, 0x75, 0x50, 0xbe, 0xbd, 0xb1, 0x84, 0x3e,
    0x73, 0x8b, 0x95, 0xbe, 0x15, 0x6d, 0xc5, 0xbd, 0xae, 0xef, 0xa3, 0xbe,
    0x6d, 0x64, 0xa3, 0xbe, 0x6d, 0xbb, 0x90, 0xbd, 0x37, 0xd4, 0x43, 0x3e,
    0xd4, 0xb5, 0x14, 0xbe, 0x2b, 0x92, 0x1d, 0xbe, 0xec, 0x24, 0xe3, 0xbc,
    0xeb, 0xa1, 0x89, 0xbe, 0xe7, 0xc3, 0x83, 0xbe, 0x9f, 0x21, 0xa2, 0xbe,
    0xfa, 0x81, 0x11, 0x3e, 0x38, 0xd0, 0xd7, 0x3b, 0xbd, 0x58, 0x95, 0xbe,
    0x86, 0x74, 0x10, 0xbe, 0x31, 0x30, 0x68, 0x3e, 0x2b, 0xd3, 0x27, 0xbd,
    0x08, 0x8d, 0x4d, 0x3e, 0x4d, 0x2f, 0x76, 0xbe, 0xc8, 0x55, 0x64, 0xbd,
    0x6b, 0x4a, 0x39, 0x3d, 0xe3, 0x77, 0x44, 0xbe, 0x75, 0x25, 0x89, 0x3e,
    0x25, 0x36, 0xce, 0x3d, 0xa0, 0x1e, 0xac, 0xbd, 0xf0, 0x35, 0x8d, 0xbe,
    0x76, 0x23, 0xa5, 0x3d, 0x4e, 0xc8, 0x6f, 0x3e, 0xb5, 0x9b, 0xd8, 0xbb,
    0x18, 0xd6, 0x16, 0x3e, 0x9f, 0x2a, 0x55, 0xbd, 0x32, 0x53, 0x76, 0xbe,
    0xb4, 0x12, 0x9f, 0x3e, 0xbc, 0xcd, 0x3f, 0x3e, 0xd4, 0xc1, 0x74, 0xbb,
    0xd6, 0xdd, 0x9b, 0x3d, 0xc6, 0x20, 0x98, 0xbe, 0x41, 0xc5, 0x83, 0xbe,
    0xf2, 0x9a, 0x8c, 0xbe, 0x3c, 0x45, 0x5b, 0xbd, 0x60, 0x50, 0x8c, 0xbc,
    0xdb, 0x32, 0xc7, 0xbc, 0x54, 0xc3, 0x39, 0x3d, 0x76, 0xf7, 0x5f, 0x3d,
    0xc2, 0xb2, 0x0a, 0x3e, 0xc2, 0x30, 0x29, 0x3e, 0x9c, 0x6d, 0x80, 0xbe,
    0xdd, 0x74, 0x7a, 0x3e, 0x9e, 0xeb, 0xc3, 0xbd, 0x79, 0xae, 0x35, 0xbe,
    0xeb, 0xc3, 0x45, 0x3e, 0xda, 0x96, 0xff, 0xbd, 0x3a, 0x99, 0xf8, 0x3d,
    0x0e, 0xd2, 0x93, 0x3e, 0x48, 0x3a, 0x85, 0xbe, 0x18, 0x7a, 0xe9, 0x3c,
    0x30, 0xca, 0xff, 0x3c, 0x7e, 0x1e, 0xa9, 0xbc, 0x90, 0x96, 0x34, 0xbe,
    0x60, 0xad, 0x0b, 0x3e, 0xe0, 0x2b, 0x3e, 0xbc, 0xcd, 0xc5, 0x7e, 0xbe,
    0x50, 0xc7, 0x7e, 0xbe, 0x58, 0x5d, 0x4f, 0xbd, 0xc0, 0x89, 0x36, 0xbd,
    0xcd, 0x8f, 0xe8, 0xbc, 0xb0, 0xbd, 0x9f, 0xbd, 0x74, 0x19, 0x58, 0xbe,
    0xd0, 0x4b, 0xa1, 0x3e, 0x29, 0x67, 0x14, 0x3e, 0x17, 0xe2, 0x29, 0xbd,
    0x74, 0x90, 0xaa, 0x3d, 0x8d, 0xea, 0xe5, 0x3c, 0x9f, 0x14, 0xd5, 0x3e,
    0x1e, 0x05, 0x90, 0x3e, 0x7f, 0x00, 0x69, 0xbd, 0x6d, 0xa5, 0x6c, 0x3e,
    0x12, 0x73, 0x91, 0xbe, 0x4d, 0xae, 0xe7, 0xbe, 0xc5, 0xcf, 0x05, 0x3f,
    0xca, 0x37, 0xcd, 0x3e, 0xa2, 0xb1, 0x1b, 0x3e, 0x7f, 0x77, 0x2f, 0xbd,
    0xb1, 0x90, 0xad, 0x3d, 0x28, 0xe1, 0x2b, 0xbe, 0xc3, 0xeb, 0x57, 0xbe,
    0x88, 0xd4, 0x95, 0xbe, 0xe9, 0x97, 0x97, 0x3e, 0x76, 0x8f, 0xa3, 0x3c,
    0x23, 0xb8, 0x09, 0xbd, 0x35, 0x13, 0xf8, 0x3d, 0x75, 0x77, 0xd2, 0x3e,
    0x3b, 0xd3, 0xac, 0x3e, 0xf8, 0x8b, 0xcb, 0x3d, 0x64, 0x3a, 0xe7, 0xbe,
    0x87, 0x71, 0x2c, 0xbe, 0x0a, 0xd0, 0x36, 0x3e, 0x7f, 0x21, 0x35, 0x3e,
    0xc9, 0xff, 0x40, 0x3e, 0xf4, 0xbd, 0x19, 0x3e, 0x39, 0x7e, 0x09, 0xbe,
    0x75, 0xd0, 0x93, 0xbd, 0x73, 0x9c, 0xc8, 0x3d, 0x60, 0x60, 0x82, 0xbe,
    0xae, 0xff, 0xad, 0xbd, 0x92, 0xdb, 0x95, 0x3d, 0x79, 0x9b, 0x5a, 0x3e,
    0x14, 0x0f, 0xa0, 0x3e, 0x63, 0x60, 0x3e, 0x3e, 0xf0, 0x4a, 0x2f, 0xbe,
    0x44, 0x30, 0x01, 0xbf, 0xb7, 0x0f, 0x25, 0x3f, 0xe1, 0x7f, 0xce, 0x3e,
    0xc2, 0x93, 0x29, 0x3e, 0x0f, 0x7d, 0x18, 0xbe, 0xf3, 0x67, 0x0e, 0xbe,
    0xfa, 0xf1, 0x63, 0xbe, 0x77, 0x3e, 0xbf, 0x3e, 0xa2, 0x38, 0x83, 0xbd,
    0xd2, 0x43, 0x5a, 0x3e, 0xb6, 0xc9, 0xef, 0xbd, 0xac, 0x0c, 0x52, 0xbe,
    0x5a, 0x98, 0x31, 0x3e, 0x83, 0xca, 0x09, 0x3e, 0xf8, 0x8f, 0x14, 0x3e,
    0x27, 0x30, 0x25, 0x3e, 0xee, 0x3e, 0x0e, 0xbf, 0x04, 0x98, 0xbf, 0x3d,
    0x22, 0x33, 0x0e, 0xbe, 0x98, 0xff, 0xb3, 0x3e, 0x48, 0xd4, 0xab, 0x3e,
    0xb0, 0x20, 0x78, 0xbc, 0x9a, 0xb9, 0x6d, 0x3e, 0x89, 0x13, 0x86, 0xbe,
    0xdf, 0x11, 0x12, 0xbd, 0x72, 0xab, 0xaf, 0xbd, 0x0c, 0x61, 0xa8, 0x3d,
    0xc1, 0xe8, 0x0b, 0xbe, 0xe4, 0x69, 0x61, 0xbe, 0x25, 0x33, 0x6f, 0x3e,
    0xba, 0x6b, 0x54, 0xbe, 0x49, 0x6d, 0x0e, 0xbe, 0x46, 0x25, 0x4a, 0x3d,
    0xb8, 0x6a, 0x4a, 0x3d, 0x76, 0x91, 0x48, 0xbc, 0xd8, 0xd0, 0x48, 0xbe,
    0xa6, 0xbc, 0x5d, 0x3e, 0xbc, 0x7e, 0x2c, 0x3e, 0xfd, 0x34, 0x94, 0xbe,
    0x02, 0x9e, 0x0c, 0xbe, 0x29, 0xf7, 0x6d, 0x3d, 0xa4, 0xee, 0x69, 0xbe,
    0x00, 0xf0, 0xed, 0xbb, 0xce, 0xf2, 0x5c, 0x3e, 0x5c, 0xc4, 0x85, 0x3d,
    0x3f, 0x59, 0x75, 0xbe, 0xfc, 0x55, 0xc2, 0xbd, 0x3a, 0xf3, 0x77, 0xbe,
    0x10, 0xfc, 0x0d, 0xbd, 0x20, 0x44, 0x92, 0xbc, 0xfa, 0x7f, 0x41, 0xbe,
    0x30, 0x2d, 0x9c, 0xbe, 0xd5, 0x94, 0x41, 0x3d, 0x99, 0x48, 0xa1, 0xbd,
    0x70, 0x39, 0x3e, 0xbd, 0xad, 0x28, 0xd7, 0xbd, 0x7a, 0xd2, 0xac, 0xbe,
    0xc0, 0xd4, 0xb8, 0xbe, 0xba, 0x10, 0x1e, 0x3e, 0x06, 0x6c, 0x65, 0x3d,
    0x3e, 0x6a, 0x67, 0xbe, 0x47, 0x82, 0x4a, 0xbe, 0xee, 0x70, 0x8c, 0x3e,
    0xa6, 0x20, 0x77, 0xbe, 0xeb, 0x06, 0xcf, 0x3d, 0x15, 0x65, 0xa7, 0xbd,
    0x90, 0x6b, 0x13, 0x3e, 0xe7, 0x59, 0x12, 0xbe, 0x6b, 0x45, 0x26, 0x3e,
    0xda, 0xa0, 0x2e, 0xbe, 0x43, 0x98, 0x59, 0xbe, 0x0f, 0x95, 0x69, 0xbd,
    0xa4, 0xfb, 0x1c, 0xbf, 0x75, 0xa8, 0xee, 0x3e, 0x8c, 0xed, 0xe5, 0xbd,
    0xf2, 0xf2, 0x2a, 0x3e, 0x39, 0x70, 0x69, 0xbe, 0x8d, 0xa5, 0xd2, 0x3e,
    0xa2, 0x3a, 0x53, 0x3e, 0x41, 0x71, 0xe6, 0xbd, 0xe1, 0x64, 0xd5, 0x3d,
    0xb0, 0xe5, 0x93, 0xbe, 0xb2, 0x1f, 0x3d, 0x3e, 0x3f, 0x50, 0x1b, 0xbe,
    0xc8, 0x05, 0x07, 0x3e, 0x9f, 0xc5, 0xb0, 0x3e, 0x47, 0xe7, 0x83, 0x3e,
    0x1f, 0xcb, 0xfa, 0x3d, 0x7a, 0x16, 0x70, 0xbe, 0xe2, 0x3d, 0xcc, 0x3d,
    0xc1, 0xbd, 0x25, 0xbe, 0x44, 0x6f, 0x09, 0xbd, 0xe4, 0x99, 0xb6, 0xbe,
    0xed, 0xa0, 0x71, 0xbe, 0x4b, 0x00, 0x70, 0xbd, 0x2d, 0x50, 0x37, 0x3e,
    0xaf, 0xa4, 0x6e, 0x3e, 0x69, 0x77, 0x21, 0xbc, 0xb8, 0x7f, 0x3f, 0x3d,
    0x84, 0x39, 0xf3, 0xbd, 0x65, 0x3b, 0xf4, 0xbd, 0x2e, 0xa2, 0x00, 0x3e,
    0xd7, 0x63, 0x75, 0xbe, 0xd3, 0x91, 0x99, 0x3d, 0xba, 0x6f, 0x91, 0x3e,
    0x99, 0xcb, 0xf6, 0xbd, 0x26, 0x90, 0x57, 0x3e, 0x0f, 0xf2, 0x80, 0xbe,
    0x01, 0x9e, 0x32, 0xbe, 0x56, 0x13, 0x59, 0x3e, 0xa6, 0xa6, 0xf5, 0xbd,
    0x49, 0x5b, 0xc6, 0x3d, 0xd8, 0x85, 0xf3, 0x3e, 0x5d, 0x80, 0xa8, 0xbe,
    0x84, 0x6a, 0x99, 0xbd, 0x60, 0xaf, 0xb1, 0x3a, 0xb3, 0x28, 0x91, 0x3e,
    0xd2, 0x1e, 0x81, 0xbe, 0x4a, 0x8c, 0x62, 0xbe, 0xc2, 0x9a, 0x95, 0x3e,
    0xb5, 0x26, 0x2d, 0xbe, 0xe9, 0x44, 0x0c, 0x3e, 0x36, 0xa4, 0xca, 0x3d,
    0x45, 0x22, 0x29, 0x3d, 0x79, 0xcb, 0xaf, 0xbd, 0x82, 0x99, 0x4f, 0x3e,
    0x10, 0xab, 0x94, 0xbe, 0xbb, 0x0e, 0x8c, 0x3e, 0xe8, 0xe4, 0xa1, 0xbe,
    0x13, 0x63, 0x84, 0x3e, 0xba, 0xf7, 0x1f, 0x3e, 0xcb, 0x83, 0x91, 0x3d,
    0x3d, 0x2c, 0xfc, 0xbd, 0x09, 0xb5, 0x7f, 0xbe, 0x0d, 0x54, 0x4c, 0x3e,
    0x12, 0x88, 0x29, 0x3e, 0x15, 0xe7, 0x18, 0x3e, 0xb3, 0x10, 0x4f, 0xbe,
    0xfe, 0x85, 0x5a, 0xbe, 0xb0, 0x4a, 0xb6, 0x3d, 0xf2, 0xbe, 0xa0, 0x3e,
    0x72, 0x09, 0x3d, 0xbe, 0xfd, 0x1f, 0xc9, 0xbc, 0xfb, 0x00, 0xe0, 0x3d,
    0xf3, 0x83, 0x9b, 0xbe, 0xed, 0x2d, 0xa5, 0xbd, 0x9b, 0x45, 0x4c, 0x3c,
    0x8a, 0x00, 0x18, 0x3e, 0x56, 0x51, 0x3c, 0xbe, 0x2c, 0x69, 0x9f, 0x3e,
    0x84, 0x4d, 0x54, 0xbe, 0x0e, 0xa9, 0x1f, 0x3e, 0x22, 0x71, 0x29, 0x3e,
    0xa4, 0x0b, 0xc8, 0x3e, 0xaf, 0xbd, 0xae, 0x3e, 0x91, 0x63, 0x96, 0xbc,
    0x1f, 0x29, 0x9e, 0xbe, 0x46, 0x62, 0x7c, 0x3e, 0xfe, 0x59, 0xb9, 0xbd,
    0xac, 0x32, 0x7f, 0x3e, 0x43, 0x67, 0xe5, 0xbe, 0x1b, 0x07, 0xc7, 0x3e,
    0x17, 0x15, 0x43, 0x3e, 0xb3, 0x63, 0x62, 0x3e, 0x4a, 0x24, 0x02, 0x3e,
    0x16, 0xd7, 0x27, 0xbe, 0x69, 0x2f, 0x0c, 0x3d, 0x02, 0x17, 0x44, 0x3e,
    0xc3, 0x1d, 0x17, 0x3d, 0xcb, 0xb6, 0xdb, 0xbe, 0x47, 0xce, 0x34, 0x3e,
    0x00, 0x41, 0x75, 0x3c, 0xe6, 0x9c, 0x91, 0x3d, 0x09, 0x05, 0x9a, 0xbe,
    0x2f, 0x8c, 0x79, 0x3d, 0xc7, 0xd0, 0x0e, 0x3e, 0x86, 0x64, 0xa8, 0xbe,
    0xa1, 0x84, 0x30, 0xbe, 0x1c, 0x94, 0x5f, 0xbe, 0x3f, 0xc3, 0xb1, 0x3c,
    0xc6, 0x3f, 0xb7, 0x3e, 0x0c, 0xc6, 0xd7, 0x3d, 0x9a, 0xf6, 0xff, 0xff,
    0x04, 0x00, 0x00, 0x00, 0x80, 0x07, 0x00, 0x00, 0xdc, 0x21, 0x55, 0xbe,
    0x8a, 0x32, 0x8b, 0x3d, 0x69, 0x8b, 0x85, 0xbe, 0xcb, 0xf7, 0xa3, 0x3d,
    0x32, 0x5f, 0x9e, 0xbe, 0x11, 0xe9, 0xb7, 0xbd, 0x35, 0xa6, 0x88, 0x3e,
    0x28, 0x00, 0x7b, 0xbc, 0xaf, 0xd6, 0x75, 0xbe, 0x8f, 0x6f, 0x88, 0xbe,
    0xef, 0x8e, 0xf1, 0xbd, 0x7d, 0x43, 0x07, 0x3d, 0x4a, 0xe1, 0x84, 0xbd,
    0xae, 0xd7, 0x83, 0x3e, 0x45, 0x0d, 0x77, 0x3e, 0x13, 0x95, 0xea, 0xbe,
    0x02, 0x6b, 0x94, 0xbd, 0x35, 0x2e, 0x1b, 0x3f, 0x62, 0x2f, 0xed, 0xbe,
    0x2b, 0x3f, 0x34, 0x3b, 0xc6, 0xfd, 0xe8, 0x3d, 0xed, 0xfb, 0x47, 0xbe,
    0x25, 0x0a, 0x7d, 0xbe, 0xcd, 0xf6, 0x65, 0xbd, 0x96, 0xf0, 0x6e, 0xbd,
    0x43, 0xe5, 0x25, 0x3e, 0x55, 0xc9, 0xe8, 0x3b, 0xee, 0xff, 0x03, 0xbe,
    0x62, 0x1c, 0x45, 0x3e, 0x37, 0x21, 0x00, 0xbe, 0x8b, 0xfc, 0xc2, 0x3e,
    0x2b, 0xd2, 0x89, 0xbe, 0xd4, 0x92, 0x9e, 0x3e, 0x42, 0xc6, 0x14, 0x3e,
    0xde, 0xbf, 0x73, 0xbe, 0xbc, 0xc2, 0xae, 0x3e, 0x55, 0xa2, 0x82, 0x3e,
    0x9a, 0x3b, 0xae, 0xbd, 0xf3, 0xcd, 0x9c, 0xbd, 0xc0, 0x59, 0x09, 0xbe,
    0xca, 0xd9, 0x64, 0x3e, 0x68, 0xb3, 0x4f, 0x3e, 0x23, 0x32, 0x90, 0xbe,
    0x6a, 0x2b, 0x0f, 0xbe, 0x1f, 0x15, 0x2b, 0xbe, 0x89, 0xee, 0x03, 0xbe,
    0x89, 0x4b, 0xe7, 0xbe, 0xfe, 0xf9, 0xab, 0xbe, 0xbd, 0x5c, 0x31, 0xbe,
    0x20, 0xf1, 0x01, 0xbf, 0x1b, 0x2b, 0x5f, 0x3e, 0x59, 0xc0, 0xa9, 0xbe,
    0x54, 0xe9, 0xd6, 0x3d, 0xab, 0xae, 0x99, 0xbe, 0xcc, 0xf0, 0xbb, 0xbe,
    0x26, 0x15, 0xb4, 0xbc, 0xdf, 0x0a, 0x35, 0xbd, 0x3f, 0xa7, 0x15, 0xbd,
    0x04, 0xfc, 0xe0, 0x3c, 0x37, 0x00, 0xa6, 0x3d, 0xbe, 0x4a, 0xb7, 0x3d,
    0x55, 0x5c, 0x1d, 0x3e, 0x4b, 0x7e, 0x07, 0xbe, 0x98, 0x80, 0xbc, 0xbd,
    0x03, 0xb0, 0xe3, 0xba, 0x8d, 0xbf, 0xf7, 0x3d, 0x95, 0x16, 0xcc, 0x3d,
    0x65, 0x18, 0x42, 0x3e, 0xa0, 0xf4, 0x07, 0x3e, 0x9d, 0x63, 0xf8, 0xbd,
    0xbe, 0x7f, 0xcd, 0xbd, 0xdd, 0xf9, 0x9e, 0xbe, 0x72, 0xbf, 0x5a, 0x3e,
    0x0d, 0xdc, 0x6a, 0xbe, 0xb0, 0x25, 0x79, 0x3e, 0xb0, 0x39, 0xd9, 0xbd,
    0xba, 0xc0, 0xd7, 0x3c, 0xb1, 0x5b, 0xcd, 0x3e, 0xcf, 0xcf, 0x26, 0xbe,
    0x44, 0x92, 0x2e, 0xbe, 0x86, 0xd7, 0xee, 0xbd, 0x18, 0x01, 0xae, 0x3c,
    0xc5, 0x88, 0x11, 0xbf, 0x6a, 0x5c, 0x21, 0xbe, 0x4c, 0x1b, 0x6e, 0xbe,
    0x0a, 0x84, 0x77, 0xbe, 0x68, 0x22, 0x1f, 0xbe, 0x11, 0x6b, 0xaa, 0xbd,
    0x95, 0x05, 0xc0, 0xbe, 0x2e, 0x55, 0x4b, 0xbe, 0x97, 0xeb, 0x1c, 0xbe,
    0xc7, 0x42, 0x8d, 0xbc, 0xd7, 0x3e, 0xff, 0x3e, 0xff, 0x0d, 0x48, 0x3d,
    0x83, 0x99, 0x9c, 0x3d, 0x08, 0x32, 0x86, 0x3e, 0x44, 0x8a, 0x8d, 0x3e,
    0x47, 0x0c, 0xaa, 0xbe, 0xb0, 0x9b, 0x48, 0x3e, 0xdc, 0x6e, 0x5f, 0x3e,
    0xd0, 0x74, 0xc7, 0x3d, 0xfb, 0xb1, 0xf0, 0xbd, 0x0d, 0x2c, 0x31, 0x3e,
    0x2b, 0x1d, 0x89, 0xbe, 0xcc, 0x77, 0xaf, 0x3d, 0x9f, 0x46, 0xbd, 0x3e,
    0xad, 0x8f, 0x98, 0x3e, 0xa4, 0xf5, 0xae, 0x3d, 0x37, 0xd0, 0xfc, 0x3d,
    0xdc, 0xf9, 0x51, 0xbe, 0xa2, 0x29, 0x0b, 0x3e, 0x88, 0xe1, 0xb2, 0xbe,
    0xa4, 0xb6, 0xbb, 0xbd, 0xda, 0x9d, 0x00, 0x3e, 0x06, 0x3e, 0xa5, 0x3e,
    0x36, 0x01, 0x39, 0xbe, 0x2e, 0x51, 0x9b, 0xbd, 0x2d, 0xc0, 0x87, 0xbc,
    0x88, 0xcf, 0xcc, 0xbe, 0xd6, 0x8b, 0xf8, 0x3d, 0x53, 0xfd, 0x5d, 0x3e,
    0x46, 0x3d, 0xc8, 0xbd, 0x63, 0xa9, 0x23, 0xbf, 0x4b, 0x70, 0x3d, 0x3e,
    0xf3, 0x01, 0xe9, 0xbe, 0x89, 0x01, 0xc4, 0xbe, 0xdf, 0x13, 0xa8, 0xbe,
    0x61, 0xa2, 0x87, 0xbe, 0xd2, 0x6c, 0x22, 0xbe, 0x26, 0x09, 0xa9, 0x3e,
    0x2b, 0xe4, 0x95, 0xbe, 0x15, 0x6a, 0x87, 0xbe, 0x35, 0x82, 0x46, 0x3d,
    0xcc, 0xbf, 0x40, 0x3e, 0xdb, 0xb3, 0x8f, 0xbe, 0x16, 0x74, 0xea, 0x3c,
    0x95, 0xb5, 0xed, 0x3e, 0xc1, 0x93, 0x9b, 0xbe, 0xc1, 0x0c, 0x44, 0x3d,
    0x32, 0x2f, 0x95, 0x3e, 0xaa, 0xf8, 0xca, 0x3e, 0xba, 0xd8, 0xa2, 0x3e,
    0x41, 0xc5, 0x46, 0x3e, 0x6b, 0xd9, 0x90, 0xbe, 0xfe, 0x02, 0x6f, 0xbe,
    0xf6, 0xa6, 0xbb, 0x3e, 0xbe, 0x17, 0x57, 0x3b, 0x26, 0x55, 0xfe, 0xbc,
    0x0a, 0x34, 0x2e, 0xbe, 0x34, 0x64, 0x86, 0xbe, 0x0d, 0x8f, 0x22, 0xbe,
    0xf0, 0xf6, 0x14, 0x3e, 0xc7, 0xf8, 0x10, 0xbf, 0xc4, 0x96, 0x63, 0x3c,
    0xb2, 0x50, 0x81, 0x3e, 0x44, 0x5e, 0x4e, 0xbe, 0x8c, 0x55, 0xb4, 0x3e,
    0x0f, 0xf9, 0xe5, 0x3c, 0x17, 0xe5, 0xfe, 0x3d, 0x9e, 0x26, 0x9f, 0x3e,
    0x96, 0x6b, 0x34, 0x3e, 0x89, 0xcb, 0xba, 0x3d, 0xf7, 0x76, 0x89, 0xbe,
    0x8a, 0x3b, 0x92, 0x3e, 0x5b, 0x3d, 0x8d, 0x3e, 0x61, 0x31, 0x42, 0xbd,
    0x6a, 0x42, 0x2d, 0xbf, 0x49, 0x71, 0x36, 0xbd, 0x28, 0x31, 0x96, 0xbe,
    0x49, 0x1c, 0xe4, 0xbd, 0xd7, 0xe1, 0x8a, 0x3e, 0x8d, 0xe2, 0x85, 0xbe,
    0x7e, 0x5e, 0xe3, 0xbc, 0xc9, 0x60, 0xa3, 0x3e, 0xfa, 0xa3, 0x15, 0x3d,
    0xfc, 0xb4, 0xfc, 0x3d, 0xb2, 0xb6, 0x72, 0x3d, 0x33, 0xcd, 0x20, 0xbe,
    0x28, 0xa9, 0x73, 0x3e, 0x5c, 0xbe, 0x6d, 0x3d, 0xac, 0x44, 0xa2, 0x3e,
    0xcb, 0x2a, 0x81, 0x3e, 0xba, 0xba, 0x7a, 0xbe, 0x5b, 0xc6, 0x9e, 0xbc,
    0x8e, 0x12, 0x7c, 0xbe, 0x28, 0x2b, 0x84, 0x3e, 0xef, 0x28, 0x23, 0xbe,
    0x58, 0xfd, 0xf1, 0xbe, 0x8f, 0x48, 0x1a, 0xbe, 0x8d, 0x01, 0x67, 0xbe,
    0x27, 0x38, 0xd9, 0x3e, 0x24, 0x3f, 0xad, 0x3e, 0xf8, 0x1e, 0x93, 0xbd,
    0xbc, 0x98, 0x64, 0x3d, 0xaf, 0x2a, 0xae, 0xbc, 0xb6, 0x31, 0xaa, 0xbe,
    0xc2, 0x03, 0xfa, 0xbd, 0xde, 0xf2, 0x0b, 0xbd, 0x40, 0xc6, 0x5f, 0x3e,
    0x51, 0x2e, 0xd5, 0x3c, 0x48, 0x52, 0xed, 0x3d, 0x1d, 0x85, 0xcc, 0xbe,
    0xf5, 0x9e, 0xf6, 0xbd, 0x16, 0x8c, 0x8c, 0x3e, 0x04, 0x55, 0x19, 0xbe,
    0x6d, 0xd7, 0xae, 0x3e, 0x18, 0x14, 0xb3, 0x3d, 0x3c, 0xa0, 0x30, 0xbe,
    0xd0, 0x7f, 0x88, 0xbe, 0x22, 0x26, 0xc6, 0xbd, 0x4d, 0xd7, 0xba, 0x3e,
    0xc8, 0xfa, 0x3f, 0x3e, 0xd9, 0xe0, 0x9d, 0xbe, 0x7b, 0x45, 0xdd, 0x3e,
    0x4c, 0x4f, 0x97, 0xbe, 0xf0, 0x02, 0x26, 0xbf, 0x0a, 0x47, 0x6e, 0xbd,
    0x86, 0x9e, 0xa7, 0xbe, 0x39, 0x19, 0x96, 0xbe, 0x88, 0xb1, 0x8a, 0x3d,
    0xd6, 0x6b, 0x80, 0x3e, 0xd0, 0x2b, 0x86, 0x3e, 0xbe, 0x6e, 0x32, 0x3e,
    0x14, 0x83, 0x96, 0xbe, 0xd8, 0x76, 0x1b, 0xbe, 0xd1, 0xf5, 0xb2, 0x3e,
    0xac, 0x7b, 0xe5, 0xbc, 0x20, 0x74, 0xc2, 0xbd, 0x7e, 0x07, 0xd6, 0x3e,
    0xb8, 0xaf, 0x9d, 0x3e, 0x86, 0x96, 0x1d, 0xbe, 0x74, 0x5d, 0x10, 0xbe,
    0xfa, 0x99, 0xb0, 0x3e, 0x6e, 0x3c, 0x3d, 0xbe, 0xe1, 0xeb, 0x66, 0x3d,
    0x64, 0x01, 0x21, 0x3d, 0xa9, 0x25, 0x45, 0xbd, 0x48, 0xfa, 0x67, 0xbe,
    0x4e, 0xbc, 0x69, 0x3e, 0xbc, 0x11, 0x90, 0x3e, 0x41, 0x1a, 0xeb, 0xbc,
    0xbb, 0x84, 0x38, 0xbe, 0x89, 0x7b, 0x85, 0xbe, 0xc4, 0x2f, 0x5d, 0x3e,
    0x67, 0xa3, 0xa5, 0xbe, 0xce, 0xdd, 0x1e, 0x3e, 0xb8, 0x7e, 0x8b, 0xbe,
    0xe6, 0xd5, 0x03, 0xbe, 0x09, 0x0b, 0x48, 0x3e, 0x83, 0xa7, 0xe5, 0xbc,
    0xbd, 0xeb, 0x1f, 0xbe, 0x44, 0x13, 0x85, 0x3e, 0xb4, 0x6f, 0x8e, 0x3e,
    0x7d, 0x7d, 0xc4, 0x3e, 0xd3, 0xf4, 0xcb, 0x3e, 0x89, 0xf8, 0xd0, 0xbe,
    0xd1, 0xc3, 0x08, 0xbe, 0xa4, 0x2f, 0x1c, 0x3d, 0x29, 0x87, 0xb4, 0xbe,
    0x54, 0x25, 0xba, 0xbd, 0x1f, 0xbe, 0x9c, 0x3e, 0x5d, 0x98, 0x85, 0xbe,
    0xe8, 0x28, 0x16, 0xbd, 0xd4, 0xb2, 0xa8, 0xbe, 0x6c, 0x9d, 0xb2, 0x3e,
    0xe4, 0x02, 0x7a, 0x3e, 0xb0, 0x28, 0x3d, 0xbd, 0x01, 0x45, 0x1e, 0x3e,
    0xbf, 0x07, 0xd6, 0x3d, 0xd3, 0xf7, 0x0e, 0xbd, 0xbb, 0x6e, 0xbd, 0xbe,
    0x5b, 0x00, 0x28, 0xbe, 0x71, 0x9e, 0xa6, 0x3d, 0xdc, 0x7a, 0x46, 0xbd,
    0xc4, 0xd8, 0x5c, 0xbe, 0x0a, 0x02, 0x96, 0xbe, 0x59, 0x1c, 0xbb, 0xbe,
    0x1b, 0x44, 0x16, 0xbe, 0xb5, 0xee, 0x77, 0x3e, 0xb9, 0xdc, 0x03, 0xbf,
    0xf2, 0xce, 0xe3, 0xbd, 0xc7, 0x33, 0x11, 0x3d, 0x34, 0x98, 0xb9, 0x3e,
    0xf9, 0x95, 0x72, 0xbe, 0x5b, 0x49, 0x44, 0xbe, 0xae, 0xb8, 0xef, 0x3c,
    0x3b, 0xe0, 0xba, 0xbe, 0xa1, 0xd9, 0x49, 0xbf, 0xbe, 0xe5, 0x87, 0x3e,
    0x9c, 0x5e, 0x2f, 0xbe, 0xce, 0x7a, 0x51, 0xbf, 0xfd, 0xf2, 0xcd, 0x3d,
    0x2c, 0xc3, 0x97, 0xbe, 0x49, 0x96, 0x8e, 0xbd, 0x05, 0x59, 0xc4, 0xbd,
    0x00, 0x95, 0x7f, 0xbe, 0x67, 0xfd, 0x6a, 0xbe, 0x1f, 0x90, 0xb9, 0xbd,
    0x19, 0x99, 0xc9, 0xbe, 0x4e, 0xb7, 0x02, 0xbe, 0x32, 0x8d, 0x84, 0xbe,
    0x37, 0xaf, 0x63, 0x3e, 0x2d, 0xe4, 0x2f, 0x3e, 0xdf, 0x53, 0x90, 0xbd,
    0x6b, 0xf1, 0xab, 0xbe, 0x53, 0x19, 0x23, 0xbe, 0x1f, 0x1d, 0x90, 0x3e,
    0x61, 0xbc, 0x9d, 0x3e, 0xbe, 0x78, 0xb2, 0xbe, 0xd9, 0x55, 0x5f, 0x3c,
    0xe3, 0x44, 0x7f, 0xbb, 0x5b, 0x65, 0xe1, 0xbd, 0xc4, 0x20, 0x9f, 0x3c,
    0x40, 0x41, 0x75, 0x3e, 0x33, 0xae, 0x49, 0x3e, 0xf2, 0x48, 0x0a, 0x3e,
    0xa7, 0xba, 0xa6, 0xbd, 0x34, 0xc9, 0xab, 0xbe, 0xbf, 0x44, 0xcd, 0x3d,
    0x39, 0x19, 0x4c, 0xbe, 0xc9, 0xdb, 0xe2, 0xbe, 0x61, 0x85, 0xf4, 0xbd,
    0x14, 0x63, 0x9a, 0x3d, 0x4a, 0x03, 0xca, 0xbe, 0x43, 0x00, 0x89, 0x3e,
    0x4e, 0x8f, 0x32, 0xbe, 0xfc, 0xfa, 0x98, 0x3e, 0x04, 0xd5, 0x56, 0xbe,
    0x42, 0x42, 0x73, 0xbe, 0xdd, 0x85, 0x5e, 0x3e, 0xdb, 0x63, 0x72, 0xbe,
    0x4c, 0xb0, 0x3c, 0xbe, 0x84, 0x83, 0x9d, 0x3e, 0xbd, 0xd9, 0x95, 0xbe,
    0x77, 0x5e, 0x1d, 0x3e, 0xf7, 0xa0, 0x64, 0xbe, 0x96, 0x87, 0x1e, 0x3e,
    0xac, 0x70, 0xb2, 0x3e, 0xdd, 0xe9, 0x2c, 0x3d, 0xac, 0xd5, 0xbe, 0xbe,
    0x8e, 0xeb, 0x5b, 0xbe, 0x37, 0x30, 0x0f, 0xbd, 0xd7, 0x0d, 0xcc, 0x3d,
    0x75, 0x5c, 0x70, 0x3d, 0x25, 0xfa, 0x35, 0x3e, 0x21, 0xba, 0xe8, 0x3e,
    0x93, 0x76, 0x9e, 0xbe, 0x2f, 0x1b, 0x70, 0xbe, 0x28, 0x69, 0x8f, 0x3e,
    0x5d, 0xcb, 0x50, 0x3e, 0x41, 0xd8, 0x23, 0xbe, 0x18, 0x3d, 0x0b, 0xbe,
    0xb9, 0x91, 0xdb, 0xbd, 0x09, 0x0c, 0x96, 0xbd, 0x21, 0x88, 0x02, 0xbe,
    0x46, 0xd4, 0x52, 0x3e, 0xf0, 0x4c, 0x86, 0xbd, 0x44, 0x31, 0xbf, 0x3e,
    0xde, 0x65, 0xb3, 0x3d, 0xfb, 0x68, 0xc7, 0xbc, 0x44, 0x35, 0x8f, 0xbc,
    0xb0, 0x1c, 0x20, 0x3e, 0x37, 0x03, 0xa4, 0xbe, 0x01, 0xad, 0x1c, 0xbe,
    0x60, 0x98, 0x44, 0x3e, 0xa8, 0xbd, 0xf9, 0xbd, 0x52, 0xdf, 0xf0, 0xbd,
    0x7a, 0xea, 0x6b, 0x3e, 0x90, 0x34, 0x51, 0x3e, 0x65, 0x9e, 0xd7, 0xbd,
    0x83, 0xb4, 0xb0, 0xbe, 0x05, 0x48, 0xa3, 0xbe, 0xfc, 0xd7, 0xb7, 0x3e,
    0x53, 0x82, 0x78, 0xbd, 0x0a, 0x10, 0xab, 0x3e, 0x03, 0xaf, 0xbc, 0x3d,
    0xb9, 0xe7, 0x23, 0x3e, 0xd2, 0x0f, 0x08, 0x3e, 0x32, 0x3c, 0x02, 0xbe,
    0x94, 0xe0, 0x2b, 0xbe, 0xdc, 0x83, 0xfe, 0xbc, 0x67, 0x52, 0x3a, 0xbe,
    0xc1, 0xb9, 0xb0, 0x3e, 0x14, 0x91, 0x58, 0xbe, 0x82, 0x65, 0x9f, 0x3e,
    0x54, 0xa0, 0x9e, 0x3d, 0x61, 0x91, 0x6d, 0xbe, 0xce, 0xf5, 0x4a, 0xbe,
    0xfb, 0xc0, 0x7f, 0xbe, 0x98, 0x43, 0x93, 0xbe, 0x02, 0xea, 0x04, 0xbf,
    0x42, 0x89, 0x00, 0xbe, 0xb7, 0xe1, 0x26, 0x3e, 0x6a, 0x67, 0xf2, 0xbe,
    0x98, 0x60, 0xb3, 0x3e, 0x74, 0xa8, 0x8a, 0x3e, 0x0d, 0x42, 0x94, 0x3e,
    0x29, 0x10, 0xac, 0x3e, 0xe3, 0x34, 0x40, 0xbe, 0xac, 0x46, 0x09, 0xbe,
    0xd8, 0x4a, 0x97, 0x3e, 0x77, 0x6c, 0xa2, 0xbe, 0x62, 0x15, 0x0f, 0xbe,
    0xb8, 0xb8, 0x51, 0x3d, 0xb2, 0xe3, 0x7c, 0x3e, 0x95, 0xf3, 0xd9, 0xbb,
    0xea, 0x90, 0x69, 0xbe, 0x52, 0xfc, 0x57, 0xbe, 0xa3, 0x52, 0x8b, 0x3e,
    0x3d, 0xbd, 0x48, 0x3e, 0x05, 0x6b, 0x34, 0x3e, 0xab, 0xea, 0x93, 0x3e,
    0x51, 0x34, 0x9f, 0x3e, 0x36, 0x63, 0xdd, 0x3d, 0xd2, 0xde, 0x25, 0x3e,
    0x1a, 0x21, 0xca, 0xba, 0xf2, 0xf9, 0x91, 0xbe, 0xa2, 0xcb, 0x7c, 0xbe,
    0x37, 0xc2, 0xab, 0x3e, 0xcb, 0xb6, 0x0c, 0x3e, 0xe1, 0x0f, 0x05, 0x3e,
    0x00, 0x87, 0xf3, 0xba, 0x0a, 0x1a, 0x65, 0x3e, 0x15, 0x22, 0x2a, 0xbe,
    0x3a, 0xd7, 0x42, 0xbd, 0x95, 0x6b, 0xa9, 0xbe, 0x4b, 0xd4, 0x74, 0xbe,
    0x99, 0x1e, 0xb2, 0x3e, 0xa1, 0x33, 0x05, 0xbe, 0x82, 0x69, 0x41, 0xbe,
    0x18, 0xcc, 0x99, 0xbe, 0xb8, 0x52, 0xc9, 0xbd, 0xb2, 0x95, 0x47, 0x3e,
    0xba, 0x6b, 0x74, 0x3e, 0x74, 0x66, 0xa1, 0x3e, 0x51, 0x62, 0xd9, 0x3d,
    0x7a, 0x73, 0x2d, 0xbd, 0x57, 0xc2, 0xca, 0x3e, 0x48, 0xcb, 0x33, 0x3e,
    0x1b, 0x97, 0x64, 0xbe, 0xde, 0xcc, 0xce, 0x3d, 0x90, 0xd3, 0xd2, 0xbe,
    0x7e, 0x17, 0x4f, 0x3e, 0xba, 0x6d, 0xbc, 0xbe, 0xec, 0x3a, 0x39, 0xbd,
    0x3e, 0x92, 0x89, 0x3e, 0x39, 0xdb, 0x2b, 0x3e, 0xb4, 0x21, 0x95, 0x3e,
    0x53, 0x8b, 0xa0, 0xbe, 0x89, 0x7c, 0x1a, 0x3e, 0x00, 0x71, 0x3e, 0xbe,
    0x68, 0x15, 0xa9, 0x3e, 0x9d, 0x86, 0x20, 0x3d, 0x62, 0xc9, 0x0f, 0xbe,
    0x7b, 0x9c, 0xf3, 0xbd, 0xfa, 0x6a, 0x10, 0xbe, 0xf7, 0x63, 0xba, 0xbe,
    0x96, 0x75, 0x21, 0xbe, 0x57, 0x3c, 0x62, 0xbe, 0xe6, 0xce, 0x06, 0x3e,
    0xf4, 0xec, 0x79, 0x3e, 0x07, 0x71, 0x52, 0x3d, 0x8f, 0x40, 0xa2, 0xbe,
    0x05, 0xe0, 0x92, 0x3e, 0xc0, 0x76, 0x61, 0x3e, 0xc6, 0x0d, 0xf3, 0x3c,
    0xbf, 0xdb, 0x60, 0xbd, 0xa9, 0xa7, 0x72, 0x3e, 0x82, 0x66, 0x59, 0xbe,
    0xbc, 0x1f, 0xa6, 0xbd, 0x26, 0x63, 0xc5, 0xbe, 0x49, 0x18, 0x51, 0xbe,
    0x4b, 0x73, 0xc8, 0xbe, 0x6f, 0x91, 0xc0, 0xbe, 0xe9, 0x03, 0xaf, 0x3e,
    0x2d, 0xa3, 0x00, 0x3e, 0x1e, 0xdf, 0x3e, 0xbe, 0x55, 0x66, 0x2d, 0xbe,
    0x2b, 0x76, 0xc1, 0x3c, 0xc4, 0x0e, 0x21, 0xbe, 0x26, 0xfe, 0xff, 0xff,
    0x04, 0x00, 0x00, 0x00, 0x80, 0x00, 0x00, 0x00, 0x01, 0x51, 0xa5, 0xbc,
    0x26, 0x07, 0x1a, 0x3d, 0xbf, 0x2b, 0x65, 0xbc, 0x05, 0x97, 0x21, 0x3d,
    0x95, 0x78, 0x30, 0x3c, 0x5a, 0x0f, 0x22, 0xbe, 0x90, 0xab, 0x2f, 0xbd,
    0xf5, 0x71, 0xd6, 0xbc, 0x56, 0x96, 0xc4, 0xbc, 0xfb, 0x79, 0x24, 0x3e,
    0x23, 0xd1, 0x85, 0x3d, 0x6f, 0x1a, 0x85, 0xbb, 0x9d, 0x95, 0xd9, 0xbc,
    0x85, 0x99, 0x88, 0x3c, 0x37, 0xf0, 0xb5, 0xbd, 0x19, 0xa7, 0x0c, 0xba,
    0xa9, 0xc4, 0xf3, 0xbb, 0x3d, 0x1f, 0xfd, 0xba, 0x78, 0xe5, 0xfd, 0x3c,
    0x6a, 0x63, 0x2e, 0x3d, 0xff, 0xdf, 0x23, 0xbd, 0xfa, 0xe0, 0x09, 0xbd,
    0x9f, 0xb7, 0x51, 0x3d, 0x47, 0x42, 0x1b, 0xbd, 0xff, 0x9e, 0xab, 0x3c,
    0x70, 0x59, 0x93, 0x3d, 0x74, 0x6d, 0x5c, 0x3e, 0x62, 0x95, 0x63, 0x3d,
    0xc7, 0x01, 0x47, 0x3d, 0xf4, 0xc3, 0x7c, 0x3c, 0xda, 0x84, 0x65, 0xbd,
    0x17, 0xce, 0x0a, 0xbe, 0xb2, 0xfe, 0xff, 0xff, 0x04, 0x00, 0x00, 0x00,
    0x80, 0x00, 0x00, 0x00, 0x98, 0xac, 0xdd, 0x3d, 0x1c, 0x88, 0x1c, 0x3d,
    0xf8, 0xc4, 0xd6, 0xbc, 0xae, 0xe9, 0xe7, 0x3d, 0x04, 0xc3, 0x47, 0x3e,
    0xae, 0x75, 0x59, 0xbd, 0x9e, 0x79, 0x96, 0xbd, 0x09, 0xb7, 0xf7, 0x3d,
    0x1c, 0x5d, 0xd5, 0xbc, 0xea, 0xd6, 0x2d, 0xbe, 0xff, 0x2d, 0x83, 0x3d,
    0x99, 0xd2, 0x4a, 0xbd, 0xcf, 0x66, 0x23, 0xbe, 0xd9, 0xe2, 0xa2, 0xbc,
    0x82, 0x68, 0x67, 0x3c, 0x37, 0x82, 0x2f, 0x3c, 0xa0, 0x95, 0x3e, 0x3d,
    0x40, 0x68, 0x01, 0x3d, 0x00, 0x00, 0x00, 0x00, 0xcb, 0x76, 0x19, 0xbd,
    0x5c, 0x5e, 0xf2, 0x3d, 0xdf, 0x2b, 0xb0, 0x3d, 0xe0, 0xdf, 0xfb, 0xb9,
    0x3a, 0x1a, 0xe3, 0x3c, 0xf9, 0x77, 0x70, 0xbc, 0xca, 0x14, 0x00, 0xbe,
    0x60, 0x8d, 0x07, 0xbe, 0xd0, 0x94, 0xac, 0xbb, 0xfa, 0xef, 0x7a, 0x3c,
    0x02, 0xc8, 0x0c, 0x3e, 0x94, 0x5c, 0xb5, 0x3c, 0x35, 0xe9, 0x8f, 0x3c,
    0x3e, 0xff, 0xff, 0xff, 0x04, 0x00, 0x00, 0x00, 0x20, 0x00, 0x00, 0x00,
    0x38, 0xb9, 0xe1, 0xbd, 0xd7, 0x23, 0x7c, 0xbd, 0x16, 0x05, 0xd0, 0xbc,
    0x5a, 0x02, 0x70, 0x3d, 0x46, 0x90, 0x15, 0x3e, 0xde, 0x58, 0x43, 0xbc,
    0x9c, 0xe2, 0x08, 0xbd, 0x1d, 0xb7, 0xa6, 0x3c, 0x4c, 0xfa, 0xff, 0xff,
    0x50, 0xfa, 0xff, 0xff, 0x0f, 0x00, 0x00, 0x00, 0x4d, 0x4c, 0x49, 0x52,
    0x20, 0x43, 0x6f, 0x6e, 0x76, 0x65, 0x72, 0x74, 0x65, 0x64, 0x2e, 0x00,
    0x01, 0x00, 0x00, 0x00, 0x14, 0x00, 0x00, 0x00, 0x00, 0x00, 0x0e, 0x00,
    0x18, 0x00, 0x14, 0x00, 0x10, 0x00, 0x0c, 0x00, 0x08, 0x00, 0x04, 0x00,
    0x0e, 0x00, 0x00, 0x00, 0x14, 0x00, 0x00, 0x00, 0x1c, 0x00, 0x00, 0x00,
    0x24, 0x01, 0x00, 0x00, 0x28, 0x01, 0x00, 0x00, 0x2c, 0x01, 0x00, 0x00,
    0x04, 0x00, 0x00, 0x00, 0x6d, 0x61, 0x69, 0x6e, 0x00, 0x00, 0x00, 0x00,
    0x04, 0x00, 0x00, 0x00, 0xcc, 0x00, 0x00, 0x00, 0x84, 0x00, 0x00, 0x00,
    0x50, 0x00, 0x00, 0x00, 0x14, 0x00, 0x00, 0x00, 0x00, 0x00, 0x0e, 0x00,
    0x1a, 0x00, 0x14, 0x00, 0x10, 0x00, 0x0c, 0x00, 0x0b, 0x00, 0x04, 0x00,
    0x0e, 0x00, 0x00, 0x00, 0x1c, 0x00, 0x00, 0x00, 0x00, 0x00, 0x00, 0x09,
    0x1c, 0x00, 0x00, 0x00, 0x20, 0x00, 0x00, 0x00, 0x01, 0x00, 0x00, 0x00,
    0x00, 0x00, 0x06, 0x00, 0x08, 0x00, 0x04, 0x00, 0x06, 0x00, 0x00, 0x00,
    0x00, 0x00, 0x80, 0x3f, 0x01, 0x00, 0x00, 0x00, 0x0a, 0x00, 0x00, 0x00,
    0x01, 0x00, 0x00, 0x00, 0x09, 0x00, 0x00, 0x00, 0x9a, 0xff, 0xff, 0xff,
    0x10, 0x00, 0x00, 0x00, 0x00, 0x00, 0x00, 0x08, 0x0c, 0x00, 0x00, 0x00,
    0x10, 0x00, 0x00, 0x00, 0x14, 0xfb, 0xff, 0xff, 0x01, 0x00, 0x00, 0x00,
    0x09, 0x00, 0x00, 0x00, 0x03, 0x00, 0x00, 0x00, 0x08, 0x00, 0x00, 0x00,
    0x06, 0x00, 0x00, 0x00, 0x01, 0x00, 0x00, 0x00, 0xca, 0xff, 0xff, 0xff,
    0x10, 0x00, 0x00, 0x00, 0x00, 0x00, 0x00, 0x08, 0x10, 0x00, 0x00, 0x00,
    0x14, 0x00, 0x00, 0x00, 0xba, 0xff, 0xff, 0xff, 0x00, 0x00, 0x00, 0x01,
    0x01, 0x00, 0x00, 0x00, 0x08, 0x00, 0x00, 0x00, 0x03, 0x00, 0x00, 0x00,
    0x07, 0x00, 0x00, 0x00, 0x05, 0x00, 0x00, 0x00, 0x02, 0x00, 0x00, 0x00,
    0x00, 0x00, 0x0e, 0x00, 0x16, 0x00, 0x00, 0x00, 0x10, 0x00, 0x0c, 0x00,
    0x0b, 0x00, 0x04, 0x00, 0x0e, 0x00, 0x00, 0x00, 0x18, 0x00, 0x00, 0x00,
    0x00, 0x00, 0x00, 0x08, 0x18, 0x00, 0x00, 0x00, 0x1c, 0x00, 0x00, 0x00,
    0x00, 0x00, 0x06, 0x00, 0x08, 0x00, 0x07, 0x00, 0x06, 0x00, 0x00, 0x00,
    0x00, 0x00, 0x00, 0x01, 0x01, 0x00, 0x00, 0x00, 0x07, 0x00, 0x00, 0x00,
    0x03, 0x00, 0x00, 0x00, 0x00, 0x00, 0x00, 0x00, 0x04, 0x00, 0x00, 0x00,
    0x03, 0x00, 0x00, 0x00, 0x01, 0x00, 0x00, 0x00, 0x0a, 0x00, 0x00, 0x00,
    0x01, 0x00, 0x00, 0x00, 0x00, 0x00, 0x00, 0x00, 0x0b, 0x00, 0x00, 0x00,
    0x14, 0x04, 0x00, 0x00, 0xa4, 0x03, 0x00, 0x00, 0x34, 0x03, 0x00, 0x00,
    0xdc, 0x02, 0x00, 0x00, 0x90, 0x02, 0x00, 0x00, 0x44, 0x02, 0x00, 0x00,
    0xf8, 0x01, 0x00, 0x00, 0x68, 0x01, 0x00, 0x00, 0xd8, 0x00, 0x00, 0x00,
    0x60, 0x00, 0x00, 0x00, 0x04, 0x00, 0x00, 0x00, 0x2e, 0xfc, 0xff, 0xff,
    0x00, 0x00, 0x00, 0x01, 0x14, 0x00, 0x00, 0x00, 0x1c, 0x00, 0x00, 0x00,
    0x1c, 0x00, 0x00, 0x00, 0x0b, 0x00, 0x00, 0x00, 0x34, 0x00, 0x00, 0x00,
    0x02, 0x00, 0x00, 0x00, 0xff, 0xff, 0xff, 0xff, 0x08, 0x00, 0x00, 0x00,
    0x18, 0xfc, 0xff, 0xff, 0x19, 0x00, 0x00, 0x00, 0x53, 0x74, 0x61, 0x74,
    0x65, 0x66, 0x75, 0x6c, 0x50, 0x61, 0x72, 0x74, 0x69, 0x74, 0x69, 0x6f,
    0x6e, 0x65, 0x64, 0x43, 0x61, 0x6c, 0x6c, 0x3a, 0x30, 0x00, 0x00, 0x00,
    0x02, 0x00, 0x00, 0x00, 0x01, 0x00, 0x00, 0x00, 0x08, 0x00, 0x00, 0x00,
    0x86, 0xfc, 0xff, 0xff, 0x00, 0x00, 0x00, 0x01, 0x14, 0x00, 0x00, 0x00,
    0x1c, 0x00, 0x00, 0x00, 0x1c, 0x00, 0x00, 0x00, 0x0a, 0x00, 0x00, 0x00,
    0x50, 0x00, 0x00, 0x00, 0x02, 0x00, 0x00, 0x00, 0xff, 0xff, 0xff, 0xff,
    0x08, 0x00, 0x00, 0x00, 0x70, 0xfc, 0xff, 0xff, 0x34, 0x00, 0x00, 0x00,
    0x6c, 0x77, 0x33, 0x32, 0x5f, 0x6d, 0x64, 0x31, 0x2f, 0x64, 0x65, 0x6e,
    0x73, 0x65, 0x5f, 0x31, 0x38, 0x36, 0x2f, 0x4d, 0x61, 0x74, 0x4d, 0x75,
    0x6c, 0x3b, 0x6c, 0x77, 0x33, 0x32, 0x5f, 0x6d, 0x64, 0x31, 0x2f, 0x64,
    0x65, 0x6e, 0x73, 0x65, 0x5f, 0x31, 0x38, 0x36, 0x2f, 0x42, 0x69, 0x61,
    0x73, 0x41, 0x64, 0x64, 0x00, 0x00, 0x00, 0x00, 0x02, 0x00, 0x00, 0x00,
    0x01, 0x00, 0x00, 0x00, 0x08, 0x00, 0x00, 0x00, 0xfa, 0xfc, 0xff, 0xff,
    0x00, 0x00, 0x00, 0x01, 0x14, 0x00, 0x00, 0x00, 0x1c, 0x00, 0x00, 0x00,
    0x1c, 0x00, 0x00, 0x00, 0x09, 0x00, 0x00, 0x00, 0x68, 0x00, 0x00, 0x00,
    0x02, 0x00, 0x00, 0x00, 0xff, 0xff, 0xff, 0xff, 0x20, 0x00, 0x00, 0x00,
    0xe4, 0xfc, 0xff, 0xff, 0x4c, 0x00, 0x00, 0x00, 0x6c, 0x77, 0x33, 0x32,
    0x5f, 0x6d, 0x64, 0x31, 0x2f, 0x64, 0x65, 0x6e, 0x73, 0x65, 0x5f, 0x31,
    0x38, 0x35, 0x2f, 0x4d, 0x61, 0x74, 0x4d, 0x75, 0x6c, 0x3b, 0x6c, 0x77,
    0x33, 0x32, 0x5f, 0x6d, 0x64, 0x31, 0x2f, 0x64, 0x65, 0x6e, 0x73, 0x65,
    0x5f, 0x31, 0x38, 0x35, 0x2f, 0x52, 0x65, 0x6c, 0x75, 0x3b, 0x6c, 0x77,
    0x33, 0x32, 0x5f, 0x6d, 0x64, 0x31, 0x2f, 0x64, 0x65, 0x6e, 0x73, 0x65,
    0x5f, 0x31, 0x38, 0x35, 0x2f, 0x42, 0x69, 0x61, 0x73, 0x41, 0x64, 0x64,
    0x00, 0x00, 0x00, 0x00, 0x02, 0x00, 0x00, 0x00, 0x01, 0x00, 0x00, 0x00,
    0x20, 0x00, 0x00, 0x00, 0x86, 0xfd, 0xff, 0xff, 0x00, 0x00, 0x00, 0x01,
    0x14, 0x00, 0x00, 0x00, 0x1c, 0x00, 0x00, 0x00, 0x1c, 0x00, 0x00, 0x00,
    0x08, 0x00, 0x00, 0x00, 0x68, 0x00, 0x00, 0x00, 0x02, 0x00, 0x00, 0x00,
    0xff, 0xff, 0xff, 0xff, 0x20, 0x00, 0x00, 0x00, 0x70, 0xfd, 0xff, 0xff,
    0x4c, 0x00, 0x00, 0x00, 0x6c, 0x77, 0x33, 0x32, 0x5f, 0x6d, 0x64, 0x31,
    0x2f, 0x64, 0x65, 0x6e, 0x73, 0x65, 0x5f, 0x31, 0x38, 0x34, 0x2f, 0x4d,
    0x61, 0x74, 0x4d, 0x75, 0x6c, 0x3b, 0x6c, 0x77, 0x33, 0x32, 0x5f, 0x6d,
    0x64, 0x31, 0x2f, 0x64, 0x65, 0x6e, 0x73, 0x65, 0x5f, 0x31, 0x38, 0x34,
    0x2f, 0x52, 0x65, 0x6c, 0x75, 0x3b, 0x6c, 0x77, 0x33, 0x32, 0x5f, 0x6d,
    0x64, 0x31, 0x2f, 0x64, 0x65, 0x6e, 0x73, 0x65, 0x5f, 0x31, 0x38, 0x34,
    0x2f, 0x42, 0x69, 0x61, 0x73, 0x41, 0x64, 0x64, 0x00, 0x00, 0x00, 0x00,
    0x02, 0x00, 0x00, 0x00, 0x01, 0x00, 0x00, 0x00, 0x20, 0x00, 0x00, 0x00,
    0x7e, 0xfe, 0xff, 0xff, 0x00, 0x00, 0x00, 0x01, 0x10, 0x00, 0x00, 0x00,
    0x10, 0x00, 0x00, 0x00, 0x07, 0x00, 0x00, 0x00, 0x28, 0x00, 0x00, 0x00,
    0xec, 0xfd, 0xff, 0xff, 0x19, 0x00, 0x00, 0x00, 0x6c, 0x77, 0x33, 0x32,
    0x5f, 0x6d, 0x64, 0x31, 0x2f, 0x64, 0x65, 0x6e, 0x73, 0x65, 0x5f, 0x31,
    0x38, 0x36, 0x2f, 0x4d, 0x61, 0x74, 0x4d, 0x75, 0x6c, 0x00, 0x00, 0x00,
    0x02, 0x00, 0x00, 0x00, 0x08, 0x00, 0x00, 0x00, 0x20, 0x00, 0x00, 0x00,
    0xc6, 0xfe, 0xff, 0xff, 0x00, 0x00, 0x00, 0x01, 0x10, 0x00, 0x00, 0x00,
    0x10, 0x00, 0x00, 0x00, 0x06, 0x00, 0x00, 0x00, 0x28, 0x00, 0x00, 0x00,
    0x34, 0xfe, 0xff, 0xff, 0x19, 0x00, 0x00, 0x00, 0x6c, 0x77, 0x33, 0x32,
    0x5f, 0x6d, 0x64, 0x31, 0x2f, 0x64, 0x65, 0x6e, 0x73, 0x65, 0x5f, 0x31,
    0x38, 0x35, 0x2f, 0x4d, 0x61, 0x74, 0x4d, 0x75, 0x6c, 0x00, 0x00, 0x00,
    0x02, 0x00, 0x00, 0x00, 0x20, 0x00, 0x00, 0x00, 0x20, 0x00, 0x00, 0x00,
    0x0e, 0xff, 0xff, 0xff, 0x00, 0x00, 0x00, 0x01, 0x10, 0x00, 0x00, 0x00,
    0x10, 0x00, 0x00, 0x00, 0x05, 0x00, 0x00, 0x00, 0x28, 0x00, 0x00, 0x00,
    0x7c, 0xfe, 0xff, 0xff, 0x19, 0x00, 0x00, 0x00, 0x6c, 0x77, 0x33, 0x32,
    0x5f, 0x6d, 0x64, 0x31, 0x2f, 0x64, 0x65, 0x6e, 0x73, 0x65, 0x5f, 0x31,
    0x38, 0x34, 0x2f, 0x4d, 0x61, 0x74, 0x4d, 0x75, 0x6c, 0x00, 0x00, 0x00,
    0x02, 0x00, 0x00, 0x00, 0x20, 0x00, 0x00, 0x00, 0x0f, 0x00, 0x00, 0x00,
    0x56, 0xff, 0xff, 0xff, 0x00, 0x00, 0x00, 0x01, 0x10, 0x00, 0x00, 0x00,
    0x10, 0x00, 0x00, 0x00, 0x04, 0x00, 0x00, 0x00, 0x38, 0x00, 0x00, 0x00,
    0xc4, 0xfe, 0xff, 0xff, 0x29, 0x00, 0x00, 0x00, 0x6c, 0x77, 0x33, 0x32,
    0x5f, 0x6d, 0x64, 0x31, 0x2f, 0x64, 0x65, 0x6e, 0x73, 0x65, 0x5f, 0x31,
    0x38, 0x34, 0x2f, 0x42, 0x69, 0x61, 0x73, 0x41, 0x64, 0x64, 0x2f, 0x52,
    0x65, 0x61, 0x64, 0x56, 0x61, 0x72, 0x69, 0x61, 0x62, 0x6c, 0x65, 0x4f,
    0x70, 0x00, 0x00, 0x00, 0x01, 0x00, 0x00, 0x00, 0x20, 0x00, 0x00, 0x00,
    0xaa, 0xff, 0xff, 0xff, 0x00, 0x00, 0x00, 0x01, 0x10, 0x00, 0x00, 0x00,
    0x10, 0x00, 0x00, 0x00, 0x03, 0x00, 0x00, 0x00, 0x38, 0x00, 0x00, 0x00,
    0x18, 0xff, 0xff, 0xff, 0x29, 0x00, 0x00, 0x00, 0x6c, 0x77, 0x33, 0x32,
    0x5f, 0x6d, 0x64, 0x31, 0x2f, 0x64, 0x65, 0x6e, 0x73, 0x65, 0x5f, 0x31,
    0x38, 0x35, 0x2f, 0x42, 0x69, 0x61, 0x73, 0x41, 0x64, 0x64, 0x2f, 0x52,
    0x65, 0x61, 0x64, 0x56, 0x61, 0x72, 0x69, 0x61, 0x62, 0x6c, 0x65, 0x4f,
    0x70, 0x00, 0x00, 0x00, 0x01, 0x00, 0x00, 0x00, 0x20, 0x00, 0x00, 0x00,
    0x00, 0x00, 0x16, 0x00, 0x18, 0x00, 0x14, 0x00, 0x00, 0x00, 0x10, 0x00,
    0x0c, 0x00, 0x08, 0x00, 0x00, 0x00, 0x00, 0x00, 0x00, 0x00, 0x07, 0x00,
    0x16, 0x00, 0x00, 0x00, 0x00, 0x00, 0x00, 0x01, 0x10, 0x00, 0x00, 0x00,
    0x10, 0x00, 0x00, 0x00, 0x02, 0x00, 0x00, 0x00, 0x38, 0x00, 0x00, 0x00,
    0x84, 0xff, 0xff, 0xff, 0x29, 0x00, 0x00, 0x00, 0x6c, 0x77, 0x33, 0x32,
    0x5f, 0x6d, 0x64, 0x31, 0x2f, 0x64, 0x65, 0x6e, 0x73, 0x65, 0x5f, 0x31,
    0x38, 0x36, 0x2f, 0x42, 0x69, 0x61, 0x73, 0x41, 0x64, 0x64, 0x2f, 0x52,
    0x65, 0x61, 0x64, 0x56, 0x61, 0x72, 0x69, 0x61, 0x62, 0x6c, 0x65, 0x4f,
    0x70, 0x00, 0x00, 0x00, 0x01, 0x00, 0x00, 0x00, 0x08, 0x00, 0x00, 0x00,
    0x00, 0x00, 0x16, 0x00, 0x1c, 0x00, 0x18, 0x00, 0x00, 0x00, 0x14, 0x00,
    0x10, 0x00, 0x0c, 0x00, 0x00, 0x00, 0x00, 0x00, 0x08, 0x00, 0x07, 0x00,
    0x16, 0x00, 0x00, 0x00, 0x00, 0x00, 0x00, 0x01, 0x14, 0x00, 0x00, 0x00,
    0x20, 0x00, 0x00, 0x00, 0x20, 0x00, 0x00, 0x00, 0x01, 0x00, 0x00, 0x00,
    0x40, 0x00, 0x00, 0x00, 0x02, 0x00, 0x00, 0x00, 0xff, 0xff, 0xff, 0xff,
    0x0f, 0x00, 0x00, 0x00, 0x04, 0x00, 0x04, 0x00, 0x04, 0x00, 0x00, 0x00,
    0x21, 0x00, 0x00, 0x00, 0x73, 0x65, 0x72, 0x76, 0x69, 0x6e, 0x67, 0x5f,
    0x64, 0x65, 0x66, 0x61, 0x75, 0x6c, 0x74, 0x5f, 0x64, 0x65, 0x6e, 0x73,
    0x65, 0x5f, 0x31, 0x38, 0x34, 0x5f, 0x69, 0x6e, 0x70, 0x75, 0x74, 0x3a,
    0x30, 0x00, 0x00, 0x00, 0x02, 0x00, 0x00, 0x00, 0x01, 0x00, 0x00, 0x00,
    0x0f, 0x00, 0x00, 0x00, 0x02, 0x00, 0x00, 0x00, 0x20, 0x00, 0x00, 0x00,
    0x04, 0x00, 0x00, 0x00, 0xf4, 0xff, 0xff, 0xff, 0x19, 0x00, 0x00, 0x00,
    0x00, 0x00, 0x00, 0x19, 0x0c, 0x00, 0x0c, 0x00, 0x0b, 0x00, 0x00, 0x00,
    0x00, 0x00, 0x04, 0x00, 0x0c, 0x00, 0x00, 0x00, 0x09, 0x00, 0x00, 0x00,
    0x00, 0x00, 0x00, 0x09};
unsigned int lw32_md1_len = 9448;
