unsigned char lw32_md2[] = {
    0x1c, 0x00, 0x00, 0x00, 0x54, 0x46, 0x4c, 0x33, 0x14, 0x00, 0x20, 0x00,
    0x1c, 0x00, 0x18, 0x00, 0x14, 0x00, 0x10, 0x00, 0x0c, 0x00, 0x00, 0x00,
    0x08, 0x00, 0x04, 0x00, 0x14, 0x00, 0x00, 0x00, 0x1c, 0x00, 0x00, 0x00,
    0x98, 0x00, 0x00, 0x00, 0xf0, 0x00, 0x00, 0x00, 0x4c, 0x2f, 0x00, 0x00,
    0x5c, 0x2f, 0x00, 0x00, 0x98, 0x36, 0x00, 0x00, 0x03, 0x00, 0x00, 0x00,
    0x01, 0x00, 0x00, 0x00, 0x10, 0x00, 0x00, 0x00, 0x00, 0x00, 0x0a, 0x00,
    0x10, 0x00, 0x0c, 0x00, 0x08, 0x00, 0x04, 0x00, 0x0a, 0x00, 0x00, 0x00,
    0x0c, 0x00, 0x00, 0x00, 0x1c, 0x00, 0x00, 0x00, 0x3c, 0x00, 0x00, 0x00,
    0x0f, 0x00, 0x00, 0x00, 0x73, 0x65, 0x72, 0x76, 0x69, 0x6e, 0x67, 0x5f,
    0x64, 0x65, 0x66, 0x61, 0x75, 0x6c, 0x74, 0x00, 0x01, 0x00, 0x00, 0x00,
    0x04, 0x00, 0x00, 0x00, 0x90, 0xff, 0xff, 0xff, 0x0d, 0x00, 0x00, 0x00,
    0x04, 0x00, 0x00, 0x00, 0x09, 0x00, 0x00, 0x00, 0x64, 0x65, 0x6e, 0x73,
    0x65, 0x5f, 0x31, 0x39, 0x30, 0x00, 0x00, 0x00, 0x01, 0x00, 0x00, 0x00,
    0x04, 0x00, 0x00, 0x00, 0x96, 0xd0, 0xff, 0xff, 0x04, 0x00, 0x00, 0x00,
    0x0f, 0x00, 0x00, 0x00, 0x64, 0x65, 0x6e, 0x73, 0x65, 0x5f, 0x31, 0x38,
    0x37, 0x5f, 0x69, 0x6e, 0x70, 0x75, 0x74, 0x00, 0x02, 0x00, 0x00, 0x00,
    0x34, 0x00, 0x00, 0x00, 0x04, 0x00, 0x00, 0x00, 0xdc, 0xff, 0xff, 0xff,
    0x10, 0x00, 0x00, 0x00, 0x04, 0x00, 0x00, 0x00, 0x13, 0x00, 0x00, 0x00,
    0x43, 0x4f, 0x4e, 0x56, 0x45, 0x52, 0x53, 0x49, 0x4f, 0x4e, 0x5f, 0x4d,
    0x45, 0x54, 0x41, 0x44, 0x41, 0x54, 0x41, 0x00, 0x08, 0x00, 0x0c, 0x00,
    0x08, 0x00, 0x04, 0x00, 0x08, 0x00, 0x00, 0x00, 0x0f, 0x00, 0x00, 0x00,
    0x04, 0x00, 0x00, 0x00, 0x13, 0x00, 0x00, 0x00, 0x6d, 0x69, 0x6e, 0x5f,
    0x72, 0x75, 0x6e, 0x74, 0x69, 0x6d, 0x65, 0x5f, 0x76, 0x65, 0x72, 0x73,
    0x69, 0x6f, 0x6e, 0x00, 0x11, 0x00, 0x00, 0x00, 0x58, 0x2e, 0x00, 0x00,
    0x50, 0x2e, 0x00, 0x00, 0x20, 0x2e, 0x00, 0x00, 0x90, 0x2d, 0x00, 0x00,
    0x00, 0x2d, 0x00, 0x00, 0x70, 0x2c, 0x00, 0x00, 0xe0, 0x24, 0x00, 0x00,
    0xd0, 0x14, 0x00, 0x00, 0xc0, 0x04, 0x00, 0x00, 0xb0, 0x00, 0x00, 0x00,
    0xa8, 0x00, 0x00, 0x00, 0xa0, 0x00, 0x00, 0x00, 0x98, 0x00, 0x00, 0x00,
    0x90, 0x00, 0x00, 0x00, 0x88, 0x00, 0x00, 0x00, 0x68, 0x00, 0x00, 0x00,
    0x04, 0x00, 0x00, 0x00, 0x56, 0xd1, 0xff, 0xff, 0x04, 0x00, 0x00, 0x00,
    0x54, 0x00, 0x00, 0x00, 0x0c, 0x00, 0x00, 0x00, 0x08, 0x00, 0x0e, 0x00,
    0x08, 0x00, 0x04, 0x00, 0x08, 0x00, 0x00, 0x00, 0x10, 0x00, 0x00, 0x00,
    0x24, 0x00, 0x00, 0x00, 0x00, 0x00, 0x06, 0x00, 0x08, 0x00, 0x04, 0x00,
    0x06, 0x00, 0x00, 0x00, 0x04, 0x00, 0x00, 0x00, 0x00, 0x00, 0x00, 0x00,
    0x00, 0x00, 0x0a, 0x00, 0x10, 0x00, 0x0c, 0x00, 0x08, 0x00, 0x04, 0x00,
    0x0a, 0x00, 0x00, 0x00, 0x02, 0x00, 0x00, 0x00, 0x02, 0x00, 0x00, 0x00,
    0x04, 0x00, 0x00, 0x00, 0x06, 0x00, 0x00, 0x00, 0x32, 0x2e, 0x31, 0x34,
    0x2e, 0x30, 0x00, 0x00, 0xb6, 0xd1, 0xff, 0xff, 0x04, 0x00, 0x00, 0x00,
    0x10, 0x00, 0x00, 0x00, 0x31, 0x2e, 0x35, 0x2e, 0x30, 0x00, 0x00, 0x00,
    0x00, 0x00, 0x00, 0x00, 0x00, 0x00, 0x00, 0x00, 0x4c, 0xcb, 0xff, 0xff,
    0x50, 0xcb, 0xff, 0xff, 0x54, 0xcb, 0xff, 0xff, 0x58, 0xcb, 0xff, 0xff,
    0x5c, 0xcb, 0xff, 0xff, 0xe6, 0xd1, 0xff, 0xff, 0x04, 0x00, 0x00, 0x00,
    0x00, 0x04, 0x00, 0x00, 0x76, 0x05, 0xc5, 0xbe, 0x4e, 0x4c, 0xc5, 0xbd,
    0x14, 0xa2, 0xa0, 0xbd, 0x9b, 0x42, 0x90, 0xbe, 0x38, 0xe3, 0xf5, 0xbd,
    0x24, 0xdb, 0x07, 0xbf, 0x84, 0xac, 0x86, 0xbe, 0xc7, 0xb6, 0xfb, 0xbc,
    0x39, 0x92, 0xd9, 0x3d, 0x4b, 0x78, 0x30, 0xbe, 0x78, 0x22, 0x0c, 0x3d,
    0x39, 0x48, 0x2f, 0x3e, 0xfa, 0x13, 0xa9, 0xbc, 0xea, 0x24, 0x46, 0xbf,
    0x73, 0x93, 0xa8, 0x3e, 0x00, 0xda, 0xa3, 0x3d, 0xee, 0x24, 0xe2, 0xbd,
    0x82, 0x12, 0x4b, 0xbe, 0x7e, 0x4e, 0x07, 0xbe, 0x4f, 0xdc, 0x44, 0x3e,
    0xb9, 0x05, 0x4d, 0xbe, 0x6a, 0x64, 0xbf, 0xbe, 0xfe, 0x86, 0x83, 0x3e,
    0x74, 0x49, 0x41, 0x3e, 0x81, 0x6d, 0x38, 0x3e, 0x3a, 0xe9, 0xbb, 0xbe,
    0xd1, 0xb3, 0x2a, 0xbe, 0xfb, 0x87, 0x74, 0xbe, 0x27, 0xe1, 0x19, 0x3e,
    0x10, 0x08, 0x8b, 0x3e, 0xcf, 0xf5, 0x32, 0xbe, 0xf3, 0xa8, 0xa1, 0xbc,
    0xb5, 0xfe, 0xa3, 0xbe, 0x59, 0x46, 0xc2, 0x3e, 0x95, 0xad, 0xb5, 0xbe,
    0x15, 0xd3, 0x44, 0x3e, 0x80, 0x3e, 0x11, 0x3e, 0x85, 0xd2, 0x1f, 0xbd,
    0x86, 0x28, 0x69, 0x3e, 0x97, 0xef, 0x76, 0xbe, 0x3c, 0xb6, 0x4a, 0x3c,
    0xc2, 0xcb, 0x25, 0xbe, 0x82, 0x10, 0x95, 0x3e, 0xfc, 0x03, 0x2c, 0xbe,
    0x34, 0x3d, 0xdd, 0xbd, 0x24, 0xfb, 0x26, 0xbf, 0xf6, 0xb4, 0x7d, 0xbe,
    0xfa, 0x89, 0xde, 0x3e, 0x0c, 0xbb, 0x1c, 0x3d, 0x12, 0xc9, 0xbf, 0xbd,
    0xc3, 0x2a, 0x84, 0xbe, 0xb3, 0x7a, 0x54, 0x3e, 0x6b, 0xb5, 0x62, 0x3e,
    0x85, 0xce, 0xa8, 0x3e, 0x62, 0x11, 0x8c, 0xbe, 0x88, 0x96, 0x19, 0x3d,
    0x09, 0xa1, 0x4e, 0x3e, 0xd4, 0xbd, 0x38, 0x3e, 0xf6, 0xee, 0xa6, 0x3e,
    0x65, 0x67, 0x5b, 0x3c, 0x62, 0x21, 0xfd, 0x3e, 0xb6, 0x97, 0x07, 0xbe,
    0xd9, 0x1b, 0x8a, 0x3e, 0x02, 0x73, 0xd5, 0x3e, 0x8b, 0x50, 0x88, 0xbe,
    0x52, 0xbb, 0x6c, 0xbe, 0xb0, 0x3e, 0xef, 0x3d, 0xdc, 0x0d, 0x4c, 0xbd,
    0xac, 0x34, 0x7e, 0x3e, 0x88, 0x82, 0x0b, 0x3e, 0x0b, 0x82, 0x7d, 0xbe,
    0x33, 0x1b, 0x1c, 0xbc, 0x23, 0x95, 0xae, 0xbe, 0x94, 0x1b, 0x02, 0x3e,
    0x3d, 0x68, 0xab, 0xbe, 0xb0, 0x4b, 0x7b, 0xbe, 0xa9, 0x05, 0xa1, 0x3e,
    0x9c, 0x57, 0xd0, 0xbd, 0xc2, 0x7a, 0x74, 0x3d, 0xf5, 0x32, 0x5e, 0x3e,
    0xca, 0x01, 0xcf, 0x3c, 0x4c, 0xd2, 0x8e, 0xbe, 0xab, 0x48, 0xb0, 0xbd,
    0x1a, 0xab, 0x87, 0xbe, 0xd8, 0x89, 0x1e, 0x3e, 0xf1, 0xe6, 0xf3, 0xbd,
    0xdd, 0x34, 0x87, 0x3e, 0xf4, 0xf5, 0x41, 0x3e, 0x00, 0xe1, 0x8e, 0x3e,
    0x8f, 0x49, 0xee, 0x3d, 0x78, 0x4f, 0x74, 0xbd, 0xbf, 0x03, 0x09, 0x3e,
    0xf5, 0x89, 0x92, 0x3d, 0xee, 0x09, 0x82, 0x3e, 0x72, 0x4a, 0x72, 0x3e,
    0xe3, 0x19, 0x8d, 0xbe, 0xe8, 0x87, 0x5f, 0xbe, 0x77, 0x90, 0xc9, 0xbe,
    0x08, 0xb3, 0x04, 0x3e, 0x65, 0x6b, 0x9f, 0x3e, 0x5c, 0x29, 0x7c, 0x3e,
    0x39, 0x69, 0x17, 0x3e, 0xb2, 0x0b, 0xc6, 0x3e, 0x5e, 0xab, 0x86, 0x3e,
    0xf4, 0xe3, 0x73, 0x3d, 0x13, 0xb0, 0xbe, 0x3e, 0x50, 0x93, 0x94, 0xbe,
    0xfb, 0x73, 0xaf, 0x3d, 0x3c, 0xbf, 0xc7, 0xbe, 0x51, 0xbc, 0x22, 0xbd,
    0x71, 0x48, 0x1a, 0x3e, 0x50, 0x8f, 0xcf, 0xbe, 0xb1, 0xfc, 0x75, 0x3e,
    0x98, 0x79, 0x7a, 0x3e, 0xf5, 0x50, 0x5b, 0x3e, 0xf2, 0xbf, 0x46, 0x3e,
    0x2c, 0x42, 0x9c, 0x3e, 0x1f, 0xa9, 0x67, 0xbd, 0x59, 0xaa, 0x44, 0x3e,
    0x48, 0x22, 0x6d, 0x3e, 0x82, 0x99, 0xa4, 0xbd, 0xb9, 0x78, 0xa5, 0x3e,
    0x12, 0xc2, 0x9d, 0x3e, 0x99, 0xdf, 0xac, 0xbd, 0x5f, 0xda, 0x93, 0xbe,
    0xaa, 0x80, 0x9b, 0xbe, 0xe8, 0xff, 0xba, 0xbd, 0x96, 0x9d, 0xff, 0xbc,
    0xb0, 0x0d, 0x80, 0x3e, 0x79, 0x09, 0x30, 0xbd, 0xfe, 0xe5, 0x84, 0x3e,
    0xa7, 0x4b, 0x79, 0x3e, 0x4e, 0xad, 0x90, 0x3e, 0x4e, 0x01, 0xeb, 0x3e,
    0x64, 0xf1, 0xf5, 0xbe, 0x92, 0x70, 0xba, 0x3e, 0xd1, 0x92, 0x1f, 0xbe,
    0x06, 0xe3, 0x33, 0xbc, 0x1c, 0x3f, 0xee, 0xbd, 0xac, 0x97, 0x51, 0xbd,
    0x62, 0x1b, 0xcd, 0x3e, 0x88, 0xac, 0x12, 0x3e, 0xd9, 0x2a, 0x8a, 0x3e,
    0x82, 0x87, 0x91, 0x3e, 0xf8, 0xcc, 0x16, 0x3e, 0x30, 0x46, 0xc5, 0xbe,
    0x32, 0xea, 0x40, 0xbe, 0x9d, 0x6e, 0x46, 0xbe, 0xdf, 0xdd, 0x64, 0xbe,
    0x9d, 0xd0, 0xb8, 0xbd, 0xfb, 0x45, 0x42, 0xbe, 0x13, 0xa6, 0x43, 0xbe,
    0x70, 0x55, 0x79, 0xbd, 0x53, 0x80, 0x82, 0xbd, 0x50, 0xc5, 0x1a, 0x3d,
    0xc9, 0x46, 0xbb, 0xbd, 0xda, 0x8e, 0x9e, 0x3e, 0x7f, 0xce, 0xfb, 0xbe,
    0xe1, 0xb1, 0x59, 0xbe, 0x95, 0xf4, 0x30, 0x3e, 0x65, 0x10, 0xcb, 0xbd,
    0x40, 0x9f, 0x12, 0xbe, 0x30, 0xf5, 0x5a, 0x3e, 0x9c, 0xf1, 0xbf, 0xbe,
    0x73, 0x7d, 0xb8, 0xbe, 0xe7, 0x98, 0x8b, 0xbe, 0xa7, 0x42, 0x84, 0x3e,
    0xd3, 0xd8, 0xd6, 0xba, 0x04, 0x63, 0x23, 0x3e, 0x68, 0x92, 0x8f, 0xbe,
    0xad, 0xa3, 0xbf, 0xbe, 0xcd, 0x09, 0x1d, 0x3e, 0x20, 0x00, 0x95, 0xbe,
    0xe8, 0xe4, 0x54, 0xbe, 0x12, 0x59, 0x43, 0x3e, 0xc7, 0x10, 0x16, 0xbe,
    0xb3, 0x79, 0x6b, 0xbe, 0xec, 0x25, 0x76, 0x3e, 0x94, 0xc1, 0x69, 0xbe,
    0xad, 0x27, 0xa2, 0xbc, 0xf1, 0x14, 0xea, 0xbc, 0xd0, 0x8b, 0x74, 0x3e,
    0x2d, 0x66, 0xfc, 0xbd, 0x4e, 0x93, 0xb0, 0x3e, 0x7b, 0x79, 0xd7, 0xbd,
    0xf9, 0x75, 0x0a, 0xbe, 0xb4, 0x6d, 0x16, 0xbe, 0x9e, 0x1e, 0x0f, 0x3e,
    0x52, 0x88, 0xf1, 0x3e, 0xca, 0xf7, 0xd3, 0xbd, 0x3e, 0x54, 0x64, 0x3a,
    0x63, 0xad, 0xa2, 0x3d, 0x2d, 0x5b, 0x93, 0xbe, 0x28, 0x59, 0x93, 0xbd,
    0xd7, 0x88, 0x22, 0xbe, 0x59, 0xc7, 0x57, 0x3e, 0x43, 0xf5, 0x73, 0xbe,
    0x3c, 0xfa, 0x08, 0x3e, 0x59, 0xf9, 0x59, 0x3e, 0x81, 0x53, 0x0b, 0xbe,
    0x96, 0xfa, 0x2f, 0x3e, 0x06, 0x33, 0xb3, 0x3d, 0xf0, 0x1e, 0xb4, 0x3c,
    0x07, 0x69, 0x0f, 0x3e, 0x8b, 0x78, 0x10, 0xbe, 0x7c, 0xb6, 0x4b, 0x3e,
    0x30, 0xa2, 0xd7, 0xbd, 0x91, 0xfa, 0xa8, 0x3e, 0x10, 0x84, 0xa0, 0xbe,
    0x70, 0x5b, 0xc0, 0x3d, 0xab, 0x9a, 0x9b, 0x3e, 0x0c, 0xd9, 0xb5, 0xba,
    0x86, 0xba, 0xf8, 0xbe, 0x0c, 0x98, 0x8a, 0xbd, 0x5d, 0x07, 0x00, 0x3e,
    0x09, 0x9f, 0x66, 0xbe, 0x58, 0x12, 0x98, 0x3b, 0xb3, 0xc1, 0x16, 0x3e,
    0x88, 0xf9, 0x76, 0x3e, 0x8b, 0xa8, 0xd3, 0x3d, 0x52, 0x3d, 0x70, 0xbe,
    0x9e, 0x20, 0x47, 0x3d, 0x63, 0x73, 0x6c, 0xbe, 0xf3, 0xf0, 0x89, 0xbe,
    0x91, 0xa7, 0xa4, 0xbd, 0x85, 0x8f, 0x5c, 0x3e, 0x9c, 0xb9, 0x1c, 0x3e,
    0x72, 0xa8, 0x72, 0xbe, 0x5f, 0x04, 0x99, 0xbe, 0x3e, 0x77, 0x75, 0x3e,
    0x45, 0xf4, 0x87, 0x3e, 0x6b, 0x9b, 0x41, 0x3e, 0xa1, 0xc9, 0x3c, 0xbe,
    0x60, 0x20, 0x74, 0xbe, 0xba, 0x7e, 0xba, 0xbe, 0x85, 0x46, 0xa8, 0xbe,
    0x93, 0x9b, 0x87, 0x3c, 0xa4, 0xfe, 0xdd, 0xbd, 0xfd, 0xf1, 0x6a, 0x3e,
    0xe7, 0xa1, 0xd9, 0xbe, 0x30, 0xd1, 0x0c, 0xbc, 0x2b, 0x07, 0x08, 0x3f,
    0x74, 0xbf, 0xa0, 0xbe, 0x8d, 0x11, 0xde, 0x3e, 0x8d, 0xc3, 0x64, 0xbe,
    0x41, 0xb3, 0x10, 0x3d, 0xf4, 0x23, 0xb3, 0xbe, 0xd1, 0x85, 0x62, 0xbe,
    0x3c, 0xeb, 0xaf, 0xbe, 0x54, 0xa1, 0x10, 0x3e, 0x44, 0xac, 0x7c, 0x3e,
    0xc9, 0x5d, 0x06, 0xbf, 0x72, 0xef, 0xc6, 0xbe, 0x6a, 0x49, 0xab, 0xbe,
    0x99, 0xf5, 0xdc, 0x3e, 0x6b, 0x9c, 0x84, 0x3d, 0xf2, 0xd5, 0xff, 0xff,
    0x04, 0x00, 0x00, 0x00, 0x00, 0x10, 0x00, 0x00, 0x13, 0x23, 0x46, 0x3e,
    0xf8, 0x9d, 0x1e, 0x3d, 0x63, 0xd7, 0x92, 0xbe, 0x75, 0xd2, 0xba, 0xbd,
    0xbd, 0x17, 0x15, 0xbe, 0x00, 0x98, 0x02, 0x3b, 0xcf, 0x21, 0x95, 0x3e,
    0xe8, 0x3f, 0xf1, 0xbc, 0x61, 0xa4, 0x59, 0xbe, 0x8c, 0x05, 0xcf, 0x3d,
    0x51, 0x3e, 0x48, 0x3d, 0xd9, 0xab, 0xa9, 0xbe, 0xe6, 0xfb, 0x78, 0xbe,
    0xbd, 0x5c, 0x0f, 0xbe, 0xc1, 0x79, 0xe2, 0x3b, 0x8e, 0xe9, 0x0d, 0xbe,
    0xd4, 0x4f, 0x32, 0x3e, 0x9c, 0x4f, 0x87, 0x3d, 0xbc, 0xa9, 0x54, 0x3e,
    0x38, 0x45, 0xaf, 0x3d, 0x9f, 0xf4, 0xfa, 0x3d, 0xe8, 0x6c, 0xdd, 0xbd,
    0x1f, 0x77, 0x3c, 0xbe, 0x0c, 0x0a, 0xb6, 0x3d, 0xd9, 0xfb, 0x78, 0x3d,
    0xdb, 0xc8, 0x2f, 0xbe, 0xb8, 0x45, 0x89, 0x3e, 0xd4, 0xb4, 0xbc, 0x3d,
    0x3b, 0xef, 0xfb, 0x3d, 0xef, 0x00, 0x85, 0xbe, 0xfc, 0xa0, 0x2f, 0x3e,
    0xb0, 0x43, 0xa9, 0xbd, 0x2e, 0x21, 0x3f, 0x3d, 0x01, 0x14, 0x92, 0x3e,
    0x6d, 0x9d, 0xa0, 0x3e, 0x6a, 0x51, 0xb8, 0x3e, 0x3b, 0xd1, 0x90, 0xbd,
    0xed, 0x90, 0xca, 0xbd, 0x18, 0xdf, 0x86, 0xbe, 0xd8, 0xdb, 0x17, 0x3e,
    0x97, 0x8e, 0x83, 0x3d, 0x58, 0xe0, 0x06, 0xbe, 0x4d, 0x67, 0x98, 0x3e,
    0x72, 0x96, 0x07, 0x3e, 0xde, 0x61, 0x7e, 0xbe, 0x92, 0x65, 0x4b, 0x3e,
    0xef, 0x2d, 0x21, 0x3e, 0x61, 0x5b, 0x39, 0xbe, 0x3a, 0x0f, 0x1a, 0xbf,
    0x38, 0xf0, 0x9b, 0xbd, 0x26, 0xf1, 0x5a, 0x3e, 0x96, 0x7f, 0x34, 0x3e,
    0x39, 0x48, 0xc6, 0xbd, 0x64, 0x68, 0x14, 0xbf, 0x12, 0x2e, 0xaf, 0xbd,
    0x06, 0x82, 0x0c, 0x3e, 0x41, 0x87, 0xb8, 0xbd, 0xa2, 0x9d, 0x2b, 0x3e,
    0xc2, 0xab, 0xc5, 0xbe, 0x2f, 0x24, 0x6a, 0x3d, 0xae, 0xf2, 0x26, 0x3e,
    0x7d, 0x35, 0x0a, 0x3e, 0xbb, 0x95, 0x50, 0xbe, 0x5d, 0x2a, 0xc2, 0x3e,
    0x98, 0x15, 0x25, 0xbd, 0x68, 0xf6, 0x3a, 0xbd, 0xac, 0x5b, 0xd0, 0xbd,
    0x59, 0x25, 0x62, 0xbe, 0x60, 0xc4, 0xaf, 0xbc, 0x70, 0x55, 0xeb, 0x3d,
    0xd0, 0xa3, 0x43, 0x3d, 0xa1, 0xc9, 0x98, 0x3e, 0xba, 0xa6, 0x13, 0xbe,
    0x9f, 0xad, 0x7f, 0xbe, 0xbe, 0x07, 0xc1, 0xbd, 0x0a, 0x14, 0x99, 0xbe,
    0x2e, 0x12, 0xd3, 0xbd, 0xf0, 0x4b, 0x96, 0x3d, 0x98, 0x4d, 0x2e, 0xbd,
    0x78, 0x26, 0x2b, 0xbd, 0xd4, 0x0a, 0x25, 0x3e, 0x80, 0xf5, 0x8a, 0x3c,
    0x10, 0x0a, 0xe5, 0x3c, 0xad, 0x39, 0x91, 0x3e, 0xf8, 0x37, 0x5b, 0xbd,
    0x02, 0x58, 0x98, 0xbd, 0x22, 0x7b, 0x97, 0xbd, 0x77, 0x66, 0x83, 0x3e,
    0xf8, 0x51, 0x56, 0x3d, 0xeb, 0x97, 0x34, 0xbe, 0x80, 0x13, 0x44, 0xbc,
    0xd8, 0x96, 0x0f, 0xbe, 0x92, 0x56, 0x8e, 0xbd, 0x78, 0x5b, 0x8a, 0xbd,
    0x8f, 0x9b, 0x06, 0xbe, 0x73, 0x47, 0x89, 0x3e, 0x96, 0x7f, 0x9c, 0xbe,
    0xa2, 0xe0, 0x58, 0x3e, 0xad, 0x00, 0xf4, 0xbd, 0x06, 0xb2, 0x9e, 0xbe,
    0x79, 0xe6, 0x74, 0xbe, 0x92, 0x02, 0x7a, 0x3e, 0xb6, 0x3d, 0x49, 0x3e,
    0x58, 0x8d, 0x96, 0xbe, 0x22, 0xe6, 0xc7, 0xbc, 0x0c, 0x8f, 0x30, 0x3d,
    0x13, 0x11, 0x6a, 0xbe, 0xa3, 0x2f, 0x41, 0x3d, 0xb2, 0xd7, 0x26, 0xbe,
    0x7c, 0x4e, 0x4f, 0xbe, 0x9a, 0x8d, 0xc3, 0xbc, 0xfe, 0x57, 0xfe, 0x3c,
    0x46, 0x7a, 0x41, 0x3e, 0x3b, 0x5d, 0x92, 0x3e, 0xb1, 0x66, 0x85, 0xbe,
    0x55, 0xdd, 0x82, 0xbe, 0xff, 0x2a, 0x95, 0x3e, 0xac, 0x2f, 0x90, 0xbe,
    0x06, 0x84, 0x78, 0x3d, 0x70, 0xd2, 0x80, 0xbe, 0x08, 0x0d, 0xfb, 0xbd,
    0xa3, 0xa0, 0x46, 0xbe, 0x3a, 0xb3, 0x85, 0x3e, 0x66, 0x3d, 0x5e, 0xbe,
    0xf3, 0x13, 0x58, 0x3e, 0xd0, 0x2b, 0xa3, 0x3d, 0x37, 0xa5, 0xd4, 0x3d,
    0x12, 0x08, 0x2b, 0x3e, 0xe0, 0x2b, 0xcb, 0xbc, 0x9e, 0xd3, 0x76, 0x3e,
    0x1c, 0x9d, 0xf2, 0xbd, 0x68, 0xaf, 0x26, 0x3d, 0x30, 0x53, 0x81, 0x3d,
    0x54, 0x69, 0x6b, 0xbd, 0x7c, 0xa7, 0xee, 0x3d, 0x80, 0x68, 0x9a, 0xbe,
    0xd9, 0x49, 0x8e, 0xbe, 0x90, 0x6e, 0x1e, 0xbd, 0x9f, 0x12, 0x29, 0xbe,
    0x0b, 0x97, 0x0c, 0xbe, 0x4a, 0x69, 0x49, 0x3e, 0x58, 0xf0, 0xcb, 0x3d,
    0x4e, 0xa3, 0x97, 0xbe, 0xda, 0x04, 0x11, 0x3e, 0x9a, 0x07, 0x76, 0x3e,
    0x20, 0x9c, 0xfb, 0x3d, 0x5c, 0x20, 0x70, 0xbe, 0x86, 0x6b, 0x47, 0xbe,
    0x28, 0xd1, 0x3a, 0xbd, 0x56, 0x16, 0x3b, 0x3e, 0x80, 0x10, 0x8e, 0x3c,
    0xc4, 0x53, 0x7e, 0xbe, 0x9e, 0x90, 0x31, 0x3e, 0x49, 0x6b, 0x6b, 0xbe,
    0x90, 0x91, 0xb9, 0xbc, 0xe4, 0x44, 0x99, 0x3d, 0x97, 0x3b, 0x0c, 0xbe,
    0x48, 0xb1, 0x0c, 0xbe, 0x5c, 0x67, 0x7a, 0xbe, 0xa4, 0x3a, 0xd0, 0xbd,
    0xc2, 0xc6, 0xaf, 0xbe, 0xf8, 0x58, 0x0f, 0x3d, 0x6b, 0x9a, 0x02, 0x3e,
    0x54, 0x2f, 0xb9, 0xbc, 0xdd, 0xb8, 0xad, 0xbd, 0x8a, 0x36, 0x11, 0xbe,
    0xb7, 0x81, 0xa8, 0xbe, 0xee, 0x85, 0x4c, 0xbe, 0x88, 0x4d, 0xe1, 0x3d,
    0x41, 0xb6, 0x93, 0xbe, 0x95, 0x83, 0xaa, 0xbd, 0x7f, 0xc7, 0xa2, 0x3e,
    0xe5, 0x73, 0x81, 0x3e, 0xa0, 0xc6, 0x03, 0x3e, 0x06, 0x86, 0x58, 0x3e,
    0x2d, 0xd4, 0x9c, 0x3e, 0x2f, 0xd8, 0x8d, 0x3e, 0xef, 0xc4, 0x8b, 0x3e,
    0x92, 0xfc, 0x00, 0x3e, 0x27, 0x11, 0x4e, 0x3e, 0xf6, 0xe9, 0x9f, 0xbe,
    0xad, 0x7f, 0x34, 0x3f, 0x82, 0x6c, 0x46, 0x3e, 0xeb, 0x02, 0x90, 0x3e,
    0xcd, 0xed, 0xc2, 0xbb, 0x99, 0x75, 0x7e, 0xbd, 0xa9, 0x2d, 0xd6, 0x3e,
    0x88, 0x71, 0xb7, 0xbe, 0xc0, 0x6f, 0xbc, 0x3e, 0xd0, 0xad, 0x0e, 0x3e,
    0x02, 0x32, 0x18, 0x3e, 0xbf, 0xe0, 0x97, 0xbe, 0x4a, 0x24, 0x84, 0xbd,
    0x65, 0x6e, 0x9b, 0x3e, 0x7c, 0xf0, 0xaf, 0x3e, 0xe3, 0x9e, 0x9d, 0x3e,
    0x34, 0x3d, 0xde, 0x3e, 0xf7, 0x0b, 0x3e, 0xbe, 0xe0, 0x8a, 0x49, 0xbe,
    0xfb, 0x77, 0x98, 0xbe, 0xf6, 0xef, 0x0a, 0xbd, 0x8c, 0x73, 0x1a, 0x3e,
    0xd3, 0x06, 0xad, 0xbe, 0x02, 0x73, 0x27, 0xbd, 0x80, 0xd6, 0xe4, 0x3d,
    0xcd, 0x06, 0x9d, 0xbe, 0x12, 0x38, 0x68, 0x3e, 0x32, 0x1e, 0xd7, 0x3e,
    0x5b, 0xc7, 0x5d, 0xbd, 0x10, 0xca, 0x2b, 0xbd, 0x03, 0xa2, 0x5c, 0xbe,
    0x15, 0x92, 0x0f, 0x3e, 0x61, 0x5b, 0x84, 0x3d, 0xdb, 0x16, 0x5b, 0xbe,
    0x3d, 0x18, 0xba, 0xbc, 0xdc, 0x63, 0x92, 0x3c, 0x6e, 0xf9, 0xdd, 0xbe,
    0x77, 0x24, 0xd0, 0x3e, 0x00, 0x9d, 0x2d, 0xbc, 0x11, 0xe0, 0x98, 0x3e,
    0xac, 0x30, 0x0b, 0x3e, 0x7e, 0x8b, 0x17, 0xbd, 0x34, 0xd9, 0xc7, 0xbc,
    0x99, 0x49, 0x46, 0x3e, 0x12, 0xe9, 0xb0, 0xbe, 0xf0, 0x67, 0xa8, 0xbd,
    0x44, 0x4e, 0xcd, 0x3d, 0x40, 0x91, 0x51, 0xbc, 0x63, 0x94, 0x64, 0xbe,
    0xc8, 0x5e, 0xdc, 0x3d, 0xf2, 0x80, 0x98, 0xbe, 0x0f, 0x6c, 0xd6, 0x3d,
    0xe2, 0xe2, 0xb8, 0x3d, 0x38, 0x17, 0xe9, 0x3d, 0x9d, 0xf4, 0x33, 0xbe,
    0x86, 0x68, 0x20, 0x3e, 0xd0, 0x7f, 0x25, 0x3e, 0xaf, 0x3c, 0x60, 0xbe,
    0x71, 0x2e, 0x1d, 0xbe, 0xb5, 0x9c, 0x92, 0x3e, 0x2d, 0x90, 0xa9, 0x3e,
    0x60, 0xeb, 0xbb, 0x3d, 0x30, 0x74, 0x37, 0xbe, 0xba, 0x20, 0x97, 0x3e,
    0xfa, 0x19, 0x0f, 0xbe, 0x6d, 0x97, 0x43, 0x3f, 0x9c, 0xe6, 0x44, 0x3d,
    0x1e, 0xe2, 0x3b, 0x3e, 0xa2, 0x2c, 0xa5, 0x3e, 0xcb, 0x96, 0x40, 0x3e,
    0x21, 0x42, 0xc2, 0x3e, 0x31, 0xef, 0xdd, 0xbc, 0xba, 0x94, 0xfc, 0x3d,
    0x86, 0x08, 0x3b, 0x3e, 0x6b, 0xd2, 0x06, 0x3d, 0x13, 0x8f, 0x08, 0xbe,
    0xcf, 0x2f, 0x83, 0x3d, 0x24, 0xf3, 0x17, 0xbe, 0x12, 0x8a, 0xfc, 0x3d,
    0x23, 0x7f, 0x13, 0x3e, 0xd6, 0xa2, 0x49, 0x3d, 0x5c, 0x32, 0x43, 0x3d,
    0xf8, 0x47, 0xb1, 0xbd, 0x94, 0x3a, 0x96, 0xbe, 0xd5, 0x78, 0x2e, 0xbe,
    0xc7, 0xfe, 0x67, 0x3e, 0xfe, 0x29, 0x83, 0xbe, 0x0a, 0x95, 0x1a, 0xbe,
    0x9e, 0xf8, 0x43, 0x3e, 0x89, 0xb7, 0x36, 0xbe, 0x61, 0x71, 0x98, 0xbe,
    0xbb, 0x5f, 0x90, 0x3d, 0x39, 0x05, 0x89, 0x3b, 0xf6, 0x96, 0x1b, 0x3e,
    0x22, 0x62, 0x68, 0xbe, 0x62, 0x3f, 0x2c, 0x3e, 0x6d, 0xe4, 0x87, 0x3e,
    0x34, 0x17, 0x74, 0x3e, 0xa4, 0xc6, 0x60, 0xbe, 0x3e, 0xb2, 0x9f, 0xbd,
    0xf1, 0x37, 0xb5, 0xbd, 0x61, 0x3a, 0x5a, 0xbe, 0x19, 0x4b, 0x17, 0xbe,
    0x96, 0xbf, 0x9c, 0x3d, 0x91, 0xd2, 0xd4, 0x3d, 0x5c, 0x19, 0x29, 0x3d,
    0x6a, 0x53, 0xdc, 0xbd, 0x29, 0xba, 0x23, 0x3e, 0x46, 0xe4, 0x57, 0x3e,
    0xa7, 0xd1, 0x9a, 0x3e, 0xa4, 0x9e, 0xa0, 0xbe, 0x96, 0xf3, 0xd7, 0xbd,
    0x57, 0xe9, 0x87, 0x3e, 0x83, 0x14, 0x87, 0xbe, 0xdd, 0xd1, 0x45, 0xbe,
    0xb0, 0x9a, 0x46, 0xbd, 0x2d, 0xed, 0x6b, 0x3e, 0xb4, 0xbf, 0x1b, 0xbe,
    0x68, 0x10, 0x24, 0xbe, 0x2f, 0x69, 0x5d, 0xbe, 0x9d, 0x16, 0x8b, 0x3e,
    0xad, 0xa7, 0xc7, 0xbd, 0xc1, 0x4c, 0xa1, 0xbe, 0xc4, 0xe3, 0x28, 0x3e,
    0xcd, 0x76, 0x4f, 0xbe, 0x49, 0x10, 0x42, 0xbe, 0xab, 0xd3, 0x38, 0x3e,
    0x51, 0xdc, 0x0c, 0xbe, 0xb6, 0xc7, 0xb6, 0xbd, 0x50, 0x84, 0x49, 0xbe,
    0x4c, 0xe7, 0x98, 0x3d, 0x60, 0x82, 0x94, 0x3c, 0x37, 0x1f, 0x5e, 0xbe,
    0x44, 0x76, 0x45, 0x3e, 0x57, 0x0f, 0x85, 0xbd, 0xdf, 0x6b, 0x7c, 0x3e,
    0xc4, 0x14, 0x35, 0xbe, 0x7e, 0x33, 0x84, 0x3d, 0xd0, 0x0e, 0xb4, 0xbd,
    0x9f, 0x99, 0x96, 0xbe, 0xfb, 0xc6, 0x3c, 0xbe, 0x20, 0x6d, 0x8a, 0xbe,
    0x21, 0x9c, 0x62, 0xbe, 0x9e, 0xb9, 0x2c, 0x3e, 0xc8, 0x23, 0x62, 0xbe,
    0x99, 0xc3, 0x9a, 0x3e, 0x5a, 0x95, 0x09, 0x3e, 0x23, 0xbb, 0x8f, 0x3e,
    0x68, 0x20, 0x57, 0xbd, 0x78, 0x9c, 0x04, 0xbd, 0xf0, 0x88, 0xcc, 0xbc,
    0x57, 0xf6, 0x06, 0xbe, 0xd2, 0x37, 0x91, 0xbe, 0x36, 0xd6, 0x49, 0x3e,
    0xe3, 0x9a, 0x7d, 0xbe, 0x59, 0xf6, 0x94, 0xbe, 0x78, 0x14, 0xa0, 0x3d,
    0x36, 0xb1, 0x9a, 0xbd, 0x7b, 0x7a, 0x50, 0xbe, 0x48, 0x22, 0xa4, 0xbd,
    0x68, 0xec, 0x85, 0x3d, 0xbe, 0x21, 0x80, 0xbe, 0x30, 0xdf, 0xbd, 0x3c,
    0x81, 0x3a, 0x85, 0xbe, 0x10, 0x9f, 0xa7, 0x3c, 0x9c, 0xbc, 0x87, 0x3d,
    0x12, 0xa9, 0x94, 0xbd, 0xa1, 0x1a, 0x98, 0x3e, 0x02, 0xe7, 0xe2, 0xbd,
    0x8d, 0x87, 0x37, 0xbe, 0x00, 0x7a, 0x20, 0x3a, 0xcc, 0x48, 0xb1, 0xbd,
    0x41, 0x7d, 0x74, 0x3d, 0x58, 0x17, 0x83, 0x3d, 0x80, 0x0e, 0x86, 0xbe,
    0xc7, 0x9e, 0x15, 0x3e, 0x20, 0xac, 0x2a, 0xbe, 0x3c, 0x05, 0x24, 0x3e,
    0x06, 0x39, 0x19, 0x3e, 0xb9, 0xec, 0x98, 0x3e, 0x22, 0x18, 0xfd, 0x3d,
    0x83, 0x99, 0x59, 0x3d, 0x1e, 0xc3, 0xf8, 0x3d, 0xaf, 0x8d, 0x03, 0x3e,
    0x2c, 0x2a, 0x9b, 0xbe, 0x21, 0xaa, 0x8d, 0xbe, 0xae, 0x0b, 0x77, 0xbe,
    0x1e, 0xfb, 0x07, 0xbe, 0xa2, 0x21, 0x77, 0xbd, 0x70, 0xba, 0xd4, 0x3c,
    0xd8, 0x5c, 0x57, 0xbe, 0x1c, 0xd0, 0xa0, 0x3d, 0xd7, 0xfd, 0x87, 0x3d,
    0xbe, 0x04, 0x21, 0x3e, 0xaf, 0x80, 0x37, 0x3c, 0x93, 0x93, 0x93, 0x3e,
    0x40, 0xc8, 0x94, 0xbb, 0x4d, 0x44, 0xd0, 0x3d, 0xfd, 0xff, 0x22, 0x3e,
    0x80, 0x6f, 0x63, 0xbc, 0x45, 0x00, 0x2b, 0xbe, 0xcf, 0xba, 0xa2, 0xbe,
    0x22, 0x05, 0xc8, 0xbd, 0x64, 0x4d, 0x46, 0x3e, 0x57, 0x8f, 0x59, 0xbd,
    0x40, 0x23, 0x57, 0x3d, 0x47, 0xe9, 0x95, 0xbe, 0x95, 0x33, 0x47, 0x3e,
    0x26, 0x6f, 0x39, 0x3e, 0xd5, 0x06, 0x2d, 0x3e, 0xe1, 0x1c, 0x70, 0x3e,
    0x0b, 0x9c, 0xa2, 0xbe, 0x4c, 0x30, 0x9b, 0xbe, 0x17, 0x5d, 0xb6, 0xbe,
    0x45, 0xb3, 0xa7, 0xbd, 0x50, 0x7a, 0x84, 0x3e, 0x20, 0x64, 0xf4, 0x3c,
    0x44, 0x94, 0x68, 0x3e, 0x5b, 0x6e, 0x7f, 0x3e, 0x88, 0xd5, 0xbf, 0xbd,
    0xe0, 0xaa, 0x26, 0xbe, 0xb0, 0x46, 0x3c, 0xbe, 0xde, 0xa1, 0x8d, 0x3e,
    0x33, 0xac, 0x03, 0x3e, 0x35, 0x2a, 0xfd, 0x3d, 0x1b, 0x64, 0x3e, 0x3c,
    0xd1, 0xa7, 0x38, 0x3e, 0x9b, 0xd0, 0x7e, 0xbe, 0xba, 0x85, 0xa1, 0x3e,
    0xf5, 0xf1, 0x17, 0xbe, 0xee, 0xf2, 0x58, 0x3e, 0x72, 0xe4, 0x92, 0xbe,
    0x28, 0xb1, 0x05, 0x3d, 0x21, 0x02, 0x5f, 0x3e, 0xbf, 0x5b, 0x7f, 0xbd,
    0x4c, 0x3c, 0x71, 0xbd, 0x72, 0x67, 0x04, 0xbf, 0x32, 0xfd, 0x12, 0xbe,
    0xdb, 0xf6, 0x2e, 0x3e, 0x53, 0x3d, 0x0b, 0x3e, 0xc9, 0x96, 0x82, 0xbe,
    0x6f, 0x45, 0x7a, 0x3e, 0xb6, 0x7d, 0x47, 0x3d, 0xc3, 0xd6, 0xd3, 0xbe,
    0x5b, 0x10, 0xb6, 0xbe, 0xfa, 0x80, 0xbd, 0xbe, 0x98, 0xa4, 0x04, 0xbf,
    0x07, 0x29, 0x83, 0x3d, 0xe2, 0xcf, 0xdd, 0xbd, 0x39, 0xed, 0x4c, 0xbe,
    0xa5, 0x08, 0x8f, 0x3e, 0x3e, 0xff, 0xd1, 0xbc, 0x35, 0x92, 0xe9, 0x3e,
    0xf2, 0xbc, 0x45, 0x3e, 0xf6, 0xfb, 0x78, 0x3e, 0x5a, 0xa3, 0x22, 0x3d,
    0x18, 0x15, 0x6d, 0xbe, 0x55, 0x99, 0xf6, 0x3e, 0x16, 0x20, 0xa8, 0x3e,
    0xed, 0x7e, 0x6e, 0xbd, 0x07, 0xdc, 0xaf, 0x3e, 0xad, 0xd0, 0x3e, 0x3e,
    0xea, 0xb5, 0x5d, 0xbd, 0xe8, 0xb5, 0x65, 0x3e, 0xaf, 0x49, 0x4c, 0x3e,
    0x21, 0x46, 0x0a, 0xbe, 0x1c, 0x7f, 0x83, 0xbe, 0x8b, 0x5a, 0xee, 0x3d,
    0x90, 0xb6, 0x4e, 0xbe, 0x7a, 0x53, 0x20, 0x3e, 0x0b, 0xe4, 0x0e, 0x3e,
    0xc2, 0x00, 0x54, 0x3e, 0x96, 0x27, 0x9d, 0xbe, 0x7a, 0x5f, 0x37, 0xbe,
    0x64, 0x9f, 0xbe, 0x3d, 0x11, 0x73, 0xc5, 0x3d, 0x65, 0x40, 0x3a, 0x3e,
    0x20, 0xc6, 0x2a, 0xbe, 0xe0, 0xf6, 0x70, 0x3e, 0xeb, 0xd4, 0x90, 0xbe,
    0x1f, 0x44, 0x87, 0x3e, 0x2c, 0x4a, 0x9c, 0x3d, 0x34, 0x54, 0xfb, 0xbd,
    0x06, 0x94, 0x00, 0x3e, 0x11, 0x34, 0xcf, 0xbd, 0x80, 0x3c, 0xb3, 0x3d,
    0xa6, 0xdc, 0x7f, 0x3e, 0x4e, 0xd4, 0x5f, 0x3d, 0x9b, 0x0f, 0x3f, 0xbe,
    0xe0, 0x62, 0x98, 0xbc, 0xf8, 0x0b, 0xbd, 0x3d, 0xd0, 0x27, 0xf9, 0x3c,
    0x32, 0xd1, 0x45, 0xbe, 0xab, 0x6a, 0x4a, 0xbb, 0x65, 0x70, 0x52, 0x3e,
    0x13, 0x5b, 0xb1, 0xbe, 0x75, 0x3b, 0x9c, 0xbe, 0x14, 0xc1, 0x1d, 0xbd,
    0xc2, 0x0b, 0x20, 0xbe, 0x16, 0x77, 0x99, 0xbd, 0x18, 0x79, 0x85, 0x3e,
    0xac, 0xd9, 0x7f, 0xbe, 0xf4, 0xdd, 0xa7, 0xbc, 0x34, 0x59, 0x9e, 0xbe,
    0x7f, 0xdc, 0xb3, 0xbe, 0xd7, 0x61, 0x5f, 0x3d, 0x2f, 0xe6, 0x87, 0x3e,
    0x91, 0x46, 0x93, 0xbd, 0x57, 0x63, 0x57, 0xbe, 0xda, 0x21, 0x42, 0x3e,
    0x0f, 0xd8, 0x0f, 0x3e, 0x71, 0xfa, 0xff, 0x3d, 0x56, 0x46, 0x63, 0x3e,
    0xf6, 0x88, 0x8f, 0x3e, 0xed, 0x0e, 0x35, 0x3e, 0xaf, 0x8e, 0x4e, 0x3e,
    0x35, 0xf3, 0xff, 0xbd, 0xfe, 0x50, 0x8d, 0xbe, 0xd5, 0x4a, 0x53, 0x3e,
    0x0d, 0x80, 0x47, 0x3e, 0xce, 0xf4, 0xce, 0xbe, 0x32, 0xf7, 0x85, 0xbe,
    0x62, 0xff, 0xcd, 0xbe, 0x98, 0x13, 0x2a, 0xbd, 0xe8, 0xc3, 0xb0, 0x3e,
    0x18, 0x32, 0x09, 0x3e, 0x82, 0xbf, 0x4e, 0xbe, 0x71, 0x2d, 0x30, 0x3e,
    0xde, 0x77, 0xe8, 0x3c, 0x5d, 0x83, 0xd4, 0xbd, 0x47, 0x22, 0x7b, 0x3e,
    0x12, 0xe9, 0x83, 0x3c, 0x7c, 0xc3, 0xad, 0xbe, 0xda, 0xb7, 0x47, 0x3e,
    0x56, 0xa8, 0x89, 0xbe, 0xeb, 0xe6, 0x33, 0x3e, 0x3d, 0x0b, 0x52, 0xbe,
    0xd8, 0xe5, 0x01, 0x3e, 0x73, 0xf8, 0x9d, 0xbd, 0xc0, 0x3f, 0x2e, 0xbd,
    0xa6, 0xfa, 0x0a, 0xbe, 0xdd, 0x6d, 0x56, 0x3e, 0xf0, 0x3d, 0x80, 0x3d,
    0x70, 0xde, 0xae, 0x3e, 0x5e, 0xff, 0x64, 0x3e, 0x23, 0xed, 0x5e, 0x3e,
    0x4e, 0x6d, 0x77, 0x3e, 0x65, 0xf8, 0x12, 0x3e, 0x46, 0xe9, 0xa5, 0x3d,
    0x7f, 0x97, 0x79, 0xbe, 0x3d, 0xf5, 0x04, 0xbe, 0xb1, 0xd2, 0xf0, 0x3d,
    0xa0, 0x8e, 0xe2, 0xbb, 0xa1, 0xa2, 0xbd, 0x3e, 0x47, 0x73, 0xb4, 0x3d,
    0x6e, 0x38, 0x7b, 0xbe, 0xbf, 0x6f, 0x91, 0x3e, 0xa5, 0x6a, 0xe0, 0xbd,
    0x53, 0x51, 0x8c, 0xbd, 0x46, 0x36, 0x83, 0x3e, 0x79, 0xbf, 0x96, 0x3e,
    0x6a, 0x25, 0xb0, 0x3d, 0xc0, 0x10, 0x03, 0x3e, 0x7a, 0xad, 0x9c, 0x3c,
    0xb0, 0x52, 0x21, 0xbe, 0xa8, 0x22, 0xab, 0x3d, 0x3b, 0x0a, 0x1d, 0xbd,
    0x23, 0x4c, 0xbd, 0xbd, 0xb7, 0x74, 0xa9, 0x3e, 0xb1, 0x62, 0xab, 0xbe,
    0xe5, 0x57, 0xdb, 0xbd, 0x2a, 0x51, 0xd1, 0xbd, 0x98, 0xcc, 0x89, 0x3e,
    0x74, 0x73, 0x2a, 0xbc, 0xef, 0xe8, 0xfb, 0xbe, 0x84, 0xc5, 0x1b, 0xbe,
    0x40, 0x11, 0x2a, 0xbe, 0xa8, 0x46, 0x06, 0xbe, 0xc3, 0xc0, 0x3c, 0xbe,
    0x02, 0xcc, 0xa2, 0x3e, 0x06, 0xd8, 0x38, 0x3c, 0x90, 0x25, 0x7f, 0xbd,
    0x48, 0x1c, 0x61, 0x3d, 0x4a, 0xb0, 0x44, 0x3e, 0x18, 0x0f, 0x1a, 0x3e,
    0x3f, 0x62, 0x3c, 0x3c, 0x63, 0xe1, 0x38, 0xbe, 0x4f, 0xc4, 0x11, 0x3e,
    0xed, 0x73, 0xcb, 0xbe, 0x4c, 0x4c, 0x17, 0x3e, 0xf5, 0xcd, 0x56, 0x3d,
    0x1d, 0xd1, 0x15, 0x3e, 0x1b, 0xce, 0x71, 0x3e, 0xc9, 0xde, 0x8f, 0x3e,
    0xb7, 0x9f, 0x8c, 0x3e, 0x7e, 0x50, 0x20, 0x3e, 0x78, 0x25, 0x25, 0x3e,
    0x18, 0xfc, 0x3b, 0x3e, 0x4d, 0xb8, 0x3d, 0xbd, 0x7c, 0x51, 0x08, 0xbe,
    0x29, 0xa1, 0x6f, 0xbe, 0xf2, 0x9d, 0x04, 0x3e, 0xea, 0xb9, 0x94, 0xbe,
    0x2f, 0xfe, 0x15, 0xbe, 0x53, 0x88, 0x9c, 0xbd, 0x2a, 0xe2, 0x39, 0xbe,
    0xc0, 0xaa, 0xc1, 0xbc, 0x70, 0xb4, 0xa4, 0xbb, 0x6a, 0xe4, 0x2b, 0x3e,
    0x29, 0xbe, 0x4f, 0xbd, 0xf9, 0x0e, 0x03, 0x3e, 0xee, 0x8e, 0xa3, 0xbe,
    0x2e, 0x2b, 0x6b, 0x3e, 0x7b, 0x04, 0x95, 0x3e, 0x36, 0x9e, 0x4e, 0xbe,
    0x48, 0x6f, 0x66, 0x3d, 0x24, 0xa7, 0x44, 0x3e, 0x0b, 0xdd, 0x2a, 0xbe,
    0xcb, 0x7f, 0xfb, 0xbd, 0xa0, 0xeb, 0x9f, 0x3d, 0x7f, 0xb5, 0x58, 0x3e,
    0x1e, 0x4f, 0x11, 0x3e, 0x99, 0x98, 0x74, 0x3e, 0x39, 0xc2, 0x22, 0xbe,
    0xdf, 0x2d, 0xf8, 0x3d, 0xa6, 0xa5, 0x17, 0xbe, 0xe9, 0xd4, 0xa0, 0xbe,
    0x1a, 0xf3, 0x45, 0x3e, 0xdb, 0xab, 0x06, 0xbe, 0x52, 0xfb, 0xf8, 0xbd,
    0x0b, 0x4b, 0xa1, 0x3e, 0x69, 0x41, 0x95, 0x3e, 0x01, 0x23, 0xb1, 0x3e,
    0x39, 0x1c, 0xe4, 0x3d, 0x6b, 0x59, 0x26, 0xbd, 0xf9, 0x81, 0x4f, 0x3e,
    0xea, 0x88, 0xa7, 0x3e, 0xf3, 0xbd, 0x6c, 0xbd, 0xbc, 0x0a, 0x91, 0xbe,
    0x17, 0x39, 0x6c, 0x3c, 0x60, 0x4f, 0x02, 0x3d, 0x9c, 0x42, 0x4c, 0xbe,
    0xdc, 0xa1, 0x0b, 0xbe, 0xdb, 0xac, 0xcb, 0x3e, 0x65, 0x7d, 0xec, 0x3b,
    0x00, 0xf5, 0x06, 0xbb, 0xa7, 0x8d, 0x67, 0x3e, 0xce, 0x08, 0x8f, 0x3e,
    0x97, 0x3c, 0xe5, 0x3e, 0x9b, 0xa3, 0xd9, 0xbe, 0x7b, 0x73, 0xaa, 0x3d,
    0xba, 0x24, 0x2e, 0x3e, 0xb6, 0x8a, 0x36, 0x3d, 0x5e, 0xca, 0xd4, 0x3e,
    0xe6, 0x8a, 0xca, 0xbd, 0x3a, 0x40, 0x81, 0x3e, 0x51, 0x08, 0x42, 0xbe,
    0x1b, 0xe6, 0xc1, 0xbb, 0x63, 0x41, 0xa2, 0x3e, 0x6b, 0x44, 0x24, 0x3e,
    0x3c, 0x2d, 0xa6, 0x3d, 0xbe, 0x3a, 0x98, 0xbe, 0x88, 0x9f, 0x2f, 0xbd,
    0xa3, 0x48, 0x23, 0xbe, 0x17, 0x04, 0xac, 0x3d, 0x6b, 0xc8, 0xae, 0x3e,
    0x5a, 0x10, 0x54, 0x3e, 0x55, 0x8f, 0xf4, 0x3e, 0x3b, 0xd2, 0x8c, 0xbe,
    0xc3, 0xdd, 0x27, 0x3e, 0xb1, 0x9d, 0xf1, 0x3e, 0x45, 0xec, 0x3a, 0x3e,
    0x77, 0x51, 0x9c, 0x3e, 0x57, 0x7b, 0xb1, 0x3d, 0x06, 0x2d, 0x2e, 0x3d,
    0x2c, 0x41, 0x3e, 0x3e, 0x3d, 0x4c, 0xf6, 0x3d, 0x24, 0xcf, 0x85, 0xbe,
    0x96, 0x6f, 0x1f, 0x3e, 0xbe, 0xe5, 0xe2, 0xbd, 0xef, 0xdf, 0xe7, 0x3c,
    0x0f, 0x40, 0xc6, 0xbd, 0x25, 0x88, 0x7a, 0x3e, 0x17, 0x3a, 0x12, 0xbe,
    0x81, 0x13, 0xcc, 0x3e, 0xb4, 0xd8, 0xa0, 0xbe, 0x47, 0xe2, 0xda, 0xbe,
    0xbd, 0x43, 0x77, 0x3e, 0xd9, 0x31, 0x82, 0xbe, 0x49, 0x73, 0xbb, 0x3a,
    0x04, 0x4d, 0x1a, 0x3e, 0x98, 0xa8, 0x8a, 0x3e, 0xe0, 0x99, 0x79, 0x3d,
    0x40, 0xe7, 0x04, 0x3d, 0x4f, 0xe3, 0xb7, 0x3e, 0x29, 0x80, 0xa0, 0x3e,
    0xcb, 0xe2, 0xee, 0xbd, 0x07, 0x51, 0x9b, 0x3c, 0xf3, 0x8c, 0x5a, 0x3e,
    0x71, 0x9a, 0x89, 0x3e, 0xe0, 0xc7, 0x52, 0xbd, 0x67, 0x49, 0x80, 0xbd,
    0x75, 0x14, 0x66, 0x3e, 0xde, 0x9c, 0x1a, 0x3e, 0xaa, 0x89, 0x5e, 0x3e,
    0x77, 0x2a, 0x37, 0xbe, 0x8e, 0x46, 0x31, 0x3e, 0x70, 0x2e, 0x56, 0x3e,
    0xc2, 0xad, 0xe9, 0xbe, 0xa4, 0x68, 0x12, 0x3e, 0x94, 0x0a, 0x82, 0xbc,
    0xce, 0x55, 0xe1, 0x3a, 0x37, 0xf5, 0x15, 0x3e, 0x37, 0xac, 0x46, 0xbf,
    0x1d, 0xcd, 0x5a, 0x3e, 0x3c, 0x22, 0x15, 0xbe, 0x9c, 0x54, 0x82, 0xbe,
    0x50, 0x28, 0x40, 0x3e, 0xa9, 0x8a, 0xda, 0xbe, 0x56, 0xdf, 0x1b, 0x3d,
    0x29, 0x6d, 0x02, 0x3e, 0x1f, 0x0d, 0x78, 0x3e, 0xb5, 0x6c, 0x6c, 0x3e,
    0xdb, 0xa1, 0x56, 0x3e, 0xde, 0xac, 0x81, 0xbe, 0xd0, 0x02, 0x42, 0xbe,
    0xd9, 0x1c, 0x0e, 0x3e, 0xbf, 0x1a, 0x93, 0x3e, 0x50, 0x33, 0x55, 0xbe,
    0x94, 0x4c, 0xe3, 0xbb, 0x12, 0xc0, 0x84, 0xbd, 0x50, 0x95, 0x96, 0xbe,
    0xa5, 0x8e, 0xa0, 0xbd, 0x12, 0x25, 0xc6, 0x3d, 0x1b, 0xd4, 0x68, 0x3e,
    0x35, 0xfe, 0x4d, 0x3e, 0xd0, 0xdc, 0x41, 0xbd, 0x38, 0x4a, 0x5d, 0x3e,
    0x34, 0x56, 0xaa, 0xbe, 0x25, 0x3e, 0x2a, 0x3c, 0xeb, 0x11, 0x9b, 0xbe,
    0xba, 0x92, 0x39, 0xbe, 0xec, 0xee, 0xc8, 0x3d, 0x03, 0x25, 0x8d, 0xbe,
    0xc1, 0x3e, 0x09, 0xbd, 0x6a, 0x94, 0x66, 0x3d, 0xce, 0xcc, 0x34, 0x3e,
    0x48, 0x66, 0x6b, 0xbe, 0x9d, 0x9b, 0x82, 0x3d, 0xfd, 0x5e, 0x28, 0xbe,
    0x42, 0x4d, 0xa7, 0x3d, 0xac, 0x6b, 0x91, 0xbe, 0x2b, 0x5b, 0x0e, 0xbe,
    0x7b, 0xe4, 0x84, 0xbe, 0x5d, 0xef, 0x64, 0xbe, 0xe8, 0x30, 0x6d, 0xbe,
    0x75, 0xc3, 0x8a, 0xbe, 0x72, 0xd5, 0x51, 0xbe, 0x5e, 0x5b, 0x80, 0xbd,
    0x5a, 0x6e, 0x66, 0x3e, 0x42, 0x08, 0x11, 0x3e, 0x50, 0xf4, 0xe4, 0x3c,
    0x80, 0xc8, 0x8e, 0x3c, 0x8a, 0xf5, 0x4f, 0x3e, 0x9b, 0x8c, 0x8c, 0xbe,
    0xa3, 0x1d, 0x99, 0x3e, 0x36, 0xab, 0x7d, 0x3e, 0xc8, 0x37, 0x0e, 0xbe,
    0x98, 0x8c, 0x69, 0x3d, 0x3a, 0x8f, 0x50, 0xbe, 0x56, 0xed, 0x1e, 0xbe,
    0xc7, 0x6f, 0x90, 0xbe, 0x6a, 0x34, 0x4c, 0x3e, 0x83, 0xc1, 0x2d, 0xbe,
    0xf6, 0x58, 0x9f, 0xbd, 0x1c, 0xa4, 0xee, 0x3d, 0x80, 0x3d, 0x8a, 0xbd,
    0x8f, 0x9a, 0x81, 0x3e, 0xd9, 0x8d, 0x28, 0xbe, 0x86, 0xf9, 0x2f, 0x3e,
    0xdc, 0x00, 0x8c, 0xbe, 0x48, 0xeb, 0xc2, 0xbd, 0x68, 0xb9, 0xef, 0xbd,
    0xe4, 0x51, 0x03, 0xbe, 0x92, 0x5f, 0x1c, 0x3e, 0x84, 0xc1, 0xaa, 0xbd,
    0x24, 0x49, 0x3e, 0xbe, 0x9b, 0xcf, 0x77, 0xbe, 0xdf, 0x39, 0xf3, 0xbd,
    0x30, 0x88, 0xd0, 0x3c, 0xb5, 0x05, 0x82, 0xbe, 0x58, 0x8b, 0x4c, 0x3e,
    0xd9, 0x96, 0xa9, 0xbd, 0x72, 0x23, 0x65, 0x3e, 0x88, 0xbd, 0x5b, 0xbe,
    0xe6, 0x89, 0xee, 0x3d, 0x0f, 0xb9, 0x8c, 0xbe, 0x02, 0xf9, 0x89, 0x3e,
    0xef, 0x68, 0x11, 0x3c, 0xff, 0x78, 0x88, 0x3d, 0xbc, 0xe4, 0xc9, 0x3d,
    0x85, 0x8d, 0x3e, 0x3e, 0x28, 0x92, 0xd9, 0xbc, 0xee, 0x86, 0xdc, 0xbd,
    0xe0, 0xe3, 0x64, 0xbe, 0x00, 0x6f, 0xb8, 0x3c, 0x86, 0x2e, 0x96, 0x3d,
    0x41, 0xe0, 0xdd, 0xbc, 0x56, 0x33, 0xa2, 0xbe, 0x83, 0x17, 0x1d, 0xbe,
    0x79, 0xa6, 0x2b, 0xbe, 0x38, 0xa0, 0x15, 0x3d, 0xb0, 0x91, 0x9c, 0x3e,
    0xd9, 0x4b, 0x04, 0xbd, 0x46, 0xf4, 0x27, 0x3d, 0x74, 0xba, 0x9f, 0x3e,
    0x5e, 0x6b, 0xdf, 0x3c, 0x7d, 0xe8, 0xde, 0xbd, 0xac, 0x2a, 0x87, 0x3e,
    0x40, 0x88, 0xc9, 0x3e, 0x0d, 0x25, 0x17, 0x3e, 0x10, 0xd6, 0x3c, 0xbd,
    0xea, 0x47, 0xb2, 0xbd, 0x5d, 0x67, 0x7e, 0x3e, 0xe5, 0xbb, 0xa1, 0x3e,
    0x7c, 0x98, 0x5a, 0x3e, 0x8c, 0x2c, 0xc6, 0xbd, 0x64, 0x3f, 0x8b, 0x3e,
    0xe6, 0x36, 0x70, 0x3d, 0xaa, 0xbe, 0x9c, 0x3c, 0xe2, 0x27, 0x51, 0xbd,
    0x63, 0x12, 0xf9, 0x3d, 0xa6, 0xf5, 0x45, 0x3e, 0x60, 0x3b, 0x88, 0x3e,
    0x5b, 0x74, 0x3b, 0x3d, 0x67, 0x8e, 0x7d, 0x3e, 0xda, 0xcc, 0x81, 0xbe,
    0xe0, 0xe9, 0xd4, 0xbc, 0x94, 0x59, 0x65, 0xbe, 0xb9, 0xd0, 0x12, 0xbe,
    0xc7, 0x32, 0x7b, 0x3d, 0xdc, 0x63, 0xdb, 0xbe, 0x03, 0x5e, 0x50, 0x3e,
    0xef, 0x4d, 0xb4, 0xbd, 0x84, 0x0e, 0x8c, 0xbe, 0xa1, 0x30, 0x59, 0x3e,
    0xfa, 0x33, 0x44, 0xba, 0xbf, 0xd7, 0x95, 0xbd, 0xc0, 0xc9, 0x98, 0x3e,
    0x7b, 0xbc, 0xaf, 0x3e, 0x82, 0xcd, 0xfc, 0xbc, 0xd2, 0x8c, 0xff, 0x3e,
    0x83, 0xb1, 0x76, 0xbe, 0x0c, 0xe2, 0x9e, 0xbd, 0x26, 0x6f, 0x01, 0xbe,
    0x0a, 0xf1, 0x87, 0xbe, 0x1c, 0xc5, 0xb1, 0x3d, 0xe2, 0xd5, 0x7d, 0x3e,
    0x70, 0x27, 0xeb, 0xbc, 0x68, 0x1c, 0x4b, 0xbd, 0xd0, 0xed, 0x56, 0x3d,
    0xa0, 0xf9, 0x1f, 0x3c, 0x28, 0x07, 0x41, 0x3d, 0x90, 0x13, 0x6f, 0xbe,
    0xf8, 0x3b, 0x08, 0xbe, 0xe3, 0x2c, 0x47, 0xbe, 0x70, 0xb3, 0xe3, 0xbc,
    0x36, 0x68, 0x9a, 0xbe, 0x68, 0x5e, 0x98, 0x3d, 0x1c, 0x7a, 0xa3, 0x3d,
    0xb0, 0x71, 0xf1, 0x3c, 0x18, 0x3f, 0x4f, 0x3d, 0x40, 0xc5, 0xda, 0x3b,
    0x76, 0xfb, 0x07, 0xbe, 0x60, 0xad, 0x23, 0xbe, 0xa0, 0xf7, 0x7c, 0x3c,
    0x86, 0x5e, 0x7a, 0x3e, 0x00, 0x5b, 0x44, 0xbb, 0x2a, 0x7c, 0x0f, 0x3e,
    0x14, 0x63, 0x82, 0x3d, 0x2c, 0x30, 0xe2, 0x3d, 0x44, 0x57, 0xe3, 0xbd,
    0x77, 0xfc, 0x7f, 0xbe, 0x66, 0x4e, 0x1b, 0x3e, 0x8e, 0x3e, 0x4c, 0x3e,
    0xa5, 0x89, 0x08, 0xbe, 0x49, 0xfd, 0xe1, 0x3d, 0x55, 0xbd, 0xa6, 0xbe,
    0x78, 0xba, 0xa5, 0xbe, 0xab, 0xac, 0xc4, 0x3d, 0x0b, 0xd7, 0x8a, 0x3e,
    0xb8, 0xc7, 0x95, 0x3e, 0x3c, 0xc3, 0xb8, 0x3c, 0x86, 0xfd, 0x18, 0x3e,
    0x6b, 0xcc, 0x0e, 0x3c, 0x5e, 0x94, 0x6e, 0xbe, 0x3e, 0xd1, 0x78, 0x3e,
    0xca, 0xa8, 0x4c, 0x3e, 0x33, 0x58, 0xf1, 0x3d, 0x15, 0x25, 0xda, 0xbc,
    0x69, 0xa7, 0xc5, 0xbb, 0x20, 0x99, 0xfe, 0x3c, 0x1f, 0x01, 0x70, 0x3e,
    0xb8, 0x83, 0xa9, 0xbd, 0x2d, 0x13, 0x4c, 0xbe, 0x4e, 0x20, 0x0d, 0xbe,
    0x68, 0x98, 0x83, 0xbe, 0x30, 0x6b, 0x46, 0x3e, 0xd0, 0x1f, 0xbf, 0x3e,
    0x26, 0xc7, 0x18, 0x3e, 0x12, 0x33, 0x9d, 0xbe, 0x83, 0x6a, 0xa1, 0x3e,
    0x9f, 0xa5, 0xca, 0x3d, 0x6d, 0xb5, 0xac, 0xbb, 0xac, 0xda, 0x66, 0x3e,
    0xe6, 0x49, 0x6a, 0xbd, 0x83, 0x89, 0x15, 0xbf, 0x80, 0xc6, 0xdb, 0xbc,
    0x24, 0x46, 0x94, 0x3c, 0x27, 0x5b, 0xda, 0x3e, 0x7f, 0x2a, 0x62, 0xbe,
    0x0f, 0x8c, 0x80, 0x3e, 0xe6, 0xd6, 0xaf, 0x3e, 0x40, 0x32, 0x8b, 0xbe,
    0x6a, 0x51, 0x1d, 0xbe, 0x25, 0x39, 0x54, 0xbe, 0x11, 0x2a, 0x7f, 0x3e,
    0xdf, 0x98, 0x92, 0x3e, 0xe8, 0x2f, 0x2c, 0x3e, 0xb7, 0x32, 0x93, 0x3e,
    0x70, 0x4e, 0xf7, 0x3d, 0x53, 0x3a, 0x93, 0xbe, 0xe6, 0x59, 0x06, 0x3e,
    0x5c, 0x59, 0x81, 0x3d, 0x91, 0x79, 0x09, 0xbf, 0xb1, 0x61, 0x1c, 0xbe,
    0x3e, 0x93, 0x47, 0x3e, 0x89, 0x33, 0x47, 0x3e, 0x97, 0x18, 0xa4, 0x3e,
    0x2e, 0xdf, 0x82, 0xbe, 0xa9, 0x74, 0xae, 0xbe, 0xce, 0x2a, 0x24, 0xbe,
    0x50, 0xad, 0xfd, 0x3d, 0x05, 0xda, 0x1f, 0xbe, 0x8a, 0xff, 0x1c, 0x3d,
    0x31, 0xd0, 0x31, 0x3e, 0x2e, 0x86, 0x54, 0xbe, 0xb8, 0x2a, 0x1f, 0xbf,
    0x80, 0x2e, 0x69, 0x3e, 0xc0, 0xf4, 0xf6, 0x3c, 0xfb, 0xc5, 0xd5, 0x3d,
    0x56, 0x90, 0xa6, 0x3e, 0x52, 0xca, 0x3f, 0xbc, 0xbd, 0x22, 0xa1, 0xbe,
    0x37, 0x02, 0x98, 0xbc, 0x59, 0x8a, 0x77, 0x3d, 0x80, 0x70, 0x82, 0x3e,
    0x5e, 0x66, 0x34, 0xbe, 0xc6, 0xb0, 0x6f, 0x3e, 0x8d, 0x14, 0xf3, 0xbd,
    0x7c, 0x98, 0x35, 0xbe, 0x66, 0xdc, 0xd1, 0x3c, 0x56, 0x91, 0xcd, 0xbd,
    0xd1, 0xd7, 0x8f, 0xbb, 0xb0, 0x82, 0xa3, 0x3d, 0x1e, 0x27, 0x14, 0x3e,
    0xe2, 0x2d, 0xc3, 0xbd, 0x97, 0x76, 0xb7, 0xbd, 0xec, 0x9e, 0x8c, 0xbe,
    0xb0, 0xaa, 0xbe, 0xbc, 0xa3, 0x0a, 0x44, 0x3e, 0x70, 0x9d, 0x33, 0x3d,
    0x6a, 0xe6, 0x7d, 0x3c, 0xd6, 0x57, 0xfe, 0x3d, 0xa0, 0x17, 0xcb, 0xbe,
    0x90, 0x81, 0x1d, 0x3e, 0xf7, 0xc7, 0x7f, 0xbe, 0x1f, 0x26, 0x5c, 0x3b,
    0xbf, 0xfa, 0x3d, 0x3e, 0x87, 0x33, 0x9f, 0x3e, 0x9d, 0xa6, 0xbe, 0x3e,
    0x6f, 0xfe, 0x95, 0xbe, 0xfa, 0x48, 0x10, 0x3e, 0x16, 0xd1, 0x1f, 0xbd,
    0x95, 0x60, 0xf4, 0x3d, 0x54, 0x11, 0x7b, 0x3d, 0x70, 0x80, 0xbd, 0x3d,
    0x7b, 0x79, 0xe4, 0x3c, 0x17, 0xb7, 0xbe, 0x3c, 0xbc, 0x59, 0x2c, 0xbe,
    0xea, 0xe8, 0xb8, 0x3e, 0x0c, 0xdf, 0x3b, 0xbe, 0x2e, 0x07, 0x9c, 0xbd,
    0xe0, 0x93, 0x83, 0xbe, 0x22, 0x7a, 0x70, 0xbd, 0xe4, 0x90, 0x65, 0xbe,
    0x44, 0x5f, 0xbf, 0x3e, 0xfb, 0x01, 0x81, 0x3e, 0x2d, 0x66, 0x4d, 0xbc,
    0x0f, 0x6c, 0xd4, 0x3e, 0xe3, 0x0a, 0x58, 0x3e, 0x5e, 0x61, 0x9b, 0x3e,
    0xda, 0x5f, 0xd6, 0x3d, 0x24, 0x9d, 0x67, 0x3e, 0xb0, 0x3b, 0x27, 0x3e,
    0x1f, 0xf1, 0xd2, 0x3c, 0x9b, 0x25, 0x63, 0x3e, 0x89, 0xd0, 0x46, 0x3d,
    0x4e, 0xd1, 0x85, 0xbe, 0xe8, 0x77, 0x06, 0xbe, 0x7a, 0x0d, 0xd9, 0xbd,
    0xf5, 0xba, 0x49, 0x3e, 0x06, 0xb0, 0xe6, 0xbd, 0x4a, 0x36, 0x23, 0x3e,
    0x35, 0xfa, 0x70, 0x3e, 0xa3, 0x02, 0xb2, 0xbd, 0x8c, 0x3e, 0xb1, 0xbc,
    0x23, 0xd5, 0x56, 0xbe, 0xa2, 0xca, 0x7e, 0x3e, 0x27, 0xa6, 0xd4, 0xbc,
    0x84, 0xad, 0x92, 0x3e, 0xb7, 0x88, 0xaa, 0x3e, 0x46, 0x2e, 0xb6, 0x3d,
    0xa3, 0xc0, 0x87, 0x3d, 0xa0, 0xc7, 0x2f, 0x3c, 0x87, 0x19, 0xb2, 0x3e,
    0x8b, 0x9f, 0x1a, 0x3e, 0xde, 0xae, 0xb4, 0xbe, 0x68, 0x6c, 0x41, 0xbe,
    0xd0, 0x69, 0x26, 0x3e, 0x0e, 0x4e, 0x97, 0xbe, 0xcb, 0x22, 0x6c, 0x3e,
    0x66, 0x8f, 0xdb, 0x3c, 0x48, 0x6c, 0x13, 0xbf, 0x09, 0x10, 0x1e, 0xbd,
    0xdf, 0xf3, 0x8f, 0xbe, 0x4a, 0xb5, 0x43, 0x3e, 0x37, 0xe2, 0xb0, 0xbe,
    0x2b, 0x9b, 0x6f, 0xbe, 0x55, 0xf6, 0xd7, 0x3d, 0x87, 0x16, 0x5a, 0x3d,
    0x12, 0x52, 0x9c, 0x3e, 0xc7, 0xea, 0x57, 0x3e, 0x4c, 0x65, 0x7e, 0xbc,
    0xfe, 0xe5, 0xff, 0xff, 0x04, 0x00, 0x00, 0x00, 0x00, 0x10, 0x00, 0x00,
    0x53, 0x35, 0x7c, 0xbe, 0x76, 0x8b, 0x11, 0x3d, 0x73, 0x77, 0xb2, 0x3e,
    0xff, 0x6a, 0x9e, 0x3e, 0x2d, 0x44, 0xe1, 0x3c, 0xd0, 0x87, 0x10, 0xbd,
    0x9d, 0x4d, 0x8f, 0x3e, 0x20, 0xa5, 0x08, 0x3f, 0x43, 0x8d, 0xbc, 0xbc,
    0xa1, 0xd5, 0x3d, 0x3e, 0x4e, 0x42, 0x85, 0xbe, 0x9d, 0x71, 0x00, 0x3d,
    0xd4, 0x26, 0xd2, 0xbd, 0x6c, 0xd9, 0x82, 0xbd, 0x12, 0xdd, 0x30, 0xbe,
    0xf7, 0x01, 0xc5, 0xbc, 0x91, 0x7c, 0x6e, 0x3e, 0xaa, 0xff, 0xb9, 0x3d,
    0xb3, 0xdf, 0x1f, 0xbf, 0x89, 0xe0, 0x96, 0xbe, 0x40, 0x9b, 0x23, 0x3d,
    0x29, 0x36, 0x32, 0x3e, 0x82, 0x83, 0x3b, 0xbe, 0x56, 0x97, 0x8c, 0x3e,
    0x6b, 0x2b, 0xf6, 0x3d, 0x4b, 0xed, 0x72, 0x3e, 0xd4, 0x5a, 0x99, 0xbd,
    0x0b, 0x5c, 0x15, 0xbd, 0x2d, 0x1c, 0x73, 0xbc, 0xd7, 0x7d, 0x30, 0xbc,
    0x1b, 0x61, 0x05, 0x3e, 0x05, 0xb6, 0xbc, 0xbe, 0xa8, 0x7c, 0x3f, 0x3d,
    0x8e, 0xa4, 0x91, 0xbe, 0x8a, 0x9d, 0x50, 0x3e, 0xe6, 0xea, 0x38, 0x3e,
    0x07, 0x43, 0x95, 0xbe, 0xf2, 0xd7, 0xc5, 0xbd, 0xae, 0x3f, 0x5d, 0x3e,
    0x65, 0x50, 0x80, 0x3e, 0x20, 0x37, 0xed, 0xbc, 0x98, 0x4b, 0x50, 0xbe,
    0x34, 0xed, 0x18, 0x3e, 0xae, 0x69, 0x5a, 0x3e, 0x40, 0x1b, 0x8d, 0xbe,
    0x00, 0x2b, 0xe4, 0xbc, 0x46, 0x41, 0xab, 0xbd, 0x0e, 0x87, 0x5c, 0xbe,
    0x52, 0x61, 0x66, 0x3e, 0xb0, 0x74, 0x43, 0xbe, 0xc8, 0xe8, 0x56, 0xbd,
    0x72, 0x5d, 0x4a, 0xbe, 0x14, 0x7d, 0x12, 0x3e, 0x2a, 0xa9, 0x7f, 0xbe,
    0x5d, 0x64, 0x80, 0xbe, 0x38, 0x4e, 0xe1, 0x3d, 0xb0, 0xad, 0x56, 0xbd,
    0x7d, 0xde, 0x8a, 0xbe, 0x37, 0x16, 0x55, 0xbe, 0x2e, 0x00, 0x1e, 0x3e,
    0x71, 0x95, 0x2f, 0xbe, 0x08, 0xf5, 0x42, 0x3d, 0x4e, 0x48, 0x87, 0xbe,
    0x10, 0xf6, 0x90, 0xbc, 0xbe, 0xa7, 0x98, 0xbe, 0x0f, 0x5c, 0xd9, 0xbd,
    0x79, 0x55, 0x4b, 0xbd, 0x76, 0xa0, 0x07, 0x3e, 0xcf, 0xcd, 0x61, 0x3e,
    0x0c, 0x3e, 0xf5, 0xbd, 0xff, 0xf8, 0xf0, 0x3e, 0x9a, 0xf6, 0xb0, 0x3e,
    0x84, 0x53, 0x49, 0x3e, 0x50, 0xd4, 0x4e, 0x39, 0x4e, 0xf1, 0xfe, 0x39,
    0x2e, 0x01, 0x78, 0x3e, 0x1c, 0xd0, 0x89, 0x3e, 0x8a, 0x2e, 0x76, 0xbb,
    0x7d, 0x77, 0xa4, 0x3e, 0x3c, 0x4a, 0xa6, 0xbd, 0xcd, 0x39, 0xf3, 0x3e,
    0x8a, 0xf4, 0xbe, 0xbc, 0x91, 0xcd, 0xe6, 0x3e, 0x3e, 0xf8, 0x2e, 0x3e,
    0xe4, 0x00, 0x80, 0x3e, 0x26, 0x34, 0x61, 0xbe, 0xef, 0x15, 0xa6, 0xbe,
    0x42, 0xb5, 0xa3, 0xbd, 0x2b, 0x56, 0x57, 0x3e, 0x44, 0xf7, 0x42, 0x3e,
    0x33, 0xcc, 0xf3, 0x3b, 0x51, 0xcf, 0x70, 0x3d, 0x52, 0x00, 0x76, 0x3d,
    0xc2, 0x2a, 0x3f, 0x3e, 0x0a, 0x28, 0x8f, 0x3e, 0x7b, 0x92, 0x49, 0xbd,
    0x28, 0x83, 0xda, 0xbe, 0x8d, 0xd1, 0x74, 0x3e, 0xcb, 0xd7, 0x33, 0xbe,
    0x00, 0x88, 0x93, 0xbe, 0xad, 0x96, 0xc2, 0xbc, 0xc2, 0x3c, 0x9d, 0xbe,
    0x30, 0x6d, 0xed, 0x3e, 0x61, 0x31, 0xf6, 0xbd, 0xb8, 0xa7, 0x29, 0x3e,
    0x26, 0x62, 0x4f, 0xbe, 0x3e, 0xe3, 0xa0, 0x3d, 0x18, 0xa1, 0x81, 0xbd,
    0x6b, 0x67, 0x96, 0x3e, 0x02, 0x8d, 0x8b, 0x3e, 0x63, 0x0c, 0x3b, 0xbe,
    0xfb, 0x7b, 0x96, 0x3e, 0x1b, 0xb4, 0xc4, 0x3d, 0x23, 0xbc, 0x99, 0x3e,
    0xd4, 0xe6, 0x0a, 0xbc, 0xbb, 0xd8, 0x57, 0xbe, 0x31, 0x9d, 0xaf, 0x3d,
    0x49, 0x1f, 0x75, 0x3e, 0x65, 0xf1, 0x83, 0xbd, 0x75, 0x6b, 0xc5, 0xbe,
    0xad, 0xf2, 0x2c, 0x3e, 0x92, 0x94, 0x23, 0x3e, 0x79, 0xb7, 0x2e, 0xbe,
    0x84, 0x79, 0x15, 0x3d, 0xf7, 0xc7, 0x6d, 0x3e, 0xc5, 0x6e, 0xe1, 0x3d,
    0x7c, 0x15, 0xf7, 0x3d, 0x15, 0x9b, 0xba, 0x3e, 0xc3, 0x68, 0xda, 0xbe,
    0x1b, 0x15, 0xb1, 0xbd, 0xe4, 0x39, 0xf5, 0xbe, 0x08, 0x59, 0xf3, 0x3e,
    0x21, 0x3d, 0xbd, 0xbd, 0x54, 0x47, 0x9d, 0x3e, 0x61, 0x44, 0xfa, 0xbc,
    0x14, 0x91, 0x0e, 0xbf, 0xfd, 0x59, 0xe0, 0x3d, 0xc3, 0x79, 0xb2, 0x3d,
    0x95, 0x25, 0x2d, 0xbe, 0x9e, 0xcf, 0x3b, 0xbe, 0x82, 0xfd, 0x85, 0x3e,
    0xe8, 0xb9, 0x23, 0x3e, 0xf8, 0xe9, 0x47, 0x3e, 0xa4, 0x59, 0x84, 0xbe,
    0x27, 0x62, 0xae, 0x3d, 0x14, 0x37, 0xa9, 0x3e, 0x36, 0x2c, 0x4c, 0xbd,
    0x55, 0x33, 0xfe, 0x3e, 0x88, 0x5e, 0x6f, 0x3e, 0x50, 0x58, 0x32, 0x3e,
    0x90, 0x2a, 0xa4, 0xbe, 0x2d, 0xf9, 0x50, 0xbe, 0x44, 0x59, 0xa5, 0x3e,
    0x20, 0xcf, 0xe2, 0x3d, 0xd4, 0xd9, 0xd0, 0x3c, 0xd2, 0x0e, 0x8b, 0xbc,
    0xa8, 0x73, 0xcb, 0x3d, 0xd9, 0x75, 0x81, 0xbe, 0x3c, 0x36, 0x59, 0x3e,
    0x2e, 0x4a, 0xb9, 0x3a, 0xee, 0xec, 0xde, 0x3d, 0xe6, 0x27, 0x8f, 0x3e,
    0xe7, 0x17, 0x7a, 0x3e, 0xb0, 0x9e, 0x9c, 0x3d, 0x32, 0x97, 0x2e, 0xbe,
    0xac, 0x20, 0x5b, 0x3e, 0xca, 0x9a, 0x9f, 0xbe, 0xca, 0x12, 0x70, 0x3e,
    0xf1, 0xbe, 0x02, 0xbe, 0xd0, 0xb1, 0x1f, 0xbe, 0x19, 0xe1, 0x02, 0x3e,
    0x8d, 0xc8, 0x56, 0xbc, 0xf4, 0x58, 0x0d, 0x3e, 0x7a, 0xee, 0x14, 0x3e,
    0x57, 0x34, 0x7f, 0xbe, 0xa8, 0x5b, 0x34, 0xbe, 0x54, 0x70, 0x60, 0xbe,
    0x92, 0xcf, 0x6a, 0xbe, 0xc9, 0x21, 0xfd, 0x3d, 0xcb, 0x9c, 0x46, 0xbe,
    0x91, 0x57, 0xb8, 0x3d, 0xa3, 0xca, 0x9b, 0xbe, 0x2f, 0x90, 0x06, 0x3e,
    0xab, 0x73, 0x9c, 0xbe, 0x33, 0x56, 0x03, 0xbe, 0xb2, 0x45, 0x8c, 0xbd,
    0x79, 0x2d, 0x26, 0x3e, 0x32, 0x7c, 0x70, 0x3e, 0xc3, 0xd3, 0x86, 0xbe,
    0xf0, 0x34, 0x84, 0xbe, 0x1e, 0x9b, 0x66, 0x3c, 0xa2, 0x4e, 0x9c, 0x3d,
    0xce, 0x59, 0x78, 0x3e, 0xdc, 0xd5, 0x50, 0xbe, 0xbf, 0x9a, 0x59, 0x3e,
    0x7e, 0xaa, 0x98, 0xbe, 0x02, 0xab, 0x51, 0xbe, 0xb0, 0x8d, 0x36, 0x3e,
    0xc6, 0x09, 0xbc, 0x3d, 0x34, 0xba, 0x56, 0xbd, 0x28, 0x36, 0x71, 0xbc,
    0x7a, 0x75, 0x84, 0xbd, 0x18, 0x7c, 0xf3, 0xbd, 0x31, 0xad, 0xca, 0xbc,
    0xe0, 0x02, 0x48, 0xbe, 0x5d, 0xf8, 0x02, 0xba, 0x47, 0x2f, 0xd6, 0x3d,
    0xc0, 0x9b, 0xe8, 0x3c, 0x52, 0x0e, 0x33, 0x3e, 0x4c, 0xcc, 0x02, 0x3e,
    0xad, 0xc5, 0x22, 0x3d, 0xd3, 0x0b, 0x48, 0x3e, 0xc1, 0xde, 0x82, 0xbd,
    0xe8, 0xb0, 0xe3, 0x3d, 0x45, 0x0c, 0x44, 0xbe, 0x04, 0xbf, 0xa9, 0x3d,
    0xee, 0xce, 0x89, 0xbd, 0x67, 0x9a, 0x3d, 0x3e, 0xf8, 0xea, 0x8d, 0xbe,
    0xfc, 0x5c, 0x96, 0xbe, 0x94, 0xf2, 0x82, 0xbe, 0x1a, 0x41, 0xf2, 0xbd,
    0xe9, 0xb8, 0x80, 0x3e, 0xef, 0xfc, 0x9b, 0xbe, 0x91, 0x0d, 0x21, 0x3e,
    0x4f, 0x7a, 0x14, 0x3e, 0x3b, 0xd2, 0x49, 0x3e, 0xc8, 0xcc, 0xbd, 0x3c,
    0x98, 0x53, 0xdb, 0xbc, 0x36, 0xec, 0x2c, 0x3e, 0x6a, 0xdb, 0x40, 0xbd,
    0xe1, 0xd4, 0x9e, 0x3e, 0xde, 0x95, 0x02, 0x3d, 0xa2, 0x1c, 0x72, 0xbd,
    0xb2, 0x5c, 0x81, 0xbd, 0x03, 0x47, 0xc5, 0xbd, 0x83, 0x99, 0x63, 0x3d,
    0x6b, 0x26, 0x8d, 0x3e, 0xc7, 0x63, 0x21, 0xbe, 0x6f, 0xe8, 0x8e, 0xbd,
    0x4b, 0xea, 0xbd, 0xbc, 0xb8, 0x0f, 0x7f, 0x3c, 0xca, 0x1b, 0x57, 0xbe,
    0x4c, 0x6b, 0x92, 0x3d, 0x73, 0x3b, 0x4e, 0x3e, 0x5d, 0x96, 0xf1, 0xbc,
    0xe4, 0xda, 0x3c, 0x3e, 0x69, 0x2e, 0x7a, 0x3d, 0x43, 0xe1, 0xaf, 0xbe,
    0xd1, 0x7c, 0x77, 0xbe, 0x85, 0x5d, 0x46, 0x3e, 0x2c, 0x3e, 0xaa, 0x3d,
    0xff, 0xbe, 0xf5, 0x3d, 0x70, 0x32, 0x8f, 0xbe, 0x9d, 0x41, 0x93, 0x3d,
    0x06, 0x3e, 0x8d, 0xbd, 0x66, 0xa1, 0x9b, 0xbe, 0x79, 0xe6, 0x39, 0x3d,
    0x2a, 0x1c, 0x92, 0xbe, 0x2d, 0x60, 0xb3, 0xbd, 0xa3, 0x60, 0xa8, 0x3c,
    0xc5, 0xa6, 0x10, 0xbe, 0xf4, 0x05, 0x96, 0xbd, 0x2c, 0x90, 0x05, 0xbf,
    0x32, 0xa4, 0xda, 0x3d, 0x5d, 0x16, 0x81, 0x3e, 0x57, 0xc6, 0xd1, 0xbd,
    0xc1, 0x6c, 0xa1, 0x3d, 0x4f, 0x30, 0x40, 0x3e, 0xe2, 0x18, 0x8f, 0x3e,
    0x6d, 0xc5, 0x33, 0xbe, 0xd1, 0x59, 0xbc, 0xbd, 0xba, 0x55, 0xa0, 0x3e,
    0x3a, 0x39, 0x00, 0x3e, 0x69, 0xbf, 0x62, 0xbe, 0x4e, 0x3a, 0x9e, 0x3e,
    0x95, 0x91, 0x27, 0x3e, 0xaf, 0xb0, 0x32, 0xbd, 0xcc, 0x10, 0xb6, 0xbe,
    0xce, 0x31, 0xd6, 0x3c, 0xf1, 0x1f, 0x90, 0x3e, 0xa8, 0x2f, 0x9e, 0x3e,
    0xc6, 0x3b, 0x03, 0xbe, 0x24, 0xa9, 0xcd, 0x3d, 0x34, 0xca, 0x3a, 0xbe,
    0xd4, 0x15, 0x8a, 0x3e, 0x8f, 0x1f, 0x3c, 0x3c, 0x58, 0x36, 0xac, 0x3e,
    0x10, 0xd5, 0xa0, 0x3e, 0x97, 0x64, 0x02, 0x3e, 0x4b, 0x29, 0x0c, 0xbe,
    0x66, 0x3b, 0x85, 0xbe, 0x95, 0x3d, 0x30, 0x3e, 0xa6, 0x2e, 0x12, 0x3d,
    0x7f, 0x52, 0x9d, 0x3e, 0xd1, 0x81, 0xbf, 0x3c, 0x07, 0x52, 0x61, 0x3e,
    0x75, 0xe7, 0x77, 0x3e, 0xd7, 0x16, 0x79, 0x3e, 0x76, 0xfe, 0xef, 0x3d,
    0x3a, 0xb2, 0x0d, 0xbe, 0xf4, 0x99, 0x7b, 0xbe, 0x22, 0x7b, 0x8b, 0x3e,
    0x28, 0xef, 0xf9, 0xbd, 0xbc, 0x16, 0x29, 0xbe, 0x8e, 0x19, 0x1e, 0x3d,
    0xfc, 0xbe, 0xaf, 0x3e, 0xc2, 0x61, 0x83, 0xbe, 0x6d, 0x5f, 0x8c, 0x3e,
    0x6b, 0x0d, 0x2d, 0x3d, 0x8e, 0x04, 0x09, 0x3e, 0x62, 0x7d, 0x78, 0xbe,
    0x71, 0x1c, 0x1b, 0xbe, 0x37, 0x2f, 0x24, 0xbd, 0xfb, 0x7b, 0x9d, 0xbe,
    0x1e, 0x63, 0xa0, 0xbd, 0x88, 0x42, 0x4d, 0xbd, 0x80, 0x08, 0x3a, 0xbe,
    0x40, 0xc0, 0x57, 0xbe, 0x84, 0x82, 0x3f, 0x3e, 0x8c, 0x7e, 0x38, 0x3e,
    0xab, 0x59, 0x11, 0x3e, 0x16, 0xad, 0x10, 0x3f, 0x4e, 0x0c, 0x91, 0x3b,
    0x13, 0x24, 0x1b, 0xbd, 0x4a, 0x7d, 0xaa, 0x3d, 0x07, 0x2e, 0xa4, 0xbd,
    0x25, 0xf3, 0xda, 0x3d, 0x50, 0x42, 0x4c, 0xbe, 0xf3, 0x83, 0x19, 0x3e,
    0xbe, 0xa2, 0x42, 0x3e, 0x8f, 0xa9, 0x56, 0x3e, 0x39, 0x0a, 0xf9, 0x3d,
    0xc6, 0xe4, 0x4c, 0xbe, 0x52, 0x54, 0x8c, 0x3d, 0x8d, 0x80, 0x92, 0xbe,
    0xde, 0x3c, 0xac, 0xbe, 0xa6, 0x7d, 0xb0, 0xbd, 0xa0, 0xec, 0x94, 0x3d,
    0x96, 0x6e, 0xa8, 0xbe, 0x0f, 0xe0, 0xa2, 0x3d, 0xe9, 0x35, 0x9f, 0x3d,
    0x3b, 0x3e, 0x79, 0xbd, 0x1a, 0xd1, 0x38, 0x3e, 0xa9, 0x34, 0x75, 0xbe,
    0xf4, 0x47, 0x72, 0x3e, 0xae, 0x2d, 0x59, 0x3e, 0x0c, 0xf8, 0x11, 0x3e,
    0x56, 0x46, 0x29, 0xbe, 0xf5, 0xda, 0xe9, 0x3d, 0x82, 0x3a, 0x2e, 0xbb,
    0xf7, 0x23, 0xe9, 0xbe, 0xf5, 0x7e, 0xd1, 0x3e, 0x2d, 0x13, 0xe9, 0xbc,
    0x0e, 0x30, 0xc1, 0x3e, 0xfd, 0xb0, 0xca, 0xbd, 0xdc, 0xc0, 0x79, 0x3e,
    0xe4, 0x0d, 0x7e, 0x3e, 0x0b, 0x0a, 0x59, 0x3e, 0x54, 0xd3, 0xd0, 0x3e,
    0xfa, 0x43, 0xc8, 0xbd, 0x62, 0xe5, 0x7f, 0xbd, 0xc0, 0x88, 0x6a, 0x3e,
    0x77, 0x3a, 0x97, 0x3e, 0xd9, 0x06, 0x94, 0x3e, 0x31, 0xda, 0x39, 0x3e,
    0xfc, 0xb7, 0x82, 0x3a, 0xb2, 0x64, 0x71, 0x3e, 0x67, 0x07, 0xd7, 0xbd,
    0x88, 0xc4, 0xa2, 0x3a, 0x3d, 0x52, 0x9b, 0x3e, 0x91, 0xbf, 0x4c, 0xbe,
    0x58, 0xe0, 0x19, 0x3e, 0x48, 0x32, 0x9a, 0x3e, 0xc8, 0x20, 0x3b, 0x3e,
    0xb1, 0x66, 0x43, 0x3e, 0x7e, 0xce, 0x72, 0x3e, 0x5f, 0x66, 0xbf, 0xbd,
    0x7b, 0xf7, 0x8c, 0xbe, 0xe5, 0x07, 0x9a, 0x3d, 0x05, 0x39, 0x89, 0x3e,
    0x4e, 0x11, 0x80, 0xbd, 0x8b, 0xcd, 0x94, 0xbd, 0x0b, 0x5c, 0xee, 0xbc,
    0x1f, 0x11, 0x87, 0x3e, 0x66, 0xde, 0x82, 0xbe, 0x00, 0x34, 0xc7, 0xba,
    0xdc, 0xba, 0x49, 0xbe, 0x62, 0x59, 0xcd, 0xbd, 0xe4, 0x7d, 0x43, 0xbe,
    0x6f, 0x37, 0x38, 0xbe, 0x98, 0xdf, 0xbc, 0x3d, 0xc8, 0x29, 0x71, 0x3d,
    0x74, 0xf7, 0x90, 0x3d, 0xaa, 0xc9, 0x1e, 0x3e, 0xc4, 0x8b, 0xf1, 0xbd,
    0xae, 0xfb, 0x15, 0x3e, 0x5a, 0x77, 0x68, 0xbe, 0x7c, 0x32, 0x5f, 0xbe,
    0xa0, 0x8a, 0x04, 0x3c, 0xa2, 0x71, 0xb8, 0xbd, 0xd8, 0x96, 0x0b, 0x3e,
    0x00, 0xb2, 0x7f, 0xbc, 0xcd, 0x9b, 0x13, 0xbe, 0x00, 0x8e, 0x4f, 0x3c,
    0x03, 0x75, 0x80, 0xbe, 0x94, 0xc0, 0x3b, 0x3e, 0xa0, 0x22, 0x85, 0x3d,
    0x47, 0x70, 0x05, 0xbe, 0x56, 0x53, 0x66, 0xbe, 0x3e, 0x12, 0x88, 0xbe,
    0x2b, 0xbc, 0x92, 0x3e, 0x74, 0x55, 0xb4, 0x3d, 0x38, 0x51, 0x9e, 0x3d,
    0x7c, 0x6a, 0x75, 0xbe, 0x0e, 0x30, 0xce, 0xbd, 0xdd, 0x4a, 0x12, 0x3f,
    0x1d, 0xcf, 0x55, 0xbe, 0xb1, 0x7f, 0x0c, 0x3f, 0x91, 0xb7, 0xaa, 0xbe,
    0xf3, 0x03, 0x49, 0xbd, 0xdd, 0xa2, 0x47, 0x3e, 0xad, 0x3f, 0xaa, 0xbc,
    0xa9, 0x6d, 0xcf, 0x3e, 0xab, 0x77, 0x31, 0x3d, 0xba, 0x3d, 0x9e, 0xbe,
    0xc8, 0x38, 0x6a, 0x3b, 0xa9, 0x64, 0x9e, 0xbd, 0x64, 0xac, 0xc9, 0x3d,
    0x56, 0x86, 0xff, 0xbc, 0x78, 0xfc, 0x23, 0xbe, 0xe5, 0x0e, 0xb1, 0x3e,
    0x05, 0xc0, 0xb8, 0xbc, 0x5e, 0x63, 0x53, 0xbe, 0x57, 0x12, 0x27, 0x3e,
    0x8b, 0x12, 0x66, 0xbe, 0x99, 0x92, 0x04, 0x3d, 0x86, 0xd0, 0x4b, 0x3e,
    0xae, 0xf9, 0x0e, 0xbe, 0x68, 0xae, 0xb3, 0x3e, 0x1f, 0x32, 0x58, 0x3e,
    0x8a, 0x87, 0x99, 0x3e, 0x3b, 0xc8, 0x9d, 0x3d, 0xf7, 0x84, 0xb9, 0xbb,
    0x1a, 0xe2, 0x3c, 0xbe, 0x1d, 0x8f, 0xbc, 0xbc, 0x47, 0x54, 0x68, 0xbd,
    0x71, 0xb3, 0x8c, 0xbd, 0x0d, 0x24, 0x75, 0x3e, 0x76, 0xbc, 0xc5, 0xbd,
    0x66, 0x3c, 0x9b, 0x3e, 0xf0, 0x9b, 0x37, 0x3e, 0x02, 0xa8, 0xf8, 0xbd,
    0x7b, 0x7f, 0x88, 0x3e, 0x25, 0x4f, 0xcf, 0x3e, 0x97, 0x5a, 0x00, 0x3f,
    0x7d, 0xde, 0x80, 0x3e, 0xbe, 0xaf, 0xa6, 0x3d, 0x71, 0x06, 0x76, 0x3e,
    0x0a, 0xe5, 0xa3, 0x3d, 0xf6, 0xa9, 0xc2, 0xbd, 0x9f, 0x4b, 0x8e, 0xbe,
    0x04, 0x75, 0x08, 0xbc, 0xa3, 0x66, 0xdf, 0x3e, 0xc5, 0x35, 0x7a, 0xbe,
    0xee, 0x1f, 0xae, 0xbc, 0x65, 0x78, 0xcc, 0x3d, 0xd7, 0xc9, 0x7e, 0xbd,
    0x17, 0x18, 0xa0, 0x3e, 0xfe, 0x96, 0xb3, 0xbd, 0x15, 0x87, 0x8d, 0x3e,
    0x41, 0x99, 0xa0, 0x3e, 0xdd, 0x78, 0x8c, 0x3e, 0x37, 0x2c, 0x80, 0xbe,
    0x3e, 0xc6, 0x06, 0x3d, 0x58, 0x55, 0x06, 0xbe, 0xcf, 0xce, 0x94, 0x3d,
    0xa3, 0x1a, 0x0d, 0xbe, 0x88, 0x51, 0x15, 0x3e, 0x0a, 0x49, 0x38, 0xbe,
    0xd4, 0xeb, 0x98, 0xbe, 0xca, 0x11, 0x87, 0x3e, 0xd0, 0xc4, 0xea, 0xbd,
    0xa9, 0x19, 0xbc, 0x3e, 0x56, 0x24, 0x12, 0x3e, 0x3c, 0x40, 0xa7, 0x3e,
    0x04, 0x0f, 0xd3, 0xbd, 0x3b, 0x10, 0x06, 0xbd, 0xcd, 0xc2, 0xce, 0x3d,
    0x76, 0x9c, 0xb0, 0x3e, 0x89, 0x0f, 0x51, 0xbe, 0xf2, 0xcb, 0xef, 0xbd,
    0x49, 0x64, 0x40, 0x3e, 0x43, 0x05, 0xa2, 0xbe, 0x7f, 0xaa, 0xd9, 0xbd,
    0x51, 0x26, 0xba, 0xbe, 0x40, 0x20, 0xd1, 0x3e, 0xd9, 0xdf, 0x9f, 0x3e,
    0x49, 0x2f, 0xb4, 0xbe, 0x2c, 0x07, 0xe5, 0x3e, 0x4e, 0x04, 0x01, 0xbe,
    0x39, 0xf1, 0x5a, 0x3e, 0xe2, 0xa5, 0x91, 0xbe, 0x29, 0x75, 0xd4, 0xbd,
    0x77, 0x5c, 0x27, 0xbd, 0x2a, 0x06, 0x03, 0x3e, 0x66, 0x58, 0x56, 0x3e,
    0x92, 0xb2, 0x9f, 0xbe, 0x25, 0xff, 0xaf, 0x3e, 0xa5, 0x92, 0x28, 0xbe,
    0x79, 0x58, 0x53, 0xbe, 0xfe, 0x1d, 0xb8, 0x3d, 0x7c, 0xf7, 0x48, 0xbe,
    0xfb, 0x8a, 0xa3, 0xbd, 0x94, 0xcd, 0x7b, 0xbe, 0x7b, 0x0b, 0x8b, 0xbe,
    0x45, 0x61, 0x87, 0x3e, 0xe4, 0x3f, 0x44, 0x3d, 0x71, 0x4b, 0xe0, 0xbd,
    0x20, 0xab, 0xef, 0xbd, 0x10, 0x62, 0x9d, 0x3e, 0x1d, 0xba, 0xa6, 0xbe,
    0xf3, 0x4f, 0xa8, 0xbe, 0x78, 0xa8, 0xa5, 0x3e, 0x38, 0x86, 0x07, 0x3e,
    0x51, 0x0d, 0x29, 0xbd, 0xba, 0x8d, 0xbe, 0xbd, 0x83, 0x9d, 0x4e, 0xbd,
    0x6e, 0x4b, 0x21, 0x3e, 0x7f, 0x15, 0x1f, 0x3e, 0x4c, 0x4b, 0x33, 0x3e,
    0x3e, 0x39, 0x05, 0x3f, 0x59, 0xf8, 0xc2, 0xbd, 0x83, 0xa0, 0xf0, 0x3c,
    0x42, 0x3f, 0x45, 0x3e, 0x5c, 0x16, 0x41, 0xbe, 0x1a, 0x81, 0x07, 0xbd,
    0x76, 0xd2, 0x55, 0x3e, 0xac, 0x1b, 0x78, 0xba, 0x50, 0x8a, 0x18, 0x3d,
    0x10, 0x7e, 0x30, 0xbe, 0xaf, 0xf2, 0x9c, 0xbd, 0xb9, 0xf9, 0xde, 0xbc,
    0x5f, 0x9a, 0xfd, 0xbe, 0x89, 0x4d, 0x82, 0xbe, 0x44, 0x5a, 0x40, 0xbe,
    0x1c, 0xa5, 0xde, 0x3d, 0x8e, 0x9b, 0xfb, 0xbd, 0x76, 0xea, 0x7a, 0x3e,
    0x50, 0xfc, 0x53, 0xbe, 0xce, 0x5d, 0x68, 0x3e, 0x80, 0xbd, 0xf9, 0xbb,
    0x82, 0x2a, 0x6b, 0x3e, 0xde, 0x32, 0xb5, 0xbd, 0xc8, 0xcd, 0xc6, 0xbd,
    0x05, 0x0d, 0x3d, 0xbe, 0xd4, 0x74, 0xd2, 0x3d, 0x43, 0x24, 0x6c, 0xbe,
    0x58, 0x32, 0x44, 0x3d, 0x85, 0x27, 0x7c, 0xbe, 0x7e, 0x6e, 0x86, 0xbd,
    0x8b, 0xb3, 0x8b, 0x3e, 0x1f, 0x70, 0x5b, 0xbe, 0xe4, 0x1c, 0x95, 0xbd,
    0x00, 0x7a, 0xa2, 0x3c, 0xab, 0xbe, 0x5c, 0xbe, 0xae, 0xed, 0x9a, 0xbd,
    0xdf, 0xf2, 0x8a, 0xbe, 0xf0, 0x50, 0xda, 0x3c, 0xae, 0x46, 0x52, 0xbe,
    0xd2, 0x07, 0x98, 0xbe, 0x80, 0x99, 0x11, 0xbd, 0x38, 0x4a, 0xb5, 0xbd,
    0x2a, 0xb2, 0x63, 0xbe, 0x88, 0x65, 0x03, 0x3d, 0x72, 0x2e, 0x74, 0x3e,
    0x72, 0xde, 0x25, 0x3e, 0x0b, 0x2b, 0x37, 0xbe, 0x2b, 0x77, 0xae, 0x3e,
    0x4b, 0x39, 0x34, 0x3e, 0x56, 0xa6, 0xa9, 0x3d, 0xfe, 0xff, 0x55, 0xbc,
    0x29, 0xc4, 0xcd, 0x3b, 0x74, 0xa8, 0xbb, 0x3e, 0x23, 0xc1, 0x02, 0x3d,
    0xc7, 0xbd, 0xa5, 0x3e, 0xd9, 0x42, 0x1a, 0xbe, 0x08, 0x2e, 0xbb, 0x3d,
    0x82, 0x3f, 0xbf, 0x3b, 0xb6, 0x6d, 0x6e, 0xbe, 0x64, 0x0e, 0x8c, 0x3d,
    0x73, 0x6f, 0x97, 0x3d, 0x08, 0x9e, 0x82, 0xbe, 0x9f, 0x44, 0x9d, 0x3d,
    0x03, 0x03, 0xcd, 0xbe, 0x35, 0xef, 0x9c, 0x3d, 0x5a, 0x15, 0x25, 0x3d,
    0x4d, 0xc0, 0xde, 0xbd, 0x0d, 0x2d, 0x9e, 0x3d, 0xfe, 0x56, 0x12, 0x3e,
    0x0f, 0x15, 0x13, 0xbe, 0x5e, 0x38, 0x30, 0xbe, 0x0d, 0xbb, 0x91, 0x3e,
    0xb0, 0xf6, 0x6e, 0xbd, 0x8b, 0xb2, 0x9b, 0xbd, 0x01, 0xc4, 0x82, 0x3e,
    0x51, 0xb7, 0xc5, 0x3d, 0x32, 0x88, 0x69, 0xbe, 0x2a, 0x38, 0xf4, 0xbd,
    0x07, 0x95, 0x2c, 0x3d, 0x2b, 0xd0, 0x00, 0x3e, 0x50, 0x1c, 0x40, 0x3e,
    0x7f, 0xf3, 0x49, 0xbe, 0x8b, 0x8c, 0xff, 0x3d, 0xb9, 0x0c, 0x78, 0x3e,
    0xb4, 0xe1, 0xe7, 0xbd, 0x22, 0x9e, 0xfe, 0x3d, 0x83, 0x2c, 0xd2, 0xbc,
    0xb5, 0x9d, 0x00, 0xbd, 0x50, 0xc2, 0xef, 0xbc, 0xe9, 0xae, 0x90, 0x3e,
    0x78, 0x1f, 0x56, 0xba, 0x96, 0x8e, 0x76, 0xbe, 0xdb, 0x5e, 0xaa, 0xbd,
    0x41, 0x6f, 0x00, 0xbe, 0xd8, 0xf4, 0x44, 0x3e, 0x1c, 0x9c, 0xd2, 0x3e,
    0xd8, 0xb6, 0xec, 0x3e, 0x66, 0xbc, 0x8a, 0xbe, 0x86, 0x66, 0x17, 0xbe,
    0x33, 0x2a, 0x6c, 0x3e, 0xb8, 0xa8, 0x52, 0xbe, 0xac, 0x35, 0x65, 0xbe,
    0x1c, 0x0b, 0x0b, 0xbe, 0xe9, 0x85, 0x88, 0xbe, 0x2f, 0x8b, 0x35, 0xbe,
    0xff, 0x43, 0xa9, 0x3c, 0xc3, 0xa3, 0xad, 0x3c, 0x3b, 0xa1, 0x3a, 0x3e,
    0x20, 0x39, 0xaa, 0xbe, 0x68, 0x1f, 0x13, 0xbf, 0x32, 0xfb, 0xb7, 0x3e,
    0xab, 0xe8, 0x7d, 0xbe, 0x7b, 0xb0, 0x2a, 0x3c, 0x62, 0x36, 0x1c, 0xbe,
    0x6e, 0xca, 0xd2, 0xbd, 0x37, 0x38, 0x69, 0x3e, 0xe9, 0x0c, 0x90, 0xbe,
    0x16, 0x0a, 0xe2, 0xbd, 0x58, 0xbd, 0xe2, 0xbd, 0x94, 0x4a, 0x30, 0x3e,
    0x34, 0xc8, 0xaf, 0x3d, 0x7b, 0xd8, 0xf8, 0xbd, 0xb7, 0x4d, 0x52, 0x3e,
    0x4f, 0x3f, 0x2e, 0xbd, 0xba, 0x97, 0x22, 0xbe, 0x20, 0xd4, 0x8d, 0x3e,
    0xbb, 0x88, 0xa2, 0x3e, 0x03, 0x43, 0xd6, 0x3e, 0x66, 0xda, 0xa1, 0x3e,
    0x50, 0x2b, 0x76, 0x3d, 0x20, 0x5f, 0x19, 0x3d, 0x31, 0x5d, 0xb1, 0xbc,
    0x20, 0xbe, 0x68, 0xbe, 0x95, 0x24, 0x8d, 0x3d, 0x9b, 0x29, 0xaa, 0x3e,
    0xfb, 0x17, 0xa4, 0x3d, 0x25, 0x5d, 0x7c, 0xbe, 0x46, 0xaf, 0xa8, 0x3e,
    0xb9, 0x40, 0x01, 0x3e, 0x9d, 0x79, 0x8c, 0x3e, 0xe7, 0x30, 0x1e, 0x3e,
    0x1a, 0xe1, 0x53, 0x3e, 0x14, 0xe5, 0x48, 0xbe, 0x2d, 0x54, 0xd1, 0x3d,
    0x49, 0xae, 0x98, 0xbe, 0xfc, 0x53, 0xfb, 0x3d, 0xd3, 0x1b, 0x91, 0x3e,
    0xf2, 0x71, 0x83, 0xbe, 0x3e, 0xa1, 0x88, 0xbe, 0x53, 0x2e, 0x92, 0x3e,
    0xd3, 0x1b, 0xfd, 0xbb, 0xf6, 0x5f, 0x96, 0x3e, 0x3d, 0xa5, 0xa9, 0x3e,
    0xb7, 0x17, 0x58, 0x3e, 0x5c, 0x79, 0x2a, 0xbe, 0x5c, 0xf2, 0x60, 0xbd,
    0x39, 0x4f, 0x22, 0x3e, 0x93, 0x25, 0x03, 0xbf, 0x3e, 0xfe, 0x7b, 0xbe,
    0xa6, 0xdc, 0x68, 0x3e, 0x51, 0x58, 0x0f, 0x3f, 0x0b, 0x87, 0x4d, 0xbd,
    0xa3, 0x87, 0x6c, 0xbe, 0xb9, 0x3a, 0xe9, 0x3e, 0x4a, 0x33, 0xfa, 0xbe,
    0xc9, 0x6e, 0x6c, 0x3c, 0x4b, 0x20, 0x67, 0x3e, 0xae, 0x35, 0x2e, 0xbe,
    0x52, 0x4e, 0xe8, 0xbd, 0xc7, 0x98, 0x44, 0xbe, 0x5e, 0xdd, 0xb1, 0x3b,
    0xf3, 0x6d, 0x5b, 0xbe, 0xc4, 0xbf, 0x4e, 0x3b, 0xa8, 0x10, 0xdb, 0x3e,
    0x41, 0x36, 0x53, 0x3d, 0x84, 0xfb, 0xb1, 0xbe, 0x0f, 0xe3, 0xf4, 0xbe,
    0x89, 0x6b, 0x7a, 0xbe, 0x2f, 0x0c, 0x36, 0xbe, 0x59, 0x15, 0xaf, 0x3e,
    0x1d, 0xa4, 0xac, 0xbe, 0xc8, 0x57, 0x97, 0x3e, 0xc3, 0xf4, 0x89, 0xbe,
    0x35, 0x82, 0xc5, 0x3e, 0xa5, 0xa7, 0x45, 0x3d, 0x89, 0x08, 0x86, 0x3d,
    0x42, 0x1c, 0x31, 0xbe, 0xab, 0x3b, 0x3c, 0x3d, 0x31, 0x64, 0x89, 0x3e,
    0x55, 0x4d, 0x3d, 0x3c, 0x4f, 0xf0, 0x03, 0xbe, 0xb1, 0x71, 0xb7, 0x3e,
    0xfb, 0xb2, 0x0b, 0x3f, 0xe0, 0x47, 0x97, 0xbe, 0x14, 0xf1, 0x83, 0x3e,
    0x46, 0x62, 0xb9, 0x3e, 0x7d, 0xc3, 0xb6, 0xbe, 0x03, 0x7b, 0x21, 0x3e,
    0x00, 0x3e, 0x82, 0xbe, 0x17, 0x0c, 0x42, 0x3e, 0x62, 0xbd, 0x9c, 0xbe,
    0x50, 0xa6, 0xb4, 0xbe, 0xcb, 0xd3, 0xd4, 0xbd, 0xe4, 0x55, 0x8b, 0x3e,
    0xfc, 0x6b, 0xf7, 0xbd, 0x0a, 0xef, 0x16, 0x3d, 0x89, 0x6b, 0x6a, 0x3e,
    0x60, 0x13, 0x75, 0xbe, 0x24, 0x89, 0x02, 0xbe, 0x48, 0x0e, 0xbf, 0xbd,
    0xb0, 0xca, 0xd4, 0x3d, 0xcc, 0xab, 0xa2, 0xbe, 0xb0, 0x03, 0x04, 0x3e,
    0x53, 0xad, 0x4f, 0xbe, 0xf7, 0x46, 0x74, 0xbd, 0xf5, 0xe1, 0x22, 0x3e,
    0x07, 0xea, 0xdd, 0xbd, 0x87, 0x02, 0x38, 0x3e, 0xb0, 0x25, 0x91, 0xbc,
    0x2a, 0xa6, 0x6c, 0xbd, 0x44, 0x83, 0x0c, 0xbd, 0xa5, 0xf0, 0xfc, 0x3d,
    0xcf, 0xff, 0x26, 0x3e, 0xb0, 0x6a, 0x23, 0x3d, 0x68, 0x69, 0x76, 0x3d,
    0xd4, 0xb3, 0x78, 0x3e, 0x1d, 0xad, 0x01, 0xbe, 0xbe, 0xd9, 0x3c, 0xbe,
    0x0d, 0x5b, 0xa1, 0xbd, 0x73, 0xbb, 0x16, 0xbe, 0xc6, 0x57, 0x36, 0xbe,
    0xa2, 0x15, 0xc7, 0xbd, 0xc0, 0x62, 0x9d, 0xbc, 0x0f, 0xa0, 0x93, 0xbe,
    0xac, 0x0a, 0xfe, 0x3d, 0x5a, 0x7c, 0x29, 0xbe, 0xe0, 0xe6, 0x32, 0xbe,
    0x24, 0xf3, 0x67, 0x3d, 0xe5, 0x77, 0xe9, 0x3d, 0x69, 0xb4, 0xfc, 0x3e,
    0xf7, 0x28, 0xe7, 0x3d, 0x52, 0x76, 0xa4, 0x3b, 0xb2, 0xe1, 0xfa, 0xbb,
    0xb3, 0xde, 0xb3, 0xbe, 0x6a, 0xa4, 0x06, 0x3f, 0xd3, 0xdf, 0xf3, 0x3d,
    0xc6, 0xd4, 0x30, 0xbe, 0x9c, 0xd9, 0x29, 0x3e, 0x0f, 0x68, 0x12, 0xbc,
    0x3a, 0xde, 0x03, 0x3e, 0xe2, 0x9f, 0x66, 0xbe, 0xc9, 0x23, 0x5a, 0x3e,
    0xc4, 0x68, 0x79, 0x3e, 0x1a, 0x96, 0x7a, 0xbe, 0xf1, 0xca, 0xeb, 0xbe,
    0xbb, 0x2d, 0x9a, 0x3d, 0x6d, 0x4a, 0xbf, 0xbe, 0xef, 0x6f, 0x6b, 0x3d,
    0x54, 0x63, 0x8b, 0xbe, 0x2a, 0x0f, 0x54, 0x3e, 0x52, 0x80, 0x93, 0x3e,
    0x39, 0x69, 0x47, 0x3d, 0xcf, 0x70, 0xf6, 0x3d, 0x2e, 0x72, 0xe6, 0xbd,
    0xde, 0xe4, 0x92, 0xbe, 0x32, 0x60, 0x5c, 0x3e, 0xdc, 0xe9, 0x3a, 0x3e,
    0x77, 0x65, 0x99, 0x3c, 0xdb, 0xbe, 0xaa, 0xbe, 0xe0, 0x21, 0x2c, 0xbf,
    0x1f, 0xd7, 0x7e, 0x3e, 0x5f, 0xe1, 0x8e, 0x3c, 0x51, 0xf9, 0x0d, 0x3d,
    0xef, 0x49, 0x84, 0xbe, 0xd2, 0x30, 0x35, 0x3c, 0x07, 0x6f, 0xea, 0xbe,
    0xe2, 0xf3, 0x06, 0xbc, 0x79, 0x18, 0xc2, 0x3d, 0x43, 0xd4, 0xa7, 0x3e,
    0x20, 0xe0, 0x85, 0xbd, 0x91, 0x25, 0x57, 0xbd, 0x97, 0x93, 0x17, 0x3e,
    0x1b, 0xf4, 0x5e, 0xbe, 0x9e, 0x17, 0xb2, 0xbc, 0x0a, 0xb1, 0x68, 0x3e,
    0xcd, 0x10, 0x0d, 0x3d, 0x07, 0x40, 0x03, 0x3e, 0xd8, 0x82, 0x64, 0xbe,
    0x6b, 0x21, 0x00, 0x3f, 0x2c, 0x89, 0x5b, 0xbe, 0xe1, 0x58, 0x61, 0x3e,
    0x8f, 0xc0, 0x94, 0xbe, 0x48, 0x56, 0x7d, 0xbe, 0x7a, 0xad, 0x37, 0x3e,
    0x65, 0x04, 0x50, 0x3e, 0x77, 0x5f, 0x1b, 0xbd, 0x45, 0x39, 0x18, 0x3e,
    0x17, 0x51, 0x39, 0x3e, 0x3c, 0xb0, 0xfa, 0x3d, 0xe2, 0xd2, 0x4b, 0xbe,
    0x27, 0xea, 0x59, 0xbe, 0x11, 0x2e, 0xc8, 0x3e, 0x23, 0xbc, 0x88, 0x3c,
    0x77, 0x3a, 0xe0, 0xbe, 0x67, 0x0a, 0x32, 0x3d, 0x53, 0x15, 0x9f, 0xbe,
    0x14, 0x71, 0x85, 0xbe, 0xde, 0xa6, 0xda, 0xbe, 0x25, 0x5d, 0x66, 0xbe,
    0x45, 0x58, 0x23, 0xbf, 0x7a, 0x50, 0xaa, 0x3e, 0x1d, 0xfa, 0x38, 0x3e,
    0x5b, 0x55, 0x98, 0xbe, 0xa9, 0x07, 0x95, 0x3e, 0x1d, 0xf6, 0x04, 0xbe,
    0x9d, 0x7f, 0x5d, 0xbe, 0xe2, 0x61, 0x4c, 0xbe, 0xd7, 0x4a, 0xa8, 0xbc,
    0xc9, 0x75, 0x11, 0xbe, 0x62, 0xed, 0xd8, 0xbe, 0xcf, 0x73, 0x32, 0xbe,
    0xcb, 0x19, 0xf0, 0xbd, 0x26, 0xb3, 0xc8, 0x3d, 0xd9, 0x27, 0x34, 0xbc,
    0xba, 0x77, 0xc9, 0x3e, 0x08, 0x1e, 0xcd, 0x3d, 0xb3, 0x5c, 0x97, 0x3d,
    0x75, 0x97, 0x80, 0xbd, 0x86, 0x42, 0xa6, 0x3d, 0xe5, 0x64, 0x60, 0xbe,
    0x83, 0x9d, 0x2b, 0x3e, 0x88, 0x60, 0xf4, 0xbd, 0x3e, 0xa5, 0x69, 0x3e,
    0x03, 0x7a, 0x09, 0x3e, 0xf6, 0xfb, 0x58, 0xbe, 0xc1, 0x3e, 0x19, 0x3b,
    0xcd, 0x3b, 0x67, 0x3e, 0xa3, 0x05, 0x69, 0xbe, 0x5a, 0x7b, 0x4e, 0x3e,
    0x10, 0x83, 0x5d, 0xbe, 0x10, 0xf1, 0x86, 0x3e, 0x46, 0x3f, 0x2d, 0xbe,
    0xf6, 0x78, 0x6b, 0x3d, 0x34, 0x7b, 0x89, 0x3d, 0xdf, 0x2e, 0x88, 0xbe,
    0xbb, 0x08, 0x0a, 0x3c, 0x08, 0xe4, 0x61, 0xbe, 0x42, 0xf2, 0x4d, 0x3d,
    0xbf, 0x10, 0x39, 0x3e, 0xdb, 0x37, 0x12, 0xbe, 0x47, 0x46, 0x48, 0x3e,
    0x0d, 0x08, 0x2b, 0xbe, 0x1f, 0x52, 0x9b, 0x3e, 0x60, 0x53, 0xef, 0x3d,
    0x9c, 0x78, 0x15, 0x3d, 0xe1, 0xbf, 0x52, 0x3e, 0x03, 0xef, 0xc6, 0x3d,
    0x80, 0x49, 0xd0, 0xbd, 0x36, 0x34, 0x91, 0x3e, 0x0e, 0xc7, 0xed, 0x3c,
    0x58, 0x37, 0x83, 0x3d, 0x31, 0x1a, 0xf9, 0xbd, 0xb1, 0xa0, 0x6d, 0xbe,
    0x4b, 0xf2, 0xe7, 0x3d, 0x31, 0xb1, 0x3d, 0xbd, 0x94, 0x05, 0x09, 0x3e,
    0xba, 0xe1, 0xf6, 0x3c, 0x7f, 0x15, 0x24, 0xbc, 0xeb, 0x3e, 0x81, 0xbd,
    0x6d, 0xec, 0xc0, 0x3e, 0xb4, 0x76, 0x67, 0x3e, 0x04, 0x5e, 0x26, 0xbf,
    0x16, 0xaf, 0xc2, 0xbe, 0x96, 0xf3, 0xe2, 0x3d, 0xa6, 0xa0, 0x60, 0xbe,
    0xa5, 0xea, 0x1e, 0xbe, 0x62, 0xca, 0x56, 0xbe, 0x85, 0xbf, 0x57, 0x3e,
    0xac, 0x2a, 0x4e, 0x3e, 0x9c, 0x41, 0x0e, 0xbe, 0x2e, 0x05, 0xb3, 0x3d,
    0xb2, 0x8b, 0x7c, 0xbd, 0x8a, 0xee, 0x21, 0xbe, 0x0c, 0x16, 0x85, 0xbe,
    0xe1, 0x49, 0x0b, 0x3f, 0x47, 0x7d, 0xe3, 0xbd, 0x8f, 0x99, 0x89, 0x3d,
    0xa7, 0xda, 0x84, 0x3e, 0x70, 0x80, 0x95, 0xbe, 0xc0, 0x03, 0x63, 0x3e,
    0x0f, 0xa3, 0xa1, 0xbe, 0xed, 0x17, 0xbf, 0x3e, 0xe3, 0x80, 0x0c, 0x3d,
    0x03, 0xfc, 0x38, 0xbe, 0xf7, 0xe6, 0x4b, 0x3d, 0x23, 0x2e, 0xd0, 0xbd,
    0xbf, 0x1d, 0x20, 0x3d, 0x8a, 0x9a, 0x14, 0xbe, 0xea, 0x86, 0x8e, 0x3e,
    0x03, 0x4d, 0x3d, 0x3c, 0x35, 0x43, 0xce, 0xbd, 0x1a, 0x80, 0xf9, 0xbd,
    0xde, 0x30, 0x0f, 0x3e, 0x6c, 0x19, 0xa1, 0x3e, 0x24, 0xa2, 0xdf, 0x3d,
    0xcf, 0xdc, 0xad, 0x3d, 0x68, 0x3c, 0x07, 0x3d, 0x7d, 0xc7, 0x29, 0x3d,
    0xbd, 0x00, 0xe1, 0x3d, 0x23, 0xeb, 0x9a, 0x3e, 0xb7, 0xc7, 0x69, 0x3e,
    0xa2, 0xbf, 0x05, 0xbe, 0x27, 0x1d, 0x24, 0xbe, 0x4f, 0xb5, 0x74, 0xbc,
    0xdd, 0x1a, 0xa5, 0x3d, 0x38, 0xb1, 0xe4, 0x3e, 0x9d, 0xe4, 0xa2, 0x3d,
    0x2c, 0x37, 0x14, 0x3d, 0xfc, 0x56, 0x8e, 0xbb, 0x45, 0xa8, 0xe1, 0xbd,
    0xcc, 0xa2, 0x1a, 0xbe, 0x17, 0x1f, 0x06, 0xbe, 0x92, 0xd3, 0xa9, 0x3e,
    0x52, 0xf7, 0x5b, 0x3e, 0xf2, 0x6a, 0x20, 0xbe, 0x71, 0x4c, 0xbb, 0x3e,
    0xc0, 0x63, 0xa2, 0x3e, 0x48, 0xdc, 0xb1, 0x3d, 0x02, 0x48, 0x37, 0x3e,
    0xcb, 0xf1, 0x24, 0xbf, 0x57, 0x67, 0xab, 0x3e, 0x84, 0x73, 0x44, 0x3e,
    0x0b, 0xde, 0xb7, 0x3e, 0x83, 0xfc, 0xb5, 0x3d, 0x41, 0xe8, 0x9f, 0x3e,
    0xfa, 0x9b, 0x31, 0x3e, 0x17, 0x28, 0x98, 0x3d, 0xcd, 0x39, 0xad, 0x3d,
    0x99, 0xc0, 0xb9, 0x3e, 0x46, 0x1b, 0xeb, 0xbc, 0x10, 0xc3, 0xcd, 0x3e,
    0xac, 0xcf, 0x47, 0x3c, 0x91, 0x25, 0xba, 0xbd, 0x35, 0x81, 0x14, 0xbe,
    0x4d, 0xaa, 0x8c, 0xbe, 0xa4, 0x42, 0xb2, 0x3e, 0x4e, 0xb4, 0x46, 0x3e,
    0xc5, 0x04, 0x60, 0xbc, 0x21, 0x62, 0xb2, 0x3d, 0x4b, 0x2e, 0x0d, 0xbe,
    0xcc, 0xa1, 0x9e, 0x3d, 0x55, 0x3c, 0xfd, 0xbd, 0x1e, 0x97, 0x49, 0x3e,
    0x58, 0x37, 0x7e, 0xbd, 0x1d, 0x2d, 0xaa, 0xbd, 0xe2, 0xe4, 0xba, 0xba,
    0xaa, 0x63, 0x49, 0xbb, 0x2d, 0x60, 0x98, 0x3e, 0xc9, 0x39, 0x8c, 0x3e,
    0x79, 0x7d, 0x99, 0x3d, 0xdf, 0x3f, 0xa4, 0x3c, 0x0d, 0x01, 0x1b, 0xbe,
    0x25, 0xb7, 0x06, 0xbe, 0xfd, 0xfc, 0xfa, 0x3e, 0x5d, 0xc9, 0xdf, 0x3d,
    0xa7, 0x3d, 0x26, 0x3e, 0x9b, 0x3d, 0xda, 0xbd, 0x9d, 0xdc, 0xdf, 0xbd,
    0xa2, 0xc3, 0x6d, 0xbd, 0x03, 0xac, 0xa7, 0x3e, 0x9d, 0x63, 0x47, 0x3e,
    0xbe, 0x3f, 0x84, 0xbe, 0xaf, 0xb1, 0x34, 0x3e, 0x5d, 0xdd, 0x20, 0x3e,
    0x30, 0x59, 0xe6, 0x3d, 0x48, 0xa9, 0x6c, 0x3d, 0x7a, 0x4e, 0xaf, 0x3d,
    0x9d, 0xe3, 0xa7, 0x3e, 0x4f, 0xd3, 0xe7, 0x3c, 0x0e, 0xbe, 0x50, 0xbe,
    0x15, 0x5b, 0x67, 0xbe, 0x85, 0xbc, 0x6e, 0xbe, 0xae, 0x29, 0x21, 0x3e,
    0x72, 0x21, 0x95, 0xbe, 0x05, 0xac, 0x8e, 0x3d, 0xf6, 0xcc, 0x21, 0xbe,
    0x03, 0xfe, 0xa1, 0x3b, 0x92, 0xe4, 0x9d, 0x3e, 0xe0, 0xbc, 0xa5, 0xbc,
    0x17, 0xf5, 0x91, 0x3d, 0x03, 0xb7, 0x1c, 0xbd, 0x22, 0x47, 0xd2, 0x3e,
    0x73, 0x99, 0x81, 0xbe, 0x0a, 0xf6, 0xff, 0xff, 0x04, 0x00, 0x00, 0x00,
    0x80, 0x07, 0x00, 0x00, 0x4a, 0x7e, 0x01, 0x3f, 0x9b, 0xc9, 0x93, 0xbe,
    0xfd, 0x12, 0x84, 0xbe, 0x05, 0x51, 0x20, 0x3e, 0xea, 0x27, 0x16, 0x3e,
    0x5f, 0xf7, 0x32, 0x3e, 0x13, 0x04, 0xb7, 0x3e, 0x03, 0xf7, 0xc0, 0x3e,
    0x9d, 0x83, 0xb8, 0xbe, 0xf9, 0x92, 0x9c, 0xbc, 0x24, 0xf5, 0x87, 0x3e,
    0x2d, 0x35, 0x50, 0xbe, 0xbd, 0x7d, 0xb9, 0x3d, 0x30, 0xbd, 0x85, 0xbd,
    0x3e, 0x86, 0x91, 0xbc, 0x8e, 0xce, 0x88, 0x3e, 0x1d, 0xcd, 0x46, 0x3e,
    0xef, 0xc3, 0x85, 0x3e, 0x39, 0x1d, 0x7f, 0x3e, 0xf3, 0x91, 0x1f, 0xbe,
    0x2b, 0x07, 0xca, 0xbd, 0x41, 0x89, 0x7f, 0xbc, 0x14, 0x44, 0x17, 0xbd,
    0x20, 0x89, 0xc4, 0xbe, 0xf6, 0xa1, 0x34, 0x3e, 0xcf, 0x5c, 0x56, 0x3e,
    0xf1, 0x6d, 0x21, 0xbe, 0x42, 0xe1, 0xa3, 0xba, 0xbf, 0x3c, 0xcb, 0xbe,
    0x84, 0x7d, 0x84, 0x3e, 0xe0, 0x0e, 0xa4, 0x3e, 0x91, 0xa9, 0x62, 0xbe,
    0x16, 0x61, 0x0b, 0xbf, 0x24, 0xb1, 0x66, 0x3e, 0x6e, 0x47, 0xe5, 0xbe,
    0x0f, 0x29, 0x0e, 0xbf, 0x50, 0x96, 0x0a, 0x3d, 0xe8, 0x9d, 0x55, 0x3e,
    0xc9, 0x76, 0xc6, 0xbe, 0xca, 0x80, 0x58, 0x3e, 0xe9, 0xc2, 0x5f, 0xbe,
    0xda, 0xb6, 0xb3, 0x3d, 0x7d, 0x65, 0x95, 0xbe, 0xf2, 0xb7, 0xa0, 0x3c,
    0x76, 0x70, 0x8c, 0x3e, 0x17, 0x10, 0x27, 0xbe, 0xe2, 0xf4, 0x8c, 0x3d,
    0xb2, 0x3d, 0x1a, 0xbd, 0xc0, 0xad, 0xc9, 0x3e, 0x20, 0x15, 0x84, 0xbe,
    0x52, 0x49, 0xbc, 0xbe, 0xf9, 0xbf, 0x73, 0x3e, 0x6b, 0xcc, 0x02, 0xbf,
    0x5f, 0xec, 0xe2, 0xbd, 0xed, 0x5b, 0x66, 0xbd, 0x35, 0x9c, 0x74, 0x3d,
    0x27, 0x8d, 0xc4, 0x3c, 0xca, 0xc6, 0xaf, 0xbe, 0x14, 0xf9, 0x37, 0xbe,
    0x3e, 0x00, 0xc1, 0x3d, 0x91, 0xa4, 0x06, 0xbf, 0xea, 0xc9, 0x80, 0x3e,
    0xf1, 0x5a, 0x34, 0xbe, 0xae, 0xc5, 0xa9, 0xbe, 0xea, 0x21, 0x2a, 0xbd,
    0xb8, 0xa8, 0xbc, 0xbe, 0x05, 0x6c, 0x4e, 0xbe, 0xad, 0xf3, 0xbf, 0xbc,
    0x6a, 0xf6, 0x8e, 0xbe, 0x71, 0xa2, 0x2e, 0xbe, 0x62, 0xa4, 0x65, 0xbc,
    0xe2, 0x3b, 0xd4, 0xbd, 0x1c, 0x5e, 0xab, 0xbe, 0x21, 0x5a, 0x05, 0xbc,
    0x42, 0x8c, 0xb5, 0x3b, 0x6f, 0x15, 0xc8, 0xbe, 0x11, 0xdc, 0x9d, 0x3e,
    0xe4, 0x57, 0xb4, 0xbe, 0xd0, 0x0d, 0x8b, 0xbe, 0x70, 0xbe, 0x1a, 0x3e,
    0xd8, 0x98, 0xc7, 0xbe, 0x73, 0x86, 0xbc, 0xbe, 0x6b, 0x40, 0xa6, 0xbe,
    0x18, 0xbf, 0xbe, 0xbe, 0x17, 0x06, 0xd0, 0x3d, 0x92, 0xbb, 0x85, 0xbe,
    0x8e, 0x57, 0x3f, 0xbe, 0xec, 0x51, 0x8e, 0xbe, 0xed, 0x04, 0x81, 0x3e,
    0xd2, 0x20, 0xaa, 0xbc, 0x3f, 0xf0, 0xb4, 0xbe, 0x48, 0x59, 0x83, 0x3e,
    0xc9, 0x77, 0x08, 0x3f, 0xb3, 0x7a, 0x00, 0xbe, 0xb6, 0x7d, 0xa3, 0xbe,
    0x22, 0x22, 0xff, 0x3e, 0x27, 0x77, 0xd1, 0xbe, 0x70, 0x2a, 0x91, 0x3d,
    0x38, 0xe2, 0x97, 0x3e, 0x18, 0xe8, 0x89, 0xbe, 0x91, 0x5a, 0x24, 0xbe,
    0xf2, 0xff, 0x77, 0xbe, 0xce, 0xb5, 0x2f, 0x3d, 0x48, 0x03, 0x12, 0xbe,
    0x8c, 0x96, 0x62, 0x3d, 0x0c, 0x90, 0xa7, 0x3c, 0x3e, 0x79, 0xce, 0xbd,
    0xdf, 0xbf, 0x36, 0xbf, 0xc5, 0x2a, 0x0c, 0x3e, 0x13, 0xa5, 0x56, 0xbe,
    0xa7, 0xcb, 0x12, 0xbf, 0x9f, 0xc9, 0xbd, 0xbe, 0x93, 0x01, 0x1e, 0xbd,
    0xdc, 0x2c, 0x87, 0xbe, 0xed, 0xd7, 0x7c, 0x3e, 0x60, 0x38, 0x12, 0x3e,
    0x54, 0xc4, 0x38, 0xbe, 0x33, 0xca, 0x2d, 0x3e, 0x88, 0xd8, 0xec, 0x3d,
    0x42, 0x9a, 0x4c, 0x3e, 0xd4, 0x62, 0x61, 0xbe, 0x30, 0x8f, 0xca, 0xbd,
    0x4c, 0x06, 0x13, 0x3e, 0xd3, 0xe5, 0xad, 0xbe, 0xcc, 0xf3, 0x8b, 0xbe,
    0x82, 0x49, 0x50, 0xbe, 0x49, 0x17, 0x2a, 0x3d, 0x77, 0xaa, 0x79, 0xbe,
    0x98, 0x17, 0x3b, 0xbe, 0x2c, 0x58, 0xbd, 0xbe, 0xbd, 0x5a, 0x70, 0x3e,
    0xaf, 0x46, 0xa0, 0x3e, 0x49, 0xc6, 0x4c, 0xbe, 0x20, 0x52, 0x5c, 0x3e,
    0x64, 0xb1, 0x25, 0x3e, 0x75, 0xfa, 0xc7, 0x3e, 0x72, 0x3e, 0x74, 0xbe,
    0xde, 0x33, 0xdc, 0xbe, 0x27, 0x23, 0xc1, 0x3e, 0xb8, 0xc4, 0x41, 0xbe,
    0x93, 0x21, 0x5b, 0xbe, 0x5a, 0xae, 0x90, 0xbe, 0xde, 0x6e, 0xd5, 0xbe,
    0xec, 0xcb, 0x08, 0xbe, 0xcf, 0x6c, 0x49, 0x3e, 0x75, 0x64, 0x08, 0x3e,
    0xe3, 0xf7, 0x59, 0x3e, 0xab, 0x9c, 0x4f, 0xbe, 0xfd, 0x9a, 0x81, 0x3e,
    0x7c, 0xb4, 0x95, 0xbe, 0x7f, 0xa7, 0x4b, 0xbe, 0x90, 0x31, 0x79, 0x3c,
    0x43, 0x6b, 0x2b, 0x3d, 0x5b, 0xfa, 0x2a, 0x3e, 0xa8, 0xa4, 0x01, 0x3e,
    0xba, 0x65, 0xd0, 0x3e, 0x86, 0xf7, 0x72, 0x3e, 0x6d, 0x9f, 0x6e, 0x3e,
    0xb7, 0xe5, 0x07, 0x3c, 0x1d, 0x9e, 0x21, 0xbd, 0x42, 0x96, 0xe9, 0x3c,
    0x6a, 0x8e, 0xd7, 0xbd, 0x3b, 0xf8, 0x53, 0x3d, 0x3d, 0x8c, 0x60, 0xbe,
    0x15, 0xa3, 0xa3, 0xbe, 0x9b, 0x97, 0x92, 0xbe, 0x0f, 0x0f, 0x9e, 0xbd,
    0x54, 0x24, 0xd5, 0xbe, 0x08, 0x7a, 0xbc, 0xbe, 0x33, 0x84, 0x16, 0xbe,
    0x10, 0xd1, 0xb6, 0xbe, 0x19, 0xb0, 0x94, 0x3e, 0x85, 0x2d, 0xa4, 0xbd,
    0x0e, 0x34, 0xc9, 0xbe, 0x2b, 0xd4, 0x1a, 0xbe, 0x74, 0xfd, 0x46, 0xbe,
    0x48, 0xa5, 0x12, 0xbd, 0x91, 0xc2, 0x90, 0x3d, 0xa3, 0x99, 0x2c, 0xbe,
    0xd2, 0x9e, 0x2e, 0xbe, 0x79, 0x3c, 0x26, 0xbe, 0x28, 0x00, 0x38, 0xbd,
    0xe0, 0xe6, 0x4d, 0x3e, 0x30, 0x9e, 0x0f, 0xbe, 0xac, 0x99, 0xb2, 0x3c,
    0xcb, 0xd9, 0xaf, 0xbd, 0x6e, 0xe5, 0x6b, 0x3c, 0xb0, 0x90, 0x30, 0x3d,
    0x51, 0x4d, 0xcf, 0xbe, 0xbb, 0x40, 0x6f, 0xbe, 0x93, 0x6d, 0x86, 0x3e,
    0x42, 0x77, 0x1d, 0xbd, 0x56, 0xfc, 0x9a, 0xbb, 0x5d, 0x6c, 0xdb, 0xbe,
    0x55, 0x75, 0xdb, 0xbd, 0xd6, 0x08, 0x83, 0x3e, 0x04, 0xbd, 0xa4, 0x3e,
    0x5a, 0x28, 0x82, 0xbd, 0x2b, 0xcf, 0x57, 0xbe, 0xc4, 0x09, 0x97, 0x3e,
    0x9f, 0xe5, 0x02, 0xbe, 0xbb, 0xe5, 0x62, 0x3e, 0x73, 0xdd, 0xd9, 0x3e,
    0xaa, 0x75, 0xca, 0x3d, 0x66, 0xdb, 0x52, 0xbe, 0x8e, 0x18, 0xa4, 0x3d,
    0x32, 0x9e, 0x7b, 0x3d, 0x93, 0x35, 0x37, 0x3e, 0x16, 0x77, 0x62, 0x3e,
    0x64, 0xe3, 0x95, 0x3e, 0xcf, 0x8d, 0x54, 0x3e, 0x17, 0x5f, 0x1e, 0x3e,
    0x18, 0x2e, 0xdb, 0xbd, 0x00, 0xad, 0x04, 0x3d, 0x9d, 0xbe, 0x7b, 0xbe,
    0x1f, 0x80, 0x42, 0x3e, 0x67, 0xe5, 0x10, 0x3e, 0x3c, 0x20, 0xa1, 0x3e,
    0xd5, 0xdb, 0x7b, 0xbe, 0x59, 0xe0, 0x85, 0xbe, 0x1b, 0xfb, 0x6f, 0x3e,
    0x71, 0x0e, 0x87, 0xbe, 0x6f, 0x46, 0x5a, 0xbe, 0x8a, 0x9f, 0xfd, 0x3c,
    0x72, 0xbe, 0xd2, 0xbc, 0xd9, 0xc8, 0xda, 0xbe, 0x6f, 0xc1, 0x5d, 0xbd,
    0x96, 0x0f, 0x86, 0x3e, 0xef, 0x20, 0xbc, 0xbe, 0xe9, 0xfe, 0x47, 0x3e,
    0x6f, 0xf8, 0xcc, 0xbd, 0xdf, 0xd4, 0xa3, 0xbe, 0xbe, 0x2f, 0xb4, 0x3e,
    0x5d, 0x04, 0x9a, 0x3e, 0xf5, 0x8d, 0x7d, 0x3e, 0x24, 0x8b, 0xd8, 0x3d,
    0x1a, 0x06, 0x58, 0x3d, 0x4a, 0x54, 0xbe, 0x3c, 0x6a, 0xab, 0x7a, 0xbd,
    0xb0, 0x34, 0xd9, 0x3d, 0xc3, 0x27, 0x9c, 0xbd, 0x40, 0xac, 0x57, 0xbc,
    0xea, 0x3b, 0x45, 0x3e, 0x95, 0x00, 0xa8, 0x3e, 0x99, 0xbc, 0xb1, 0xbe,
    0x3f, 0x35, 0x29, 0xbd, 0x4b, 0xcc, 0xed, 0xbd, 0xf8, 0x03, 0xe9, 0xbe,
    0x79, 0x1b, 0x3b, 0xbe, 0x8b, 0x8b, 0xd5, 0x3c, 0x62, 0xa1, 0x77, 0xbd,
    0x02, 0x13, 0xaa, 0x3e, 0x2e, 0x9f, 0x7e, 0x3e, 0x6f, 0x7c, 0xec, 0xbe,
    0x96, 0x50, 0x70, 0x3e, 0x41, 0xad, 0x6c, 0xbd, 0x21, 0x14, 0x77, 0x3e,
    0xff, 0x55, 0x40, 0xbe, 0x90, 0x5a, 0x17, 0xbe, 0xec, 0x53, 0x25, 0xbd,
    0x6e, 0xb6, 0x71, 0x3e, 0x9d, 0x2d, 0xec, 0x3d, 0xc2, 0x52, 0xdd, 0xbe,
    0xf5, 0xdd, 0x34, 0x3e, 0x15, 0x4b, 0x83, 0x3e, 0x13, 0x78, 0xaa, 0xbe,
    0x23, 0x27, 0x98, 0xbc, 0xa1, 0x34, 0xe7, 0xbd, 0x54, 0xd5, 0x8c, 0xbe,
    0x5d, 0x98, 0xba, 0x3c, 0x87, 0xb2, 0xba, 0xbe, 0xae, 0xf5, 0x2b, 0xbc,
    0x22, 0xe7, 0xc1, 0x3e, 0x99, 0xf0, 0x81, 0xbe, 0xd3, 0x2f, 0xb6, 0x3c,
    0x3d, 0xc6, 0x21, 0x3f, 0x70, 0x20, 0x90, 0x3e, 0x3b, 0xc5, 0x8b, 0xbe,
    0xa6, 0x33, 0x80, 0x3e, 0xef, 0x41, 0x0b, 0xbe, 0x5a, 0x41, 0xaa, 0x3e,
    0xf1, 0x01, 0x07, 0xbe, 0x40, 0x25, 0x0b, 0x3c, 0x91, 0x26, 0x25, 0x3e,
    0x4c, 0x9f, 0x54, 0xbe, 0x0d, 0xe9, 0xd7, 0xbe, 0x38, 0xa7, 0x95, 0xbd,
    0xb2, 0xec, 0x2f, 0xbe, 0x2d, 0xa5, 0x95, 0xbe, 0x6b, 0xef, 0x24, 0xbf,
    0x5f, 0x73, 0x0c, 0xbe, 0x58, 0xe2, 0x02, 0xbe, 0xa3, 0xcb, 0x62, 0xbe,
    0xe5, 0xe7, 0x0a, 0x3e, 0x7b, 0x72, 0xb9, 0x3d, 0xcc, 0x3e, 0xc1, 0x3a,
    0x8f, 0x88, 0x6d, 0xbe, 0x3a, 0xc0, 0xf5, 0xbc, 0xcb, 0xfd, 0x0b, 0xbe,
    0x57, 0x85, 0x8a, 0x3e, 0x0b, 0xe3, 0x3c, 0x3e, 0x43, 0x7f, 0x9a, 0xbe,
    0xae, 0xb9, 0xe8, 0x3d, 0x1b, 0x80, 0x9e, 0xbd, 0x72, 0x49, 0x81, 0x3c,
    0x81, 0xec, 0x34, 0xbd, 0x80, 0x89, 0xad, 0x3e, 0xf4, 0x12, 0x9a, 0x3e,
    0xf9, 0x18, 0xe0, 0x3d, 0x90, 0x67, 0x7d, 0x3c, 0x9e, 0x73, 0xef, 0x3d,
    0x65, 0x47, 0x34, 0xbe, 0x3b, 0x87, 0x1b, 0xbe, 0x0d, 0xef, 0xa9, 0x3e,
    0xfc, 0xac, 0xa8, 0xbe, 0x7d, 0x5c, 0x17, 0xbd, 0xd0, 0x9b, 0xda, 0xbd,
    0x6a, 0xa9, 0xc3, 0x3d, 0x88, 0x94, 0x2b, 0x3e, 0x69, 0x6b, 0x43, 0xbe,
    0xd3, 0xd4, 0xa0, 0x3e, 0x4e, 0x08, 0x91, 0x3e, 0x40, 0x84, 0x77, 0xbe,
    0xe0, 0x75, 0x42, 0xbe, 0x60, 0x9b, 0xc3, 0x3e, 0xb4, 0x4f, 0xfc, 0x3d,
    0x19, 0x07, 0x71, 0x3e, 0x3a, 0x87, 0x45, 0xbe, 0xc4, 0xff, 0x7f, 0xbe,
    0xd9, 0x75, 0x80, 0xbe, 0xd7, 0x2d, 0x5c, 0x3d, 0xdd, 0x82, 0x6d, 0x3e,
    0x4a, 0x12, 0x24, 0x3e, 0xa5, 0x6b, 0xcf, 0xbe, 0x67, 0x90, 0x56, 0xbe,
    0x61, 0x6e, 0x7d, 0xbd, 0x92, 0x9f, 0xa8, 0xbc, 0x44, 0x45, 0x09, 0x3f,
    0xa0, 0x1a, 0xd3, 0xbd, 0xf7, 0x8b, 0x88, 0xbd, 0xcb, 0xc5, 0x1f, 0xbe,
    0x2c, 0x41, 0xc0, 0x3d, 0x9b, 0x5b, 0x76, 0x3d, 0x9a, 0xe3, 0x5c, 0x3d,
    0x75, 0xe6, 0xc2, 0xbe, 0xee, 0x39, 0xc6, 0x3e, 0xc2, 0x08, 0xa8, 0x3d,
    0x78, 0x50, 0x20, 0xbf, 0x70, 0x84, 0xd7, 0x3e, 0xf4, 0xaf, 0x18, 0xbe,
    0x36, 0xc3, 0x2d, 0xbf, 0xc3, 0x4b, 0x84, 0xbe, 0x54, 0xf1, 0x2b, 0x3e,
    0xce, 0xfc, 0x88, 0xbe, 0xac, 0x76, 0x03, 0xbe, 0xb1, 0xc8, 0xc1, 0x3e,
    0xc9, 0x6a, 0xe3, 0x3d, 0x4a, 0xfa, 0x49, 0x3e, 0x58, 0x85, 0x88, 0x3d,
    0x9e, 0xd0, 0x53, 0xbe, 0x94, 0x5f, 0xd7, 0x3d, 0x7d, 0x1a, 0x90, 0xbc,
    0xa5, 0x90, 0x59, 0x3d, 0x82, 0x47, 0xd7, 0xbd, 0x49, 0x48, 0xd8, 0x3e,
    0xb1, 0xd6, 0xe2, 0x3e, 0xf3, 0xd9, 0x84, 0xbe, 0xbe, 0xf3, 0xd2, 0xbe,
    0x67, 0x82, 0xa4, 0xbe, 0xed, 0x33, 0xeb, 0x3d, 0xdd, 0xae, 0x82, 0x3e,
    0xe9, 0xfd, 0x47, 0xbc, 0xf4, 0xda, 0xdd, 0x3d, 0x71, 0x3e, 0xa7, 0xbe,
    0x32, 0x9f, 0xa0, 0xbe, 0x9a, 0x04, 0xb2, 0xbe, 0x5d, 0x1f, 0x69, 0x3d,
    0x79, 0x12, 0x8c, 0xbe, 0xaf, 0xb4, 0xdf, 0xbc, 0x8b, 0x23, 0xbf, 0x3b,
    0x58, 0xe7, 0x1a, 0xbe, 0x2d, 0x1f, 0x03, 0x3e, 0xa1, 0x12, 0x4d, 0x3e,
    0xe8, 0x62, 0xa2, 0xbd, 0xcf, 0xd8, 0x77, 0xbd, 0x17, 0xf6, 0x3a, 0xbe,
    0xef, 0x04, 0xcc, 0xbe, 0x9a, 0x14, 0xd4, 0x3e, 0x5e, 0x61, 0x4e, 0x3e,
    0x34, 0x54, 0x9d, 0xbb, 0x1b, 0x4a, 0x44, 0xbe, 0x0a, 0xf7, 0x76, 0xbb,
    0xe0, 0x43, 0xba, 0xbe, 0xa3, 0x0a, 0x04, 0xbd, 0xda, 0x17, 0x3a, 0xbe,
    0xaa, 0xcb, 0xdf, 0xbe, 0x70, 0x25, 0xe4, 0x3c, 0xf7, 0xcf, 0x00, 0xbf,
    0x89, 0xeb, 0xb5, 0xbd, 0xd8, 0x7a, 0xba, 0x3e, 0xbb, 0x76, 0x98, 0xbe,
    0xd2, 0xfd, 0x51, 0x3e, 0x9f, 0xd3, 0xab, 0xbe, 0x2a, 0x12, 0x95, 0xbe,
    0x9f, 0x96, 0x5c, 0xbe, 0xfb, 0x2c, 0x6c, 0x3e, 0xf2, 0x08, 0xe4, 0xbd,
    0xb4, 0x78, 0x80, 0xbe, 0xfd, 0x5d, 0x19, 0x3c, 0x86, 0x11, 0x5c, 0x3e,
    0x38, 0x9f, 0x9d, 0x3d, 0x15, 0x8b, 0x5c, 0xbe, 0x83, 0xe8, 0x2e, 0x3d,
    0x1e, 0x38, 0x68, 0x3d, 0xa2, 0x2e, 0x33, 0x3e, 0x3b, 0x35, 0x62, 0xbe,
    0x63, 0x00, 0x9a, 0x3e, 0x43, 0x75, 0xff, 0xbb, 0x82, 0xcc, 0x66, 0x3e,
    0x0d, 0xcd, 0x87, 0x3e, 0xd8, 0x64, 0xc9, 0xbb, 0x0c, 0xf5, 0xf5, 0xbd,
    0x83, 0x9a, 0xc0, 0x3d, 0x6f, 0x67, 0x8a, 0xbe, 0xcf, 0x06, 0xb9, 0x3e,
    0xad, 0x6d, 0x85, 0xbe, 0x53, 0xcd, 0x3d, 0xbe, 0x85, 0xd2, 0x97, 0xbe,
    0xe3, 0x89, 0xb9, 0x3e, 0xab, 0xcb, 0x7b, 0x3e, 0xf1, 0x1a, 0x3a, 0xbe,
    0x31, 0xbf, 0xdc, 0xbd, 0x5f, 0x80, 0xb4, 0xbe, 0x3b, 0x65, 0x91, 0xbd,
    0x0b, 0x0c, 0x48, 0x3e, 0x47, 0xb4, 0xf3, 0xbd, 0x1c, 0x6b, 0xe9, 0xb9,
    0x35, 0x65, 0xd4, 0xbd, 0x6b, 0x65, 0xa7, 0x3e, 0xfa, 0xb9, 0xca, 0x3e,
    0x16, 0x68, 0xf0, 0x3d, 0x77, 0x98, 0xb2, 0xbe, 0x9d, 0xa6, 0xa0, 0xbe,
    0x89, 0x70, 0x71, 0x3c, 0xae, 0x64, 0x32, 0xbe, 0x35, 0xaa, 0xaf, 0x3e,
    0x83, 0xfa, 0x85, 0x3e, 0x39, 0xb2, 0x4c, 0xbe, 0xdb, 0x79, 0x28, 0xbd,
    0x4f, 0x25, 0x8d, 0xbe, 0x08, 0x04, 0x1a, 0x3e, 0x1e, 0xc7, 0x67, 0xbc,
    0xdf, 0x0f, 0x9c, 0x3e, 0xdc, 0xc1, 0x77, 0xbe, 0xd0, 0xb0, 0x95, 0xbe,
    0xe3, 0xe2, 0x14, 0xbe, 0xb8, 0xf1, 0x91, 0xbe, 0x9f, 0x65, 0x05, 0xbf,
    0x77, 0x2f, 0xe9, 0xbd, 0x69, 0xaa, 0x29, 0xbe, 0xc6, 0x3f, 0xaa, 0xbe,
    0x67, 0x3c, 0xd9, 0x3d, 0x88, 0x18, 0x0d, 0xbe, 0x13, 0xd1, 0x7b, 0xbe,
    0xf5, 0xc9, 0x34, 0xbe, 0x7f, 0x8b, 0xb4, 0x3e, 0x33, 0x11, 0x7b, 0x3e,
    0x38, 0x59, 0xfc, 0x3e, 0x2f, 0x78, 0xd8, 0x3e, 0xad, 0x90, 0xc5, 0x3e,
    0x2d, 0xdd, 0x08, 0x3f, 0x52, 0xdb, 0x7b, 0x3e, 0x96, 0xf3, 0x2e, 0xbe,
    0x00, 0xb8, 0xaf, 0x3c, 0x55, 0x9a, 0xcb, 0x3e, 0x0e, 0xde, 0x7a, 0x3e,
    0x73, 0x65, 0xf1, 0x3d, 0x7b, 0x92, 0x20, 0x3d, 0x41, 0xf7, 0x12, 0xbe,
    0x38, 0x93, 0x53, 0x3e, 0x96, 0xfd, 0xff, 0xff, 0x04, 0x00, 0x00, 0x00,
    0x80, 0x00, 0x00, 0x00, 0x20, 0xf1, 0x4a, 0x3e, 0xbe, 0xb6, 0xfa, 0xbd,
    0xd9, 0x77, 0xe3, 0x3c, 0x9f, 0xd4, 0x94, 0xbd, 0xd0, 0x72, 0x79, 0xbb,
    0x59, 0x67, 0x5f, 0x3d, 0xf0, 0xde, 0x1c, 0xbc, 0x49, 0xfb, 0xf4, 0x3d,
    0xfe, 0xe6, 0xbf, 0xbc, 0x1c, 0x17, 0xe2, 0xbd, 0xd1, 0x6a, 0x09, 0x3e,
    0x8e, 0xfd, 0xe5, 0x3c, 0xb6, 0x53, 0x88, 0x3c, 0xd4, 0x49, 0x04, 0x3d,
    0x74, 0x49, 0xbc, 0xbc, 0xb4, 0x03, 0xeb, 0x3d, 0x68, 0x72, 0xd5, 0xbd,
    0x53, 0xe6, 0x30, 0xbe, 0x37, 0xe3, 0x9d, 0x3d, 0xad, 0x24, 0x3c, 0x3d,
    0xd2, 0x18, 0x2e, 0x3d, 0xe2, 0xa1, 0xe1, 0xbd, 0xba, 0x66, 0x4f, 0x3e,
    0x90, 0x06, 0x82, 0x3d, 0x8a, 0x99, 0xa4, 0xbc, 0xc5, 0xeb, 0x59, 0x3d,
    0xf6, 0xad, 0x8b, 0xbd, 0x03, 0x03, 0x58, 0xbc, 0x1a, 0x6f, 0x3b, 0xbd,
    0xee, 0x0c, 0xb1, 0xbb, 0x27, 0xc5, 0x0c, 0xbe, 0x21, 0xd3, 0x36, 0xbc,
    0x22, 0xfe, 0xff, 0xff, 0x04, 0x00, 0x00, 0x00, 0x80, 0x00, 0x00, 0x00,
    0xc4, 0x64, 0x1c, 0xbd, 0x00, 0x00, 0x00, 0x00, 0x39, 0xd7, 0xa1, 0xbd,
    0xc7, 0x31, 0x5c, 0xbd, 0x57, 0x7b, 0xf5, 0xbd, 0x5c, 0x75, 0x04, 0xbd,
    0x02, 0x1c, 0x0f, 0x3d, 0x4c, 0xa7, 0x58, 0xbd, 0xd3, 0xd2, 0xbd, 0xbd,
    0x7e, 0x9a, 0xed, 0x3c, 0x34, 0xa0, 0xc7, 0xbc, 0x00, 0x87, 0xfe, 0x3d,
    0x00, 0x00, 0x00, 0x00, 0x46, 0x67, 0x22, 0x3d, 0xc5, 0x3a, 0x42, 0x3d,
    0xcb, 0x58, 0x1f, 0xbd, 0xdd, 0x2f, 0x1d, 0x3b, 0x00, 0x00, 0x00, 0x00,
    0x9a, 0xfb, 0xcd, 0x3b, 0xe5, 0xa7, 0xb4, 0x3b, 0x30, 0xd1, 0x6e, 0xbd,
    0x89, 0x56, 0x1c, 0x3e, 0xd6, 0x48, 0xcb, 0x3d, 0x95, 0x4b, 0xd5, 0xbc,
    0xa1, 0x4e, 0xf0, 0x3d, 0xf1, 0xce, 0xe7, 0xbd, 0x79, 0x1c, 0x6f, 0x3e,
    0x7c, 0x69, 0xfa, 0xbb, 0xcb, 0x69, 0xab, 0x3d, 0x30, 0x6f, 0x48, 0x3d,
    0x26, 0x52, 0xac, 0xbd, 0x15, 0x5f, 0xa5, 0xbd, 0xae, 0xfe, 0xff, 0xff,
    0x04, 0x00, 0x00, 0x00, 0x80, 0x00, 0x00, 0x00, 0xa1, 0xce, 0x99, 0xbc,
    0x60, 0xc2, 0x1a, 0xbd, 0x00, 0x00, 0x00, 0x00, 0x86, 0x68, 0x57, 0x3c,
    0x00, 0x00, 0x00, 0x00, 0x10, 0x14, 0x2d, 0x3e, 0x7d, 0x44, 0x0e, 0xbe,
    0x66, 0x0a, 0x45, 0x3e, 0x49, 0xdc, 0xee, 0xbc, 0x47, 0x91, 0xd1, 0xbc,
    0x00, 0x00, 0x00, 0x00, 0xa3, 0x3e, 0x89, 0xbc, 0x08, 0x9b, 0xdb, 0x3d,
    0x49, 0x05, 0x74, 0x3d, 0x3c, 0x5c, 0xb3, 0xbc, 0x22, 0x44, 0x2a, 0xbc,
    0xcb, 0xcf, 0x78, 0x3d, 0x01, 0x3d, 0x00, 0xbd, 0xf6, 0xaa, 0x1b, 0xbd,
    0xd6, 0x19, 0x9d, 0xbd, 0x22, 0x18, 0x5c, 0xbd, 0x33, 0x4d, 0x18, 0xbd,
    0x9e, 0xab, 0x93, 0xbc, 0x00, 0x00, 0x00, 0x00, 0x2c, 0x44, 0x39, 0xbd,
    0xee, 0xd9, 0x7d, 0xbd, 0x00, 0x00, 0x00, 0x00, 0x3b, 0xf4, 0xe3, 0xbb,
    0x75, 0x9e, 0x42, 0x3d, 0xa6, 0x25, 0x1f, 0xbd, 0xf2, 0xb7, 0x5a, 0xbc,
    0xfb, 0x5f, 0x15, 0x3c, 0x3a, 0xff, 0xff, 0xff, 0x04, 0x00, 0x00, 0x00,
    0x20, 0x00, 0x00, 0x00, 0xe0, 0xba, 0xa9, 0xbd, 0xf8, 0x0c, 0x88, 0xbd,
    0x5d, 0x14, 0x37, 0xbd, 0x91, 0xe5, 0x2e, 0xbc, 0xdd, 0xd3, 0x45, 0x3e,
    0x75, 0x45, 0x38, 0x3c, 0xe1, 0xed, 0x66, 0xbd, 0xf0, 0x55, 0x9b, 0x3c,
    0xe0, 0xf8, 0xff, 0xff, 0xe4, 0xf8, 0xff, 0xff, 0x0f, 0x00, 0x00, 0x00,
    0x4d, 0x4c, 0x49, 0x52, 0x20, 0x43, 0x6f, 0x6e, 0x76, 0x65, 0x72, 0x74,
    0x65, 0x64, 0x2e, 0x00, 0x01, 0x00, 0x00, 0x00, 0x14, 0x00, 0x00, 0x00,
    0x00, 0x00, 0x0e, 0x00, 0x18, 0x00, 0x14, 0x00, 0x10, 0x00, 0x0c, 0x00,
    0x08, 0x00, 0x04, 0x00, 0x0e, 0x00, 0x00, 0x00, 0x14, 0x00, 0x00, 0x00,
    0x1c, 0x00, 0x00, 0x00, 0x5c, 0x01, 0x00, 0x00, 0x60, 0x01, 0x00, 0x00,
    0x64, 0x01, 0x00, 0x00, 0x04, 0x00, 0x00, 0x00, 0x6d, 0x61, 0x69, 0x6e,
    0x00, 0x00, 0x00, 0x00, 0x05, 0x00, 0x00, 0x00, 0x04, 0x01, 0x00, 0x00,
    0xbc, 0x00, 0x00, 0x00, 0x84, 0x00, 0x00, 0x00, 0x50, 0x00, 0x00, 0x00,
    0x14, 0x00, 0x00, 0x00, 0x00, 0x00, 0x0e, 0x00, 0x1a, 0x00, 0x14, 0x00,
    0x10, 0x00, 0x0c, 0x00, 0x0b, 0x00, 0x04, 0x00, 0x0e, 0x00, 0x00, 0x00,
    0x1c, 0x00, 0x00, 0x00, 0x00, 0x00, 0x00, 0x09, 0x1c, 0x00, 0x00, 0x00,
    0x20, 0x00, 0x00, 0x00, 0x01, 0x00, 0x00, 0x00, 0x00, 0x00, 0x06, 0x00,
    0x08, 0x00, 0x04, 0x00, 0x06, 0x00, 0x00, 0x00, 0x00, 0x00, 0x80, 0x3f,
    0x01, 0x00, 0x00, 0x00, 0x0d, 0x00, 0x00, 0x00, 0x01, 0x00, 0x00, 0x00,
    0x0c, 0x00, 0x00, 0x00, 0x66, 0xff, 0xff, 0xff, 0x10, 0x00, 0x00, 0x00,
    0x00, 0x00, 0x00, 0x08, 0x0c, 0x00, 0x00, 0x00, 0x10, 0x00, 0x00, 0x00,
    0xac, 0xf9, 0xff, 0xff, 0x01, 0x00, 0x00, 0x00, 0x0c, 0x00, 0x00, 0x00,
    0x03, 0x00, 0x00, 0x00, 0x0b, 0x00, 0x00, 0x00, 0x08, 0x00, 0x00, 0x00,
    0x01, 0x00, 0x00, 0x00, 0x96, 0xff, 0xff, 0xff, 0x10, 0x00, 0x00, 0x00,
    0x00, 0x00, 0x00, 0x08, 0x10, 0x00, 0x00, 0x00, 0x14, 0x00, 0x00, 0x00,
    0x86, 0xff, 0xff, 0xff, 0x00, 0x00, 0x00, 0x01, 0x01, 0x00, 0x00, 0x00,
    0x0b, 0x00, 0x00, 0x00, 0x03, 0x00, 0x00, 0x00, 0x0a, 0x00, 0x00, 0x00,
    0x07, 0x00, 0x00, 0x00, 0x02, 0x00, 0x00, 0x00, 0xca, 0xff, 0xff, 0xff,
    0x10, 0x00, 0x00, 0x00, 0x00, 0x00, 0x00, 0x08, 0x10, 0x00, 0x00, 0x00,
    0x14, 0x00, 0x00, 0x00, 0xba, 0xff, 0xff, 0xff, 0x00, 0x00, 0x00, 0x01,
    0x01, 0x00, 0x00, 0x00, 0x0a, 0x00, 0x00, 0x00, 0x03, 0x00, 0x00, 0x00,
    0x09, 0x00, 0x00, 0x00, 0x06, 0x00, 0x00, 0x00, 0x03, 0x00, 0x00, 0x00,
    0x00, 0x00, 0x0e, 0x00, 0x16, 0x00, 0x00, 0x00, 0x10, 0x00, 0x0c, 0x00,
    0x0b, 0x00, 0x04, 0x00, 0x0e, 0x00, 0x00, 0x00, 0x18, 0x00, 0x00, 0x00,
    0x00, 0x00, 0x00, 0x08, 0x18, 0x00, 0x00, 0x00, 0x1c, 0x00, 0x00, 0x00,
    0x00, 0x00, 0x06, 0x00, 0x08, 0x00, 0x07, 0x00, 0x06, 0x00, 0x00, 0x00,
    0x00, 0x00, 0x00, 0x01, 0x01, 0x00, 0x00, 0x00, 0x09, 0x00, 0x00, 0x00,
    0x03, 0x00, 0x00, 0x00, 0x00, 0x00, 0x00, 0x00, 0x05, 0x00, 0x00, 0x00,
    0x04, 0x00, 0x00, 0x00, 0x01, 0x00, 0x00, 0x00, 0x0d, 0x00, 0x00, 0x00,
    0x01, 0x00, 0x00, 0x00, 0x00, 0x00, 0x00, 0x00, 0x0e, 0x00, 0x00, 0x00,
    0x48, 0x05, 0x00, 0x00, 0xd8, 0x04, 0x00, 0x00, 0x68, 0x04, 0x00, 0x00,
    0x10, 0x04, 0x00, 0x00, 0xb8, 0x03, 0x00, 0x00, 0x6c, 0x03, 0x00, 0x00,
    0x20, 0x03, 0x00, 0x00, 0xd4, 0x02, 0x00, 0x00, 0x88, 0x02, 0x00, 0x00,
    0xf8, 0x01, 0x00, 0x00, 0x68, 0x01, 0x00, 0x00, 0xd8, 0x00, 0x00, 0x00,
    0x60, 0x00, 0x00, 0x00, 0x04, 0x00, 0x00, 0x00, 0x06, 0xfb, 0xff, 0xff,
    0x00, 0x00, 0x00, 0x01, 0x14, 0x00, 0x00, 0x00, 0x1c, 0x00, 0x00, 0x00,
    0x1c, 0x00, 0x00, 0x00, 0x0e, 0x00, 0x00, 0x00, 0x34, 0x00, 0x00, 0x00,
    0x02, 0x00, 0x00, 0x00, 0xff, 0xff, 0xff, 0xff, 0x08, 0x00, 0x00, 0x00,
    0xf0, 0xfa, 0xff, 0xff, 0x19, 0x00, 0x00, 0x00, 0x53, 0x74, 0x61, 0x74,
    0x65, 0x66, 0x75, 0x6c, 0x50, 0x61, 0x72, 0x74, 0x69, 0x74, 0x69, 0x6f,
    0x6e, 0x65, 0x64, 0x43, 0x61, 0x6c, 0x6c, 0x3a, 0x30, 0x00, 0x00, 0x00,
    0x02, 0x00, 0x00, 0x00, 0x01, 0x00, 0x00, 0x00, 0x08, 0x00, 0x00, 0x00,
    0x5e, 0xfb, 0xff, 0xff, 0x00, 0x00, 0x00, 0x01, 0x14, 0x00, 0x00, 0x00,
    0x1c, 0x00, 0x00, 0x00, 0x1c, 0x00, 0x00, 0x00, 0x0d, 0x00, 0x00, 0x00,
    0x50, 0x00, 0x00, 0x00, 0x02, 0x00, 0x00, 0x00, 0xff, 0xff, 0xff, 0xff,
    0x08, 0x00, 0x00, 0x00, 0x48, 0xfb, 0xff, 0xff, 0x34, 0x00, 0x00, 0x00,
    0x6c, 0x77, 0x33, 0x32, 0x5f, 0x6d, 0x64, 0x32, 0x2f, 0x64, 0x65, 0x6e,
    0x73, 0x65, 0x5f, 0x31, 0x39, 0x30, 0x2f, 0x4d, 0x61, 0x74, 0x4d, 0x75,
    0x6c, 0x3b, 0x6c, 0x77, 0x33, 0x32, 0x5f, 0x6d, 0x64, 0x32, 0x2f, 0x64,
    0x65, 0x6e, 0x73, 0x65, 0x5f, 0x31, 0x39, 0x30, 0x2f, 0x42, 0x69, 0x61,
    0x73, 0x41, 0x64, 0x64, 0x00, 0x00, 0x00, 0x00, 0x02, 0x00, 0x00, 0x00,
    0x01, 0x00, 0x00, 0x00, 0x08, 0x00, 0x00, 0x00, 0xd2, 0xfb, 0xff, 0xff,
    0x00, 0x00, 0x00, 0x01, 0x14, 0x00, 0x00, 0x00, 0x1c, 0x00, 0x00, 0x00,
    0x1c, 0x00, 0x00, 0x00, 0x0c, 0x00, 0x00, 0x00, 0x68, 0x00, 0x00, 0x00,
    0x02, 0x00, 0x00, 0x00, 0xff, 0xff, 0xff, 0xff, 0x20, 0x00, 0x00, 0x00,
    0xbc, 0xfb, 0xff, 0xff, 0x4c, 0x00, 0x00, 0x00, 0x6c, 0x77, 0x33, 0x32,
    0x5f, 0x6d, 0x64, 0x32, 0x2f, 0x64, 0x65, 0x6e, 0x73, 0x65, 0x5f, 0x31,
    0x38, 0x39, 0x2f, 0x4d, 0x61, 0x74, 0x4d, 0x75, 0x6c, 0x3b, 0x6c, 0x77,
    0x33, 0x32, 0x5f, 0x6d, 0x64, 0x32, 0x2f, 0x64, 0x65, 0x6e, 0x73, 0x65,
    0x5f, 0x31, 0x38, 0x39, 0x2f, 0x52, 0x65, 0x6c, 0x75, 0x3b, 0x6c, 0x77,
    0x33, 0x32, 0x5f, 0x6d, 0x64, 0x32, 0x2f, 0x64, 0x65, 0x6e, 0x73, 0x65,
    0x5f, 0x31, 0x38, 0x39, 0x2f, 0x42, 0x69, 0x61, 0x73, 0x41, 0x64, 0x64,
    0x00, 0x00, 0x00, 0x00, 0x02, 0x00, 0x00, 0x00, 0x01, 0x00, 0x00, 0x00,
    0x20, 0x00, 0x00, 0x00, 0x5e, 0xfc, 0xff, 0xff, 0x00, 0x00, 0x00, 0x01,
    0x14, 0x00, 0x00, 0x00, 0x1c, 0x00, 0x00, 0x00, 0x1c, 0x00, 0x00, 0x00,
    0x0b, 0x00, 0x00, 0x00, 0x68, 0x00, 0x00, 0x00, 0x02, 0x00, 0x00, 0x00,
    0xff, 0xff, 0xff, 0xff, 0x20, 0x00, 0x00, 0x00, 0x48, 0xfc, 0xff, 0xff,
    0x4c, 0x00, 0x00, 0x00, 0x6c, 0x77, 0x33, 0x32, 0x5f, 0x6d, 0x64, 0x32,
    0x2f, 0x64, 0x65, 0x6e, 0x73, 0x65, 0x5f, 0x31, 0x38, 0x38, 0x2f, 0x4d,
    0x61, 0x74, 0x4d, 0x75, 0x6c, 0x3b, 0x6c, 0x77, 0x33, 0x32, 0x5f, 0x6d,
    0x64, 0x32, 0x2f, 0x64, 0x65, 0x6e, 0x73, 0x65, 0x5f, 0x31, 0x38, 0x38,
    0x2f, 0x52, 0x65, 0x6c, 0x75, 0x3b, 0x6c, 0x77, 0x33, 0x32, 0x5f, 0x6d,
    0x64, 0x32, 0x2f, 0x64, 0x65, 0x6e, 0x73, 0x65, 0x5f, 0x31, 0x38, 0x38,
    0x2f, 0x42, 0x69, 0x61, 0x73, 0x41, 0x64, 0x64, 0x00, 0x00, 0x00, 0x00,
    0x02, 0x00, 0x00, 0x00, 0x01, 0x00, 0x00, 0x00, 0x20, 0x00, 0x00, 0x00,
    0xea, 0xfc, 0xff, 0xff, 0x00, 0x00, 0x00, 0x01, 0x14, 0x00, 0x00, 0x00,
    0x1c, 0x00, 0x00, 0x00, 0x1c, 0x00, 0x00, 0x00, 0x0a, 0x00, 0x00, 0x00,
    0x68, 0x00, 0x00, 0x00, 0x02, 0x00, 0x00, 0x00, 0xff, 0xff, 0xff, 0xff,
    0x20, 0x00, 0x00, 0x00, 0xd4, 0xfc, 0xff, 0xff, 0x4c, 0x00, 0x00, 0x00,
    0x6c, 0x77, 0x33, 0x32, 0x5f, 0x6d, 0x64, 0x32, 0x2f, 0x64, 0x65, 0x6e,
    0x73, 0x65, 0x5f, 0x31, 0x38, 0x37, 0x2f, 0x4d, 0x61, 0x74, 0x4d, 0x75,
    0x6c, 0x3b, 0x6c, 0x77, 0x33, 0x32, 0x5f, 0x6d, 0x64, 0x32, 0x2f, 0x64,
    0x65, 0x6e, 0x73, 0x65, 0x5f, 0x31, 0x38, 0x37, 0x2f, 0x52, 0x65, 0x6c,
    0x75, 0x3b, 0x6c, 0x77, 0x33, 0x32, 0x5f, 0x6d, 0x64, 0x32, 0x2f, 0x64,
    0x65, 0x6e, 0x73, 0x65, 0x5f, 0x31, 0x38, 0x37, 0x2f, 0x42, 0x69, 0x61,
    0x73, 0x41, 0x64, 0x64, 0x00, 0x00, 0x00, 0x00, 0x02, 0x00, 0x00, 0x00,
    0x01, 0x00, 0x00, 0x00, 0x20, 0x00, 0x00, 0x00, 0xe2, 0xfd, 0xff, 0xff,
    0x00, 0x00, 0x00, 0x01, 0x10, 0x00, 0x00, 0x00, 0x10, 0x00, 0x00, 0x00,
    0x09, 0x00, 0x00, 0x00, 0x28, 0x00, 0x00, 0x00, 0x50, 0xfd, 0xff, 0xff,
    0x19, 0x00, 0x00, 0x00, 0x6c, 0x77, 0x33, 0x32, 0x5f, 0x6d, 0x64, 0x32,
    0x2f, 0x64, 0x65, 0x6e, 0x73, 0x65, 0x5f, 0x31, 0x39, 0x30, 0x2f, 0x4d,
    0x61, 0x74, 0x4d, 0x75, 0x6c, 0x00, 0x00, 0x00, 0x02, 0x00, 0x00, 0x00,
    0x08, 0x00, 0x00, 0x00, 0x20, 0x00, 0x00, 0x00, 0x2a, 0xfe, 0xff, 0xff,
    0x00, 0x00, 0x00, 0x01, 0x10, 0x00, 0x00, 0x00, 0x10, 0x00, 0x00, 0x00,
    0x08, 0x00, 0x00, 0x00, 0x28, 0x00, 0x00, 0x00, 0x98, 0xfd, 0xff, 0xff,
    0x19, 0x00, 0x00, 0x00, 0x6c, 0x77, 0x33, 0x32, 0x5f, 0x6d, 0x64, 0x32,
    0x2f, 0x64, 0x65, 0x6e, 0x73, 0x65, 0x5f, 0x31, 0x38, 0x39, 0x2f, 0x4d,
    0x61, 0x74, 0x4d, 0x75, 0x6c, 0x00, 0x00, 0x00, 0x02, 0x00, 0x00, 0x00,
    0x20, 0x00, 0x00, 0x00, 0x20, 0x00, 0x00, 0x00, 0x72, 0xfe, 0xff, 0xff,
    0x00, 0x00, 0x00, 0x01, 0x10, 0x00, 0x00, 0x00, 0x10, 0x00, 0x00, 0x00,
    0x07, 0x00, 0x00, 0x00, 0x28, 0x00, 0x00, 0x00, 0xe0, 0xfd, 0xff, 0xff,
    0x19, 0x00, 0x00, 0x00, 0x6c, 0x77, 0x33, 0x32, 0x5f, 0x6d, 0x64, 0x32,
    0x2f, 0x64, 0x65, 0x6e, 0x73, 0x65, 0x5f, 0x31, 0x38, 0x38, 0x2f, 0x4d,
    0x61, 0x74, 0x4d, 0x75, 0x6c, 0x00, 0x00, 0x00, 0x02, 0x00, 0x00, 0x00,
    0x20, 0x00, 0x00, 0x00, 0x20, 0x00, 0x00, 0x00, 0xba, 0xfe, 0xff, 0xff,
    0x00, 0x00, 0x00, 0x01, 0x10, 0x00, 0x00, 0x00, 0x10, 0x00, 0x00, 0x00,
    0x06, 0x00, 0x00, 0x00, 0x28, 0x00, 0x00, 0x00, 0x28, 0xfe, 0xff, 0xff,
    0x19, 0x00, 0x00, 0x00, 0x6c, 0x77, 0x33, 0x32, 0x5f, 0x6d, 0x64, 0x32,
    0x2f, 0x64, 0x65, 0x6e, 0x73, 0x65, 0x5f, 0x31, 0x38, 0x37, 0x2f, 0x4d,
    0x61, 0x74, 0x4d, 0x75, 0x6c, 0x00, 0x00, 0x00, 0x02, 0x00, 0x00, 0x00,
    0x20, 0x00, 0x00, 0x00, 0x0f, 0x00, 0x00, 0x00, 0x02, 0xff, 0xff, 0xff,
    0x00, 0x00, 0x00, 0x01, 0x10, 0x00, 0x00, 0x00, 0x10, 0x00, 0x00, 0x00,
    0x05, 0x00, 0x00, 0x00, 0x38, 0x00, 0x00, 0x00, 0x70, 0xfe, 0xff, 0xff,
    0x29, 0x00, 0x00, 0x00, 0x6c, 0x77, 0x33, 0x32, 0x5f, 0x6d, 0x64, 0x32,
    0x2f, 0x64, 0x65, 0x6e, 0x73, 0x65, 0x5f, 0x31, 0x38, 0x37, 0x2f, 0x42,
    0x69, 0x61, 0x73, 0x41, 0x64, 0x64, 0x2f, 0x52, 0x65, 0x61, 0x64, 0x56,
    0x61, 0x72, 0x69, 0x61, 0x62, 0x6c, 0x65, 0x4f, 0x70, 0x00, 0x00, 0x00,
    0x01, 0x00, 0x00, 0x00, 0x20, 0x00, 0x00, 0x00, 0x56, 0xff, 0xff, 0xff,
    0x00, 0x00, 0x00, 0x01, 0x10, 0x00, 0x00, 0x00, 0x10, 0x00, 0x00, 0x00,
    0x04, 0x00, 0x00, 0x00, 0x38, 0x00, 0x00, 0x00, 0xc4, 0xfe, 0xff, 0xff,
    0x29, 0x00, 0x00, 0x00, 0x6c, 0x77, 0x33, 0x32, 0x5f, 0x6d, 0x64, 0x32,
    0x2f, 0x64, 0x65, 0x6e, 0x73, 0x65, 0x5f, 0x31, 0x38, 0x38, 0x2f, 0x42,
    0x69, 0x61, 0x73, 0x41, 0x64, 0x64, 0x2f, 0x52, 0x65, 0x61, 0x64, 0x56,
    0x61, 0x72, 0x69, 0x61, 0x62, 0x6c, 0x65, 0x4f, 0x70, 0x00, 0x00, 0x00,
    0x01, 0x00, 0x00, 0x00, 0x20, 0x00, 0x00, 0x00, 0xaa, 0xff, 0xff, 0xff,
    0x00, 0x00, 0x00, 0x01, 0x10, 0x00, 0x00, 0x00, 0x10, 0x00, 0x00, 0x00,
    0x03, 0x00, 0x00, 0x00, 0x38, 0x00, 0x00, 0x00, 0x18, 0xff, 0xff, 0xff,
    0x29, 0x00, 0x00, 0x00, 0x6c, 0x77, 0x33, 0x32, 0x5f, 0x6d, 0x64, 0x32,
    0x2f, 0x64, 0x65, 0x6e, 0x73, 0x65, 0x5f, 0x31, 0x38, 0x39, 0x2f, 0x42,
    0x69, 0x61, 0x73, 0x41, 0x64, 0x64, 0x2f, 0x52, 0x65, 0x61, 0x64, 0x56,
    0x61, 0x72, 0x69, 0x61, 0x62, 0x6c, 0x65, 0x4f, 0x70, 0x00, 0x00, 0x00,
    0x01, 0x00, 0x00, 0x00, 0x20, 0x00, 0x00, 0x00, 0x00, 0x00, 0x16, 0x00,
    0x18, 0x00, 0x14, 0x00, 0x00, 0x00, 0x10, 0x00, 0x0c, 0x00, 0x08, 0x00,
    0x00, 0x00, 0x00, 0x00, 0x00, 0x00, 0x07, 0x00, 0x16, 0x00, 0x00, 0x00,
    0x00, 0x00, 0x00, 0x01, 0x10, 0x00, 0x00, 0x00, 0x10, 0x00, 0x00, 0x00,
    0x02, 0x00, 0x00, 0x00, 0x38, 0x00, 0x00, 0x00, 0x84, 0xff, 0xff, 0xff,
    0x29, 0x00, 0x00, 0x00, 0x6c, 0x77, 0x33, 0x32, 0x5f, 0x6d, 0x64, 0x32,
    0x2f, 0x64, 0x65, 0x6e, 0x73, 0x65, 0x5f, 0x31, 0x39, 0x30, 0x2f, 0x42,
    0x69, 0x61, 0x73, 0x41, 0x64, 0x64, 0x2f, 0x52, 0x65, 0x61, 0x64, 0x56,
    0x61, 0x72, 0x69, 0x61, 0x62, 0x6c, 0x65, 0x4f, 0x70, 0x00, 0x00, 0x00,
    0x01, 0x00, 0x00, 0x00, 0x08, 0x00, 0x00, 0x00, 0x00, 0x00, 0x16, 0x00,
    0x1c, 0x00, 0x18, 0x00, 0x00, 0x00, 0x14, 0x00, 0x10, 0x00, 0x0c, 0x00,
    0x00, 0x00, 0x00, 0x00, 0x08, 0x00, 0x07, 0x00, 0x16, 0x00, 0x00, 0x00,
    0x00, 0x00, 0x00, 0x01, 0x14, 0x00, 0x00, 0x00, 0x20, 0x00, 0x00, 0x00,
    0x20, 0x00, 0x00, 0x00, 0x01, 0x00, 0x00, 0x00, 0x40, 0x00, 0x00, 0x00,
    0x02, 0x00, 0x00, 0x00, 0xff, 0xff, 0xff, 0xff, 0x0f, 0x00, 0x00, 0x00,
    0x04, 0x00, 0x04, 0x00, 0x04, 0x00, 0x00, 0x00, 0x21, 0x00, 0x00, 0x00,
    0x73, 0x65, 0x72, 0x76, 0x69, 0x6e, 0x67, 0x5f, 0x64, 0x65, 0x66, 0x61,
    0x75, 0x6c, 0x74, 0x5f, 0x64, 0x65, 0x6e, 0x73, 0x65, 0x5f, 0x31, 0x38,
    0x37, 0x5f, 0x69, 0x6e, 0x70, 0x75, 0x74, 0x3a, 0x30, 0x00, 0x00, 0x00,
    0x02, 0x00, 0x00, 0x00, 0x01, 0x00, 0x00, 0x00, 0x0f, 0x00, 0x00, 0x00,
    0x02, 0x00, 0x00, 0x00, 0x20, 0x00, 0x00, 0x00, 0x04, 0x00, 0x00, 0x00,
    0xf4, 0xff, 0xff, 0xff, 0x19, 0x00, 0x00, 0x00, 0x00, 0x00, 0x00, 0x19,
    0x0c, 0x00, 0x0c, 0x00, 0x0b, 0x00, 0x00, 0x00, 0x00, 0x00, 0x04, 0x00,
    0x0c, 0x00, 0x00, 0x00, 0x09, 0x00, 0x00, 0x00, 0x00, 0x00, 0x00, 0x09};
unsigned int lw32_md2_len = 14076;
