unsigned char lw4_md8[] = {
    0x1c, 0x00, 0x00, 0x00, 0x54, 0x46, 0x4c, 0x33, 0x14, 0x00, 0x20, 0x00,
    0x1c, 0x00, 0x18, 0x00, 0x14, 0x00, 0x10, 0x00, 0x0c, 0x00, 0x00, 0x00,
    0x08, 0x00, 0x04, 0x00, 0x14, 0x00, 0x00, 0x00, 0x1c, 0x00, 0x00, 0x00,
    0x98, 0x00, 0x00, 0x00, 0xf0, 0x00, 0x00, 0x00, 0x3c, 0x07, 0x00, 0x00,
    0x4c, 0x07, 0x00, 0x00, 0xe8, 0x16, 0x00, 0x00, 0x03, 0x00, 0x00, 0x00,
    0x01, 0x00, 0x00, 0x00, 0x10, 0x00, 0x00, 0x00, 0x00, 0x00, 0x0a, 0x00,
    0x10, 0x00, 0x0c, 0x00, 0x08, 0x00, 0x04, 0x00, 0x0a, 0x00, 0x00, 0x00,
    0x0c, 0x00, 0x00, 0x00, 0x1c, 0x00, 0x00, 0x00, 0x3c, 0x00, 0x00, 0x00,
    0x0f, 0x00, 0x00, 0x00, 0x73, 0x65, 0x72, 0x76, 0x69, 0x6e, 0x67, 0x5f,
    0x64, 0x65, 0x66, 0x61, 0x75, 0x6c, 0x74, 0x00, 0x01, 0x00, 0x00, 0x00,
    0x04, 0x00, 0x00, 0x00, 0x90, 0xff, 0xff, 0xff, 0x1f, 0x00, 0x00, 0x00,
    0x04, 0x00, 0x00, 0x00, 0x09, 0x00, 0x00, 0x00, 0x64, 0x65, 0x6e, 0x73,
    0x65, 0x5f, 0x31, 0x33, 0x37, 0x00, 0x00, 0x00, 0x01, 0x00, 0x00, 0x00,
    0x04, 0x00, 0x00, 0x00, 0x8e, 0xf8, 0xff, 0xff, 0x04, 0x00, 0x00, 0x00,
    0x0f, 0x00, 0x00, 0x00, 0x64, 0x65, 0x6e, 0x73, 0x65, 0x5f, 0x31, 0x32,
    0x38, 0x5f, 0x69, 0x6e, 0x70, 0x75, 0x74, 0x00, 0x02, 0x00, 0x00, 0x00,
    0x34, 0x00, 0x00, 0x00, 0x04, 0x00, 0x00, 0x00, 0xdc, 0xff, 0xff, 0xff,
    0x22, 0x00, 0x00, 0x00, 0x04, 0x00, 0x00, 0x00, 0x13, 0x00, 0x00, 0x00,
    0x43, 0x4f, 0x4e, 0x56, 0x45, 0x52, 0x53, 0x49, 0x4f, 0x4e, 0x5f, 0x4d,
    0x45, 0x54, 0x41, 0x44, 0x41, 0x54, 0x41, 0x00, 0x08, 0x00, 0x0c, 0x00,
    0x08, 0x00, 0x04, 0x00, 0x08, 0x00, 0x00, 0x00, 0x21, 0x00, 0x00, 0x00,
    0x04, 0x00, 0x00, 0x00, 0x13, 0x00, 0x00, 0x00, 0x6d, 0x69, 0x6e, 0x5f,
    0x72, 0x75, 0x6e, 0x74, 0x69, 0x6d, 0x65, 0x5f, 0x76, 0x65, 0x72, 0x73,
    0x69, 0x6f, 0x6e, 0x00, 0x23, 0x00, 0x00, 0x00, 0x48, 0x06, 0x00, 0x00,
    0x40, 0x06, 0x00, 0x00, 0x10, 0x06, 0x00, 0x00, 0xf0, 0x05, 0x00, 0x00,
    0xd0, 0x05, 0x00, 0x00, 0xb0, 0x05, 0x00, 0x00, 0x90, 0x05, 0x00, 0x00,
    0x70, 0x05, 0x00, 0x00, 0x50, 0x05, 0x00, 0x00, 0x30, 0x05, 0x00, 0x00,
    0x10, 0x05, 0x00, 0x00, 0xf0, 0x04, 0x00, 0x00, 0xf0, 0x03, 0x00, 0x00,
    0xa0, 0x03, 0x00, 0x00, 0x50, 0x03, 0x00, 0x00, 0x00, 0x03, 0x00, 0x00,
    0xb0, 0x02, 0x00, 0x00, 0x60, 0x02, 0x00, 0x00, 0x10, 0x02, 0x00, 0x00,
    0xc0, 0x01, 0x00, 0x00, 0x70, 0x01, 0x00, 0x00, 0xe0, 0x00, 0x00, 0x00,
    0xd8, 0x00, 0x00, 0x00, 0xd0, 0x00, 0x00, 0x00, 0xc8, 0x00, 0x00, 0x00,
    0xc0, 0x00, 0x00, 0x00, 0xb8, 0x00, 0x00, 0x00, 0xb0, 0x00, 0x00, 0x00,
    0xa8, 0x00, 0x00, 0x00, 0xa0, 0x00, 0x00, 0x00, 0x98, 0x00, 0x00, 0x00,
    0x90, 0x00, 0x00, 0x00, 0x88, 0x00, 0x00, 0x00, 0x68, 0x00, 0x00, 0x00,
    0x04, 0x00, 0x00, 0x00, 0x96, 0xf9, 0xff, 0xff, 0x04, 0x00, 0x00, 0x00,
    0x54, 0x00, 0x00, 0x00, 0x0c, 0x00, 0x00, 0x00, 0x08, 0x00, 0x0e, 0x00,
    0x08, 0x00, 0x04, 0x00, 0x08, 0x00, 0x00, 0x00, 0x10, 0x00, 0x00, 0x00,
    0x24, 0x00, 0x00, 0x00, 0x00, 0x00, 0x06, 0x00, 0x08, 0x00, 0x04, 0x00,
    0x06, 0x00, 0x00, 0x00, 0x04, 0x00, 0x00, 0x00, 0x00, 0x00, 0x00, 0x00,
    0x00, 0x00, 0x0a, 0x00, 0x10, 0x00, 0x0c, 0x00, 0x08, 0x00, 0x04, 0x00,
    0x0a, 0x00, 0x00, 0x00, 0x02, 0x00, 0x00, 0x00, 0x02, 0x00, 0x00, 0x00,
    0x04, 0x00, 0x00, 0x00, 0x06, 0x00, 0x00, 0x00, 0x32, 0x2e, 0x31, 0x34,
    0x2e, 0x30, 0x00, 0x00, 0xf6, 0xf9, 0xff, 0xff, 0x04, 0x00, 0x00, 0x00,
    0x10, 0x00, 0x00, 0x00, 0x31, 0x2e, 0x35, 0x2e, 0x30, 0x00, 0x00, 0x00,
    0x00, 0x00, 0x00, 0x00, 0x00, 0x00, 0x00, 0x00, 0x44, 0xeb, 0xff, 0xff,
    0x48, 0xeb, 0xff, 0xff, 0x4c, 0xeb, 0xff, 0xff, 0x50, 0xeb, 0xff, 0xff,
    0x54, 0xeb, 0xff, 0xff, 0x58, 0xeb, 0xff, 0xff, 0x5c, 0xeb, 0xff, 0xff,
    0x60, 0xeb, 0xff, 0xff, 0x64, 0xeb, 0xff, 0xff, 0x68, 0xeb, 0xff, 0xff,
    0x6c, 0xeb, 0xff, 0xff, 0x3e, 0xfa, 0xff, 0xff, 0x04, 0x00, 0x00, 0x00,
    0x80, 0x00, 0x00, 0x00, 0x7b, 0xe2, 0x1e, 0x3f, 0x85, 0x34, 0x8c, 0xbf,
    0xe0, 0xca, 0x31, 0xbe, 0xf9, 0xc7, 0x9b, 0xbd, 0x41, 0x80, 0xb9, 0xbe,
    0xa6, 0xf6, 0x1e, 0x3f, 0xb6, 0x14, 0x0e, 0xbf, 0x96, 0x13, 0x83, 0xbe,
    0xd4, 0xd4, 0x8d, 0x3e, 0xec, 0x49, 0x9b, 0xbe, 0x4a, 0xea, 0xd8, 0x3e,
    0x8c, 0x94, 0x0c, 0x3f, 0x55, 0x1d, 0xc8, 0xbe, 0x39, 0xc0, 0x88, 0x3e,
    0x88, 0x27, 0xde, 0x3d, 0x34, 0xfa, 0x39, 0x3e, 0xee, 0xa5, 0xc1, 0xbe,
    0xd8, 0x19, 0x83, 0x3e, 0x4c, 0xe8, 0x0f, 0xbf, 0x80, 0x9a, 0x25, 0xbf,
    0x60, 0xdf, 0x52, 0x3d, 0x27, 0x84, 0x02, 0xbf, 0x60, 0xbc, 0x7e, 0xbd,
    0x89, 0x8e, 0x2b, 0x3e, 0xac, 0xd9, 0x90, 0x3e, 0x90, 0x1c, 0x16, 0xbe,
    0x89, 0x1b, 0x1b, 0x3f, 0xaa, 0x6f, 0xff, 0x3e, 0xb0, 0xee, 0xa3, 0xbd,
    0x1a, 0xfa, 0xd6, 0x3e, 0xc1, 0x82, 0xa3, 0xbe, 0x00, 0xf6, 0x36, 0xbd,
    0xca, 0xfa, 0xff, 0xff, 0x04, 0x00, 0x00, 0x00, 0x40, 0x00, 0x00, 0x00,
    0x0a, 0xfd, 0x9d, 0x3e, 0x23, 0x4d, 0xe0, 0xbe, 0x9d, 0x66, 0xf9, 0xbe,
    0x9c, 0xc4, 0x00, 0xbf, 0xea, 0x5b, 0x31, 0x3d, 0x14, 0xce, 0x90, 0xbe,
    0xef, 0x94, 0x4c, 0x3f, 0xd7, 0x2a, 0x13, 0x3f, 0xdd, 0x99, 0x18, 0x3f,
    0x02, 0x21, 0xf6, 0x3e, 0x56, 0x5e, 0x17, 0xbf, 0x30, 0xd5, 0x06, 0xbf,
    0x0d, 0xa7, 0x99, 0x3e, 0xf2, 0xe4, 0xd8, 0x3e, 0x2c, 0xef, 0x4e, 0xbe,
    0x4a, 0x97, 0xcc, 0x3e, 0x16, 0xfb, 0xff, 0xff, 0x04, 0x00, 0x00, 0x00,
    0x40, 0x00, 0x00, 0x00, 0xd8, 0x69, 0x22, 0x3f, 0x2a, 0xa8, 0x4d, 0xbf,
    0x8e, 0xb4, 0xd2, 0x3e, 0x94, 0x78, 0x11, 0xbf, 0x20, 0x48, 0x8f, 0xbe,
    0xf0, 0x7e, 0x14, 0xbe, 0xd9, 0x34, 0x53, 0xbf, 0x58, 0xc9, 0xbe, 0xbd,
    0x60, 0x9b, 0xea, 0xbe, 0xa0, 0xec, 0xc5, 0x3e, 0x81, 0xa1, 0x72, 0x3f,
    0x21, 0xbd, 0x53, 0xbd, 0x32, 0xf9, 0xa4, 0x3e, 0x9e, 0x82, 0xe6, 0xbe,
    0xd8, 0x0e, 0xd6, 0xbd, 0xf7, 0x2d, 0x11, 0x3f, 0x62, 0xfb, 0xff, 0xff,
    0x04, 0x00, 0x00, 0x00, 0x40, 0x00, 0x00, 0x00, 0xd0, 0x86, 0x3d, 0xbd,
    0x20, 0x13, 0x4b, 0x3e, 0xeb, 0x57, 0x40, 0xbf, 0x58, 0xe1, 0xd8, 0xbe,
    0x90, 0x81, 0x75, 0x3e, 0xb2, 0x59, 0x58, 0xbc, 0x20, 0x3e, 0x9d, 0x3c,
    0x0d, 0x2c, 0x09, 0x3f, 0x5f, 0x2e, 0x2d, 0x3f, 0x5d, 0xdc, 0xc3, 0x3e,
    0xc0, 0x3e, 0x34, 0xbe, 0x77, 0x74, 0x8b, 0x3f, 0xb4, 0x11, 0xde, 0x3e,
    0xe3, 0xd1, 0xff, 0xbd, 0xd0, 0x48, 0x82, 0xbd, 0x94, 0xfc, 0xb0, 0xbe,
    0xae, 0xfb, 0xff, 0xff, 0x04, 0x00, 0x00, 0x00, 0x40, 0x00, 0x00, 0x00,
    0x0e, 0x0a, 0x26, 0xbf, 0xe6, 0xf7, 0x01, 0xbf, 0x3e, 0x03, 0x5f, 0x3e,
    0x47, 0xaf, 0x89, 0x3e, 0xfa, 0x85, 0x3a, 0xbf, 0x6c, 0x57, 0x76, 0xbe,
    0x43, 0x13, 0x11, 0x3e, 0x6d, 0xce, 0xa4, 0x3e, 0x8a, 0x17, 0xf5, 0xbe,
    0x20, 0x33, 0x3a, 0xbe, 0x00, 0x49, 0x6f, 0xbd, 0x30, 0xf4, 0x57, 0xbe,
    0x9d, 0x44, 0x28, 0x3f, 0x0a, 0x88, 0x8d, 0xbe, 0x04, 0x18, 0x64, 0x3f,
    0x9e, 0xb7, 0x86, 0x3e, 0xfa, 0xfb, 0xff, 0xff, 0x04, 0x00, 0x00, 0x00,
    0x40, 0x00, 0x00, 0x00, 0xf4, 0x15, 0x63, 0xbe, 0xde, 0x48, 0xb5, 0xbe,
    0x20, 0x73, 0x03, 0x3d, 0x32, 0xcb, 0x2e, 0xbf, 0x95, 0xa2, 0x23, 0xbf,
    0x86, 0xea, 0xad, 0x3e, 0x4e, 0x9f, 0xd6, 0x3e, 0xf0, 0x60, 0xf8, 0xbe,
    0xd2, 0x88, 0x2e, 0x3f, 0xcf, 0x1a, 0xfa, 0x3e, 0xb1, 0xa9, 0x22, 0x3f,
    0xd6, 0x9a, 0xa0, 0xbe, 0xb3, 0x11, 0x24, 0x3f, 0xe1, 0x7c, 0x08, 0xbf,
    0xe0, 0xbe, 0xbd, 0x3c, 0xe2, 0x51, 0x50, 0x3f, 0x46, 0xfc, 0xff, 0xff,
    0x04, 0x00, 0x00, 0x00, 0x40, 0x00, 0x00, 0x00, 0xda, 0xa4, 0x2c, 0x3f,
    0x8a, 0xd4, 0x85, 0xbf, 0x72, 0xd3, 0xea, 0xbe, 0xf3, 0x55, 0x47, 0x3f,
    0x9e, 0x04, 0xfd, 0x3e, 0xff, 0x28, 0x8b, 0xbf, 0x84, 0x44, 0xf8, 0x3d,
    0xed, 0xee, 0xe6, 0x3d, 0xa0, 0x3c, 0x36, 0xbe, 0xe0, 0x73, 0x02, 0x3d,
    0x38, 0x1e, 0x3f, 0xbe, 0xc4, 0xd6, 0xb7, 0xbe, 0x2d, 0x42, 0x00, 0xbf,
    0xaf, 0x04, 0x7c, 0x3d, 0xbb, 0x7f, 0x34, 0x3f, 0x93, 0x42, 0x4c, 0x3e,
    0x92, 0xfc, 0xff, 0xff, 0x04, 0x00, 0x00, 0x00, 0x40, 0x00, 0x00, 0x00,
    0xbd, 0xbc, 0x30, 0x3f, 0x1f, 0x26, 0xae, 0xbe, 0xc6, 0x98, 0x24, 0x3f,
    0x37, 0x42, 0xe8, 0xbe, 0xc4, 0x05, 0x15, 0xbc, 0xea, 0x15, 0x8f, 0xbe,
    0xca, 0x49, 0x28, 0x3f, 0x5b, 0x0e, 0x22, 0x3f, 0x54, 0xb1, 0x89, 0xbe,
    0xad, 0x9c, 0xdb, 0xbe, 0x84, 0x38, 0x25, 0x3f, 0xf5, 0xfb, 0x4f, 0xbf,
    0x1d, 0x49, 0xb9, 0x3d, 0x31, 0xc1, 0x33, 0x3f, 0xa0, 0x41, 0x6e, 0x3f,
    0x24, 0x64, 0x6c, 0x3f, 0xde, 0xfc, 0xff, 0xff, 0x04, 0x00, 0x00, 0x00,
    0x40, 0x00, 0x00, 0x00, 0x10, 0x7a, 0x12, 0x3f, 0x4f, 0xe9, 0xe4, 0xbd,
    0x7e, 0x88, 0xa4, 0x3e, 0x7c, 0x11, 0x3e, 0xbf, 0x62, 0x02, 0xa6, 0x3e,
    0xa7, 0xd9, 0x35, 0x3f, 0x36, 0x83, 0x23, 0xbf, 0x34, 0x3a, 0x14, 0xbf,
    0x63, 0xd6, 0xb2, 0xbe, 0x38, 0x85, 0x34, 0x3e, 0x6f, 0x8c, 0x83, 0xbd,
    0x1c, 0x0e, 0xe8, 0xbe, 0xab, 0xe9, 0x61, 0x3f, 0xd3, 0x37, 0xa2, 0xbd,
    0x88, 0x14, 0xe6, 0xbe, 0x85, 0x3b, 0x0a, 0x3e, 0x2a, 0xfd, 0xff, 0xff,
    0x04, 0x00, 0x00, 0x00, 0xf0, 0x00, 0x00, 0x00, 0x36, 0xea, 0xe3, 0xbc,
    0x50, 0x0d, 0x9d, 0x3d, 0xfe, 0x8f, 0x2e, 0xbe, 0x05, 0xd2, 0x08, 0xbf,
    0x41, 0xd9, 0x03, 0xbe, 0x73, 0x7b, 0x95, 0xbe, 0x78, 0xab, 0x18, 0xbe,
    0xf5, 0x0d, 0xcb, 0xbe, 0xbb, 0xbe, 0x86, 0xbe, 0x64, 0xde, 0x55, 0xbe,
    0x06, 0x1a, 0x32, 0x3e, 0x9d, 0x1b, 0xa8, 0xbe, 0xab, 0x09, 0xc8, 0xbe,
    0x41, 0xbb, 0x03, 0xbf, 0x04, 0x72, 0x5a, 0x3d, 0xb3, 0xe0, 0x0d, 0x3f,
    0xd3, 0x5a, 0xa9, 0xbe, 0x27, 0x81, 0xca, 0xbe, 0x00, 0x60, 0xca, 0xbe,
    0x77, 0xed, 0x4d, 0xbd, 0x9a, 0x29, 0x02, 0xbe, 0x8e, 0x12, 0x20, 0xbf,
    0x20, 0x38, 0x1c, 0xbf, 0x12, 0x90, 0x1d, 0xbf, 0x17, 0x98, 0x8b, 0x3e,
    0x67, 0xca, 0xa2, 0xbe, 0x01, 0x0e, 0x4e, 0xbd, 0x74, 0x6c, 0x3d, 0xbe,
    0x62, 0xdc, 0xfa, 0xbe, 0x1a, 0xf3, 0x8d, 0xbe, 0xd0, 0xb8, 0x9e, 0x3e,
    0x65, 0x6c, 0xab, 0xbd, 0xfc, 0xe6, 0x8e, 0x3e, 0xa1, 0x06, 0x87, 0x3e,
    0x27, 0x4e, 0x02, 0x3f, 0xa6, 0xf6, 0x43, 0xbe, 0xc0, 0xba, 0x5b, 0x3e,
    0x22, 0xcb, 0x15, 0x3f, 0x46, 0xd0, 0xec, 0xbe, 0x44, 0xa2, 0x18, 0xbe,
    0x87, 0x13, 0x23, 0x3e, 0xd7, 0x0f, 0xbe, 0xbd, 0x62, 0x41, 0xfe, 0x3e,
    0xc9, 0xd3, 0x97, 0xbe, 0x81, 0x9d, 0x93, 0xbe, 0x3c, 0x50, 0x7a, 0x3e,
    0x5a, 0x80, 0x0d, 0xbf, 0x1d, 0xd0, 0x8c, 0x3e, 0x5e, 0x72, 0xae, 0x3e,
    0xf2, 0x99, 0x29, 0xbf, 0x1f, 0xfa, 0xa7, 0x3e, 0x55, 0xa6, 0xe1, 0xbe,
    0xcc, 0xec, 0x1e, 0x3e, 0x8f, 0xae, 0x19, 0xbd, 0x1d, 0x2e, 0x3a, 0xbe,
    0x5e, 0x6c, 0x14, 0xbf, 0x22, 0x70, 0x8e, 0x3e, 0xe7, 0x96, 0xa8, 0x3e,
    0xa5, 0x9a, 0xf4, 0xbe, 0x17, 0x5a, 0x61, 0x3e, 0x26, 0xfe, 0xff, 0xff,
    0x04, 0x00, 0x00, 0x00, 0x10, 0x00, 0x00, 0x00, 0x11, 0x29, 0x88, 0x3d,
    0xa3, 0x2d, 0xcc, 0x3d, 0xdb, 0x53, 0xec, 0x3d, 0xed, 0xe7, 0xb2, 0xbc,
    0x42, 0xfe, 0xff, 0xff, 0x04, 0x00, 0x00, 0x00, 0x10, 0x00, 0x00, 0x00,
    0xba, 0x96, 0x32, 0x3e, 0xba, 0x28, 0x14, 0x3e, 0x9b, 0x03, 0xf4, 0x3d,
    0x55, 0xb7, 0x47, 0x3d, 0x5e, 0xfe, 0xff, 0xff, 0x04, 0x00, 0x00, 0x00,
    0x10, 0x00, 0x00, 0x00, 0xe6, 0x39, 0x28, 0x3e, 0x38, 0xb4, 0xc5, 0xbd,
    0x3f, 0xa6, 0xaf, 0xbb, 0xea, 0x05, 0x25, 0x3e, 0x7a, 0xfe, 0xff, 0xff,
    0x04, 0x00, 0x00, 0x00, 0x10, 0x00, 0x00, 0x00, 0x54, 0x8f, 0x1c, 0x3e,
    0x3c, 0x9d, 0x09, 0x3e, 0x00, 0x00, 0x00, 0x00, 0x33, 0x48, 0x0c, 0xbe,
    0x96, 0xfe, 0xff, 0xff, 0x04, 0x00, 0x00, 0x00, 0x10, 0x00, 0x00, 0x00,
    0x00, 0x00, 0x00, 0x00, 0x00, 0x00, 0x00, 0x00, 0x34, 0xfb, 0x11, 0x3e,
    0x2e, 0x3b, 0x29, 0x3e, 0xb2, 0xfe, 0xff, 0xff, 0x04, 0x00, 0x00, 0x00,
    0x10, 0x00, 0x00, 0x00, 0x96, 0x58, 0x0c, 0x3e, 0xdb, 0x99, 0xe8, 0x3d,
    0x00, 0x00, 0x00, 0x00, 0x04, 0xd0, 0x04, 0x3e, 0xce, 0xfe, 0xff, 0xff,
    0x04, 0x00, 0x00, 0x00, 0x10, 0x00, 0x00, 0x00, 0xc0, 0xc7, 0xc4, 0xbb,
    0xd1, 0x19, 0xee, 0x3d, 0xed, 0x5a, 0x03, 0x3e, 0x96, 0xc7, 0xb5, 0xbb,
    0xea, 0xfe, 0xff, 0xff, 0x04, 0x00, 0x00, 0x00, 0x10, 0x00, 0x00, 0x00,
    0xde, 0x8e, 0xaa, 0xbd, 0x00, 0x00, 0x00, 0x00, 0xca, 0xa5, 0xed, 0x3d,
    0x00, 0x00, 0x00, 0x00, 0x06, 0xff, 0xff, 0xff, 0x04, 0x00, 0x00, 0x00,
    0x10, 0x00, 0x00, 0x00, 0x00, 0x00, 0x00, 0x00, 0xdc, 0xd7, 0xe3, 0x3d,
    0x00, 0x00, 0x00, 0x00, 0x4d, 0xc8, 0xc4, 0xbb, 0x22, 0xff, 0xff, 0xff,
    0x04, 0x00, 0x00, 0x00, 0x20, 0x00, 0x00, 0x00, 0x12, 0x57, 0x69, 0xbe,
    0x8d, 0x72, 0x17, 0xbd, 0x38, 0xfb, 0x8e, 0xbe, 0xc8, 0x85, 0x5b, 0xbe,
    0xd3, 0xc4, 0x88, 0x3e, 0xb3, 0xe4, 0xa4, 0xbd, 0x82, 0xba, 0xd2, 0xbe,
    0x63, 0x96, 0xd8, 0x3e, 0x80, 0xf0, 0xff, 0xff, 0x84, 0xf0, 0xff, 0xff,
    0x0f, 0x00, 0x00, 0x00, 0x4d, 0x4c, 0x49, 0x52, 0x20, 0x43, 0x6f, 0x6e,
    0x76, 0x65, 0x72, 0x74, 0x65, 0x64, 0x2e, 0x00, 0x01, 0x00, 0x00, 0x00,
    0x14, 0x00, 0x00, 0x00, 0x00, 0x00, 0x0e, 0x00, 0x18, 0x00, 0x14, 0x00,
    0x10, 0x00, 0x0c, 0x00, 0x08, 0x00, 0x04, 0x00, 0x0e, 0x00, 0x00, 0x00,
    0x14, 0x00, 0x00, 0x00, 0x1c, 0x00, 0x00, 0x00, 0xac, 0x02, 0x00, 0x00,
    0xb0, 0x02, 0x00, 0x00, 0xb4, 0x02, 0x00, 0x00, 0x04, 0x00, 0x00, 0x00,
    0x6d, 0x61, 0x69, 0x6e, 0x00, 0x00, 0x00, 0x00, 0x0b, 0x00, 0x00, 0x00,
    0x54, 0x02, 0x00, 0x00, 0x0c, 0x02, 0x00, 0x00, 0xd4, 0x01, 0x00, 0x00,
    0x9c, 0x01, 0x00, 0x00, 0x64, 0x01, 0x00, 0x00, 0x2c, 0x01, 0x00, 0x00,
    0xf4, 0x00, 0x00, 0x00, 0xbc, 0x00, 0x00, 0x00, 0x84, 0x00, 0x00, 0x00,
    0x50, 0x00, 0x00, 0x00, 0x14, 0x00, 0x00, 0x00, 0x00, 0x00, 0x0e, 0x00,
    0x1a, 0x00, 0x14, 0x00, 0x10, 0x00, 0x0c, 0x00, 0x0b, 0x00, 0x04, 0x00,
    0x0e, 0x00, 0x00, 0x00, 0x1c, 0x00, 0x00, 0x00, 0x00, 0x00, 0x00, 0x09,
    0x1c, 0x00, 0x00, 0x00, 0x20, 0x00, 0x00, 0x00, 0x01, 0x00, 0x00, 0x00,
    0x00, 0x00, 0x06, 0x00, 0x08, 0x00, 0x04, 0x00, 0x06, 0x00, 0x00, 0x00,
    0x00, 0x00, 0x80, 0x3f, 0x01, 0x00, 0x00, 0x00, 0x1f, 0x00, 0x00, 0x00,
    0x01, 0x00, 0x00, 0x00, 0x1e, 0x00, 0x00, 0x00, 0x2e, 0xfe, 0xff, 0xff,
    0x10, 0x00, 0x00, 0x00, 0x00, 0x00, 0x00, 0x08, 0x0c, 0x00, 0x00, 0x00,
    0x10, 0x00, 0x00, 0x00, 0x64, 0xf1, 0xff, 0xff, 0x01, 0x00, 0x00, 0x00,
    0x1e, 0x00, 0x00, 0x00, 0x03, 0x00, 0x00, 0x00, 0x1d, 0x00, 0x00, 0x00,
    0x14, 0x00, 0x00, 0x00, 0x01, 0x00, 0x00, 0x00, 0x5e, 0xfe, 0xff, 0xff,
    0x10, 0x00, 0x00, 0x00, 0x00, 0x00, 0x00, 0x08, 0x10, 0x00, 0x00, 0x00,
    0x14, 0x00, 0x00, 0x00, 0x4e, 0xfe, 0xff, 0xff, 0x00, 0x00, 0x00, 0x01,
    0x01, 0x00, 0x00, 0x00, 0x1d, 0x00, 0x00, 0x00, 0x03, 0x00, 0x00, 0x00,
    0x1c, 0x00, 0x00, 0x00, 0x13, 0x00, 0x00, 0x00, 0x02, 0x00, 0x00, 0x00,
    0x92, 0xfe, 0xff, 0xff, 0x10, 0x00, 0x00, 0x00, 0x00, 0x00, 0x00, 0x08,
    0x10, 0x00, 0x00, 0x00, 0x14, 0x00, 0x00, 0x00, 0x82, 0xfe, 0xff, 0xff,
    0x00, 0x00, 0x00, 0x01, 0x01, 0x00, 0x00, 0x00, 0x1c, 0x00, 0x00, 0x00,
    0x03, 0x00, 0x00, 0x00, 0x1b, 0x00, 0x00, 0x00, 0x12, 0x00, 0x00, 0x00,
    0x03, 0x00, 0x00, 0x00, 0xc6, 0xfe, 0xff, 0xff, 0x10, 0x00, 0x00, 0x00,
    0x00, 0x00, 0x00, 0x08, 0x10, 0x00, 0x00, 0x00, 0x14, 0x00, 0x00, 0x00,
    0xb6, 0xfe, 0xff, 0xff, 0x00, 0x00, 0x00, 0x01, 0x01, 0x00, 0x00, 0x00,
    0x1b, 0x00, 0x00, 0x00, 0x03, 0x00, 0x00, 0x00, 0x1a, 0x00, 0x00, 0x00,
    0x11, 0x00, 0x00, 0x00, 0x04, 0x00, 0x00, 0x00, 0xfa, 0xfe, 0xff, 0xff,
    0x10, 0x00, 0x00, 0x00, 0x00, 0x00, 0x00, 0x08, 0x10, 0x00, 0x00, 0x00,
    0x14, 0x00, 0x00, 0x00, 0xea, 0xfe, 0xff, 0xff, 0x00, 0x00, 0x00, 0x01,
    0x01, 0x00, 0x00, 0x00, 0x1a, 0x00, 0x00, 0x00, 0x03, 0x00, 0x00, 0x00,
    0x19, 0x00, 0x00, 0x00, 0x10, 0x00, 0x00, 0x00, 0x05, 0x00, 0x00, 0x00,
    0x2e, 0xff, 0xff, 0xff, 0x10, 0x00, 0x00, 0x00, 0x00, 0x00, 0x00, 0x08,
    0x10, 0x00, 0x00, 0x00, 0x14, 0x00, 0x00, 0x00, 0x1e, 0xff, 0xff, 0xff,
    0x00, 0x00, 0x00, 0x01, 0x01, 0x00, 0x00, 0x00, 0x19, 0x00, 0x00, 0x00,
    0x03, 0x00, 0x00, 0x00, 0x18, 0x00, 0x00, 0x00, 0x0f, 0x00, 0x00, 0x00,
    0x06, 0x00, 0x00, 0x00, 0x62, 0xff, 0xff, 0xff, 0x10, 0x00, 0x00, 0x00,
    0x00, 0x00, 0x00, 0x08, 0x10, 0x00, 0x00, 0x00, 0x14, 0x00, 0x00, 0x00,
    0x52, 0xff, 0xff, 0xff, 0x00, 0x00, 0x00, 0x01, 0x01, 0x00, 0x00, 0x00,
    0x18, 0x00, 0x00, 0x00, 0x03, 0x00, 0x00, 0x00, 0x17, 0x00, 0x00, 0x00,
    0x0e, 0x00, 0x00, 0x00, 0x07, 0x00, 0x00, 0x00, 0x96, 0xff, 0xff, 0xff,
    0x10, 0x00, 0x00, 0x00, 0x00, 0x00, 0x00, 0x08, 0x10, 0x00, 0x00, 0x00,
    0x14, 0x00, 0x00, 0x00, 0x86, 0xff, 0xff, 0xff, 0x00, 0x00, 0x00, 0x01,
    0x01, 0x00, 0x00, 0x00, 0x17, 0x00, 0x00, 0x00, 0x03, 0x00, 0x00, 0x00,
    0x16, 0x00, 0x00, 0x00, 0x0d, 0x00, 0x00, 0x00, 0x08, 0x00, 0x00, 0x00,
    0xca, 0xff, 0xff, 0xff, 0x10, 0x00, 0x00, 0x00, 0x00, 0x00, 0x00, 0x08,
    0x10, 0x00, 0x00, 0x00, 0x14, 0x00, 0x00, 0x00, 0xba, 0xff, 0xff, 0xff,
    0x00, 0x00, 0x00, 0x01, 0x01, 0x00, 0x00, 0x00, 0x16, 0x00, 0x00, 0x00,
    0x03, 0x00, 0x00, 0x00, 0x15, 0x00, 0x00, 0x00, 0x0c, 0x00, 0x00, 0x00,
    0x09, 0x00, 0x00, 0x00, 0x00, 0x00, 0x0e, 0x00, 0x16, 0x00, 0x00, 0x00,
    0x10, 0x00, 0x0c, 0x00, 0x0b, 0x00, 0x04, 0x00, 0x0e, 0x00, 0x00, 0x00,
    0x18, 0x00, 0x00, 0x00, 0x00, 0x00, 0x00, 0x08, 0x18, 0x00, 0x00, 0x00,
    0x1c, 0x00, 0x00, 0x00, 0x00, 0x00, 0x06, 0x00, 0x08, 0x00, 0x07, 0x00,
    0x06, 0x00, 0x00, 0x00, 0x00, 0x00, 0x00, 0x01, 0x01, 0x00, 0x00, 0x00,
    0x15, 0x00, 0x00, 0x00, 0x03, 0x00, 0x00, 0x00, 0x00, 0x00, 0x00, 0x00,
    0x0b, 0x00, 0x00, 0x00, 0x0a, 0x00, 0x00, 0x00, 0x01, 0x00, 0x00, 0x00,
    0x1f, 0x00, 0x00, 0x00, 0x01, 0x00, 0x00, 0x00, 0x00, 0x00, 0x00, 0x00,
    0x20, 0x00, 0x00, 0x00, 0x58, 0x0c, 0x00, 0x00, 0xe8, 0x0b, 0x00, 0x00,
    0x78, 0x0b, 0x00, 0x00, 0x20, 0x0b, 0x00, 0x00, 0xc8, 0x0a, 0x00, 0x00,
    0x70, 0x0a, 0x00, 0x00, 0x18, 0x0a, 0x00, 0x00, 0xc0, 0x09, 0x00, 0x00,
    0x68, 0x09, 0x00, 0x00, 0x10, 0x09, 0x00, 0x00, 0xb8, 0x08, 0x00, 0x00,
    0x6c, 0x08, 0x00, 0x00, 0x20, 0x08, 0x00, 0x00, 0xd4, 0x07, 0x00, 0x00,
    0x88, 0x07, 0x00, 0x00, 0x3c, 0x07, 0x00, 0x00, 0xf0, 0x06, 0x00, 0x00,
    0xa4, 0x06, 0x00, 0x00, 0x58, 0x06, 0x00, 0x00, 0x0c, 0x06, 0x00, 0x00,
    0xc0, 0x05, 0x00, 0x00, 0x34, 0x05, 0x00, 0x00, 0xa8, 0x04, 0x00, 0x00,
    0x1c, 0x04, 0x00, 0x00, 0x90, 0x03, 0x00, 0x00, 0x04, 0x03, 0x00, 0x00,
    0x78, 0x02, 0x00, 0x00, 0xec, 0x01, 0x00, 0x00, 0x60, 0x01, 0x00, 0x00,
    0xd4, 0x00, 0x00, 0x00, 0x60, 0x00, 0x00, 0x00, 0x04, 0x00, 0x00, 0x00,
    0x3e, 0xf4, 0xff, 0xff, 0x00, 0x00, 0x00, 0x01, 0x14, 0x00, 0x00, 0x00,
    0x1c, 0x00, 0x00, 0x00, 0x1c, 0x00, 0x00, 0x00, 0x20, 0x00, 0x00, 0x00,
    0x34, 0x00, 0x00, 0x00, 0x02, 0x00, 0x00, 0x00, 0xff, 0xff, 0xff, 0xff,
    0x08, 0x00, 0x00, 0x00, 0x28, 0xf4, 0xff, 0xff, 0x19, 0x00, 0x00, 0x00,
    0x53, 0x74, 0x61, 0x74, 0x65, 0x66, 0x75, 0x6c, 0x50, 0x61, 0x72, 0x74,
    0x69, 0x74, 0x69, 0x6f, 0x6e, 0x65, 0x64, 0x43, 0x61, 0x6c, 0x6c, 0x3a,
    0x30, 0x00, 0x00, 0x00, 0x02, 0x00, 0x00, 0x00, 0x01, 0x00, 0x00, 0x00,
    0x08, 0x00, 0x00, 0x00, 0x96, 0xf4, 0xff, 0xff, 0x00, 0x00, 0x00, 0x01,
    0x14, 0x00, 0x00, 0x00, 0x1c, 0x00, 0x00, 0x00, 0x1c, 0x00, 0x00, 0x00,
    0x1f, 0x00, 0x00, 0x00, 0x4c, 0x00, 0x00, 0x00, 0x02, 0x00, 0x00, 0x00,
    0xff, 0xff, 0xff, 0xff, 0x08, 0x00, 0x00, 0x00, 0x80, 0xf4, 0xff, 0xff,
    0x32, 0x00, 0x00, 0x00, 0x6c, 0x77, 0x34, 0x5f, 0x6d, 0x64, 0x38, 0x2f,
    0x64, 0x65, 0x6e, 0x73, 0x65, 0x5f, 0x31, 0x33, 0x37, 0x2f, 0x4d, 0x61,
    0x74, 0x4d, 0x75, 0x6c, 0x3b, 0x6c, 0x77, 0x34, 0x5f, 0x6d, 0x64, 0x38,
    0x2f, 0x64, 0x65, 0x6e, 0x73, 0x65, 0x5f, 0x31, 0x33, 0x37, 0x2f, 0x42,
    0x69, 0x61, 0x73, 0x41, 0x64, 0x64, 0x00, 0x00, 0x02, 0x00, 0x00, 0x00,
    0x01, 0x00, 0x00, 0x00, 0x08, 0x00, 0x00, 0x00, 0x06, 0xf5, 0xff, 0xff,
    0x00, 0x00, 0x00, 0x01, 0x14, 0x00, 0x00, 0x00, 0x1c, 0x00, 0x00, 0x00,
    0x1c, 0x00, 0x00, 0x00, 0x1e, 0x00, 0x00, 0x00, 0x64, 0x00, 0x00, 0x00,
    0x02, 0x00, 0x00, 0x00, 0xff, 0xff, 0xff, 0xff, 0x04, 0x00, 0x00, 0x00,
    0xf0, 0xf4, 0xff, 0xff, 0x49, 0x00, 0x00, 0x00, 0x6c, 0x77, 0x34, 0x5f,
    0x6d, 0x64, 0x38, 0x2f, 0x64, 0x65, 0x6e, 0x73, 0x65, 0x5f, 0x31, 0x33,
    0x36, 0x2f, 0x4d, 0x61, 0x74, 0x4d, 0x75, 0x6c, 0x3b, 0x6c, 0x77, 0x34,
    0x5f, 0x6d, 0x64, 0x38, 0x2f, 0x64, 0x65, 0x6e, 0x73, 0x65, 0x5f, 0x31,
    0x33, 0x36, 0x2f, 0x52, 0x65, 0x6c, 0x75, 0x3b, 0x6c, 0x77, 0x34, 0x5f,
    0x6d, 0x64, 0x38, 0x2f, 0x64, 0x65, 0x6e, 0x73, 0x65, 0x5f, 0x31, 0x33,
    0x36, 0x2f, 0x42, 0x69, 0x61, 0x73, 0x41, 0x64, 0x64, 0x00, 0x00, 0x00,
    0x02, 0x00, 0x00, 0x00, 0x01, 0x00, 0x00, 0x00, 0x04, 0x00, 0x00, 0x00,
    0x8e, 0xf5, 0xff, 0xff, 0x00, 0x00, 0x00, 0x01, 0x14, 0x00, 0x00, 0x00,
    0x1c, 0x00, 0x00, 0x00, 0x1c, 0x00, 0x00, 0x00, 0x1d, 0x00, 0x00, 0x00,
    0x64, 0x00, 0x00, 0x00, 0x02, 0x00, 0x00, 0x00, 0xff, 0xff, 0xff, 0xff,
    0x04, 0x00, 0x00, 0x00, 0x78, 0xf5, 0xff, 0xff, 0x49, 0x00, 0x00, 0x00,
    0x6c, 0x77, 0x34, 0x5f, 0x6d, 0x64, 0x38, 0x2f, 0x64, 0x65, 0x6e, 0x73,
    0x65, 0x5f, 0x31, 0x33, 0x35, 0x2f, 0x4d, 0x61, 0x74, 0x4d, 0x75, 0x6c,
    0x3b, 0x6c, 0x77, 0x34, 0x5f, 0x6d, 0x64, 0x38, 0x2f, 0x64, 0x65, 0x6e,
    0x73, 0x65, 0x5f, 0x31, 0x33, 0x35, 0x2f, 0x52, 0x65, 0x6c, 0x75, 0x3b,
    0x6c, 0x77, 0x34, 0x5f, 0x6d, 0x64, 0x38, 0x2f, 0x64, 0x65, 0x6e, 0x73,
    0x65, 0x5f, 0x31, 0x33, 0x35, 0x2f, 0x42, 0x69, 0x61, 0x73, 0x41, 0x64,
    0x64, 0x00, 0x00, 0x00, 0x02, 0x00, 0x00, 0x00, 0x01, 0x00, 0x00, 0x00,
    0x04, 0x00, 0x00, 0x00, 0x16, 0xf6, 0xff, 0xff, 0x00, 0x00, 0x00, 0x01,
    0x14, 0x00, 0x00, 0x00, 0x1c, 0x00, 0x00, 0x00, 0x1c, 0x00, 0x00, 0x00,
    0x1c, 0x00, 0x00, 0x00, 0x64, 0x00, 0x00, 0x00, 0x02, 0x00, 0x00, 0x00,
    0xff, 0xff, 0xff, 0xff, 0x04, 0x00, 0x00, 0x00, 0x00, 0xf6, 0xff, 0xff,
    0x49, 0x00, 0x00, 0x00, 0x6c, 0x77, 0x34, 0x5f, 0x6d, 0x64, 0x38, 0x2f,
    0x64, 0x65, 0x6e, 0x73, 0x65, 0x5f, 0x31, 0x33, 0x34, 0x2f, 0x4d, 0x61,
    0x74, 0x4d, 0x75, 0x6c, 0x3b, 0x6c, 0x77, 0x34, 0x5f, 0x6d, 0x64, 0x38,
    0x2f, 0x64, 0x65, 0x6e, 0x73, 0x65, 0x5f, 0x31, 0x33, 0x34, 0x2f, 0x52,
    0x65, 0x6c, 0x75, 0x3b, 0x6c, 0x77, 0x34, 0x5f, 0x6d, 0x64, 0x38, 0x2f,
    0x64, 0x65, 0x6e, 0x73, 0x65, 0x5f, 0x31, 0x33, 0x34, 0x2f, 0x42, 0x69,
    0x61, 0x73, 0x41, 0x64, 0x64, 0x00, 0x00, 0x00, 0x02, 0x00, 0x00, 0x00,
    0x01, 0x00, 0x00, 0x00, 0x04, 0x00, 0x00, 0x00, 0x9e, 0xf6, 0xff, 0xff,
    0x00, 0x00, 0x00, 0x01, 0x14, 0x00, 0x00, 0x00, 0x1c, 0x00, 0x00, 0x00,
    0x1c, 0x00, 0x00, 0x00, 0x1b, 0x00, 0x00, 0x00, 0x64, 0x00, 0x00, 0x00,
    0x02, 0x00, 0x00, 0x00, 0xff, 0xff, 0xff, 0xff, 0x04, 0x00, 0x00, 0x00,
    0x88, 0xf6, 0xff, 0xff, 0x49, 0x00, 0x00, 0x00, 0x6c, 0x77, 0x34, 0x5f,
    0x6d, 0x64, 0x38, 0x2f, 0x64, 0x65, 0x6e, 0x73, 0x65, 0x5f, 0x31, 0x33,
    0x33, 0x2f, 0x4d, 0x61, 0x74, 0x4d, 0x75, 0x6c, 0x3b, 0x6c, 0x77, 0x34,
    0x5f, 0x6d, 0x64, 0x38, 0x2f, 0x64, 0x65, 0x6e, 0x73, 0x65, 0x5f, 0x31,
    0x33, 0x33, 0x2f, 0x52, 0x65, 0x6c, 0x75, 0x3b, 0x6c, 0x77, 0x34, 0x5f,
    0x6d, 0x64, 0x38, 0x2f, 0x64, 0x65, 0x6e, 0x73, 0x65, 0x5f, 0x31, 0x33,
    0x33, 0x2f, 0x42, 0x69, 0x61, 0x73, 0x41, 0x64, 0x64, 0x00, 0x00, 0x00,
    0x02, 0x00, 0x00, 0x00, 0x01, 0x00, 0x00, 0x00, 0x04, 0x00, 0x00, 0x00,
    0x26, 0xf7, 0xff, 0xff, 0x00, 0x00, 0x00, 0x01, 0x14, 0x00, 0x00, 0x00,
    0x1c, 0x00, 0x00, 0x00, 0x1c, 0x00, 0x00, 0x00, 0x1a, 0x00, 0x00, 0x00,
    0x64, 0x00, 0x00, 0x00, 0x02, 0x00, 0x00, 0x00, 0xff, 0xff, 0xff, 0xff,
    0x04, 0x00, 0x00, 0x00, 0x10, 0xf7, 0xff, 0xff, 0x49, 0x00, 0x00, 0x00,
    0x6c, 0x77, 0x34, 0x5f, 0x6d, 0x64, 0x38, 0x2f, 0x64, 0x65, 0x6e, 0x73,
    0x65, 0x5f, 0x31, 0x33, 0x32, 0x2f, 0x4d, 0x61, 0x74, 0x4d, 0x75, 0x6c,
    0x3b, 0x6c, 0x77, 0x34, 0x5f, 0x6d, 0x64, 0x38, 0x2f, 0x64, 0x65, 0x6e,
    0x73, 0x65, 0x5f, 0x31, 0x33, 0x32, 0x2f, 0x52, 0x65, 0x6c, 0x75, 0x3b,
    0x6c, 0x77, 0x34, 0x5f, 0x6d, 0x64, 0x38, 0x2f, 0x64, 0x65, 0x6e, 0x73,
    0x65, 0x5f, 0x31, 0x33, 0x32, 0x2f, 0x42, 0x69, 0x61, 0x73, 0x41, 0x64,
    0x64, 0x00, 0x00, 0x00, 0x02, 0x00, 0x00, 0x00, 0x01, 0x00, 0x00, 0x00,
    0x04, 0x00, 0x00, 0x00, 0xae, 0xf7, 0xff, 0xff, 0x00, 0x00, 0x00, 0x01,
    0x14, 0x00, 0x00, 0x00, 0x1c, 0x00, 0x00, 0x00, 0x1c, 0x00, 0x00, 0x00,
    0x19, 0x00, 0x00, 0x00, 0x64, 0x00, 0x00, 0x00, 0x02, 0x00, 0x00, 0x00,
    0xff, 0xff, 0xff, 0xff, 0x04, 0x00, 0x00, 0x00, 0x98, 0xf7, 0xff, 0xff,
    0x49, 0x00, 0x00, 0x00, 0x6c, 0x77, 0x34, 0x5f, 0x6d, 0x64, 0x38, 0x2f,
    0x64, 0x65, 0x6e, 0x73, 0x65, 0x5f, 0x31, 0x33, 0x31, 0x2f, 0x4d, 0x61,
    0x74, 0x4d, 0x75, 0x6c, 0x3b, 0x6c, 0x77, 0x34, 0x5f, 0x6d, 0x64, 0x38,
    0x2f, 0x64, 0x65, 0x6e, 0x73, 0x65, 0x5f, 0x31, 0x33, 0x31, 0x2f, 0x52,
    0x65, 0x6c, 0x75, 0x3b, 0x6c, 0x77, 0x34, 0x5f, 0x6d, 0x64, 0x38, 0x2f,
    0x64, 0x65, 0x6e, 0x73, 0x65, 0x5f, 0x31, 0x33, 0x31, 0x2f, 0x42, 0x69,
    0x61, 0x73, 0x41, 0x64, 0x64, 0x00, 0x00, 0x00, 0x02, 0x00, 0x00, 0x00,
    0x01, 0x00, 0x00, 0x00, 0x04, 0x00, 0x00, 0x00, 0x36, 0xf8, 0xff, 0xff,
    0x00, 0x00, 0x00, 0x01, 0x14, 0x00, 0x00, 0x00, 0x1c, 0x00, 0x00, 0x00,
    0x1c, 0x00, 0x00, 0x00, 0x18, 0x00, 0x00, 0x00, 0x64, 0x00, 0x00, 0x00,
    0x02, 0x00, 0x00, 0x00, 0xff, 0xff, 0xff, 0xff, 0x04, 0x00, 0x00, 0x00,
    0x20, 0xf8, 0xff, 0xff, 0x49, 0x00, 0x00, 0x00, 0x6c, 0x77, 0x34, 0x5f,
    0x6d, 0x64, 0x38, 0x2f, 0x64, 0x65, 0x6e, 0x73, 0x65, 0x5f, 0x31, 0x33,
    0x30, 0x2f, 0x4d, 0x61, 0x74, 0x4d, 0x75, 0x6c, 0x3b, 0x6c, 0x77, 0x34,
    0x5f, 0x6d, 0x64, 0x38, 0x2f, 0x64, 0x65, 0x6e, 0x73, 0x65, 0x5f, 0x31,
    0x33, 0x30, 0x2f, 0x52, 0x65, 0x6c, 0x75, 0x3b, 0x6c, 0x77, 0x34, 0x5f,
    0x6d, 0x64, 0x38, 0x2f, 0x64, 0x65, 0x6e, 0x73, 0x65, 0x5f, 0x31, 0x33,
    0x30, 0x2f, 0x42, 0x69, 0x61, 0x73, 0x41, 0x64, 0x64, 0x00, 0x00, 0x00,
    0x02, 0x00, 0x00, 0x00, 0x01, 0x00, 0x00, 0x00, 0x04, 0x00, 0x00, 0x00,
    0xbe, 0xf8, 0xff, 0xff, 0x00, 0x00, 0x00, 0x01, 0x14, 0x00, 0x00, 0x00,
    0x1c, 0x00, 0x00, 0x00, 0x1c, 0x00, 0x00, 0x00, 0x17, 0x00, 0x00, 0x00,
    0x64, 0x00, 0x00, 0x00, 0x02, 0x00, 0x00, 0x00, 0xff, 0xff, 0xff, 0xff,
    0x04, 0x00, 0x00, 0x00, 0xa8, 0xf8, 0xff, 0xff, 0x49, 0x00, 0x00, 0x00,
    0x6c, 0x77, 0x34, 0x5f, 0x6d, 0x64, 0x38, 0x2f, 0x64, 0x65, 0x6e, 0x73,
    0x65, 0x5f, 0x31, 0x32, 0x39, 0x2f, 0x4d, 0x61, 0x74, 0x4d, 0x75, 0x6c,
    0x3b, 0x6c, 0x77, 0x34, 0x5f, 0x6d, 0x64, 0x38, 0x2f, 0x64, 0x65, 0x6e,
    0x73, 0x65, 0x5f, 0x31, 0x32, 0x39, 0x2f, 0x52, 0x65, 0x6c, 0x75, 0x3b,
    0x6c, 0x77, 0x34, 0x5f, 0x6d, 0x64, 0x38, 0x2f, 0x64, 0x65, 0x6e, 0x73,
    0x65, 0x5f, 0x31, 0x32, 0x39, 0x2f, 0x42, 0x69, 0x61, 0x73, 0x41, 0x64,
    0x64, 0x00, 0x00, 0x00, 0x02, 0x00, 0x00, 0x00, 0x01, 0x00, 0x00, 0x00,
    0x04, 0x00, 0x00, 0x00, 0x46, 0xf9, 0xff, 0xff, 0x00, 0x00, 0x00, 0x01,
    0x14, 0x00, 0x00, 0x00, 0x1c, 0x00, 0x00, 0x00, 0x1c, 0x00, 0x00, 0x00,
    0x16, 0x00, 0x00, 0x00, 0x64, 0x00, 0x00, 0x00, 0x02, 0x00, 0x00, 0x00,
    0xff, 0xff, 0xff, 0xff, 0x04, 0x00, 0x00, 0x00, 0x30, 0xf9, 0xff, 0xff,
    0x49, 0x00, 0x00, 0x00, 0x6c, 0x77, 0x34, 0x5f, 0x6d, 0x64, 0x38, 0x2f,
    0x64, 0x65, 0x6e, 0x73, 0x65, 0x5f, 0x31, 0x32, 0x38, 0x2f, 0x4d, 0x61,
    0x74, 0x4d, 0x75, 0x6c, 0x3b, 0x6c, 0x77, 0x34, 0x5f, 0x6d, 0x64, 0x38,
    0x2f, 0x64, 0x65, 0x6e, 0x73, 0x65, 0x5f, 0x31, 0x32, 0x38, 0x2f, 0x52,
    0x65, 0x6c, 0x75, 0x3b, 0x6c, 0x77, 0x34, 0x5f, 0x6d, 0x64, 0x38, 0x2f,
    0x64, 0x65, 0x6e, 0x73, 0x65, 0x5f, 0x31, 0x32, 0x38, 0x2f, 0x42, 0x69,
    0x61, 0x73, 0x41, 0x64, 0x64, 0x00, 0x00, 0x00, 0x02, 0x00, 0x00, 0x00,
    0x01, 0x00, 0x00, 0x00, 0x04, 0x00, 0x00, 0x00, 0x3a, 0xfa, 0xff, 0xff,
    0x00, 0x00, 0x00, 0x01, 0x10, 0x00, 0x00, 0x00, 0x10, 0x00, 0x00, 0x00,
    0x15, 0x00, 0x00, 0x00, 0x28, 0x00, 0x00, 0x00, 0xa8, 0xf9, 0xff, 0xff,
    0x18, 0x00, 0x00, 0x00, 0x6c, 0x77, 0x34, 0x5f, 0x6d, 0x64, 0x38, 0x2f,
    0x64, 0x65, 0x6e, 0x73, 0x65, 0x5f, 0x31, 0x33, 0x37, 0x2f, 0x4d, 0x61,
    0x74, 0x4d, 0x75, 0x6c, 0x00, 0x00, 0x00, 0x00, 0x02, 0x00, 0x00, 0x00,
    0x08, 0x00, 0x00, 0x00, 0x04, 0x00, 0x00, 0x00, 0x82, 0xfa, 0xff, 0xff,
    0x00, 0x00, 0x00, 0x01, 0x10, 0x00, 0x00, 0x00, 0x10, 0x00, 0x00, 0x00,
    0x14, 0x00, 0x00, 0x00, 0x28, 0x00, 0x00, 0x00, 0xf0, 0xf9, 0xff, 0xff,
    0x18, 0x00, 0x00, 0x00, 0x6c, 0x77, 0x34, 0x5f, 0x6d, 0x64, 0x38, 0x2f,
    0x64, 0x65, 0x6e, 0x73, 0x65, 0x5f, 0x31, 0x33, 0x36, 0x2f, 0x4d, 0x61,
    0x74, 0x4d, 0x75, 0x6c, 0x00, 0x00, 0x00, 0x00, 0x02, 0x00, 0x00, 0x00,
    0x04, 0x00, 0x00, 0x00, 0x04, 0x00, 0x00, 0x00, 0xca, 0xfa, 0xff, 0xff,
    0x00, 0x00, 0x00, 0x01, 0x10, 0x00, 0x00, 0x00, 0x10, 0x00, 0x00, 0x00,
    0x13, 0x00, 0x00, 0x00, 0x28, 0x00, 0x00, 0x00, 0x38, 0xfa, 0xff, 0xff,
    0x18, 0x00, 0x00, 0x00, 0x6c, 0x77, 0x34, 0x5f, 0x6d, 0x64, 0x38, 0x2f,
    0x64, 0x65, 0x6e, 0x73, 0x65, 0x5f, 0x31, 0x33, 0x35, 0x2f, 0x4d, 0x61,
    0x74, 0x4d, 0x75, 0x6c, 0x00, 0x00, 0x00, 0x00, 0x02, 0x00, 0x00, 0x00,
    0x04, 0x00, 0x00, 0x00, 0x04, 0x00, 0x00, 0x00, 0x12, 0xfb, 0xff, 0xff,
    0x00, 0x00, 0x00, 0x01, 0x10, 0x00, 0x00, 0x00, 0x10, 0x00, 0x00, 0x00,
    0x12, 0x00, 0x00, 0x00, 0x28, 0x00, 0x00, 0x00, 0x80, 0xfa, 0xff, 0xff,
    0x18, 0x00, 0x00, 0x00, 0x6c, 0x77, 0x34, 0x5f, 0x6d, 0x64, 0x38, 0x2f,
    0x64, 0x65, 0x6e, 0x73, 0x65, 0x5f, 0x31, 0x33, 0x34, 0x2f, 0x4d, 0x61,
    0x74, 0x4d, 0x75, 0x6c, 0x00, 0x00, 0x00, 0x00, 0x02, 0x00, 0x00, 0x00,
    0x04, 0x00, 0x00, 0x00, 0x04, 0x00, 0x00, 0x00, 0x5a, 0xfb, 0xff, 0xff,
    0x00, 0x00, 0x00, 0x01, 0x10, 0x00, 0x00, 0x00, 0x10, 0x00, 0x00, 0x00,
    0x11, 0x00, 0x00, 0x00, 0x28, 0x00, 0x00, 0x00, 0xc8, 0xfa, 0xff, 0xff,
    0x18, 0x00, 0x00, 0x00, 0x6c, 0x77, 0x34, 0x5f, 0x6d, 0x64, 0x38, 0x2f,
    0x64, 0x65, 0x6e, 0x73, 0x65, 0x5f, 0x31, 0x33, 0x33, 0x2f, 0x4d, 0x61,
    0x74, 0x4d, 0x75, 0x6c, 0x00, 0x00, 0x00, 0x00, 0x02, 0x00, 0x00, 0x00,
    0x04, 0x00, 0x00, 0x00, 0x04, 0x00, 0x00, 0x00, 0xa2, 0xfb, 0xff, 0xff,
    0x00, 0x00, 0x00, 0x01, 0x10, 0x00, 0x00, 0x00, 0x10, 0x00, 0x00, 0x00,
    0x10, 0x00, 0x00, 0x00, 0x28, 0x00, 0x00, 0x00, 0x10, 0xfb, 0xff, 0xff,
    0x18, 0x00, 0x00, 0x00, 0x6c, 0x77, 0x34, 0x5f, 0x6d, 0x64, 0x38, 0x2f,
    0x64, 0x65, 0x6e, 0x73, 0x65, 0x5f, 0x31, 0x33, 0x32, 0x2f, 0x4d, 0x61,
    0x74, 0x4d, 0x75, 0x6c, 0x00, 0x00, 0x00, 0x00, 0x02, 0x00, 0x00, 0x00,
    0x04, 0x00, 0x00, 0x00, 0x04, 0x00, 0x00, 0x00, 0xea, 0xfb, 0xff, 0xff,
    0x00, 0x00, 0x00, 0x01, 0x10, 0x00, 0x00, 0x00, 0x10, 0x00, 0x00, 0x00,
    0x0f, 0x00, 0x00, 0x00, 0x28, 0x00, 0x00, 0x00, 0x58, 0xfb, 0xff, 0xff,
    0x18, 0x00, 0x00, 0x00, 0x6c, 0x77, 0x34, 0x5f, 0x6d, 0x64, 0x38, 0x2f,
    0x64, 0x65, 0x6e, 0x73, 0x65, 0x5f, 0x31, 0x33, 0x31, 0x2f, 0x4d, 0x61,
    0x74, 0x4d, 0x75, 0x6c, 0x00, 0x00, 0x00, 0x00, 0x02, 0x00, 0x00, 0x00,
    0x04, 0x00, 0x00, 0x00, 0x04, 0x00, 0x00, 0x00, 0x32, 0xfc, 0xff, 0xff,
    0x00, 0x00, 0x00, 0x01, 0x10, 0x00, 0x00, 0x00, 0x10, 0x00, 0x00, 0x00,
    0x0e, 0x00, 0x00, 0x00, 0x28, 0x00, 0x00, 0x00, 0xa0, 0xfb, 0xff, 0xff,
    0x18, 0x00, 0x00, 0x00, 0x6c, 0x77, 0x34, 0x5f, 0x6d, 0x64, 0x38, 0x2f,
    0x64, 0x65, 0x6e, 0x73, 0x65, 0x5f, 0x31, 0x33, 0x30, 0x2f, 0x4d, 0x61,
    0x74, 0x4d, 0x75, 0x6c, 0x00, 0x00, 0x00, 0x00, 0x02, 0x00, 0x00, 0x00,
    0x04, 0x00, 0x00, 0x00, 0x04, 0x00, 0x00, 0x00, 0x7a, 0xfc, 0xff, 0xff,
    0x00, 0x00, 0x00, 0x01, 0x10, 0x00, 0x00, 0x00, 0x10, 0x00, 0x00, 0x00,
    0x0d, 0x00, 0x00, 0x00, 0x28, 0x00, 0x00, 0x00, 0xe8, 0xfb, 0xff, 0xff,
    0x18, 0x00, 0x00, 0x00, 0x6c, 0x77, 0x34, 0x5f, 0x6d, 0x64, 0x38, 0x2f,
    0x64, 0x65, 0x6e, 0x73, 0x65, 0x5f, 0x31, 0x32, 0x39, 0x2f, 0x4d, 0x61,
    0x74, 0x4d, 0x75, 0x6c, 0x00, 0x00, 0x00, 0x00, 0x02, 0x00, 0x00, 0x00,
    0x04, 0x00, 0x00, 0x00, 0x04, 0x00, 0x00, 0x00, 0xc2, 0xfc, 0xff, 0xff,
    0x00, 0x00, 0x00, 0x01, 0x10, 0x00, 0x00, 0x00, 0x10, 0x00, 0x00, 0x00,
    0x0c, 0x00, 0x00, 0x00, 0x28, 0x00, 0x00, 0x00, 0x30, 0xfc, 0xff, 0xff,
    0x18, 0x00, 0x00, 0x00, 0x6c, 0x77, 0x34, 0x5f, 0x6d, 0x64, 0x38, 0x2f,
    0x64, 0x65, 0x6e, 0x73, 0x65, 0x5f, 0x31, 0x32, 0x38, 0x2f, 0x4d, 0x61,
    0x74, 0x4d, 0x75, 0x6c, 0x00, 0x00, 0x00, 0x00, 0x02, 0x00, 0x00, 0x00,
    0x04, 0x00, 0x00, 0x00, 0x0f, 0x00, 0x00, 0x00, 0x0a, 0xfd, 0xff, 0xff,
    0x00, 0x00, 0x00, 0x01, 0x10, 0x00, 0x00, 0x00, 0x10, 0x00, 0x00, 0x00,
    0x0b, 0x00, 0x00, 0x00, 0x38, 0x00, 0x00, 0x00, 0x78, 0xfc, 0xff, 0xff,
    0x28, 0x00, 0x00, 0x00, 0x6c, 0x77, 0x34, 0x5f, 0x6d, 0x64, 0x38, 0x2f,
    0x64, 0x65, 0x6e, 0x73, 0x65, 0x5f, 0x31, 0x32, 0x38, 0x2f, 0x42, 0x69,
    0x61, 0x73, 0x41, 0x64, 0x64, 0x2f, 0x52, 0x65, 0x61, 0x64, 0x56, 0x61,
    0x72, 0x69, 0x61, 0x62, 0x6c, 0x65, 0x4f, 0x70, 0x00, 0x00, 0x00, 0x00,
    0x01, 0x00, 0x00, 0x00, 0x04, 0x00, 0x00, 0x00, 0x5e, 0xfd, 0xff, 0xff,
    0x00, 0x00, 0x00, 0x01, 0x10, 0x00, 0x00, 0x00, 0x10, 0x00, 0x00, 0x00,
    0x0a, 0x00, 0x00, 0x00, 0x38, 0x00, 0x00, 0x00, 0xcc, 0xfc, 0xff, 0xff,
    0x28, 0x00, 0x00, 0x00, 0x6c, 0x77, 0x34, 0x5f, 0x6d, 0x64, 0x38, 0x2f,
    0x64, 0x65, 0x6e, 0x73, 0x65, 0x5f, 0x31, 0x32, 0x39, 0x2f, 0x42, 0x69,
    0x61, 0x73, 0x41, 0x64, 0x64, 0x2f, 0x52, 0x65, 0x61, 0x64, 0x56, 0x61,
    0x72, 0x69, 0x61, 0x62, 0x6c, 0x65, 0x4f, 0x70, 0x00, 0x00, 0x00, 0x00,
    0x01, 0x00, 0x00, 0x00, 0x04, 0x00, 0x00, 0x00, 0xb2, 0xfd, 0xff, 0xff,
    0x00, 0x00, 0x00, 0x01, 0x10, 0x00, 0x00, 0x00, 0x10, 0x00, 0x00, 0x00,
    0x09, 0x00, 0x00, 0x00, 0x38, 0x00, 0x00, 0x00, 0x20, 0xfd, 0xff, 0xff,
    0x28, 0x00, 0x00, 0x00, 0x6c, 0x77, 0x34, 0x5f, 0x6d, 0x64, 0x38, 0x2f,
    0x64, 0x65, 0x6e, 0x73, 0x65, 0x5f, 0x31, 0x33, 0x30, 0x2f, 0x42, 0x69,
    0x61, 0x73, 0x41, 0x64, 0x64, 0x2f, 0x52, 0x65, 0x61, 0x64, 0x56, 0x61,
    0x72, 0x69, 0x61, 0x62, 0x6c, 0x65, 0x4f, 0x70, 0x00, 0x00, 0x00, 0x00,
    0x01, 0x00, 0x00, 0x00, 0x04, 0x00, 0x00, 0x00, 0x06, 0xfe, 0xff, 0xff,
    0x00, 0x00, 0x00, 0x01, 0x10, 0x00, 0x00, 0x00, 0x10, 0x00, 0x00, 0x00,
    0x08, 0x00, 0x00, 0x00, 0x38, 0x00, 0x00, 0x00, 0x74, 0xfd, 0xff, 0xff,
    0x28, 0x00, 0x00, 0x00, 0x6c, 0x77, 0x34, 0x5f, 0x6d, 0x64, 0x38, 0x2f,
    0x64, 0x65, 0x6e, 0x73, 0x65, 0x5f, 0x31, 0x33, 0x31, 0x2f, 0x42, 0x69,
    0x61, 0x73, 0x41, 0x64, 0x64, 0x2f, 0x52, 0x65, 0x61, 0x64, 0x56, 0x61,
    0x72, 0x69, 0x61, 0x62, 0x6c, 0x65, 0x4f, 0x70, 0x00, 0x00, 0x00, 0x00,
    0x01, 0x00, 0x00, 0x00, 0x04, 0x00, 0x00, 0x00, 0x5a, 0xfe, 0xff, 0xff,
    0x00, 0x00, 0x00, 0x01, 0x10, 0x00, 0x00, 0x00, 0x10, 0x00, 0x00, 0x00,
    0x07, 0x00, 0x00, 0x00, 0x38, 0x00, 0x00, 0x00, 0xc8, 0xfd, 0xff, 0xff,
    0x28, 0x00, 0x00, 0x00, 0x6c, 0x77, 0x34, 0x5f, 0x6d, 0x64, 0x38, 0x2f,
    0x64, 0x65, 0x6e, 0x73, 0x65, 0x5f, 0x31, 0x33, 0x32, 0x2f, 0x42, 0x69,
    0x61, 0x73, 0x41, 0x64, 0x64, 0x2f, 0x52, 0x65, 0x61, 0x64, 0x56, 0x61,
    0x72, 0x69, 0x61, 0x62, 0x6c, 0x65, 0x4f, 0x70, 0x00, 0x00, 0x00, 0x00,
    0x01, 0x00, 0x00, 0x00, 0x04, 0x00, 0x00, 0x00, 0xae, 0xfe, 0xff, 0xff,
    0x00, 0x00, 0x00, 0x01, 0x10, 0x00, 0x00, 0x00, 0x10, 0x00, 0x00, 0x00,
    0x06, 0x00, 0x00, 0x00, 0x38, 0x00, 0x00, 0x00, 0x1c, 0xfe, 0xff, 0xff,
    0x28, 0x00, 0x00, 0x00, 0x6c, 0x77, 0x34, 0x5f, 0x6d, 0x64, 0x38, 0x2f,
    0x64, 0x65, 0x6e, 0x73, 0x65, 0x5f, 0x31, 0x33, 0x33, 0x2f, 0x42, 0x69,
    0x61, 0x73, 0x41, 0x64, 0x64, 0x2f, 0x52, 0x65, 0x61, 0x64, 0x56, 0x61,
    0x72, 0x69, 0x61, 0x62, 0x6c, 0x65, 0x4f, 0x70, 0x00, 0x00, 0x00, 0x00,
    0x01, 0x00, 0x00, 0x00, 0x04, 0x00, 0x00, 0x00, 0x02, 0xff, 0xff, 0xff,
    0x00, 0x00, 0x00, 0x01, 0x10, 0x00, 0x00, 0x00, 0x10, 0x00, 0x00, 0x00,
    0x05, 0x00, 0x00, 0x00, 0x38, 0x00, 0x00, 0x00, 0x70, 0xfe, 0xff, 0xff,
    0x28, 0x00, 0x00, 0x00, 0x6c, 0x77, 0x34, 0x5f, 0x6d, 0x64, 0x38, 0x2f,
    0x64, 0x65, 0x6e, 0x73, 0x65, 0x5f, 0x31, 0x33, 0x34, 0x2f, 0x42, 0x69,
    0x61, 0x73, 0x41, 0x64, 0x64, 0x2f, 0x52, 0x65, 0x61, 0x64, 0x56, 0x61,
    0x72, 0x69, 0x61, 0x62, 0x6c, 0x65, 0x4f, 0x70, 0x00, 0x00, 0x00, 0x00,
    0x01, 0x00, 0x00, 0x00, 0x04, 0x00, 0x00, 0x00, 0x56, 0xff, 0xff, 0xff,
    0x00, 0x00, 0x00, 0x01, 0x10, 0x00, 0x00, 0x00, 0x10, 0x00, 0x00, 0x00,
    0x04, 0x00, 0x00, 0x00, 0x38, 0x00, 0x00, 0x00, 0xc4, 0xfe, 0xff, 0xff,
    0x28, 0x00, 0x00, 0x00, 0x6c, 0x77, 0x34, 0x5f, 0x6d, 0x64, 0x38, 0x2f,
    0x64, 0x65, 0x6e, 0x73, 0x65, 0x5f, 0x31, 0x33, 0x35, 0x2f, 0x42, 0x69,
    0x61, 0x73, 0x41, 0x64, 0x64, 0x2f, 0x52, 0x65, 0x61, 0x64, 0x56, 0x61,
    0x72, 0x69, 0x61, 0x62, 0x6c, 0x65, 0x4f, 0x70, 0x00, 0x00, 0x00, 0x00,
    0x01, 0x00, 0x00, 0x00, 0x04, 0x00, 0x00, 0x00, 0xaa, 0xff, 0xff, 0xff,
    0x00, 0x00, 0x00, 0x01, 0x10, 0x00, 0x00, 0x00, 0x10, 0x00, 0x00, 0x00,
    0x03, 0x00, 0x00, 0x00, 0x38, 0x00, 0x00, 0x00, 0x18, 0xff, 0xff, 0xff,
    0x28, 0x00, 0x00, 0x00, 0x6c, 0x77, 0x34, 0x5f, 0x6d, 0x64, 0x38, 0x2f,
    0x64, 0x65, 0x6e, 0x73, 0x65, 0x5f, 0x31, 0x33, 0x36, 0x2f, 0x42, 0x69,
    0x61, 0x73, 0x41, 0x64, 0x64, 0x2f, 0x52, 0x65, 0x61, 0x64, 0x56, 0x61,
    0x72, 0x69, 0x61, 0x62, 0x6c, 0x65, 0x4f, 0x70, 0x00, 0x00, 0x00, 0x00,
    0x01, 0x00, 0x00, 0x00, 0x04, 0x00, 0x00, 0x00, 0x00, 0x00, 0x16, 0x00,
    0x18, 0x00, 0x14, 0x00, 0x00, 0x00, 0x10, 0x00, 0x0c, 0x00, 0x08, 0x00,
    0x00, 0x00, 0x00, 0x00, 0x00, 0x00, 0x07, 0x00, 0x16, 0x00, 0x00, 0x00,
    0x00, 0x00, 0x00, 0x01, 0x10, 0x00, 0x00, 0x00, 0x10, 0x00, 0x00, 0x00,
    0x02, 0x00, 0x00, 0x00, 0x38, 0x00, 0x00, 0x00, 0x84, 0xff, 0xff, 0xff,
    0x28, 0x00, 0x00, 0x00, 0x6c, 0x77, 0x34, 0x5f, 0x6d, 0x64, 0x38, 0x2f,
    0x64, 0x65, 0x6e, 0x73, 0x65, 0x5f, 0x31, 0x33, 0x37, 0x2f, 0x42, 0x69,
    0x61, 0x73, 0x41, 0x64, 0x64, 0x2f, 0x52, 0x65, 0x61, 0x64, 0x56, 0x61,
    0x72, 0x69, 0x61, 0x62, 0x6c, 0x65, 0x4f, 0x70, 0x00, 0x00, 0x00, 0x00,
    0x01, 0x00, 0x00, 0x00, 0x08, 0x00, 0x00, 0x00, 0x00, 0x00, 0x16, 0x00,
    0x1c, 0x00, 0x18, 0x00, 0x00, 0x00, 0x14, 0x00, 0x10, 0x00, 0x0c, 0x00,
    0x00, 0x00, 0x00, 0x00, 0x08, 0x00, 0x07, 0x00, 0x16, 0x00, 0x00, 0x00,
    0x00, 0x00, 0x00, 0x01, 0x14, 0x00, 0x00, 0x00, 0x20, 0x00, 0x00, 0x00,
    0x20, 0x00, 0x00, 0x00, 0x01, 0x00, 0x00, 0x00, 0x40, 0x00, 0x00, 0x00,
    0x02, 0x00, 0x00, 0x00, 0xff, 0xff, 0xff, 0xff, 0x0f, 0x00, 0x00, 0x00,
    0x04, 0x00, 0x04, 0x00, 0x04, 0x00, 0x00, 0x00, 0x21, 0x00, 0x00, 0x00,
    0x73, 0x65, 0x72, 0x76, 0x69, 0x6e, 0x67, 0x5f, 0x64, 0x65, 0x66, 0x61,
    0x75, 0x6c, 0x74, 0x5f, 0x64, 0x65, 0x6e, 0x73, 0x65, 0x5f, 0x31, 0x32,
    0x38, 0x5f, 0x69, 0x6e, 0x70, 0x75, 0x74, 0x3a, 0x30, 0x00, 0x00, 0x00,
    0x02, 0x00, 0x00, 0x00, 0x01, 0x00, 0x00, 0x00, 0x0f, 0x00, 0x00, 0x00,
    0x02, 0x00, 0x00, 0x00, 0x20, 0x00, 0x00, 0x00, 0x04, 0x00, 0x00, 0x00,
    0xf4, 0xff, 0xff, 0xff, 0x19, 0x00, 0x00, 0x00, 0x00, 0x00, 0x00, 0x19,
    0x0c, 0x00, 0x0c, 0x00, 0x0b, 0x00, 0x00, 0x00, 0x00, 0x00, 0x04, 0x00,
    0x0c, 0x00, 0x00, 0x00, 0x09, 0x00, 0x00, 0x00, 0x00, 0x00, 0x00, 0x09};
unsigned int lw4_md8_len = 5964;
