unsigned char lw4_md4[] = {
    0x1c, 0x00, 0x00, 0x00, 0x54, 0x46, 0x4c, 0x33, 0x14, 0x00, 0x20, 0x00,
    0x1c, 0x00, 0x18, 0x00, 0x14, 0x00, 0x10, 0x00, 0x0c, 0x00, 0x00, 0x00,
    0x08, 0x00, 0x04, 0x00, 0x14, 0x00, 0x00, 0x00, 0x1c, 0x00, 0x00, 0x00,
    0x98, 0x00, 0x00, 0x00, 0xf0, 0x00, 0x00, 0x00, 0x5c, 0x05, 0x00, 0x00,
    0x6c, 0x05, 0x00, 0x00, 0x68, 0x0f, 0x00, 0x00, 0x03, 0x00, 0x00, 0x00,
    0x01, 0x00, 0x00, 0x00, 0x10, 0x00, 0x00, 0x00, 0x00, 0x00, 0x0a, 0x00,
    0x10, 0x00, 0x0c, 0x00, 0x08, 0x00, 0x04, 0x00, 0x0a, 0x00, 0x00, 0x00,
    0x0c, 0x00, 0x00, 0x00, 0x1c, 0x00, 0x00, 0x00, 0x3c, 0x00, 0x00, 0x00,
    0x0f, 0x00, 0x00, 0x00, 0x73, 0x65, 0x72, 0x76, 0x69, 0x6e, 0x67, 0x5f,
    0x64, 0x65, 0x66, 0x61, 0x75, 0x6c, 0x74, 0x00, 0x01, 0x00, 0x00, 0x00,
    0x04, 0x00, 0x00, 0x00, 0x90, 0xff, 0xff, 0xff, 0x13, 0x00, 0x00, 0x00,
    0x04, 0x00, 0x00, 0x00, 0x09, 0x00, 0x00, 0x00, 0x64, 0x65, 0x6e, 0x73,
    0x65, 0x5f, 0x31, 0x32, 0x37, 0x00, 0x00, 0x00, 0x01, 0x00, 0x00, 0x00,
    0x04, 0x00, 0x00, 0x00, 0x7e, 0xfa, 0xff, 0xff, 0x04, 0x00, 0x00, 0x00,
    0x0f, 0x00, 0x00, 0x00, 0x64, 0x65, 0x6e, 0x73, 0x65, 0x5f, 0x31, 0x32,
    0x32, 0x5f, 0x69, 0x6e, 0x70, 0x75, 0x74, 0x00, 0x02, 0x00, 0x00, 0x00,
    0x34, 0x00, 0x00, 0x00, 0x04, 0x00, 0x00, 0x00, 0xdc, 0xff, 0xff, 0xff,
    0x16, 0x00, 0x00, 0x00, 0x04, 0x00, 0x00, 0x00, 0x13, 0x00, 0x00, 0x00,
    0x43, 0x4f, 0x4e, 0x56, 0x45, 0x52, 0x53, 0x49, 0x4f, 0x4e, 0x5f, 0x4d,
    0x45, 0x54, 0x41, 0x44, 0x41, 0x54, 0x41, 0x00, 0x08, 0x00, 0x0c, 0x00,
    0x08, 0x00, 0x04, 0x00, 0x08, 0x00, 0x00, 0x00, 0x15, 0x00, 0x00, 0x00,
    0x04, 0x00, 0x00, 0x00, 0x13, 0x00, 0x00, 0x00, 0x6d, 0x69, 0x6e, 0x5f,
    0x72, 0x75, 0x6e, 0x74, 0x69, 0x6d, 0x65, 0x5f, 0x76, 0x65, 0x72, 0x73,
    0x69, 0x6f, 0x6e, 0x00, 0x17, 0x00, 0x00, 0x00, 0x68, 0x04, 0x00, 0x00,
    0x60, 0x04, 0x00, 0x00, 0x30, 0x04, 0x00, 0x00, 0x10, 0x04, 0x00, 0x00,
    0xf0, 0x03, 0x00, 0x00, 0xd0, 0x03, 0x00, 0x00, 0xb0, 0x03, 0x00, 0x00,
    0x90, 0x03, 0x00, 0x00, 0x90, 0x02, 0x00, 0x00, 0x40, 0x02, 0x00, 0x00,
    0xf0, 0x01, 0x00, 0x00, 0xa0, 0x01, 0x00, 0x00, 0x50, 0x01, 0x00, 0x00,
    0xc0, 0x00, 0x00, 0x00, 0xb8, 0x00, 0x00, 0x00, 0xb0, 0x00, 0x00, 0x00,
    0xa8, 0x00, 0x00, 0x00, 0xa0, 0x00, 0x00, 0x00, 0x98, 0x00, 0x00, 0x00,
    0x90, 0x00, 0x00, 0x00, 0x88, 0x00, 0x00, 0x00, 0x68, 0x00, 0x00, 0x00,
    0x04, 0x00, 0x00, 0x00, 0x56, 0xfb, 0xff, 0xff, 0x04, 0x00, 0x00, 0x00,
    0x54, 0x00, 0x00, 0x00, 0x0c, 0x00, 0x00, 0x00, 0x08, 0x00, 0x0e, 0x00,
    0x08, 0x00, 0x04, 0x00, 0x08, 0x00, 0x00, 0x00, 0x10, 0x00, 0x00, 0x00,
    0x24, 0x00, 0x00, 0x00, 0x00, 0x00, 0x06, 0x00, 0x08, 0x00, 0x04, 0x00,
    0x06, 0x00, 0x00, 0x00, 0x04, 0x00, 0x00, 0x00, 0x00, 0x00, 0x00, 0x00,
    0x00, 0x00, 0x0a, 0x00, 0x10, 0x00, 0x0c, 0x00, 0x08, 0x00, 0x04, 0x00,
    0x0a, 0x00, 0x00, 0x00, 0x02, 0x00, 0x00, 0x00, 0x02, 0x00, 0x00, 0x00,
    0x04, 0x00, 0x00, 0x00, 0x06, 0x00, 0x00, 0x00, 0x32, 0x2e, 0x31, 0x34,
    0x2e, 0x30, 0x00, 0x00, 0xb6, 0xfb, 0xff, 0xff, 0x04, 0x00, 0x00, 0x00,
    0x10, 0x00, 0x00, 0x00, 0x31, 0x2e, 0x35, 0x2e, 0x30, 0x00, 0x00, 0x00,
    0x00, 0x00, 0x00, 0x00, 0x00, 0x00, 0x00, 0x00, 0x94, 0xf2, 0xff, 0xff,
    0x98, 0xf2, 0xff, 0xff, 0x9c, 0xf2, 0xff, 0xff, 0xa0, 0xf2, 0xff, 0xff,
    0xa4, 0xf2, 0xff, 0xff, 0xa8, 0xf2, 0xff, 0xff, 0xac, 0xf2, 0xff, 0xff,
    0xee, 0xfb, 0xff, 0xff, 0x04, 0x00, 0x00, 0x00, 0x80, 0x00, 0x00, 0x00,
    0x36, 0xb9, 0x6e, 0xbf, 0x60, 0xd4, 0x6c, 0x3d, 0x08, 0x27, 0x9c, 0xbf,
    0x70, 0x64, 0x5b, 0xbf, 0x90, 0x94, 0xf7, 0x3e, 0xd6, 0x83, 0xbd, 0xbe,
    0xd3, 0xdc, 0x63, 0x3f, 0x34, 0x9d, 0xa2, 0x3e, 0x1c, 0xce, 0x0f, 0x3f,
    0xf4, 0xe7, 0x78, 0x3e, 0x53, 0x89, 0x27, 0xbf, 0x74, 0xb6, 0x0d, 0xbf,
    0x1e, 0x29, 0xd0, 0xbe, 0xfe, 0x92, 0xd7, 0xbd, 0x3c, 0x06, 0x4c, 0x3f,
    0xe5, 0xd0, 0xcc, 0xbe, 0xd7, 0xa7, 0x19, 0xbf, 0xa7, 0xbf, 0xcf, 0x3e,
    0x6e, 0x1c, 0x6e, 0x3c, 0xca, 0xc4, 0xbf, 0x3e, 0x11, 0x45, 0xe4, 0xbd,
    0xf7, 0x3a, 0x21, 0xbf, 0xd0, 0x6a, 0x81, 0xbe, 0x51, 0x11, 0xc0, 0xbe,
    0x59, 0xf0, 0x90, 0x3e, 0x6d, 0x76, 0x02, 0xbf, 0xc1, 0xc1, 0xd1, 0xbe,
    0x07, 0x10, 0x7b, 0xbe, 0xc0, 0x53, 0x8c, 0xbd, 0xf7, 0x17, 0xb1, 0xbe,
    0xfd, 0xca, 0x83, 0x3f, 0x7b, 0x85, 0x48, 0x3e, 0x7a, 0xfc, 0xff, 0xff,
    0x04, 0x00, 0x00, 0x00, 0x40, 0x00, 0x00, 0x00, 0x62, 0xd6, 0x0b, 0x3e,
    0xc0, 0x2c, 0x07, 0xbf, 0x9a, 0xa8, 0xf2, 0x3e, 0x34, 0x7e, 0x11, 0xbf,
    0x41, 0xfc, 0xcc, 0x3e, 0x65, 0x3d, 0x75, 0x3e, 0x77, 0xba, 0x21, 0xbd,
    0xee, 0xb7, 0x03, 0x3f, 0xfd, 0xa9, 0x12, 0x3f, 0xaa, 0xcf, 0xd8, 0xbd,
    0x0b, 0x07, 0x62, 0xbe, 0x73, 0x4e, 0x04, 0xbf, 0x60, 0x05, 0x5d, 0x3f,
    0xaa, 0x5e, 0x8b, 0x3e, 0x05, 0x88, 0x4e, 0x3f, 0x88, 0x09, 0x48, 0x3e,
    0xc6, 0xfc, 0xff, 0xff, 0x04, 0x00, 0x00, 0x00, 0x40, 0x00, 0x00, 0x00,
    0x18, 0xd5, 0xfb, 0xbe, 0x23, 0x84, 0xf9, 0x3e, 0x3b, 0xdd, 0x09, 0x3f,
    0xc8, 0x77, 0x10, 0x3f, 0x10, 0xf1, 0xe6, 0xbe, 0xfb, 0x93, 0x2c, 0x3f,
    0x33, 0xa3, 0x3e, 0xbf, 0x5e, 0x30, 0x9f, 0x3e, 0x4b, 0x1c, 0x0b, 0x3f,
    0xb6, 0xb3, 0xa6, 0x3d, 0xfb, 0xa8, 0x68, 0xbd, 0xf7, 0x37, 0xa2, 0x3d,
    0xd4, 0xcc, 0x76, 0xbe, 0xd8, 0xcf, 0x42, 0xbf, 0x43, 0xdf, 0x24, 0xbf,
    0x97, 0x4f, 0x38, 0x3f, 0x12, 0xfd, 0xff, 0xff, 0x04, 0x00, 0x00, 0x00,
    0x40, 0x00, 0x00, 0x00, 0xe4, 0x6b, 0x71, 0x3e, 0xa8, 0x8b, 0x8b, 0xbe,
    0xc5, 0x23, 0x39, 0xbf, 0x80, 0x34, 0xad, 0xbd, 0x8d, 0x70, 0x27, 0x3f,
    0xbe, 0xc2, 0xf5, 0x3d, 0x82, 0x8c, 0x05, 0xbf, 0x68, 0x08, 0x59, 0xbe,
    0xee, 0xd7, 0x00, 0xbe, 0x60, 0x24, 0x89, 0xbe, 0xe6, 0xdd, 0x18, 0x3f,
    0xb0, 0xd3, 0x4a, 0xbf, 0x74, 0xc8, 0x49, 0x3f, 0xb2, 0x3c, 0x53, 0xbf,
    0xbc, 0xb0, 0xaa, 0xbe, 0xdd, 0x8d, 0x20, 0x3f, 0x5e, 0xfd, 0xff, 0xff,
    0x04, 0x00, 0x00, 0x00, 0x40, 0x00, 0x00, 0x00, 0x6a, 0xf8, 0x0f, 0x3e,
    0x83, 0xec, 0xd0, 0x3e, 0x37, 0x84, 0x14, 0x3f, 0x96, 0x91, 0x0e, 0xbf,
    0xa6, 0x29, 0x3d, 0xbf, 0x39, 0x12, 0xbf, 0xbe, 0x8f, 0x98, 0x53, 0x3f,
    0x37, 0x03, 0x3a, 0x3e, 0x1c, 0xee, 0x82, 0x3f, 0xc7, 0xfe, 0x86, 0x3c,
    0xe8, 0xca, 0xbc, 0xbe, 0x6c, 0x0f, 0xb5, 0xbd, 0xe0, 0x8c, 0x24, 0xbe,
    0xb1, 0x75, 0x5b, 0xbf, 0x78, 0xe4, 0x88, 0xbd, 0x20, 0x17, 0xac, 0xbc,
    0xaa, 0xfd, 0xff, 0xff, 0x04, 0x00, 0x00, 0x00, 0xf0, 0x00, 0x00, 0x00,
    0x46, 0xe2, 0x56, 0x3d, 0x74, 0x79, 0xdf, 0x3d, 0x59, 0xd4, 0xcd, 0x3e,
    0x22, 0x8c, 0x57, 0xbf, 0x16, 0x10, 0x27, 0x3f, 0x68, 0x4a, 0x25, 0x3e,
    0x04, 0x2f, 0x09, 0xbf, 0x11, 0xa4, 0xeb, 0xbe, 0xab, 0xce, 0xf2, 0xbe,
    0x47, 0xd3, 0x0a, 0x3f, 0x45, 0xde, 0x3c, 0x3f, 0x25, 0x92, 0x10, 0x3e,
    0xb1, 0x01, 0x2f, 0x3e, 0xca, 0x40, 0xbd, 0xbe, 0x56, 0x29, 0xf8, 0xbe,
    0x68, 0x20, 0x16, 0x3f, 0x78, 0x02, 0x69, 0xbe, 0xa3, 0x5d, 0xfe, 0x3e,
    0x8a, 0x21, 0xbf, 0x3e, 0x91, 0xfa, 0xcc, 0x3e, 0x54, 0x21, 0xe7, 0xbe,
    0xb6, 0x0f, 0x96, 0xbc, 0xfe, 0xed, 0x98, 0xbe, 0x44, 0x7e, 0x34, 0xbe,
    0x68, 0x95, 0xf9, 0x3d, 0x80, 0x9e, 0xd0, 0xbd, 0xe2, 0x31, 0xf2, 0x3e,
    0xf6, 0x81, 0x41, 0x3e, 0x0e, 0x14, 0xba, 0x3c, 0xcf, 0xe3, 0x8d, 0x3e,
    0x87, 0x9a, 0x5f, 0xbe, 0x6b, 0xa3, 0x05, 0x3f, 0x89, 0x17, 0xcb, 0x3d,
    0xb2, 0x5c, 0x96, 0xbc, 0x6f, 0x07, 0xcb, 0xbe, 0x61, 0x1e, 0x3f, 0xbe,
    0x24, 0x5e, 0x88, 0xbe, 0xcd, 0x15, 0xda, 0xbe, 0x6a, 0x3b, 0xa2, 0xbe,
    0x42, 0x91, 0xc0, 0xbd, 0x8d, 0x64, 0x32, 0xbd, 0x90, 0x73, 0x9c, 0x3e,
    0x41, 0x1f, 0xa8, 0x3e, 0x5a, 0x26, 0x18, 0x3f, 0x98, 0xf3, 0xcc, 0x3c,
    0xb3, 0x9b, 0x1b, 0x3c, 0xd2, 0x1c, 0x0e, 0xbf, 0xb8, 0xd9, 0xfd, 0xbe,
    0x03, 0x94, 0x20, 0x3e, 0x03, 0xf6, 0xf2, 0x3e, 0x56, 0x71, 0x0e, 0xbe,
    0x9a, 0x4f, 0x8f, 0xbd, 0x00, 0x70, 0xdf, 0x3d, 0xd3, 0x44, 0x76, 0xbe,
    0xd4, 0x74, 0xf4, 0xbe, 0x58, 0xff, 0xe9, 0x3d, 0xb0, 0x13, 0x02, 0xbe,
    0x8d, 0x7c, 0x92, 0x3e, 0xdd, 0xd0, 0xcd, 0x3e, 0x8b, 0xa5, 0x0b, 0x3f,
    0xa6, 0xfe, 0xff, 0xff, 0x04, 0x00, 0x00, 0x00, 0x10, 0x00, 0x00, 0x00,
    0x3f, 0x9f, 0x73, 0x3e, 0x7a, 0xfb, 0xeb, 0xbc, 0xc8, 0x0d, 0x0f, 0xbd,
    0xc2, 0x39, 0xe5, 0xbc, 0xc2, 0xfe, 0xff, 0xff, 0x04, 0x00, 0x00, 0x00,
    0x10, 0x00, 0x00, 0x00, 0x8c, 0x0c, 0x70, 0xbd, 0x63, 0x4d, 0x2c, 0xbd,
    0x1b, 0x15, 0x21, 0x3e, 0x00, 0x00, 0x00, 0x00, 0xde, 0xfe, 0xff, 0xff,
    0x04, 0x00, 0x00, 0x00, 0x10, 0x00, 0x00, 0x00, 0x00, 0x00, 0x00, 0x00,
    0xef, 0x3b, 0xd0, 0x3b, 0xc0, 0xf1, 0x6e, 0x3e, 0x45, 0xca, 0x88, 0xbc,
    0xfa, 0xfe, 0xff, 0xff, 0x04, 0x00, 0x00, 0x00, 0x10, 0x00, 0x00, 0x00,
    0x9b, 0x01, 0x44, 0x3e, 0x7c, 0xf3, 0x5e, 0xbc, 0x9e, 0xe9, 0x96, 0xb9,
    0xea, 0xe0, 0x9a, 0xbc, 0x16, 0xff, 0xff, 0xff, 0x04, 0x00, 0x00, 0x00,
    0x10, 0x00, 0x00, 0x00, 0xea, 0xce, 0x03, 0xbe, 0x6c, 0x68, 0x1f, 0xbe,
    0x74, 0xf3, 0x70, 0x3e, 0xc5, 0x51, 0x4e, 0x3e, 0x32, 0xff, 0xff, 0xff,
    0x04, 0x00, 0x00, 0x00, 0x20, 0x00, 0x00, 0x00, 0x86, 0x20, 0x7f, 0xbe,
    0xa9, 0x89, 0x1a, 0x3e, 0xfe, 0x8f, 0xe7, 0xbd, 0xc9, 0x02, 0xb3, 0x3d,
    0xbf, 0x58, 0xd4, 0x3d, 0xeb, 0x1f, 0x37, 0xbe, 0x75, 0xca, 0x82, 0xbe,
    0x00, 0xf8, 0x39, 0x3e, 0x20, 0xf6, 0xff, 0xff, 0x24, 0xf6, 0xff, 0xff,
    0x0f, 0x00, 0x00, 0x00, 0x4d, 0x4c, 0x49, 0x52, 0x20, 0x43, 0x6f, 0x6e,
    0x76, 0x65, 0x72, 0x74, 0x65, 0x64, 0x2e, 0x00, 0x01, 0x00, 0x00, 0x00,
    0x14, 0x00, 0x00, 0x00, 0x00, 0x00, 0x0e, 0x00, 0x18, 0x00, 0x14, 0x00,
    0x10, 0x00, 0x0c, 0x00, 0x08, 0x00, 0x04, 0x00, 0x0e, 0x00, 0x00, 0x00,
    0x14, 0x00, 0x00, 0x00, 0x1c, 0x00, 0x00, 0x00, 0xcc, 0x01, 0x00, 0x00,
    0xd0, 0x01, 0x00, 0x00, 0xd4, 0x01, 0x00, 0x00, 0x04, 0x00, 0x00, 0x00,
    0x6d, 0x61, 0x69, 0x6e, 0x00, 0x00, 0x00, 0x00, 0x07, 0x00, 0x00, 0x00,
    0x74, 0x01, 0x00, 0x00, 0x2c, 0x01, 0x00, 0x00, 0xf4, 0x00, 0x00, 0x00,
    0xbc, 0x00, 0x00, 0x00, 0x84, 0x00, 0x00, 0x00, 0x50, 0x00, 0x00, 0x00,
    0x14, 0x00, 0x00, 0x00, 0x00, 0x00, 0x0e, 0x00, 0x1a, 0x00, 0x14, 0x00,
    0x10, 0x00, 0x0c, 0x00, 0x0b, 0x00, 0x04, 0x00, 0x0e, 0x00, 0x00, 0x00,
    0x1c, 0x00, 0x00, 0x00, 0x00, 0x00, 0x00, 0x09, 0x1c, 0x00, 0x00, 0x00,
    0x20, 0x00, 0x00, 0x00, 0x01, 0x00, 0x00, 0x00, 0x00, 0x00, 0x06, 0x00,
    0x08, 0x00, 0x04, 0x00, 0x06, 0x00, 0x00, 0x00, 0x00, 0x00, 0x80, 0x3f,
    0x01, 0x00, 0x00, 0x00, 0x13, 0x00, 0x00, 0x00, 0x01, 0x00, 0x00, 0x00,
    0x12, 0x00, 0x00, 0x00, 0xfe, 0xfe, 0xff, 0xff, 0x10, 0x00, 0x00, 0x00,
    0x00, 0x00, 0x00, 0x08, 0x0c, 0x00, 0x00, 0x00, 0x10, 0x00, 0x00, 0x00,
    0xf4, 0xf6, 0xff, 0xff, 0x01, 0x00, 0x00, 0x00, 0x12, 0x00, 0x00, 0x00,
    0x03, 0x00, 0x00, 0x00, 0x11, 0x00, 0x00, 0x00, 0x0c, 0x00, 0x00, 0x00,
    0x01, 0x00, 0x00, 0x00, 0x2e, 0xff, 0xff, 0xff, 0x10, 0x00, 0x00, 0x00,
    0x00, 0x00, 0x00, 0x08, 0x10, 0x00, 0x00, 0x00, 0x14, 0x00, 0x00, 0x00,
    0x1e, 0xff, 0xff, 0xff, 0x00, 0x00, 0x00, 0x01, 0x01, 0x00, 0x00, 0x00,
    0x11, 0x00, 0x00, 0x00, 0x03, 0x00, 0x00, 0x00, 0x10, 0x00, 0x00, 0x00,
    0x0b, 0x00, 0x00, 0x00, 0x02, 0x00, 0x00, 0x00, 0x62, 0xff, 0xff, 0xff,
    0x10, 0x00, 0x00, 0x00, 0x00, 0x00, 0x00, 0x08, 0x10, 0x00, 0x00, 0x00,
    0x14, 0x00, 0x00, 0x00, 0x52, 0xff, 0xff, 0xff, 0x00, 0x00, 0x00, 0x01,
    0x01, 0x00, 0x00, 0x00, 0x10, 0x00, 0x00, 0x00, 0x03, 0x00, 0x00, 0x00,
    0x0f, 0x00, 0x00, 0x00, 0x0a, 0x00, 0x00, 0x00, 0x03, 0x00, 0x00, 0x00,
    0x96, 0xff, 0xff, 0xff, 0x10, 0x00, 0x00, 0x00, 0x00, 0x00, 0x00, 0x08,
    0x10, 0x00, 0x00, 0x00, 0x14, 0x00, 0x00, 0x00, 0x86, 0xff, 0xff, 0xff,
    0x00, 0x00, 0x00, 0x01, 0x01, 0x00, 0x00, 0x00, 0x0f, 0x00, 0x00, 0x00,
    0x03, 0x00, 0x00, 0x00, 0x0e, 0x00, 0x00, 0x00, 0x09, 0x00, 0x00, 0x00,
    0x04, 0x00, 0x00, 0x00, 0xca, 0xff, 0xff, 0xff, 0x10, 0x00, 0x00, 0x00,
    0x00, 0x00, 0x00, 0x08, 0x10, 0x00, 0x00, 0x00, 0x14, 0x00, 0x00, 0x00,
    0xba, 0xff, 0xff, 0xff, 0x00, 0x00, 0x00, 0x01, 0x01, 0x00, 0x00, 0x00,
    0x0e, 0x00, 0x00, 0x00, 0x03, 0x00, 0x00, 0x00, 0x0d, 0x00, 0x00, 0x00,
    0x08, 0x00, 0x00, 0x00, 0x05, 0x00, 0x00, 0x00, 0x00, 0x00, 0x0e, 0x00,
    0x16, 0x00, 0x00, 0x00, 0x10, 0x00, 0x0c, 0x00, 0x0b, 0x00, 0x04, 0x00,
    0x0e, 0x00, 0x00, 0x00, 0x18, 0x00, 0x00, 0x00, 0x00, 0x00, 0x00, 0x08,
    0x18, 0x00, 0x00, 0x00, 0x1c, 0x00, 0x00, 0x00, 0x00, 0x00, 0x06, 0x00,
    0x08, 0x00, 0x07, 0x00, 0x06, 0x00, 0x00, 0x00, 0x00, 0x00, 0x00, 0x01,
    0x01, 0x00, 0x00, 0x00, 0x0d, 0x00, 0x00, 0x00, 0x03, 0x00, 0x00, 0x00,
    0x00, 0x00, 0x00, 0x00, 0x07, 0x00, 0x00, 0x00, 0x06, 0x00, 0x00, 0x00,
    0x01, 0x00, 0x00, 0x00, 0x13, 0x00, 0x00, 0x00, 0x01, 0x00, 0x00, 0x00,
    0x00, 0x00, 0x00, 0x00, 0x14, 0x00, 0x00, 0x00, 0x98, 0x07, 0x00, 0x00,
    0x28, 0x07, 0x00, 0x00, 0xb8, 0x06, 0x00, 0x00, 0x60, 0x06, 0x00, 0x00,
    0x08, 0x06, 0x00, 0x00, 0xb0, 0x05, 0x00, 0x00, 0x58, 0x05, 0x00, 0x00,
    0x0c, 0x05, 0x00, 0x00, 0xc0, 0x04, 0x00, 0x00, 0x74, 0x04, 0x00, 0x00,
    0x28, 0x04, 0x00, 0x00, 0xdc, 0x03, 0x00, 0x00, 0x90, 0x03, 0x00, 0x00,
    0x04, 0x03, 0x00, 0x00, 0x78, 0x02, 0x00, 0x00, 0xec, 0x01, 0x00, 0x00,
    0x60, 0x01, 0x00, 0x00, 0xd4, 0x00, 0x00, 0x00, 0x60, 0x00, 0x00, 0x00,
    0x04, 0x00, 0x00, 0x00, 0xce, 0xf8, 0xff, 0xff, 0x00, 0x00, 0x00, 0x01,
    0x14, 0x00, 0x00, 0x00, 0x1c, 0x00, 0x00, 0x00, 0x1c, 0x00, 0x00, 0x00,
    0x14, 0x00, 0x00, 0x00, 0x34, 0x00, 0x00, 0x00, 0x02, 0x00, 0x00, 0x00,
    0xff, 0xff, 0xff, 0xff, 0x08, 0x00, 0x00, 0x00, 0xb8, 0xf8, 0xff, 0xff,
    0x19, 0x00, 0x00, 0x00, 0x53, 0x74, 0x61, 0x74, 0x65, 0x66, 0x75, 0x6c,
    0x50, 0x61, 0x72, 0x74, 0x69, 0x74, 0x69, 0x6f, 0x6e, 0x65, 0x64, 0x43,
    0x61, 0x6c, 0x6c, 0x3a, 0x30, 0x00, 0x00, 0x00, 0x02, 0x00, 0x00, 0x00,
    0x01, 0x00, 0x00, 0x00, 0x08, 0x00, 0x00, 0x00, 0x26, 0xf9, 0xff, 0xff,
    0x00, 0x00, 0x00, 0x01, 0x14, 0x00, 0x00, 0x00, 0x1c, 0x00, 0x00, 0x00,
    0x1c, 0x00, 0x00, 0x00, 0x13, 0x00, 0x00, 0x00, 0x4c, 0x00, 0x00, 0x00,
    0x02, 0x00, 0x00, 0x00, 0xff, 0xff, 0xff, 0xff, 0x08, 0x00, 0x00, 0x00,
    0x10, 0xf9, 0xff, 0xff, 0x32, 0x00, 0x00, 0x00, 0x6c, 0x77, 0x34, 0x5f,
    0x6d, 0x64, 0x34, 0x2f, 0x64, 0x65, 0x6e, 0x73, 0x65, 0x5f, 0x31, 0x32,
    0x37, 0x2f, 0x4d, 0x61, 0x74, 0x4d, 0x75, 0x6c, 0x3b, 0x6c, 0x77, 0x34,
    0x5f, 0x6d, 0x64, 0x34, 0x2f, 0x64, 0x65, 0x6e, 0x73, 0x65, 0x5f, 0x31,
    0x32, 0x37, 0x2f, 0x42, 0x69, 0x61, 0x73, 0x41, 0x64, 0x64, 0x00, 0x00,
    0x02, 0x00, 0x00, 0x00, 0x01, 0x00, 0x00, 0x00, 0x08, 0x00, 0x00, 0x00,
    0x96, 0xf9, 0xff, 0xff, 0x00, 0x00, 0x00, 0x01, 0x14, 0x00, 0x00, 0x00,
    0x1c, 0x00, 0x00, 0x00, 0x1c, 0x00, 0x00, 0x00, 0x12, 0x00, 0x00, 0x00,
    0x64, 0x00, 0x00, 0x00, 0x02, 0x00, 0x00, 0x00, 0xff, 0xff, 0xff, 0xff,
    0x04, 0x00, 0x00, 0x00, 0x80, 0xf9, 0xff, 0xff, 0x49, 0x00, 0x00, 0x00,
    0x6c, 0x77, 0x34, 0x5f, 0x6d, 0x64, 0x34, 0x2f, 0x64, 0x65, 0x6e, 0x73,
    0x65, 0x5f, 0x31, 0x32, 0x36, 0x2f, 0x4d, 0x61, 0x74, 0x4d, 0x75, 0x6c,
    0x3b, 0x6c, 0x77, 0x34, 0x5f, 0x6d, 0x64, 0x34, 0x2f, 0x64, 0x65, 0x6e,
    0x73, 0x65, 0x5f, 0x31, 0x32, 0x36, 0x2f, 0x52, 0x65, 0x6c, 0x75, 0x3b,
    0x6c, 0x77, 0x34, 0x5f, 0x6d, 0x64, 0x34, 0x2f, 0x64, 0x65, 0x6e, 0x73,
    0x65, 0x5f, 0x31, 0x32, 0x36, 0x2f, 0x42, 0x69, 0x61, 0x73, 0x41, 0x64,
    0x64, 0x00, 0x00, 0x00, 0x02, 0x00, 0x00, 0x00, 0x01, 0x00, 0x00, 0x00,
    0x04, 0x00, 0x00, 0x00, 0x1e, 0xfa, 0xff, 0xff, 0x00, 0x00, 0x00, 0x01,
    0x14, 0x00, 0x00, 0x00, 0x1c, 0x00, 0x00, 0x00, 0x1c, 0x00, 0x00, 0x00,
    0x11, 0x00, 0x00, 0x00, 0x64, 0x00, 0x00, 0x00, 0x02, 0x00, 0x00, 0x00,
    0xff, 0xff, 0xff, 0xff, 0x04, 0x00, 0x00, 0x00, 0x08, 0xfa, 0xff, 0xff,
    0x49, 0x00, 0x00, 0x00, 0x6c, 0x77, 0x34, 0x5f, 0x6d, 0x64, 0x34, 0x2f,
    0x64, 0x65, 0x6e, 0x73, 0x65, 0x5f, 0x31, 0x32, 0x35, 0x2f, 0x4d, 0x61,
    0x74, 0x4d, 0x75, 0x6c, 0x3b, 0x6c, 0x77, 0x34, 0x5f, 0x6d, 0x64, 0x34,
    0x2f, 0x64, 0x65, 0x6e, 0x73, 0x65, 0x5f, 0x31, 0x32, 0x35, 0x2f, 0x52,
    0x65, 0x6c, 0x75, 0x3b, 0x6c, 0x77, 0x34, 0x5f, 0x6d, 0x64, 0x34, 0x2f,
    0x64, 0x65, 0x6e, 0x73, 0x65, 0x5f, 0x31, 0x32, 0x35, 0x2f, 0x42, 0x69,
    0x61, 0x73, 0x41, 0x64, 0x64, 0x00, 0x00, 0x00, 0x02, 0x00, 0x00, 0x00,
    0x01, 0x00, 0x00, 0x00, 0x04, 0x00, 0x00, 0x00, 0xa6, 0xfa, 0xff, 0xff,
    0x00, 0x00, 0x00, 0x01, 0x14, 0x00, 0x00, 0x00, 0x1c, 0x00, 0x00, 0x00,
    0x1c, 0x00, 0x00, 0x00, 0x10, 0x00, 0x00, 0x00, 0x64, 0x00, 0x00, 0x00,
    0x02, 0x00, 0x00, 0x00, 0xff, 0xff, 0xff, 0xff, 0x04, 0x00, 0x00, 0x00,
    0x90, 0xfa, 0xff, 0xff, 0x49, 0x00, 0x00, 0x00, 0x6c, 0x77, 0x34, 0x5f,
    0x6d, 0x64, 0x34, 0x2f, 0x64, 0x65, 0x6e, 0x73, 0x65, 0x5f, 0x31, 0x32,
    0x34, 0x2f, 0x4d, 0x61, 0x74, 0x4d, 0x75, 0x6c, 0x3b, 0x6c, 0x77, 0x34,
    0x5f, 0x6d, 0x64, 0x34, 0x2f, 0x64, 0x65, 0x6e, 0x73, 0x65, 0x5f, 0x31,
    0x32, 0x34, 0x2f, 0x52, 0x65, 0x6c, 0x75, 0x3b, 0x6c, 0x77, 0x34, 0x5f,
    0x6d, 0x64, 0x34, 0x2f, 0x64, 0x65, 0x6e, 0x73, 0x65, 0x5f, 0x31, 0x32,
    0x34, 0x2f, 0x42, 0x69, 0x61, 0x73, 0x41, 0x64, 0x64, 0x00, 0x00, 0x00,
    0x02, 0x00, 0x00, 0x00, 0x01, 0x00, 0x00, 0x00, 0x04, 0x00, 0x00, 0x00,
    0x2e, 0xfb, 0xff, 0xff, 0x00, 0x00, 0x00, 0x01, 0x14, 0x00, 0x00, 0x00,
    0x1c, 0x00, 0x00, 0x00, 0x1c, 0x00, 0x00, 0x00, 0x0f, 0x00, 0x00, 0x00,
    0x64, 0x00, 0x00, 0x00, 0x02, 0x00, 0x00, 0x00, 0xff, 0xff, 0xff, 0xff,
    0x04, 0x00, 0x00, 0x00, 0x18, 0xfb, 0xff, 0xff, 0x49, 0x00, 0x00, 0x00,
    0x6c, 0x77, 0x34, 0x5f, 0x6d, 0x64, 0x34, 0x2f, 0x64, 0x65, 0x6e, 0x73,
    0x65, 0x5f, 0x31, 0x32, 0x33, 0x2f, 0x4d, 0x61, 0x74, 0x4d, 0x75, 0x6c,
    0x3b, 0x6c, 0x77, 0x34, 0x5f, 0x6d, 0x64, 0x34, 0x2f, 0x64, 0x65, 0x6e,
    0x73, 0x65, 0x5f, 0x31, 0x32, 0x33, 0x2f, 0x52, 0x65, 0x6c, 0x75, 0x3b,
    0x6c, 0x77, 0x34, 0x5f, 0x6d, 0x64, 0x34, 0x2f, 0x64, 0x65, 0x6e, 0x73,
    0x65, 0x5f, 0x31, 0x32, 0x33, 0x2f, 0x42, 0x69, 0x61, 0x73, 0x41, 0x64,
    0x64, 0x00, 0x00, 0x00, 0x02, 0x00, 0x00, 0x00, 0x01, 0x00, 0x00, 0x00,
    0x04, 0x00, 0x00, 0x00, 0xb6, 0xfb, 0xff, 0xff, 0x00, 0x00, 0x00, 0x01,
    0x14, 0x00, 0x00, 0x00, 0x1c, 0x00, 0x00, 0x00, 0x1c, 0x00, 0x00, 0x00,
    0x0e, 0x00, 0x00, 0x00, 0x64, 0x00, 0x00, 0x00, 0x02, 0x00, 0x00, 0x00,
    0xff, 0xff, 0xff, 0xff, 0x04, 0x00, 0x00, 0x00, 0xa0, 0xfb, 0xff, 0xff,
    0x49, 0x00, 0x00, 0x00, 0x6c, 0x77, 0x34, 0x5f, 0x6d, 0x64, 0x34, 0x2f,
    0x64, 0x65, 0x6e, 0x73, 0x65, 0x5f, 0x31, 0x32, 0x32, 0x2f, 0x4d, 0x61,
    0x74, 0x4d, 0x75, 0x6c, 0x3b, 0x6c, 0x77, 0x34, 0x5f, 0x6d, 0x64, 0x34,
    0x2f, 0x64, 0x65, 0x6e, 0x73, 0x65, 0x5f, 0x31, 0x32, 0x32, 0x2f, 0x52,
    0x65, 0x6c, 0x75, 0x3b, 0x6c, 0x77, 0x34, 0x5f, 0x6d, 0x64, 0x34, 0x2f,
    0x64, 0x65, 0x6e, 0x73, 0x65, 0x5f, 0x31, 0x32, 0x32, 0x2f, 0x42, 0x69,
    0x61, 0x73, 0x41, 0x64, 0x64, 0x00, 0x00, 0x00, 0x02, 0x00, 0x00, 0x00,
    0x01, 0x00, 0x00, 0x00, 0x04, 0x00, 0x00, 0x00, 0xaa, 0xfc, 0xff, 0xff,
    0x00, 0x00, 0x00, 0x01, 0x10, 0x00, 0x00, 0x00, 0x10, 0x00, 0x00, 0x00,
    0x0d, 0x00, 0x00, 0x00, 0x28, 0x00, 0x00, 0x00, 0x18, 0xfc, 0xff, 0xff,
    0x18, 0x00, 0x00, 0x00, 0x6c, 0x77, 0x34, 0x5f, 0x6d, 0x64, 0x34, 0x2f,
    0x64, 0x65, 0x6e, 0x73, 0x65, 0x5f, 0x31, 0x32, 0x37, 0x2f, 0x4d, 0x61,
    0x74, 0x4d, 0x75, 0x6c, 0x00, 0x00, 0x00, 0x00, 0x02, 0x00, 0x00, 0x00,
    0x08, 0x00, 0x00, 0x00, 0x04, 0x00, 0x00, 0x00, 0xf2, 0xfc, 0xff, 0xff,
    0x00, 0x00, 0x00, 0x01, 0x10, 0x00, 0x00, 0x00, 0x10, 0x00, 0x00, 0x00,
    0x0c, 0x00, 0x00, 0x00, 0x28, 0x00, 0x00, 0x00, 0x60, 0xfc, 0xff, 0xff,
    0x18, 0x00, 0x00, 0x00, 0x6c, 0x77, 0x34, 0x5f, 0x6d, 0x64, 0x34, 0x2f,
    0x64, 0x65, 0x6e, 0x73, 0x65, 0x5f, 0x31, 0x32, 0x36, 0x2f, 0x4d, 0x61,
    0x74, 0x4d, 0x75, 0x6c, 0x00, 0x00, 0x00, 0x00, 0x02, 0x00, 0x00, 0x00,
    0x04, 0x00, 0x00, 0x00, 0x04, 0x00, 0x00, 0x00, 0x3a, 0xfd, 0xff, 0xff,
    0x00, 0x00, 0x00, 0x01, 0x10, 0x00, 0x00, 0x00, 0x10, 0x00, 0x00, 0x00,
    0x0b, 0x00, 0x00, 0x00, 0x28, 0x00, 0x00, 0x00, 0xa8, 0xfc, 0xff, 0xff,
    0x18, 0x00, 0x00, 0x00, 0x6c, 0x77, 0x34, 0x5f, 0x6d, 0x64, 0x34, 0x2f,
    0x64, 0x65, 0x6e, 0x73, 0x65, 0x5f, 0x31, 0x32, 0x35, 0x2f, 0x4d, 0x61,
    0x74, 0x4d, 0x75, 0x6c, 0x00, 0x00, 0x00, 0x00, 0x02, 0x00, 0x00, 0x00,
    0x04, 0x00, 0x00, 0x00, 0x04, 0x00, 0x00, 0x00, 0x82, 0xfd, 0xff, 0xff,
    0x00, 0x00, 0x00, 0x01, 0x10, 0x00, 0x00, 0x00, 0x10, 0x00, 0x00, 0x00,
    0x0a, 0x00, 0x00, 0x00, 0x28, 0x00, 0x00, 0x00, 0xf0, 0xfc, 0xff, 0xff,
    0x18, 0x00, 0x00, 0x00, 0x6c, 0x77, 0x34, 0x5f, 0x6d, 0x64, 0x34, 0x2f,
    0x64, 0x65, 0x6e, 0x73, 0x65, 0x5f, 0x31, 0x32, 0x34, 0x2f, 0x4d, 0x61,
    0x74, 0x4d, 0x75, 0x6c, 0x00, 0x00, 0x00, 0x00, 0x02, 0x00, 0x00, 0x00,
    0x04, 0x00, 0x00, 0x00, 0x04, 0x00, 0x00, 0x00, 0xca, 0xfd, 0xff, 0xff,
    0x00, 0x00, 0x00, 0x01, 0x10, 0x00, 0x00, 0x00, 0x10, 0x00, 0x00, 0x00,
    0x09, 0x00, 0x00, 0x00, 0x28, 0x00, 0x00, 0x00, 0x38, 0xfd, 0xff, 0xff,
    0x18, 0x00, 0x00, 0x00, 0x6c, 0x77, 0x34, 0x5f, 0x6d, 0x64, 0x34, 0x2f,
    0x64, 0x65, 0x6e, 0x73, 0x65, 0x5f, 0x31, 0x32, 0x33, 0x2f, 0x4d, 0x61,
    0x74, 0x4d, 0x75, 0x6c, 0x00, 0x00, 0x00, 0x00, 0x02, 0x00, 0x00, 0x00,
    0x04, 0x00, 0x00, 0x00, 0x04, 0x00, 0x00, 0x00, 0x12, 0xfe, 0xff, 0xff,
    0x00, 0x00, 0x00, 0x01, 0x10, 0x00, 0x00, 0x00, 0x10, 0x00, 0x00, 0x00,
    0x08, 0x00, 0x00, 0x00, 0x28, 0x00, 0x00, 0x00, 0x80, 0xfd, 0xff, 0xff,
    0x18, 0x00, 0x00, 0x00, 0x6c, 0x77, 0x34, 0x5f, 0x6d, 0x64, 0x34, 0x2f,
    0x64, 0x65, 0x6e, 0x73, 0x65, 0x5f, 0x31, 0x32, 0x32, 0x2f, 0x4d, 0x61,
    0x74, 0x4d, 0x75, 0x6c, 0x00, 0x00, 0x00, 0x00, 0x02, 0x00, 0x00, 0x00,
    0x04, 0x00, 0x00, 0x00, 0x0f, 0x00, 0x00, 0x00, 0x5a, 0xfe, 0xff, 0xff,
    0x00, 0x00, 0x00, 0x01, 0x10, 0x00, 0x00, 0x00, 0x10, 0x00, 0x00, 0x00,
    0x07, 0x00, 0x00, 0x00, 0x38, 0x00, 0x00, 0x00, 0xc8, 0xfd, 0xff, 0xff,
    0x28, 0x00, 0x00, 0x00, 0x6c, 0x77, 0x34, 0x5f, 0x6d, 0x64, 0x34, 0x2f,
    0x64, 0x65, 0x6e, 0x73, 0x65, 0x5f, 0x31, 0x32, 0x32, 0x2f, 0x42, 0x69,
    0x61, 0x73, 0x41, 0x64, 0x64, 0x2f, 0x52, 0x65, 0x61, 0x64, 0x56, 0x61,
    0x72, 0x69, 0x61, 0x62, 0x6c, 0x65, 0x4f, 0x70, 0x00, 0x00, 0x00, 0x00,
    0x01, 0x00, 0x00, 0x00, 0x04, 0x00, 0x00, 0x00, 0xae, 0xfe, 0xff, 0xff,
    0x00, 0x00, 0x00, 0x01, 0x10, 0x00, 0x00, 0x00, 0x10, 0x00, 0x00, 0x00,
    0x06, 0x00, 0x00, 0x00, 0x38, 0x00, 0x00, 0x00, 0x1c, 0xfe, 0xff, 0xff,
    0x28, 0x00, 0x00, 0x00, 0x6c, 0x77, 0x34, 0x5f, 0x6d, 0x64, 0x34, 0x2f,
    0x64, 0x65, 0x6e, 0x73, 0x65, 0x5f, 0x31, 0x32, 0x33, 0x2f, 0x42, 0x69,
    0x61, 0x73, 0x41, 0x64, 0x64, 0x2f, 0x52, 0x65, 0x61, 0x64, 0x56, 0x61,
    0x72, 0x69, 0x61, 0x62, 0x6c, 0x65, 0x4f, 0x70, 0x00, 0x00, 0x00, 0x00,
    0x01, 0x00, 0x00, 0x00, 0x04, 0x00, 0x00, 0x00, 0x02, 0xff, 0xff, 0xff,
    0x00, 0x00, 0x00, 0x01, 0x10, 0x00, 0x00, 0x00, 0x10, 0x00, 0x00, 0x00,
    0x05, 0x00, 0x00, 0x00, 0x38, 0x00, 0x00, 0x00, 0x70, 0xfe, 0xff, 0xff,
    0x28, 0x00, 0x00, 0x00, 0x6c, 0x77, 0x34, 0x5f, 0x6d, 0x64, 0x34, 0x2f,
    0x64, 0x65, 0x6e, 0x73, 0x65, 0x5f, 0x31, 0x32, 0x34, 0x2f, 0x42, 0x69,
    0x61, 0x73, 0x41, 0x64, 0x64, 0x2f, 0x52, 0x65, 0x61, 0x64, 0x56, 0x61,
    0x72, 0x69, 0x61, 0x62, 0x6c, 0x65, 0x4f, 0x70, 0x00, 0x00, 0x00, 0x00,
    0x01, 0x00, 0x00, 0x00, 0x04, 0x00, 0x00, 0x00, 0x56, 0xff, 0xff, 0xff,
    0x00, 0x00, 0x00, 0x01, 0x10, 0x00, 0x00, 0x00, 0x10, 0x00, 0x00, 0x00,
    0x04, 0x00, 0x00, 0x00, 0x38, 0x00, 0x00, 0x00, 0xc4, 0xfe, 0xff, 0xff,
    0x28, 0x00, 0x00, 0x00, 0x6c, 0x77, 0x34, 0x5f, 0x6d, 0x64, 0x34, 0x2f,
    0x64, 0x65, 0x6e, 0x73, 0x65, 0x5f, 0x31, 0x32, 0x35, 0x2f, 0x42, 0x69,
    0x61, 0x73, 0x41, 0x64, 0x64, 0x2f, 0x52, 0x65, 0x61, 0x64, 0x56, 0x61,
    0x72, 0x69, 0x61, 0x62, 0x6c, 0x65, 0x4f, 0x70, 0x00, 0x00, 0x00, 0x00,
    0x01, 0x00, 0x00, 0x00, 0x04, 0x00, 0x00, 0x00, 0xaa, 0xff, 0xff, 0xff,
    0x00, 0x00, 0x00, 0x01, 0x10, 0x00, 0x00, 0x00, 0x10, 0x00, 0x00, 0x00,
    0x03, 0x00, 0x00, 0x00, 0x38, 0x00, 0x00, 0x00, 0x18, 0xff, 0xff, 0xff,
    0x28, 0x00, 0x00, 0x00, 0x6c, 0x77, 0x34, 0x5f, 0x6d, 0x64, 0x34, 0x2f,
    0x64, 0x65, 0x6e, 0x73, 0x65, 0x5f, 0x31, 0x32, 0x36, 0x2f, 0x42, 0x69,
    0x61, 0x73, 0x41, 0x64, 0x64, 0x2f, 0x52, 0x65, 0x61, 0x64, 0x56, 0x61,
    0x72, 0x69, 0x61, 0x62, 0x6c, 0x65, 0x4f, 0x70, 0x00, 0x00, 0x00, 0x00,
    0x01, 0x00, 0x00, 0x00, 0x04, 0x00, 0x00, 0x00, 0x00, 0x00, 0x16, 0x00,
    0x18, 0x00, 0x14, 0x00, 0x00, 0x00, 0x10, 0x00, 0x0c, 0x00, 0x08, 0x00,
    0x00, 0x00, 0x00, 0x00, 0x00, 0x00, 0x07, 0x00, 0x16, 0x00, 0x00, 0x00,
    0x00, 0x00, 0x00, 0x01, 0x10, 0x00, 0x00, 0x00, 0x10, 0x00, 0x00, 0x00,
    0x02, 0x00, 0x00, 0x00, 0x38, 0x00, 0x00, 0x00, 0x84, 0xff, 0xff, 0xff,
    0x28, 0x00, 0x00, 0x00, 0x6c, 0x77, 0x34, 0x5f, 0x6d, 0x64, 0x34, 0x2f,
    0x64, 0x65, 0x6e, 0x73, 0x65, 0x5f, 0x31, 0x32, 0x37, 0x2f, 0x42, 0x69,
    0x61, 0x73, 0x41, 0x64, 0x64, 0x2f, 0x52, 0x65, 0x61, 0x64, 0x56, 0x61,
    0x72, 0x69, 0x61, 0x62, 0x6c, 0x65, 0x4f, 0x70, 0x00, 0x00, 0x00, 0x00,
    0x01, 0x00, 0x00, 0x00, 0x08, 0x00, 0x00, 0x00, 0x00, 0x00, 0x16, 0x00,
    0x1c, 0x00, 0x18, 0x00, 0x00, 0x00, 0x14, 0x00, 0x10, 0x00, 0x0c, 0x00,
    0x00, 0x00, 0x00, 0x00, 0x08, 0x00, 0x07, 0x00, 0x16, 0x00, 0x00, 0x00,
    0x00, 0x00, 0x00, 0x01, 0x14, 0x00, 0x00, 0x00, 0x20, 0x00, 0x00, 0x00,
    0x20, 0x00, 0x00, 0x00, 0x01, 0x00, 0x00, 0x00, 0x40, 0x00, 0x00, 0x00,
    0x02, 0x00, 0x00, 0x00, 0xff, 0xff, 0xff, 0xff, 0x0f, 0x00, 0x00, 0x00,
    0x04, 0x00, 0x04, 0x00, 0x04, 0x00, 0x00, 0x00, 0x21, 0x00, 0x00, 0x00,
    0x73, 0x65, 0x72, 0x76, 0x69, 0x6e, 0x67, 0x5f, 0x64, 0x65, 0x66, 0x61,
    0x75, 0x6c, 0x74, 0x5f, 0x64, 0x65, 0x6e, 0x73, 0x65, 0x5f, 0x31, 0x32,
    0x32, 0x5f, 0x69, 0x6e, 0x70, 0x75, 0x74, 0x3a, 0x30, 0x00, 0x00, 0x00,
    0x02, 0x00, 0x00, 0x00, 0x01, 0x00, 0x00, 0x00, 0x0f, 0x00, 0x00, 0x00,
    0x02, 0x00, 0x00, 0x00, 0x20, 0x00, 0x00, 0x00, 0x04, 0x00, 0x00, 0x00,
    0xf4, 0xff, 0xff, 0xff, 0x19, 0x00, 0x00, 0x00, 0x00, 0x00, 0x00, 0x19,
    0x0c, 0x00, 0x0c, 0x00, 0x0b, 0x00, 0x00, 0x00, 0x00, 0x00, 0x04, 0x00,
    0x0c, 0x00, 0x00, 0x00, 0x09, 0x00, 0x00, 0x00, 0x00, 0x00, 0x00, 0x09};
unsigned int lw4_md4_len = 4044;
