unsigned char lw8_md8[] = {
    0x1c, 0x00, 0x00, 0x00, 0x54, 0x46, 0x4c, 0x33, 0x14, 0x00, 0x20, 0x00,
    0x1c, 0x00, 0x18, 0x00, 0x14, 0x00, 0x10, 0x00, 0x0c, 0x00, 0x00, 0x00,
    0x08, 0x00, 0x04, 0x00, 0x14, 0x00, 0x00, 0x00, 0x1c, 0x00, 0x00, 0x00,
    0x98, 0x00, 0x00, 0x00, 0xf0, 0x00, 0x00, 0x00, 0x3c, 0x0f, 0x00, 0x00,
    0x4c, 0x0f, 0x00, 0x00, 0xe8, 0x1e, 0x00, 0x00, 0x03, 0x00, 0x00, 0x00,
    0x01, 0x00, 0x00, 0x00, 0x10, 0x00, 0x00, 0x00, 0x00, 0x00, 0x0a, 0x00,
    0x10, 0x00, 0x0c, 0x00, 0x08, 0x00, 0x04, 0x00, 0x0a, 0x00, 0x00, 0x00,
    0x0c, 0x00, 0x00, 0x00, 0x1c, 0x00, 0x00, 0x00, 0x3c, 0x00, 0x00, 0x00,
    0x0f, 0x00, 0x00, 0x00, 0x73, 0x65, 0x72, 0x76, 0x69, 0x6e, 0x67, 0x5f,
    0x64, 0x65, 0x66, 0x61, 0x75, 0x6c, 0x74, 0x00, 0x01, 0x00, 0x00, 0x00,
    0x04, 0x00, 0x00, 0x00, 0x90, 0xff, 0xff, 0xff, 0x1f, 0x00, 0x00, 0x00,
    0x04, 0x00, 0x00, 0x00, 0x09, 0x00, 0x00, 0x00, 0x64, 0x65, 0x6e, 0x73,
    0x65, 0x5f, 0x31, 0x36, 0x30, 0x00, 0x00, 0x00, 0x01, 0x00, 0x00, 0x00,
    0x04, 0x00, 0x00, 0x00, 0x8e, 0xf0, 0xff, 0xff, 0x04, 0x00, 0x00, 0x00,
    0x0f, 0x00, 0x00, 0x00, 0x64, 0x65, 0x6e, 0x73, 0x65, 0x5f, 0x31, 0x35,
    0x31, 0x5f, 0x69, 0x6e, 0x70, 0x75, 0x74, 0x00, 0x02, 0x00, 0x00, 0x00,
    0x34, 0x00, 0x00, 0x00, 0x04, 0x00, 0x00, 0x00, 0xdc, 0xff, 0xff, 0xff,
    0x22, 0x00, 0x00, 0x00, 0x04, 0x00, 0x00, 0x00, 0x13, 0x00, 0x00, 0x00,
    0x43, 0x4f, 0x4e, 0x56, 0x45, 0x52, 0x53, 0x49, 0x4f, 0x4e, 0x5f, 0x4d,
    0x45, 0x54, 0x41, 0x44, 0x41, 0x54, 0x41, 0x00, 0x08, 0x00, 0x0c, 0x00,
    0x08, 0x00, 0x04, 0x00, 0x08, 0x00, 0x00, 0x00, 0x21, 0x00, 0x00, 0x00,
    0x04, 0x00, 0x00, 0x00, 0x13, 0x00, 0x00, 0x00, 0x6d, 0x69, 0x6e, 0x5f,
    0x72, 0x75, 0x6e, 0x74, 0x69, 0x6d, 0x65, 0x5f, 0x76, 0x65, 0x72, 0x73,
    0x69, 0x6f, 0x6e, 0x00, 0x23, 0x00, 0x00, 0x00, 0x48, 0x0e, 0x00, 0x00,
    0x40, 0x0e, 0x00, 0x00, 0x10, 0x0e, 0x00, 0x00, 0xe0, 0x0d, 0x00, 0x00,
    0xb0, 0x0d, 0x00, 0x00, 0x80, 0x0d, 0x00, 0x00, 0x50, 0x0d, 0x00, 0x00,
    0x20, 0x0d, 0x00, 0x00, 0xf0, 0x0c, 0x00, 0x00, 0xc0, 0x0c, 0x00, 0x00,
    0x90, 0x0c, 0x00, 0x00, 0x60, 0x0c, 0x00, 0x00, 0x70, 0x0a, 0x00, 0x00,
    0x60, 0x09, 0x00, 0x00, 0x50, 0x08, 0x00, 0x00, 0x40, 0x07, 0x00, 0x00,
    0x30, 0x06, 0x00, 0x00, 0x20, 0x05, 0x00, 0x00, 0x10, 0x04, 0x00, 0x00,
    0x00, 0x03, 0x00, 0x00, 0xf0, 0x01, 0x00, 0x00, 0xe0, 0x00, 0x00, 0x00,
    0xd8, 0x00, 0x00, 0x00, 0xd0, 0x00, 0x00, 0x00, 0xc8, 0x00, 0x00, 0x00,
    0xc0, 0x00, 0x00, 0x00, 0xb8, 0x00, 0x00, 0x00, 0xb0, 0x00, 0x00, 0x00,
    0xa8, 0x00, 0x00, 0x00, 0xa0, 0x00, 0x00, 0x00, 0x98, 0x00, 0x00, 0x00,
    0x90, 0x00, 0x00, 0x00, 0x88, 0x00, 0x00, 0x00, 0x68, 0x00, 0x00, 0x00,
    0x04, 0x00, 0x00, 0x00, 0x96, 0xf1, 0xff, 0xff, 0x04, 0x00, 0x00, 0x00,
    0x54, 0x00, 0x00, 0x00, 0x0c, 0x00, 0x00, 0x00, 0x08, 0x00, 0x0e, 0x00,
    0x08, 0x00, 0x04, 0x00, 0x08, 0x00, 0x00, 0x00, 0x10, 0x00, 0x00, 0x00,
    0x24, 0x00, 0x00, 0x00, 0x00, 0x00, 0x06, 0x00, 0x08, 0x00, 0x04, 0x00,
    0x06, 0x00, 0x00, 0x00, 0x04, 0x00, 0x00, 0x00, 0x00, 0x00, 0x00, 0x00,
    0x00, 0x00, 0x0a, 0x00, 0x10, 0x00, 0x0c, 0x00, 0x08, 0x00, 0x04, 0x00,
    0x0a, 0x00, 0x00, 0x00, 0x02, 0x00, 0x00, 0x00, 0x02, 0x00, 0x00, 0x00,
    0x04, 0x00, 0x00, 0x00, 0x06, 0x00, 0x00, 0x00, 0x32, 0x2e, 0x31, 0x34,
    0x2e, 0x30, 0x00, 0x00, 0xf6, 0xf1, 0xff, 0xff, 0x04, 0x00, 0x00, 0x00,
    0x10, 0x00, 0x00, 0x00, 0x31, 0x2e, 0x35, 0x2e, 0x30, 0x00, 0x00, 0x00,
    0x00, 0x00, 0x00, 0x00, 0x00, 0x00, 0x00, 0x00, 0x44, 0xe3, 0xff, 0xff,
    0x48, 0xe3, 0xff, 0xff, 0x4c, 0xe3, 0xff, 0xff, 0x50, 0xe3, 0xff, 0xff,
    0x54, 0xe3, 0xff, 0xff, 0x58, 0xe3, 0xff, 0xff, 0x5c, 0xe3, 0xff, 0xff,
    0x60, 0xe3, 0xff, 0xff, 0x64, 0xe3, 0xff, 0xff, 0x68, 0xe3, 0xff, 0xff,
    0x6c, 0xe3, 0xff, 0xff, 0x3e, 0xf2, 0xff, 0xff, 0x04, 0x00, 0x00, 0x00,
    0x00, 0x01, 0x00, 0x00, 0x8d, 0xa8, 0x09, 0xbf, 0xe0, 0x41, 0x3b, 0x3e,
    0x01, 0xdd, 0x4b, 0xbf, 0xc0, 0x7c, 0xf6, 0xbe, 0x05, 0xca, 0xfd, 0xbe,
    0x2e, 0xf3, 0x65, 0xbf, 0xc0, 0x3d, 0x67, 0xbd, 0xcc, 0x24, 0xb3, 0x3e,
    0x15, 0x1d, 0xef, 0x3e, 0xd6, 0xa1, 0x2f, 0xbe, 0x99, 0xd3, 0x02, 0x3f,
    0xda, 0x0a, 0x85, 0x3e, 0x62, 0xee, 0x51, 0xbe, 0xbb, 0x0c, 0xc9, 0x3d,
    0xb6, 0x4c, 0xe7, 0x3e, 0xbc, 0xcb, 0x15, 0x3f, 0xca, 0x6b, 0x03, 0xbf,
    0x36, 0x1c, 0xaf, 0xbe, 0xd4, 0xd4, 0x4a, 0x3e, 0x90, 0x56, 0x30, 0xbd,
    0xe8, 0xee, 0xb2, 0x3d, 0xe4, 0x09, 0xf0, 0xbe, 0xd6, 0x1a, 0x0b, 0xbe,
    0x99, 0xdc, 0x49, 0x3e, 0x13, 0xfe, 0xbf, 0xbe, 0x55, 0x33, 0x1b, 0xbf,
    0x9b, 0x74, 0xfe, 0x3e, 0xe8, 0x68, 0x12, 0xbe, 0x7a, 0x6f, 0x87, 0x3e,
    0xf9, 0xb2, 0x5b, 0x3e, 0x4e, 0x82, 0xe3, 0x3e, 0x12, 0x5e, 0xf0, 0xbe,
    0xe2, 0x7b, 0x1d, 0x3f, 0x05, 0xcf, 0x2b, 0xbf, 0x59, 0x3f, 0x2c, 0xbe,
    0x52, 0xd2, 0xf1, 0xbe, 0x7d, 0x66, 0xb2, 0xbe, 0x6e, 0x09, 0x89, 0xbd,
    0xe0, 0xc6, 0x5c, 0x3e, 0xbc, 0x6c, 0x12, 0xbf, 0xd1, 0x7d, 0xd2, 0xbe,
    0x20, 0x89, 0x94, 0x3e, 0xad, 0x8a, 0x3c, 0x3d, 0x80, 0x46, 0x41, 0x3c,
    0x70, 0x87, 0x70, 0xbd, 0x5d, 0x78, 0xba, 0xbe, 0xa4, 0x16, 0x59, 0xbe,
    0x41, 0x26, 0x05, 0x3f, 0xb2, 0x4b, 0xc8, 0xbd, 0x9e, 0x16, 0xf6, 0x3e,
    0x89, 0xc3, 0x1f, 0xbf, 0x9c, 0x95, 0x6e, 0xbe, 0xd6, 0x91, 0xde, 0x3e,
    0x39, 0x46, 0x3d, 0x3d, 0xd4, 0xb3, 0x3f, 0x3e, 0x7c, 0x44, 0xd6, 0x3e,
    0x02, 0xd9, 0x09, 0x3f, 0x76, 0x02, 0xca, 0xbe, 0xde, 0xce, 0xe9, 0x3e,
    0xb9, 0xf8, 0x03, 0x3f, 0xac, 0xec, 0x43, 0x3e, 0xf1, 0x4b, 0x94, 0x3d,
    0x30, 0x32, 0x90, 0x3d, 0x2a, 0xc3, 0x16, 0xbe, 0x4a, 0xf3, 0xff, 0xff,
    0x04, 0x00, 0x00, 0x00, 0x00, 0x01, 0x00, 0x00, 0x46, 0xaa, 0xbd, 0x3e,
    0x85, 0x52, 0x8d, 0xbd, 0xa3, 0x23, 0x82, 0x3e, 0x11, 0x0b, 0x03, 0xbf,
    0x63, 0xfc, 0x9f, 0xbe, 0xc2, 0xe4, 0x96, 0x3d, 0x45, 0xae, 0x0c, 0x3f,
    0xa5, 0x8b, 0xdc, 0x3e, 0x29, 0xa6, 0x8d, 0xbe, 0x0a, 0xbf, 0x21, 0xbd,
    0xf7, 0x11, 0x89, 0x3e, 0xbe, 0x22, 0xc3, 0xbd, 0x10, 0x54, 0x5c, 0x3e,
    0x3e, 0x4f, 0x39, 0x3e, 0x4e, 0x3c, 0xf5, 0x3e, 0x02, 0xe2, 0xec, 0xbe,
    0xef, 0xe6, 0x18, 0xbf, 0x81, 0x88, 0xe0, 0xbe, 0x24, 0x4f, 0x2a, 0xbe,
    0x6c, 0x62, 0x31, 0x3e, 0x77, 0x1a, 0x0e, 0x3f, 0xfe, 0x25, 0x01, 0x3f,
    0xaa, 0xda, 0x41, 0x3f, 0xc0, 0x98, 0x22, 0x3e, 0x22, 0x21, 0xd6, 0x3e,
    0x7c, 0xef, 0x5c, 0xbe, 0x50, 0xce, 0x00, 0x3e, 0xca, 0x2e, 0xf0, 0xbe,
    0x98, 0xc6, 0x86, 0x3d, 0x4d, 0xd9, 0x9a, 0xbe, 0xf0, 0xd0, 0x7a, 0xbe,
    0x2a, 0x41, 0x52, 0xbe, 0xd8, 0x27, 0xf8, 0xbe, 0xb0, 0x05, 0xcc, 0xbe,
    0x00, 0xf5, 0x42, 0x3e, 0xde, 0x75, 0x1a, 0xbf, 0xaa, 0xa3, 0xf4, 0x3e,
    0xbb, 0x49, 0x8e, 0xbe, 0x28, 0xc1, 0x96, 0xbd, 0xc0, 0x39, 0xe6, 0xbe,
    0x40, 0xf6, 0xf8, 0x3e, 0x2b, 0x66, 0xd3, 0x3e, 0x0c, 0xd3, 0xc4, 0x3e,
    0x48, 0x8e, 0x30, 0xbd, 0x65, 0x04, 0x1c, 0x3f, 0xd4, 0xc1, 0xd0, 0x3e,
    0x76, 0x20, 0x51, 0x3e, 0x0d, 0x94, 0xe8, 0x3d, 0x84, 0x0d, 0x41, 0x3e,
    0x70, 0x6a, 0x0b, 0xbd, 0x44, 0xe8, 0x65, 0xbe, 0x78, 0x5f, 0x64, 0xbe,
    0x52, 0xa1, 0xf0, 0xbe, 0xaf, 0x68, 0xd4, 0xbe, 0x5d, 0x6c, 0x80, 0xbe,
    0x30, 0xbd, 0x3c, 0x3e, 0x14, 0x30, 0x46, 0xbe, 0x85, 0xae, 0xa7, 0x3e,
    0x79, 0x10, 0xe4, 0x3e, 0xb7, 0x98, 0xf3, 0x3c, 0x89, 0xad, 0x19, 0xbf,
    0xdf, 0x63, 0x1a, 0xbf, 0xa6, 0xde, 0x84, 0x3c, 0x63, 0xbb, 0x16, 0x3d,
    0x56, 0xf4, 0xff, 0xff, 0x04, 0x00, 0x00, 0x00, 0x00, 0x01, 0x00, 0x00,
    0x90, 0x9d, 0x17, 0xbf, 0x09, 0x57, 0xb5, 0x3e, 0x8d, 0x53, 0x0e, 0x3f,
    0xac, 0x1b, 0x90, 0x3e, 0x4e, 0x36, 0x00, 0xbf, 0x97, 0x36, 0xf0, 0xbe,
    0x80, 0x37, 0xd5, 0x3d, 0x4e, 0x24, 0xb0, 0xbe, 0xc6, 0xe6, 0xc9, 0x3e,
    0x83, 0xc4, 0xae, 0x3d, 0x42, 0xce, 0x40, 0x3c, 0xa4, 0xb6, 0x57, 0x3e,
    0x5e, 0x8e, 0xe9, 0x3e, 0x78, 0xfc, 0x11, 0xbf, 0x00, 0x89, 0x95, 0xbd,
    0x78, 0x19, 0xf4, 0x3e, 0xbc, 0xea, 0x22, 0xbe, 0x43, 0x06, 0x97, 0x3b,
    0xeb, 0x39, 0x22, 0xbf, 0x70, 0x06, 0x61, 0x3e, 0x84, 0xdf, 0x03, 0xbe,
    0xa7, 0x40, 0x0c, 0x3f, 0x0a, 0x8f, 0xac, 0xbe, 0x8f, 0xda, 0x00, 0x3f,
    0x0d, 0x2a, 0x8b, 0xbe, 0xd1, 0xb4, 0x4e, 0x3c, 0xb0, 0x01, 0x83, 0xbe,
    0xd2, 0x06, 0x0d, 0xbf, 0x21, 0x1d, 0xfa, 0xbe, 0xe1, 0xea, 0x93, 0xbe,
    0x34, 0xcf, 0x5e, 0xbe, 0xcf, 0xad, 0x98, 0x3e, 0x80, 0xe2, 0x57, 0x3e,
    0x48, 0xde, 0xd6, 0xbe, 0xee, 0xbf, 0x24, 0xbe, 0x28, 0x0f, 0x98, 0x3e,
    0xb0, 0x02, 0x1f, 0x3e, 0xe0, 0xfc, 0xad, 0xbc, 0x7e, 0x83, 0x5d, 0xbe,
    0xe2, 0x09, 0x10, 0xbf, 0x98, 0xa2, 0x50, 0xbe, 0x2a, 0x1d, 0x04, 0x3f,
    0x16, 0x8e, 0x93, 0x3e, 0xd1, 0xa6, 0xc7, 0xbe, 0xa4, 0x18, 0x99, 0x3e,
    0x22, 0x8c, 0xbf, 0xbd, 0x56, 0x39, 0xb3, 0x3e, 0x7e, 0x3e, 0xdb, 0x3e,
    0xb0, 0x34, 0x07, 0xbf, 0x21, 0x52, 0x33, 0x3f, 0x0e, 0x34, 0x37, 0x3f,
    0xca, 0x52, 0xa6, 0xbe, 0x27, 0xcf, 0x0b, 0xbf, 0xc7, 0xbe, 0xf0, 0x3b,
    0xa0, 0x40, 0x8c, 0xbc, 0x51, 0xee, 0xb0, 0x3e, 0x09, 0x1a, 0x95, 0xbe,
    0x9c, 0x11, 0xf7, 0x3e, 0x70, 0x5f, 0x0a, 0x3f, 0xf8, 0xb3, 0x15, 0xbe,
    0xd4, 0x2d, 0x26, 0x3e, 0xe1, 0x99, 0x03, 0x3f, 0xe6, 0xf9, 0xff, 0x3e,
    0x4c, 0xef, 0xc0, 0x3e, 0x62, 0xf5, 0xff, 0xff, 0x04, 0x00, 0x00, 0x00,
    0x00, 0x01, 0x00, 0x00, 0x23, 0x13, 0x1c, 0x3f, 0x04, 0x6d, 0x86, 0xbe,
    0x9a, 0x92, 0xba, 0x3e, 0x3e, 0x0b, 0xeb, 0xbe, 0x37, 0xd9, 0x9b, 0xbe,
    0x8c, 0x39, 0x0d, 0x3e, 0x80, 0x49, 0xe1, 0xbc, 0xc6, 0xe5, 0xf8, 0x3e,
    0xde, 0x1b, 0xf8, 0xbe, 0xfe, 0xaf, 0x94, 0x3d, 0xde, 0x70, 0xf0, 0xbe,
    0x40, 0x18, 0x80, 0xbd, 0xbb, 0x1f, 0x11, 0x3f, 0x5c, 0x1a, 0xbd, 0xbe,
    0xd4, 0x52, 0xbd, 0x3e, 0xe7, 0xf8, 0xb2, 0xbe, 0xf6, 0xca, 0xdb, 0xbe,
    0x6f, 0x8c, 0x07, 0xbf, 0xc0, 0xe1, 0x08, 0xbf, 0x58, 0x86, 0x89, 0xbe,
    0x45, 0x49, 0xaf, 0x3e, 0xc2, 0x79, 0x32, 0xbe, 0x0c, 0x6b, 0xa1, 0x3e,
    0xc8, 0xb1, 0xe4, 0xbd, 0xd8, 0x08, 0xef, 0xbd, 0x48, 0x90, 0x4f, 0xbe,
    0xbd, 0xd2, 0xa0, 0xbe, 0xdd, 0x57, 0xa8, 0xbe, 0x2f, 0xbd, 0x3b, 0xbe,
    0x85, 0x00, 0x8e, 0x3e, 0xa6, 0x00, 0x29, 0xbe, 0x00, 0x18, 0xd8, 0xba,
    0xc4, 0x9b, 0x37, 0x3e, 0xba, 0x9f, 0xcd, 0x3e, 0xd5, 0xeb, 0x00, 0xbf,
    0x80, 0x75, 0x2d, 0xbc, 0x08, 0x4d, 0xe7, 0xbe, 0x80, 0x98, 0xe8, 0x3b,
    0xb0, 0xad, 0xa8, 0xbd, 0xb2, 0x42, 0xfc, 0xbe, 0x8a, 0x6b, 0x01, 0xbf,
    0x49, 0x4b, 0xf1, 0xbe, 0x36, 0x5f, 0x71, 0xbe, 0x5e, 0x50, 0x1b, 0xbf,
    0xdc, 0x45, 0x0c, 0x3f, 0x26, 0x02, 0xc0, 0xbd, 0x55, 0x63, 0x1b, 0xbf,
    0xbc, 0xf7, 0x05, 0x3e, 0x83, 0x61, 0x0c, 0x3f, 0xe8, 0x05, 0xd5, 0x3d,
    0x3f, 0xa9, 0x96, 0xbe, 0x5f, 0xa3, 0x04, 0x3f, 0x85, 0x0a, 0xcf, 0xbe,
    0x24, 0xa0, 0x87, 0xbe, 0x10, 0x12, 0xf6, 0x3d, 0xdf, 0x4a, 0xac, 0xbe,
    0xaa, 0x43, 0xd7, 0x3e, 0x29, 0x13, 0xa3, 0x3e, 0xd2, 0xc5, 0xc9, 0x3e,
    0xc3, 0xbe, 0x12, 0x3f, 0x23, 0xdf, 0xd5, 0x3e, 0xa6, 0xae, 0x2f, 0x3f,
    0xeb, 0xfe, 0x19, 0x3f, 0x80, 0xef, 0x57, 0x3c, 0x6e, 0xf6, 0xff, 0xff,
    0x04, 0x00, 0x00, 0x00, 0x00, 0x01, 0x00, 0x00, 0x40, 0x90, 0x8b, 0x3d,
    0x80, 0xf3, 0x64, 0x3c, 0x62, 0xf4, 0xf5, 0xbe, 0xce, 0x88, 0x0b, 0xbf,
    0x3c, 0xaf, 0xb5, 0x3e, 0x44, 0x86, 0x48, 0xbe, 0x02, 0x53, 0x1c, 0xbf,
    0x18, 0xbc, 0x89, 0xbd, 0x20, 0xa6, 0x0f, 0xbf, 0xbb, 0x69, 0x09, 0x3f,
    0x76, 0x07, 0xc8, 0xbe, 0x9d, 0x5e, 0x14, 0xbf, 0x2c, 0xde, 0xf5, 0xbd,
    0x69, 0x8d, 0x01, 0x3f, 0x42, 0xc8, 0xea, 0x3e, 0x21, 0xaf, 0x18, 0x3e,
    0xc8, 0x8d, 0xd0, 0xbd, 0x9a, 0x21, 0x5b, 0xbe, 0xb3, 0x19, 0x12, 0xbf,
    0x42, 0x35, 0xa9, 0xbe, 0x40, 0x93, 0x10, 0x3e, 0x00, 0x06, 0xf9, 0x3a,
    0x00, 0x58, 0x3a, 0xbb, 0x14, 0x89, 0x01, 0xbf, 0x52, 0x5c, 0x50, 0xbe,
    0x22, 0xe2, 0x0b, 0xbf, 0x74, 0x21, 0x83, 0x3e, 0x40, 0x0c, 0x5b, 0xbe,
    0xee, 0xda, 0xd6, 0x3e, 0x35, 0xc6, 0x0f, 0xbf, 0xb2, 0x70, 0x55, 0xbe,
    0x53, 0x93, 0x18, 0xbf, 0xc1, 0xec, 0x1e, 0x3f, 0x8a, 0xaa, 0xae, 0x3e,
    0xf8, 0x48, 0x26, 0x3e, 0x1f, 0x83, 0xb8, 0xbe, 0xc9, 0x1b, 0x93, 0x3e,
    0xfa, 0xae, 0xce, 0x3d, 0x00, 0xe8, 0x3d, 0x3a, 0x05, 0x18, 0xbc, 0x3d,
    0x06, 0xef, 0x6d, 0x3d, 0x73, 0x20, 0x8c, 0x3e, 0xd6, 0x0e, 0x89, 0xbe,
    0x1e, 0x9a, 0xe0, 0x3e, 0x2a, 0xe7, 0xe8, 0xbe, 0xb3, 0xe4, 0x7f, 0x3e,
    0x9a, 0xce, 0x00, 0xbf, 0xd1, 0xff, 0x3f, 0xbd, 0x68, 0x19, 0x04, 0xbf,
    0x00, 0x16, 0x2e, 0x3c, 0xef, 0xa6, 0x16, 0x3f, 0xe6, 0xce, 0xd5, 0x3e,
    0x54, 0x8a, 0xe8, 0xbd, 0x60, 0xee, 0xbf, 0xbc, 0x90, 0xef, 0x09, 0x3d,
    0x74, 0x4d, 0x2c, 0xbe, 0xa4, 0xd4, 0x4b, 0xbe, 0x3a, 0x0f, 0xd2, 0x3e,
    0xb6, 0x89, 0xfe, 0xbe, 0x35, 0x15, 0xe7, 0xbe, 0xa0, 0x92, 0xe1, 0xbe,
    0xf0, 0x16, 0x23, 0x3e, 0xa0, 0x45, 0x9b, 0xbd, 0x20, 0x80, 0xc6, 0xbd,
    0x7a, 0xf7, 0xff, 0xff, 0x04, 0x00, 0x00, 0x00, 0x00, 0x01, 0x00, 0x00,
    0x2a, 0x9d, 0xee, 0x3e, 0x63, 0xbe, 0x6d, 0xbc, 0x24, 0x80, 0x59, 0x3e,
    0x52, 0x9d, 0x16, 0x3f, 0x98, 0x02, 0xc1, 0xbe, 0x5e, 0x01, 0x17, 0x3f,
    0x42, 0x27, 0x24, 0x3f, 0x37, 0x5e, 0xb0, 0xbd, 0xf3, 0x3f, 0x06, 0x3f,
    0xf4, 0xee, 0x01, 0xbf, 0x6a, 0xb0, 0xe0, 0x3e, 0x3b, 0xbc, 0xfc, 0xbe,
    0x00, 0x5f, 0xc0, 0xbc, 0x1c, 0xf8, 0x04, 0x3f, 0x1a, 0x84, 0xe3, 0x3e,
    0xf7, 0x2d, 0x06, 0xbf, 0xf0, 0x19, 0xbf, 0x3e, 0xd7, 0x33, 0x2c, 0x3e,
    0xc9, 0xc2, 0xd4, 0x3e, 0xab, 0x48, 0x18, 0x3f, 0xda, 0xd2, 0xbf, 0xbe,
    0x02, 0xc3, 0xd7, 0x3e, 0x01, 0xb8, 0xcc, 0x3b, 0x86, 0x89, 0xed, 0xbe,
    0xf7, 0xfa, 0xa8, 0xbe, 0x8b, 0x80, 0x94, 0xbe, 0x5a, 0x72, 0xc1, 0xbe,
    0x5f, 0x85, 0xd8, 0xbe, 0x00, 0xb3, 0xca, 0xbd, 0xf5, 0x33, 0x17, 0xbf,
    0xe4, 0x26, 0x57, 0x3e, 0x48, 0x7f, 0x3a, 0x3e, 0xa0, 0x0e, 0xd4, 0xbe,
    0xe6, 0x4f, 0xae, 0x3e, 0x32, 0x28, 0x2e, 0xbe, 0xa8, 0x97, 0xf7, 0x3e,
    0x54, 0x60, 0xed, 0xbe, 0x59, 0x0a, 0x71, 0xbe, 0x67, 0x38, 0x0f, 0x3e,
    0x47, 0x0d, 0xd5, 0xbe, 0xe8, 0x59, 0x1d, 0x3e, 0x64, 0xb8, 0x76, 0xbe,
    0x8a, 0xe7, 0x03, 0xbf, 0x03, 0x74, 0x6c, 0x3e, 0x6f, 0x64, 0x0e, 0x3e,
    0x6d, 0xed, 0x0f, 0x3f, 0x40, 0x8f, 0x22, 0x3f, 0x16, 0x27, 0x20, 0xbe,
    0x30, 0x58, 0x26, 0xbe, 0xec, 0x2b, 0xb5, 0x3e, 0x80, 0xc7, 0xac, 0x3b,
    0xbc, 0x55, 0x13, 0xbf, 0x03, 0x7c, 0x08, 0xbf, 0x02, 0x01, 0x4d, 0xbe,
    0x08, 0xbe, 0x1b, 0xbf, 0x67, 0x16, 0xe4, 0xbe, 0x6e, 0xae, 0xd7, 0xbe,
    0x8d, 0xb7, 0x01, 0xbf, 0x47, 0x76, 0xa9, 0xbe, 0x32, 0x30, 0xe8, 0x3e,
    0xc5, 0x5d, 0x04, 0x3f, 0x9d, 0x1f, 0x04, 0x3f, 0x8c, 0x87, 0x9b, 0x3e,
    0x8f, 0x6a, 0x58, 0x3d, 0x86, 0xf8, 0xff, 0xff, 0x04, 0x00, 0x00, 0x00,
    0x00, 0x01, 0x00, 0x00, 0xd0, 0xbf, 0x4a, 0xbe, 0x0e, 0xd3, 0xbe, 0x3e,
    0x72, 0x91, 0x7e, 0xbe, 0xd4, 0xa1, 0x39, 0x3e, 0x70, 0x5f, 0x56, 0x3e,
    0x92, 0x3e, 0x04, 0xbf, 0xfa, 0x1d, 0xe0, 0xbe, 0xd8, 0x20, 0x48, 0x3e,
    0x4b, 0x9d, 0x2f, 0xbe, 0xf2, 0x52, 0x84, 0xbe, 0x97, 0xc7, 0xda, 0x3e,
    0x9f, 0x8e, 0x16, 0x3f, 0xd9, 0x4a, 0xf2, 0x3e, 0x77, 0xaa, 0xc4, 0x3e,
    0x7f, 0x9d, 0x90, 0xbd, 0xcf, 0xcd, 0xfb, 0xbe, 0x6f, 0xdf, 0x14, 0xbf,
    0xba, 0xa2, 0x44, 0xbe, 0x6e, 0x20, 0xf2, 0xbe, 0x2a, 0x8c, 0x5c, 0xbe,
    0xde, 0x09, 0xf5, 0x3e, 0x8e, 0xa7, 0xd1, 0x3e, 0x0f, 0xf2, 0x13, 0x3f,
    0x4c, 0x5f, 0x44, 0x3e, 0xab, 0xba, 0x8c, 0xbe, 0x26, 0x31, 0xc3, 0x3e,
    0xf6, 0x57, 0x12, 0x3f, 0x16, 0xd1, 0xba, 0xbe, 0x50, 0xcb, 0x25, 0x3f,
    0x76, 0xce, 0xad, 0xbe, 0xda, 0x25, 0x6e, 0x3e, 0x13, 0x85, 0x0d, 0x3f,
    0xaf, 0xa7, 0xd6, 0xbe, 0xaf, 0x7d, 0x45, 0x3e, 0x2d, 0x36, 0x2f, 0xbd,
    0xe0, 0x6c, 0x24, 0x3e, 0x97, 0x6e, 0xa3, 0x3e, 0x04, 0x82, 0x07, 0xbe,
    0xdf, 0xb9, 0x06, 0x3f, 0x16, 0xfb, 0xb8, 0x3e, 0x26, 0xb2, 0xc3, 0x3e,
    0x80, 0x60, 0xef, 0x3e, 0xc2, 0xcc, 0x1a, 0x3f, 0x08, 0x7d, 0x13, 0xbf,
    0x0b, 0x7b, 0x56, 0xbe, 0xf6, 0x79, 0xe0, 0xbd, 0xa2, 0xf6, 0xd9, 0x3e,
    0xe3, 0x10, 0x10, 0xbf, 0x1d, 0xba, 0x05, 0xbf, 0x7f, 0x99, 0x1a, 0x3f,
    0xf5, 0x4f, 0xee, 0x3e, 0x58, 0xbe, 0x97, 0xbe, 0xf6, 0xd0, 0x07, 0x3f,
    0x86, 0x6c, 0xd0, 0xbe, 0xd3, 0x55, 0xf7, 0xbe, 0xe2, 0x1d, 0x9d, 0x3e,
    0x68, 0x77, 0x31, 0xbe, 0x02, 0x9f, 0xfc, 0xbe, 0x98, 0xf0, 0xb4, 0x3e,
    0xc5, 0xdd, 0x0c, 0x3f, 0xd4, 0x07, 0xdd, 0xbe, 0xb2, 0x40, 0xb2, 0xbe,
    0x2e, 0x70, 0xa0, 0x3e, 0x06, 0x31, 0x19, 0xbe, 0x92, 0xf9, 0xff, 0xff,
    0x04, 0x00, 0x00, 0x00, 0x00, 0x01, 0x00, 0x00, 0x4f, 0x41, 0x22, 0x3f,
    0x24, 0xfe, 0x72, 0x3d, 0x74, 0xf1, 0x4e, 0xbf, 0xb6, 0xae, 0xc9, 0x3e,
    0xec, 0x2e, 0x5a, 0x3e, 0x46, 0x59, 0x97, 0x3d, 0x64, 0x42, 0xe1, 0x3d,
    0x2e, 0x21, 0xfe, 0x3e, 0x59, 0x2a, 0x52, 0x3e, 0x1e, 0xd9, 0xe9, 0xbe,
    0xdf, 0xfe, 0xf6, 0x3e, 0x88, 0x39, 0xe1, 0x3e, 0xba, 0x89, 0xc5, 0x3e,
    0x40, 0x0d, 0xf9, 0x3e, 0xdd, 0x61, 0xb2, 0x3e, 0x1c, 0x4b, 0x92, 0xbe,
    0xe9, 0xa4, 0x04, 0x3e, 0xe0, 0x56, 0x52, 0x3c, 0xc6, 0xcc, 0x92, 0x3e,
    0xf4, 0xe7, 0xe2, 0x3e, 0x27, 0x64, 0x8e, 0x3e, 0x85, 0xbc, 0xee, 0x3e,
    0x96, 0xd9, 0xb4, 0x3e, 0x68, 0x0b, 0x15, 0x3e, 0x8b, 0x5c, 0xd5, 0xbe,
    0x44, 0x42, 0xd7, 0xbe, 0xd0, 0x5d, 0xf2, 0xbd, 0xaa, 0x90, 0xde, 0xbe,
    0x10, 0xaa, 0x1f, 0x3e, 0x50, 0x87, 0xb6, 0xbd, 0x40, 0x42, 0x00, 0x3c,
    0xd8, 0xa1, 0xca, 0xbe, 0x36, 0x0b, 0x82, 0x3e, 0xaf, 0x46, 0xd5, 0x3e,
    0x31, 0x90, 0x01, 0x3f, 0xe5, 0xbe, 0x5d, 0xbe, 0x66, 0x2b, 0x06, 0x3f,
    0x18, 0xa8, 0x03, 0xbf, 0x77, 0x26, 0xe1, 0xbe, 0xf8, 0xe5, 0xc5, 0xbe,
    0x84, 0x57, 0x75, 0x3e, 0xfb, 0x41, 0x2d, 0xbf, 0x89, 0xf9, 0x0b, 0xbd,
    0x76, 0x2f, 0xa4, 0x3e, 0x62, 0x72, 0x0d, 0xbf, 0x71, 0x29, 0x87, 0xbe,
    0xaf, 0x97, 0xd2, 0x3e, 0x53, 0x1f, 0x09, 0xbf, 0x94, 0x33, 0x18, 0x3c,
    0x7b, 0xe0, 0xa5, 0x3e, 0x32, 0x99, 0xd6, 0x3e, 0xcc, 0xab, 0x5c, 0xbe,
    0x70, 0xcf, 0x2c, 0xbe, 0x52, 0x62, 0x4e, 0xbe, 0xdb, 0xb0, 0xcd, 0xbe,
    0x6d, 0x1b, 0xae, 0x3e, 0xb4, 0x12, 0x5a, 0x3e, 0xfa, 0x4a, 0x8a, 0x3e,
    0xd8, 0x01, 0xd4, 0xbe, 0x86, 0xfc, 0x12, 0xbe, 0xbf, 0x83, 0xaa, 0xbe,
    0x03, 0xee, 0x1a, 0x3f, 0xf3, 0x03, 0x87, 0xbe, 0xd6, 0x5f, 0x0f, 0xbf,
    0x9e, 0xfa, 0xff, 0xff, 0x04, 0x00, 0x00, 0x00, 0x00, 0x01, 0x00, 0x00,
    0x28, 0x30, 0xd8, 0x3e, 0x65, 0x3c, 0x19, 0xbf, 0xa8, 0x1c, 0xb6, 0xbd,
    0xe1, 0xb4, 0x95, 0x3e, 0x42, 0x3f, 0x60, 0xbe, 0xb8, 0x84, 0xb9, 0xbe,
    0x4f, 0x36, 0x20, 0x3f, 0xcb, 0xb1, 0xc4, 0xbc, 0x5e, 0x96, 0x9b, 0x3e,
    0x9a, 0x36, 0x2e, 0xbd, 0x64, 0x13, 0xbf, 0xbd, 0x0e, 0xa1, 0x95, 0x3d,
    0xed, 0xe0, 0x9d, 0xbe, 0xe4, 0xf9, 0x83, 0x3e, 0x94, 0xa5, 0xf4, 0x3e,
    0x0c, 0x4e, 0x39, 0xbd, 0x02, 0x07, 0xbb, 0x3e, 0x97, 0xb2, 0xf4, 0xbe,
    0xf4, 0xd7, 0x9e, 0x3e, 0x93, 0x7a, 0xe1, 0xbe, 0xe2, 0xe2, 0x85, 0xbe,
    0x6c, 0x5a, 0xfc, 0xbb, 0xcf, 0x2c, 0xa6, 0x3e, 0x5f, 0x50, 0x78, 0xbe,
    0x0d, 0xee, 0x07, 0xbd, 0xc2, 0xf1, 0x0a, 0x3f, 0x03, 0x29, 0x94, 0x3e,
    0x23, 0x0a, 0xa7, 0xbe, 0x77, 0x71, 0xc7, 0x3e, 0x2e, 0xe2, 0xab, 0xbc,
    0x5b, 0x48, 0x53, 0x3e, 0xcd, 0xfb, 0x6b, 0xbe, 0x73, 0x65, 0xe2, 0xbd,
    0xdf, 0xca, 0x2f, 0xbe, 0xf9, 0xa4, 0x54, 0x3e, 0xb3, 0xa0, 0x98, 0xbe,
    0x9d, 0x18, 0x47, 0x3f, 0xca, 0xf7, 0x02, 0x3f, 0x72, 0x0c, 0x2b, 0xbf,
    0xf3, 0xad, 0x13, 0xbf, 0x8a, 0x2b, 0xc8, 0xbe, 0x16, 0xbd, 0x30, 0x3e,
    0x48, 0x0f, 0x8e, 0x3e, 0xe6, 0xd9, 0x2f, 0xbf, 0x37, 0xb2, 0x1c, 0x3f,
    0x89, 0xaa, 0x4d, 0xbe, 0x80, 0xc8, 0x18, 0xbe, 0x3f, 0xa2, 0x25, 0xbe,
    0x68, 0x3d, 0xff, 0xbe, 0x53, 0x25, 0xf4, 0x3e, 0x34, 0x7e, 0x7e, 0x3e,
    0x95, 0xf3, 0x23, 0xbf, 0x9d, 0x6b, 0x69, 0xbe, 0x42, 0x35, 0x24, 0x3f,
    0xc4, 0xe1, 0x3f, 0xbf, 0xd2, 0x54, 0xfa, 0x3e, 0x80, 0x9c, 0xb1, 0x3e,
    0x65, 0x86, 0x03, 0x3f, 0xd1, 0x24, 0x2e, 0x3e, 0x27, 0x7b, 0x02, 0x3f,
    0xc1, 0x53, 0xd0, 0xbe, 0x77, 0x1a, 0xdf, 0xbc, 0xa9, 0x91, 0x39, 0x3e,
    0xcd, 0xe3, 0xf6, 0xbd, 0xaa, 0xfb, 0xff, 0xff, 0x04, 0x00, 0x00, 0x00,
    0xe0, 0x01, 0x00, 0x00, 0x07, 0x3f, 0x3b, 0xbe, 0x09, 0x66, 0x8d, 0x3e,
    0x62, 0x58, 0xb8, 0x3d, 0x04, 0xd4, 0x94, 0xbe, 0xca, 0x8c, 0x7b, 0x3d,
    0xf7, 0x50, 0x68, 0xbe, 0x81, 0xeb, 0x53, 0xbd, 0xec, 0xe9, 0x6f, 0xbe,
    0x16, 0x72, 0x63, 0x3e, 0x8a, 0xe4, 0xff, 0xbe, 0x87, 0xea, 0xc5, 0xbe,
    0xeb, 0xad, 0xda, 0xbe, 0x89, 0xc4, 0xb9, 0x3e, 0x7b, 0xbe, 0x02, 0x3e,
    0xd2, 0xae, 0x49, 0x3e, 0x9e, 0x62, 0xf1, 0x3e, 0xf5, 0xbb, 0x37, 0x3e,
    0x88, 0x32, 0xa7, 0xbe, 0xb0, 0x72, 0xb9, 0xbe, 0x0a, 0x3a, 0xe3, 0x3e,
    0xa0, 0x5f, 0xe2, 0xbd, 0xc2, 0xf3, 0x09, 0xbf, 0x80, 0x2c, 0xa3, 0xbd,
    0x11, 0xd6, 0x02, 0xbe, 0xd1, 0x04, 0xcc, 0x3e, 0xa2, 0xf8, 0x2b, 0x3e,
    0x36, 0x9e, 0x16, 0x3d, 0xc4, 0xfe, 0xe4, 0x3c, 0xc9, 0x08, 0x42, 0x3e,
    0x47, 0xa2, 0xf2, 0xbe, 0x7c, 0x53, 0x7c, 0x3d, 0x39, 0x47, 0xb4, 0x3e,
    0x5a, 0x63, 0x88, 0xbe, 0xfc, 0x71, 0xe8, 0xbe, 0xd8, 0xd9, 0x3e, 0xbe,
    0x4a, 0xac, 0x84, 0x3e, 0x93, 0x9a, 0x8d, 0xbd, 0xfb, 0xe7, 0x92, 0xbd,
    0x62, 0x3c, 0xb4, 0xbe, 0x73, 0xfc, 0x9b, 0xbe, 0x43, 0x13, 0x64, 0x3c,
    0xa5, 0xf6, 0x35, 0x3d, 0x29, 0x8e, 0x05, 0xbf, 0x97, 0xea, 0xee, 0xbe,
    0x6a, 0x9f, 0xa1, 0x3e, 0x9c, 0x1d, 0x70, 0x3e, 0xaa, 0x1e, 0x99, 0x3e,
    0x28, 0xf2, 0xc8, 0xbe, 0x21, 0x79, 0xf2, 0x3e, 0xcf, 0x48, 0x4e, 0xbe,
    0x30, 0x38, 0x07, 0x3f, 0xbb, 0xb2, 0x81, 0xbe, 0xed, 0x4f, 0x02, 0x3f,
    0x26, 0x8c, 0xb2, 0x3e, 0xfa, 0x56, 0x65, 0x3e, 0x5a, 0x76, 0xb6, 0xbd,
    0xfd, 0x9f, 0x54, 0xbe, 0x2a, 0xd1, 0xa9, 0xbe, 0xd9, 0x8f, 0x53, 0x3e,
    0xd5, 0xa9, 0xc4, 0xbe, 0xdf, 0x58, 0x99, 0x3d, 0xef, 0x7f, 0x37, 0x3e,
    0xeb, 0xfa, 0x3b, 0xbd, 0x96, 0x08, 0x42, 0x3d, 0x2a, 0x45, 0x9f, 0xbc,
    0x8a, 0xe4, 0x8a, 0x3e, 0xc0, 0x25, 0xe6, 0xbe, 0x5c, 0x99, 0x40, 0xbf,
    0xba, 0x12, 0xb3, 0x3e, 0x8c, 0xf5, 0xca, 0x3e, 0x2c, 0xff, 0xb4, 0xbe,
    0xba, 0x10, 0x81, 0xbe, 0x51, 0x6e, 0x91, 0xbd, 0x9f, 0xe0, 0x7d, 0x3d,
    0x69, 0xaa, 0x5a, 0xbd, 0xc9, 0x63, 0xcc, 0x3e, 0x0b, 0x4f, 0x44, 0xbc,
    0x4f, 0x06, 0x87, 0x3e, 0x54, 0x2a, 0xba, 0x3c, 0x81, 0x64, 0xf3, 0xbe,
    0x6c, 0xf8, 0x01, 0x3f, 0x57, 0xba, 0x1a, 0x3c, 0x37, 0xb0, 0x5e, 0xbe,
    0x79, 0x6d, 0x05, 0xbf, 0x33, 0x53, 0x74, 0x3e, 0x4e, 0x40, 0x07, 0x3d,
    0xda, 0x65, 0x89, 0x3e, 0x3f, 0x60, 0x7a, 0xbe, 0xad, 0xe0, 0x9c, 0x3d,
    0x1f, 0x19, 0x37, 0xbe, 0x29, 0x94, 0xcb, 0xbe, 0xed, 0x12, 0x66, 0x3e,
    0xca, 0xd5, 0x2c, 0x3e, 0xd6, 0xfa, 0x13, 0xbf, 0x70, 0xf1, 0x48, 0xbe,
    0xee, 0x9b, 0x0d, 0x3e, 0x4f, 0x68, 0x03, 0xbe, 0xc2, 0xb3, 0x57, 0x3e,
    0x45, 0xfb, 0xb2, 0xbe, 0x3a, 0x81, 0x25, 0xbe, 0x10, 0x98, 0x61, 0xbd,
    0x37, 0x4f, 0xab, 0xbe, 0xd6, 0xb9, 0x1b, 0xbe, 0x5b, 0xf4, 0x05, 0x3f,
    0x59, 0xc2, 0x5b, 0xbe, 0xd4, 0xb4, 0xf9, 0x3e, 0x35, 0xe3, 0xa1, 0x3e,
    0x94, 0x94, 0xce, 0x3e, 0x60, 0x93, 0xbf, 0xbe, 0xb5, 0x5d, 0xa1, 0xbe,
    0x23, 0x14, 0xe6, 0xbd, 0x06, 0x4d, 0xd4, 0xbe, 0x63, 0xca, 0x2e, 0xbe,
    0x76, 0x5c, 0x69, 0x3e, 0x35, 0x05, 0x30, 0x3e, 0x08, 0x03, 0x3b, 0xbe,
    0xa8, 0x6e, 0xaa, 0x3e, 0x90, 0x4e, 0xc7, 0x3e, 0x4a, 0xb0, 0x97, 0x3e,
    0x0f, 0xd7, 0x81, 0x3e, 0x96, 0xfd, 0xff, 0xff, 0x04, 0x00, 0x00, 0x00,
    0x20, 0x00, 0x00, 0x00, 0x69, 0xb9, 0x09, 0x3d, 0x7d, 0x58, 0x09, 0x3b,
    0xf4, 0xe2, 0x1e, 0x3c, 0x8d, 0x2e, 0x1e, 0x3e, 0xee, 0x8e, 0x0b, 0xbc,
    0x77, 0xc5, 0x8c, 0xbc, 0x18, 0x4c, 0xec, 0x3d, 0xc6, 0x8c, 0x26, 0xbd,
    0xc2, 0xfd, 0xff, 0xff, 0x04, 0x00, 0x00, 0x00, 0x20, 0x00, 0x00, 0x00,
    0x34, 0xe1, 0x65, 0x3d, 0x74, 0x0c, 0xed, 0x3d, 0xf3, 0xac, 0xda, 0x3b,
    0x0f, 0x8b, 0xd2, 0xba, 0x1f, 0xb8, 0x74, 0x3c, 0x0c, 0x96, 0x15, 0x3d,
    0xbe, 0x25, 0x11, 0xbc, 0x22, 0xf3, 0xba, 0x3d, 0xee, 0xfd, 0xff, 0xff,
    0x04, 0x00, 0x00, 0x00, 0x20, 0x00, 0x00, 0x00, 0x5d, 0x4f, 0xa9, 0x3c,
    0x76, 0x50, 0x96, 0x3b, 0xdc, 0x07, 0x26, 0x3c, 0x00, 0x00, 0x00, 0x00,
    0xa7, 0x52, 0xc0, 0x3d, 0xe7, 0xd7, 0x5c, 0xbd, 0x2e, 0x20, 0x92, 0xbc,
    0x00, 0x00, 0x00, 0x00, 0x1a, 0xfe, 0xff, 0xff, 0x04, 0x00, 0x00, 0x00,
    0x20, 0x00, 0x00, 0x00, 0x00, 0x00, 0x00, 0x00, 0x41, 0x07, 0x45, 0x3d,
    0x5e, 0xda, 0xb4, 0x3c, 0x30, 0xb2, 0xac, 0x3c, 0xf6, 0x63, 0x46, 0xbd,
    0x49, 0xc4, 0xcb, 0x3b, 0x94, 0xde, 0xed, 0xbb, 0x92, 0x59, 0x56, 0xbd,
    0x46, 0xfe, 0xff, 0xff, 0x04, 0x00, 0x00, 0x00, 0x20, 0x00, 0x00, 0x00,
    0x45, 0xea, 0x56, 0x3c, 0x30, 0xd4, 0xb1, 0xbc, 0x1f, 0x7c, 0xdd, 0x3c,
    0x00, 0x00, 0x00, 0x00, 0xe8, 0xd9, 0x38, 0x3c, 0xf0, 0x46, 0x9a, 0xbd,
    0x00, 0x00, 0x00, 0x00, 0x4d, 0x35, 0xfe, 0xbc, 0x72, 0xfe, 0xff, 0xff,
    0x04, 0x00, 0x00, 0x00, 0x20, 0x00, 0x00, 0x00, 0x00, 0x00, 0x00, 0x00,
    0x89, 0x53, 0x0c, 0xbc, 0x00, 0x00, 0x00, 0x00, 0x00, 0x00, 0x00, 0x00,
    0x51, 0xc9, 0x8d, 0x3c, 0x54, 0xe8, 0x5f, 0xbd, 0x00, 0x00, 0x00, 0x00,
    0x00, 0x00, 0x00, 0x00, 0x9e, 0xfe, 0xff, 0xff, 0x04, 0x00, 0x00, 0x00,
    0x20, 0x00, 0x00, 0x00, 0x00, 0x00, 0x00, 0x00, 0x70, 0x06, 0xe2, 0x3c,
    0x33, 0x6b, 0xf9, 0x3c, 0xb2, 0x1b, 0x08, 0xbc, 0x00, 0x00, 0x00, 0x00,
    0x8e, 0xe1, 0x12, 0xbd, 0x00, 0x00, 0x00, 0x00, 0x95, 0x57, 0xaf, 0x3b,
    0xca, 0xfe, 0xff, 0xff, 0x04, 0x00, 0x00, 0x00, 0x20, 0x00, 0x00, 0x00,
    0x62, 0x2e, 0x95, 0x3d, 0x57, 0x34, 0x17, 0xbc, 0xef, 0xcf, 0x05, 0x3c,
    0x9b, 0x96, 0x53, 0xbc, 0x00, 0x00, 0x00, 0x00, 0x00, 0x2c, 0x59, 0x3c,
    0x43, 0x65, 0x76, 0x3c, 0xdf, 0x54, 0x1a, 0x3d, 0xf6, 0xfe, 0xff, 0xff,
    0x04, 0x00, 0x00, 0x00, 0x20, 0x00, 0x00, 0x00, 0x23, 0x51, 0x39, 0x3d,
    0xeb, 0x40, 0x28, 0xbd, 0xaa, 0xf8, 0x0b, 0xb8, 0x00, 0x00, 0x00, 0x00,
    0x00, 0x00, 0x00, 0x00, 0x6f, 0x8d, 0x83, 0x3d, 0x00, 0x00, 0x00, 0x00,
    0xe6, 0x64, 0x05, 0xbd, 0x22, 0xff, 0xff, 0xff, 0x04, 0x00, 0x00, 0x00,
    0x20, 0x00, 0x00, 0x00, 0x26, 0x97, 0x0c, 0xbe, 0xb6, 0x5c, 0xb7, 0xba,
    0xdd, 0xf1, 0x51, 0xbd, 0xfc, 0xaf, 0x08, 0x3e, 0x8d, 0xa2, 0x5e, 0x3e,
    0xea, 0x41, 0x65, 0xbd, 0xba, 0x9c, 0xb4, 0xbd, 0xd5, 0xc9, 0x57, 0xbd,
    0x80, 0xf0, 0xff, 0xff, 0x84, 0xf0, 0xff, 0xff, 0x0f, 0x00, 0x00, 0x00,
    0x4d, 0x4c, 0x49, 0x52, 0x20, 0x43, 0x6f, 0x6e, 0x76, 0x65, 0x72, 0x74,
    0x65, 0x64, 0x2e, 0x00, 0x01, 0x00, 0x00, 0x00, 0x14, 0x00, 0x00, 0x00,
    0x00, 0x00, 0x0e, 0x00, 0x18, 0x00, 0x14, 0x00, 0x10, 0x00, 0x0c, 0x00,
    0x08, 0x00, 0x04, 0x00, 0x0e, 0x00, 0x00, 0x00, 0x14, 0x00, 0x00, 0x00,
    0x1c, 0x00, 0x00, 0x00, 0xac, 0x02, 0x00, 0x00, 0xb0, 0x02, 0x00, 0x00,
    0xb4, 0x02, 0x00, 0x00, 0x04, 0x00, 0x00, 0x00, 0x6d, 0x61, 0x69, 0x6e,
    0x00, 0x00, 0x00, 0x00, 0x0b, 0x00, 0x00, 0x00, 0x54, 0x02, 0x00, 0x00,
    0x0c, 0x02, 0x00, 0x00, 0xd4, 0x01, 0x00, 0x00, 0x9c, 0x01, 0x00, 0x00,
    0x64, 0x01, 0x00, 0x00, 0x2c, 0x01, 0x00, 0x00, 0xf4, 0x00, 0x00, 0x00,
    0xbc, 0x00, 0x00, 0x00, 0x84, 0x00, 0x00, 0x00, 0x50, 0x00, 0x00, 0x00,
    0x14, 0x00, 0x00, 0x00, 0x00, 0x00, 0x0e, 0x00, 0x1a, 0x00, 0x14, 0x00,
    0x10, 0x00, 0x0c, 0x00, 0x0b, 0x00, 0x04, 0x00, 0x0e, 0x00, 0x00, 0x00,
    0x1c, 0x00, 0x00, 0x00, 0x00, 0x00, 0x00, 0x09, 0x1c, 0x00, 0x00, 0x00,
    0x20, 0x00, 0x00, 0x00, 0x01, 0x00, 0x00, 0x00, 0x00, 0x00, 0x06, 0x00,
    0x08, 0x00, 0x04, 0x00, 0x06, 0x00, 0x00, 0x00, 0x00, 0x00, 0x80, 0x3f,
    0x01, 0x00, 0x00, 0x00, 0x1f, 0x00, 0x00, 0x00, 0x01, 0x00, 0x00, 0x00,
    0x1e, 0x00, 0x00, 0x00, 0x2e, 0xfe, 0xff, 0xff, 0x10, 0x00, 0x00, 0x00,
    0x00, 0x00, 0x00, 0x08, 0x0c, 0x00, 0x00, 0x00, 0x10, 0x00, 0x00, 0x00,
    0x64, 0xf1, 0xff, 0xff, 0x01, 0x00, 0x00, 0x00, 0x1e, 0x00, 0x00, 0x00,
    0x03, 0x00, 0x00, 0x00, 0x1d, 0x00, 0x00, 0x00, 0x14, 0x00, 0x00, 0x00,
    0x01, 0x00, 0x00, 0x00, 0x5e, 0xfe, 0xff, 0xff, 0x10, 0x00, 0x00, 0x00,
    0x00, 0x00, 0x00, 0x08, 0x10, 0x00, 0x00, 0x00, 0x14, 0x00, 0x00, 0x00,
    0x4e, 0xfe, 0xff, 0xff, 0x00, 0x00, 0x00, 0x01, 0x01, 0x00, 0x00, 0x00,
    0x1d, 0x00, 0x00, 0x00, 0x03, 0x00, 0x00, 0x00, 0x1c, 0x00, 0x00, 0x00,
    0x13, 0x00, 0x00, 0x00, 0x02, 0x00, 0x00, 0x00, 0x92, 0xfe, 0xff, 0xff,
    0x10, 0x00, 0x00, 0x00, 0x00, 0x00, 0x00, 0x08, 0x10, 0x00, 0x00, 0x00,
    0x14, 0x00, 0x00, 0x00, 0x82, 0xfe, 0xff, 0xff, 0x00, 0x00, 0x00, 0x01,
    0x01, 0x00, 0x00, 0x00, 0x1c, 0x00, 0x00, 0x00, 0x03, 0x00, 0x00, 0x00,
    0x1b, 0x00, 0x00, 0x00, 0x12, 0x00, 0x00, 0x00, 0x03, 0x00, 0x00, 0x00,
    0xc6, 0xfe, 0xff, 0xff, 0x10, 0x00, 0x00, 0x00, 0x00, 0x00, 0x00, 0x08,
    0x10, 0x00, 0x00, 0x00, 0x14, 0x00, 0x00, 0x00, 0xb6, 0xfe, 0xff, 0xff,
    0x00, 0x00, 0x00, 0x01, 0x01, 0x00, 0x00, 0x00, 0x1b, 0x00, 0x00, 0x00,
    0x03, 0x00, 0x00, 0x00, 0x1a, 0x00, 0x00, 0x00, 0x11, 0x00, 0x00, 0x00,
    0x04, 0x00, 0x00, 0x00, 0xfa, 0xfe, 0xff, 0xff, 0x10, 0x00, 0x00, 0x00,
    0x00, 0x00, 0x00, 0x08, 0x10, 0x00, 0x00, 0x00, 0x14, 0x00, 0x00, 0x00,
    0xea, 0xfe, 0xff, 0xff, 0x00, 0x00, 0x00, 0x01, 0x01, 0x00, 0x00, 0x00,
    0x1a, 0x00, 0x00, 0x00, 0x03, 0x00, 0x00, 0x00, 0x19, 0x00, 0x00, 0x00,
    0x10, 0x00, 0x00, 0x00, 0x05, 0x00, 0x00, 0x00, 0x2e, 0xff, 0xff, 0xff,
    0x10, 0x00, 0x00, 0x00, 0x00, 0x00, 0x00, 0x08, 0x10, 0x00, 0x00, 0x00,
    0x14, 0x00, 0x00, 0x00, 0x1e, 0xff, 0xff, 0xff, 0x00, 0x00, 0x00, 0x01,
    0x01, 0x00, 0x00, 0x00, 0x19, 0x00, 0x00, 0x00, 0x03, 0x00, 0x00, 0x00,
    0x18, 0x00, 0x00, 0x00, 0x0f, 0x00, 0x00, 0x00, 0x06, 0x00, 0x00, 0x00,
    0x62, 0xff, 0xff, 0xff, 0x10, 0x00, 0x00, 0x00, 0x00, 0x00, 0x00, 0x08,
    0x10, 0x00, 0x00, 0x00, 0x14, 0x00, 0x00, 0x00, 0x52, 0xff, 0xff, 0xff,
    0x00, 0x00, 0x00, 0x01, 0x01, 0x00, 0x00, 0x00, 0x18, 0x00, 0x00, 0x00,
    0x03, 0x00, 0x00, 0x00, 0x17, 0x00, 0x00, 0x00, 0x0e, 0x00, 0x00, 0x00,
    0x07, 0x00, 0x00, 0x00, 0x96, 0xff, 0xff, 0xff, 0x10, 0x00, 0x00, 0x00,
    0x00, 0x00, 0x00, 0x08, 0x10, 0x00, 0x00, 0x00, 0x14, 0x00, 0x00, 0x00,
    0x86, 0xff, 0xff, 0xff, 0x00, 0x00, 0x00, 0x01, 0x01, 0x00, 0x00, 0x00,
    0x17, 0x00, 0x00, 0x00, 0x03, 0x00, 0x00, 0x00, 0x16, 0x00, 0x00, 0x00,
    0x0d, 0x00, 0x00, 0x00, 0x08, 0x00, 0x00, 0x00, 0xca, 0xff, 0xff, 0xff,
    0x10, 0x00, 0x00, 0x00, 0x00, 0x00, 0x00, 0x08, 0x10, 0x00, 0x00, 0x00,
    0x14, 0x00, 0x00, 0x00, 0xba, 0xff, 0xff, 0xff, 0x00, 0x00, 0x00, 0x01,
    0x01, 0x00, 0x00, 0x00, 0x16, 0x00, 0x00, 0x00, 0x03, 0x00, 0x00, 0x00,
    0x15, 0x00, 0x00, 0x00, 0x0c, 0x00, 0x00, 0x00, 0x09, 0x00, 0x00, 0x00,
    0x00, 0x00, 0x0e, 0x00, 0x16, 0x00, 0x00, 0x00, 0x10, 0x00, 0x0c, 0x00,
    0x0b, 0x00, 0x04, 0x00, 0x0e, 0x00, 0x00, 0x00, 0x18, 0x00, 0x00, 0x00,
    0x00, 0x00, 0x00, 0x08, 0x18, 0x00, 0x00, 0x00, 0x1c, 0x00, 0x00, 0x00,
    0x00, 0x00, 0x06, 0x00, 0x08, 0x00, 0x07, 0x00, 0x06, 0x00, 0x00, 0x00,
    0x00, 0x00, 0x00, 0x01, 0x01, 0x00, 0x00, 0x00, 0x15, 0x00, 0x00, 0x00,
    0x03, 0x00, 0x00, 0x00, 0x00, 0x00, 0x00, 0x00, 0x0b, 0x00, 0x00, 0x00,
    0x0a, 0x00, 0x00, 0x00, 0x01, 0x00, 0x00, 0x00, 0x1f, 0x00, 0x00, 0x00,
    0x01, 0x00, 0x00, 0x00, 0x00, 0x00, 0x00, 0x00, 0x20, 0x00, 0x00, 0x00,
    0x58, 0x0c, 0x00, 0x00, 0xe8, 0x0b, 0x00, 0x00, 0x78, 0x0b, 0x00, 0x00,
    0x20, 0x0b, 0x00, 0x00, 0xc8, 0x0a, 0x00, 0x00, 0x70, 0x0a, 0x00, 0x00,
    0x18, 0x0a, 0x00, 0x00, 0xc0, 0x09, 0x00, 0x00, 0x68, 0x09, 0x00, 0x00,
    0x10, 0x09, 0x00, 0x00, 0xb8, 0x08, 0x00, 0x00, 0x6c, 0x08, 0x00, 0x00,
    0x20, 0x08, 0x00, 0x00, 0xd4, 0x07, 0x00, 0x00, 0x88, 0x07, 0x00, 0x00,
    0x3c, 0x07, 0x00, 0x00, 0xf0, 0x06, 0x00, 0x00, 0xa4, 0x06, 0x00, 0x00,
    0x58, 0x06, 0x00, 0x00, 0x0c, 0x06, 0x00, 0x00, 0xc0, 0x05, 0x00, 0x00,
    0x34, 0x05, 0x00, 0x00, 0xa8, 0x04, 0x00, 0x00, 0x1c, 0x04, 0x00, 0x00,
    0x90, 0x03, 0x00, 0x00, 0x04, 0x03, 0x00, 0x00, 0x78, 0x02, 0x00, 0x00,
    0xec, 0x01, 0x00, 0x00, 0x60, 0x01, 0x00, 0x00, 0xd4, 0x00, 0x00, 0x00,
    0x60, 0x00, 0x00, 0x00, 0x04, 0x00, 0x00, 0x00, 0x3e, 0xf4, 0xff, 0xff,
    0x00, 0x00, 0x00, 0x01, 0x14, 0x00, 0x00, 0x00, 0x1c, 0x00, 0x00, 0x00,
    0x1c, 0x00, 0x00, 0x00, 0x20, 0x00, 0x00, 0x00, 0x34, 0x00, 0x00, 0x00,
    0x02, 0x00, 0x00, 0x00, 0xff, 0xff, 0xff, 0xff, 0x08, 0x00, 0x00, 0x00,
    0x28, 0xf4, 0xff, 0xff, 0x19, 0x00, 0x00, 0x00, 0x53, 0x74, 0x61, 0x74,
    0x65, 0x66, 0x75, 0x6c, 0x50, 0x61, 0x72, 0x74, 0x69, 0x74, 0x69, 0x6f,
    0x6e, 0x65, 0x64, 0x43, 0x61, 0x6c, 0x6c, 0x3a, 0x30, 0x00, 0x00, 0x00,
    0x02, 0x00, 0x00, 0x00, 0x01, 0x00, 0x00, 0x00, 0x08, 0x00, 0x00, 0x00,
    0x96, 0xf4, 0xff, 0xff, 0x00, 0x00, 0x00, 0x01, 0x14, 0x00, 0x00, 0x00,
    0x1c, 0x00, 0x00, 0x00, 0x1c, 0x00, 0x00, 0x00, 0x1f, 0x00, 0x00, 0x00,
    0x4c, 0x00, 0x00, 0x00, 0x02, 0x00, 0x00, 0x00, 0xff, 0xff, 0xff, 0xff,
    0x08, 0x00, 0x00, 0x00, 0x80, 0xf4, 0xff, 0xff, 0x32, 0x00, 0x00, 0x00,
    0x6c, 0x77, 0x38, 0x5f, 0x6d, 0x64, 0x38, 0x2f, 0x64, 0x65, 0x6e, 0x73,
    0x65, 0x5f, 0x31, 0x36, 0x30, 0x2f, 0x4d, 0x61, 0x74, 0x4d, 0x75, 0x6c,
    0x3b, 0x6c, 0x77, 0x38, 0x5f, 0x6d, 0x64, 0x38, 0x2f, 0x64, 0x65, 0x6e,
    0x73, 0x65, 0x5f, 0x31, 0x36, 0x30, 0x2f, 0x42, 0x69, 0x61, 0x73, 0x41,
    0x64, 0x64, 0x00, 0x00, 0x02, 0x00, 0x00, 0x00, 0x01, 0x00, 0x00, 0x00,
    0x08, 0x00, 0x00, 0x00, 0x06, 0xf5, 0xff, 0xff, 0x00, 0x00, 0x00, 0x01,
    0x14, 0x00, 0x00, 0x00, 0x1c, 0x00, 0x00, 0x00, 0x1c, 0x00, 0x00, 0x00,
    0x1e, 0x00, 0x00, 0x00, 0x64, 0x00, 0x00, 0x00, 0x02, 0x00, 0x00, 0x00,
    0xff, 0xff, 0xff, 0xff, 0x08, 0x00, 0x00, 0x00, 0xf0, 0xf4, 0xff, 0xff,
    0x49, 0x00, 0x00, 0x00, 0x6c, 0x77, 0x38, 0x5f, 0x6d, 0x64, 0x38, 0x2f,
    0x64, 0x65, 0x6e, 0x73, 0x65, 0x5f, 0x31, 0x35, 0x39, 0x2f, 0x4d, 0x61,
    0x74, 0x4d, 0x75, 0x6c, 0x3b, 0x6c, 0x77, 0x38, 0x5f, 0x6d, 0x64, 0x38,
    0x2f, 0x64, 0x65, 0x6e, 0x73, 0x65, 0x5f, 0x31, 0x35, 0x39, 0x2f, 0x52,
    0x65, 0x6c, 0x75, 0x3b, 0x6c, 0x77, 0x38, 0x5f, 0x6d, 0x64, 0x38, 0x2f,
    0x64, 0x65, 0x6e, 0x73, 0x65, 0x5f, 0x31, 0x35, 0x39, 0x2f, 0x42, 0x69,
    0x61, 0x73, 0x41, 0x64, 0x64, 0x00, 0x00, 0x00, 0x02, 0x00, 0x00, 0x00,
    0x01, 0x00, 0x00, 0x00, 0x08, 0x00, 0x00, 0x00, 0x8e, 0xf5, 0xff, 0xff,
    0x00, 0x00, 0x00, 0x01, 0x14, 0x00, 0x00, 0x00, 0x1c, 0x00, 0x00, 0x00,
    0x1c, 0x00, 0x00, 0x00, 0x1d, 0x00, 0x00, 0x00, 0x64, 0x00, 0x00, 0x00,
    0x02, 0x00, 0x00, 0x00, 0xff, 0xff, 0xff, 0xff, 0x08, 0x00, 0x00, 0x00,
    0x78, 0xf5, 0xff, 0xff, 0x49, 0x00, 0x00, 0x00, 0x6c, 0x77, 0x38, 0x5f,
    0x6d, 0x64, 0x38, 0x2f, 0x64, 0x65, 0x6e, 0x73, 0x65, 0x5f, 0x31, 0x35,
    0x38, 0x2f, 0x4d, 0x61, 0x74, 0x4d, 0x75, 0x6c, 0x3b, 0x6c, 0x77, 0x38,
    0x5f, 0x6d, 0x64, 0x38, 0x2f, 0x64, 0x65, 0x6e, 0x73, 0x65, 0x5f, 0x31,
    0x35, 0x38, 0x2f, 0x52, 0x65, 0x6c, 0x75, 0x3b, 0x6c, 0x77, 0x38, 0x5f,
    0x6d, 0x64, 0x38, 0x2f, 0x64, 0x65, 0x6e, 0x73, 0x65, 0x5f, 0x31, 0x35,
    0x38, 0x2f, 0x42, 0x69, 0x61, 0x73, 0x41, 0x64, 0x64, 0x00, 0x00, 0x00,
    0x02, 0x00, 0x00, 0x00, 0x01, 0x00, 0x00, 0x00, 0x08, 0x00, 0x00, 0x00,
    0x16, 0xf6, 0xff, 0xff, 0x00, 0x00, 0x00, 0x01, 0x14, 0x00, 0x00, 0x00,
    0x1c, 0x00, 0x00, 0x00, 0x1c, 0x00, 0x00, 0x00, 0x1c, 0x00, 0x00, 0x00,
    0x64, 0x00, 0x00, 0x00, 0x02, 0x00, 0x00, 0x00, 0xff, 0xff, 0xff, 0xff,
    0x08, 0x00, 0x00, 0x00, 0x00, 0xf6, 0xff, 0xff, 0x49, 0x00, 0x00, 0x00,
    0x6c, 0x77, 0x38, 0x5f, 0x6d, 0x64, 0x38, 0x2f, 0x64, 0x65, 0x6e, 0x73,
    0x65, 0x5f, 0x31, 0x35, 0x37, 0x2f, 0x4d, 0x61, 0x74, 0x4d, 0x75, 0x6c,
    0x3b, 0x6c, 0x77, 0x38, 0x5f, 0x6d, 0x64, 0x38, 0x2f, 0x64, 0x65, 0x6e,
    0x73, 0x65, 0x5f, 0x31, 0x35, 0x37, 0x2f, 0x52, 0x65, 0x6c, 0x75, 0x3b,
    0x6c, 0x77, 0x38, 0x5f, 0x6d, 0x64, 0x38, 0x2f, 0x64, 0x65, 0x6e, 0x73,
    0x65, 0x5f, 0x31, 0x35, 0x37, 0x2f, 0x42, 0x69, 0x61, 0x73, 0x41, 0x64,
    0x64, 0x00, 0x00, 0x00, 0x02, 0x00, 0x00, 0x00, 0x01, 0x00, 0x00, 0x00,
    0x08, 0x00, 0x00, 0x00, 0x9e, 0xf6, 0xff, 0xff, 0x00, 0x00, 0x00, 0x01,
    0x14, 0x00, 0x00, 0x00, 0x1c, 0x00, 0x00, 0x00, 0x1c, 0x00, 0x00, 0x00,
    0x1b, 0x00, 0x00, 0x00, 0x64, 0x00, 0x00, 0x00, 0x02, 0x00, 0x00, 0x00,
    0xff, 0xff, 0xff, 0xff, 0x08, 0x00, 0x00, 0x00, 0x88, 0xf6, 0xff, 0xff,
    0x49, 0x00, 0x00, 0x00, 0x6c, 0x77, 0x38, 0x5f, 0x6d, 0x64, 0x38, 0x2f,
    0x64, 0x65, 0x6e, 0x73, 0x65, 0x5f, 0x31, 0x35, 0x36, 0x2f, 0x4d, 0x61,
    0x74, 0x4d, 0x75, 0x6c, 0x3b, 0x6c, 0x77, 0x38, 0x5f, 0x6d, 0x64, 0x38,
    0x2f, 0x64, 0x65, 0x6e, 0x73, 0x65, 0x5f, 0x31, 0x35, 0x36, 0x2f, 0x52,
    0x65, 0x6c, 0x75, 0x3b, 0x6c, 0x77, 0x38, 0x5f, 0x6d, 0x64, 0x38, 0x2f,
    0x64, 0x65, 0x6e, 0x73, 0x65, 0x5f, 0x31, 0x35, 0x36, 0x2f, 0x42, 0x69,
    0x61, 0x73, 0x41, 0x64, 0x64, 0x00, 0x00, 0x00, 0x02, 0x00, 0x00, 0x00,
    0x01, 0x00, 0x00, 0x00, 0x08, 0x00, 0x00, 0x00, 0x26, 0xf7, 0xff, 0xff,
    0x00, 0x00, 0x00, 0x01, 0x14, 0x00, 0x00, 0x00, 0x1c, 0x00, 0x00, 0x00,
    0x1c, 0x00, 0x00, 0x00, 0x1a, 0x00, 0x00, 0x00, 0x64, 0x00, 0x00, 0x00,
    0x02, 0x00, 0x00, 0x00, 0xff, 0xff, 0xff, 0xff, 0x08, 0x00, 0x00, 0x00,
    0x10, 0xf7, 0xff, 0xff, 0x49, 0x00, 0x00, 0x00, 0x6c, 0x77, 0x38, 0x5f,
    0x6d, 0x64, 0x38, 0x2f, 0x64, 0x65, 0x6e, 0x73, 0x65, 0x5f, 0x31, 0x35,
    0x35, 0x2f, 0x4d, 0x61, 0x74, 0x4d, 0x75, 0x6c, 0x3b, 0x6c, 0x77, 0x38,
    0x5f, 0x6d, 0x64, 0x38, 0x2f, 0x64, 0x65, 0x6e, 0x73, 0x65, 0x5f, 0x31,
    0x35, 0x35, 0x2f, 0x52, 0x65, 0x6c, 0x75, 0x3b, 0x6c, 0x77, 0x38, 0x5f,
    0x6d, 0x64, 0x38, 0x2f, 0x64, 0x65, 0x6e, 0x73, 0x65, 0x5f, 0x31, 0x35,
    0x35, 0x2f, 0x42, 0x69, 0x61, 0x73, 0x41, 0x64, 0x64, 0x00, 0x00, 0x00,
    0x02, 0x00, 0x00, 0x00, 0x01, 0x00, 0x00, 0x00, 0x08, 0x00, 0x00, 0x00,
    0xae, 0xf7, 0xff, 0xff, 0x00, 0x00, 0x00, 0x01, 0x14, 0x00, 0x00, 0x00,
    0x1c, 0x00, 0x00, 0x00, 0x1c, 0x00, 0x00, 0x00, 0x19, 0x00, 0x00, 0x00,
    0x64, 0x00, 0x00, 0x00, 0x02, 0x00, 0x00, 0x00, 0xff, 0xff, 0xff, 0xff,
    0x08, 0x00, 0x00, 0x00, 0x98, 0xf7, 0xff, 0xff, 0x49, 0x00, 0x00, 0x00,
    0x6c, 0x77, 0x38, 0x5f, 0x6d, 0x64, 0x38, 0x2f, 0x64, 0x65, 0x6e, 0x73,
    0x65, 0x5f, 0x31, 0x35, 0x34, 0x2f, 0x4d, 0x61, 0x74, 0x4d, 0x75, 0x6c,
    0x3b, 0x6c, 0x77, 0x38, 0x5f, 0x6d, 0x64, 0x38, 0x2f, 0x64, 0x65, 0x6e,
    0x73, 0x65, 0x5f, 0x31, 0x35, 0x34, 0x2f, 0x52, 0x65, 0x6c, 0x75, 0x3b,
    0x6c, 0x77, 0x38, 0x5f, 0x6d, 0x64, 0x38, 0x2f, 0x64, 0x65, 0x6e, 0x73,
    0x65, 0x5f, 0x31, 0x35, 0x34, 0x2f, 0x42, 0x69, 0x61, 0x73, 0x41, 0x64,
    0x64, 0x00, 0x00, 0x00, 0x02, 0x00, 0x00, 0x00, 0x01, 0x00, 0x00, 0x00,
    0x08, 0x00, 0x00, 0x00, 0x36, 0xf8, 0xff, 0xff, 0x00, 0x00, 0x00, 0x01,
    0x14, 0x00, 0x00, 0x00, 0x1c, 0x00, 0x00, 0x00, 0x1c, 0x00, 0x00, 0x00,
    0x18, 0x00, 0x00, 0x00, 0x64, 0x00, 0x00, 0x00, 0x02, 0x00, 0x00, 0x00,
    0xff, 0xff, 0xff, 0xff, 0x08, 0x00, 0x00, 0x00, 0x20, 0xf8, 0xff, 0xff,
    0x49, 0x00, 0x00, 0x00, 0x6c, 0x77, 0x38, 0x5f, 0x6d, 0x64, 0x38, 0x2f,
    0x64, 0x65, 0x6e, 0x73, 0x65, 0x5f, 0x31, 0x35, 0x33, 0x2f, 0x4d, 0x61,
    0x74, 0x4d, 0x75, 0x6c, 0x3b, 0x6c, 0x77, 0x38, 0x5f, 0x6d, 0x64, 0x38,
    0x2f, 0x64, 0x65, 0x6e, 0x73, 0x65, 0x5f, 0x31, 0x35, 0x33, 0x2f, 0x52,
    0x65, 0x6c, 0x75, 0x3b, 0x6c, 0x77, 0x38, 0x5f, 0x6d, 0x64, 0x38, 0x2f,
    0x64, 0x65, 0x6e, 0x73, 0x65, 0x5f, 0x31, 0x35, 0x33, 0x2f, 0x42, 0x69,
    0x61, 0x73, 0x41, 0x64, 0x64, 0x00, 0x00, 0x00, 0x02, 0x00, 0x00, 0x00,
    0x01, 0x00, 0x00, 0x00, 0x08, 0x00, 0x00, 0x00, 0xbe, 0xf8, 0xff, 0xff,
    0x00, 0x00, 0x00, 0x01, 0x14, 0x00, 0x00, 0x00, 0x1c, 0x00, 0x00, 0x00,
    0x1c, 0x00, 0x00, 0x00, 0x17, 0x00, 0x00, 0x00, 0x64, 0x00, 0x00, 0x00,
    0x02, 0x00, 0x00, 0x00, 0xff, 0xff, 0xff, 0xff, 0x08, 0x00, 0x00, 0x00,
    0xa8, 0xf8, 0xff, 0xff, 0x49, 0x00, 0x00, 0x00, 0x6c, 0x77, 0x38, 0x5f,
    0x6d, 0x64, 0x38, 0x2f, 0x64, 0x65, 0x6e, 0x73, 0x65, 0x5f, 0x31, 0x35,
    0x32, 0x2f, 0x4d, 0x61, 0x74, 0x4d, 0x75, 0x6c, 0x3b, 0x6c, 0x77, 0x38,
    0x5f, 0x6d, 0x64, 0x38, 0x2f, 0x64, 0x65, 0x6e, 0x73, 0x65, 0x5f, 0x31,
    0x35, 0x32, 0x2f, 0x52, 0x65, 0x6c, 0x75, 0x3b, 0x6c, 0x77, 0x38, 0x5f,
    0x6d, 0x64, 0x38, 0x2f, 0x64, 0x65, 0x6e, 0x73, 0x65, 0x5f, 0x31, 0x35,
    0x32, 0x2f, 0x42, 0x69, 0x61, 0x73, 0x41, 0x64, 0x64, 0x00, 0x00, 0x00,
    0x02, 0x00, 0x00, 0x00, 0x01, 0x00, 0x00, 0x00, 0x08, 0x00, 0x00, 0x00,
    0x46, 0xf9, 0xff, 0xff, 0x00, 0x00, 0x00, 0x01, 0x14, 0x00, 0x00, 0x00,
    0x1c, 0x00, 0x00, 0x00, 0x1c, 0x00, 0x00, 0x00, 0x16, 0x00, 0x00, 0x00,
    0x64, 0x00, 0x00, 0x00, 0x02, 0x00, 0x00, 0x00, 0xff, 0xff, 0xff, 0xff,
    0x08, 0x00, 0x00, 0x00, 0x30, 0xf9, 0xff, 0xff, 0x49, 0x00, 0x00, 0x00,
    0x6c, 0x77, 0x38, 0x5f, 0x6d, 0x64, 0x38, 0x2f, 0x64, 0x65, 0x6e, 0x73,
    0x65, 0x5f, 0x31, 0x35, 0x31, 0x2f, 0x4d, 0x61, 0x74, 0x4d, 0x75, 0x6c,
    0x3b, 0x6c, 0x77, 0x38, 0x5f, 0x6d, 0x64, 0x38, 0x2f, 0x64, 0x65, 0x6e,
    0x73, 0x65, 0x5f, 0x31, 0x35, 0x31, 0x2f, 0x52, 0x65, 0x6c, 0x75, 0x3b,
    0x6c, 0x77, 0x38, 0x5f, 0x6d, 0x64, 0x38, 0x2f, 0x64, 0x65, 0x6e, 0x73,
    0x65, 0x5f, 0x31, 0x35, 0x31, 0x2f, 0x42, 0x69, 0x61, 0x73, 0x41, 0x64,
    0x64, 0x00, 0x00, 0x00, 0x02, 0x00, 0x00, 0x00, 0x01, 0x00, 0x00, 0x00,
    0x08, 0x00, 0x00, 0x00, 0x3a, 0xfa, 0xff, 0xff, 0x00, 0x00, 0x00, 0x01,
    0x10, 0x00, 0x00, 0x00, 0x10, 0x00, 0x00, 0x00, 0x15, 0x00, 0x00, 0x00,
    0x28, 0x00, 0x00, 0x00, 0xa8, 0xf9, 0xff, 0xff, 0x18, 0x00, 0x00, 0x00,
    0x6c, 0x77, 0x38, 0x5f, 0x6d, 0x64, 0x38, 0x2f, 0x64, 0x65, 0x6e, 0x73,
    0x65, 0x5f, 0x31, 0x36, 0x30, 0x2f, 0x4d, 0x61, 0x74, 0x4d, 0x75, 0x6c,
    0x00, 0x00, 0x00, 0x00, 0x02, 0x00, 0x00, 0x00, 0x08, 0x00, 0x00, 0x00,
    0x08, 0x00, 0x00, 0x00, 0x82, 0xfa, 0xff, 0xff, 0x00, 0x00, 0x00, 0x01,
    0x10, 0x00, 0x00, 0x00, 0x10, 0x00, 0x00, 0x00, 0x14, 0x00, 0x00, 0x00,
    0x28, 0x00, 0x00, 0x00, 0xf0, 0xf9, 0xff, 0xff, 0x18, 0x00, 0x00, 0x00,
    0x6c, 0x77, 0x38, 0x5f, 0x6d, 0x64, 0x38, 0x2f, 0x64, 0x65, 0x6e, 0x73,
    0x65, 0x5f, 0x31, 0x35, 0x39, 0x2f, 0x4d, 0x61, 0x74, 0x4d, 0x75, 0x6c,
    0x00, 0x00, 0x00, 0x00, 0x02, 0x00, 0x00, 0x00, 0x08, 0x00, 0x00, 0x00,
    0x08, 0x00, 0x00, 0x00, 0xca, 0xfa, 0xff, 0xff, 0x00, 0x00, 0x00, 0x01,
    0x10, 0x00, 0x00, 0x00, 0x10, 0x00, 0x00, 0x00, 0x13, 0x00, 0x00, 0x00,
    0x28, 0x00, 0x00, 0x00, 0x38, 0xfa, 0xff, 0xff, 0x18, 0x00, 0x00, 0x00,
    0x6c, 0x77, 0x38, 0x5f, 0x6d, 0x64, 0x38, 0x2f, 0x64, 0x65, 0x6e, 0x73,
    0x65, 0x5f, 0x31, 0x35, 0x38, 0x2f, 0x4d, 0x61, 0x74, 0x4d, 0x75, 0x6c,
    0x00, 0x00, 0x00, 0x00, 0x02, 0x00, 0x00, 0x00, 0x08, 0x00, 0x00, 0x00,
    0x08, 0x00, 0x00, 0x00, 0x12, 0xfb, 0xff, 0xff, 0x00, 0x00, 0x00, 0x01,
    0x10, 0x00, 0x00, 0x00, 0x10, 0x00, 0x00, 0x00, 0x12, 0x00, 0x00, 0x00,
    0x28, 0x00, 0x00, 0x00, 0x80, 0xfa, 0xff, 0xff, 0x18, 0x00, 0x00, 0x00,
    0x6c, 0x77, 0x38, 0x5f, 0x6d, 0x64, 0x38, 0x2f, 0x64, 0x65, 0x6e, 0x73,
    0x65, 0x5f, 0x31, 0x35, 0x37, 0x2f, 0x4d, 0x61, 0x74, 0x4d, 0x75, 0x6c,
    0x00, 0x00, 0x00, 0x00, 0x02, 0x00, 0x00, 0x00, 0x08, 0x00, 0x00, 0x00,
    0x08, 0x00, 0x00, 0x00, 0x5a, 0xfb, 0xff, 0xff, 0x00, 0x00, 0x00, 0x01,
    0x10, 0x00, 0x00, 0x00, 0x10, 0x00, 0x00, 0x00, 0x11, 0x00, 0x00, 0x00,
    0x28, 0x00, 0x00, 0x00, 0xc8, 0xfa, 0xff, 0xff, 0x18, 0x00, 0x00, 0x00,
    0x6c, 0x77, 0x38, 0x5f, 0x6d, 0x64, 0x38, 0x2f, 0x64, 0x65, 0x6e, 0x73,
    0x65, 0x5f, 0x31, 0x35, 0x36, 0x2f, 0x4d, 0x61, 0x74, 0x4d, 0x75, 0x6c,
    0x00, 0x00, 0x00, 0x00, 0x02, 0x00, 0x00, 0x00, 0x08, 0x00, 0x00, 0x00,
    0x08, 0x00, 0x00, 0x00, 0xa2, 0xfb, 0xff, 0xff, 0x00, 0x00, 0x00, 0x01,
    0x10, 0x00, 0x00, 0x00, 0x10, 0x00, 0x00, 0x00, 0x10, 0x00, 0x00, 0x00,
    0x28, 0x00, 0x00, 0x00, 0x10, 0xfb, 0xff, 0xff, 0x18, 0x00, 0x00, 0x00,
    0x6c, 0x77, 0x38, 0x5f, 0x6d, 0x64, 0x38, 0x2f, 0x64, 0x65, 0x6e, 0x73,
    0x65, 0x5f, 0x31, 0x35, 0x35, 0x2f, 0x4d, 0x61, 0x74, 0x4d, 0x75, 0x6c,
    0x00, 0x00, 0x00, 0x00, 0x02, 0x00, 0x00, 0x00, 0x08, 0x00, 0x00, 0x00,
    0x08, 0x00, 0x00, 0x00, 0xea, 0xfb, 0xff, 0xff, 0x00, 0x00, 0x00, 0x01,
    0x10, 0x00, 0x00, 0x00, 0x10, 0x00, 0x00, 0x00, 0x0f, 0x00, 0x00, 0x00,
    0x28, 0x00, 0x00, 0x00, 0x58, 0xfb, 0xff, 0xff, 0x18, 0x00, 0x00, 0x00,
    0x6c, 0x77, 0x38, 0x5f, 0x6d, 0x64, 0x38, 0x2f, 0x64, 0x65, 0x6e, 0x73,
    0x65, 0x5f, 0x31, 0x35, 0x34, 0x2f, 0x4d, 0x61, 0x74, 0x4d, 0x75, 0x6c,
    0x00, 0x00, 0x00, 0x00, 0x02, 0x00, 0x00, 0x00, 0x08, 0x00, 0x00, 0x00,
    0x08, 0x00, 0x00, 0x00, 0x32, 0xfc, 0xff, 0xff, 0x00, 0x00, 0x00, 0x01,
    0x10, 0x00, 0x00, 0x00, 0x10, 0x00, 0x00, 0x00, 0x0e, 0x00, 0x00, 0x00,
    0x28, 0x00, 0x00, 0x00, 0xa0, 0xfb, 0xff, 0xff, 0x18, 0x00, 0x00, 0x00,
    0x6c, 0x77, 0x38, 0x5f, 0x6d, 0x64, 0x38, 0x2f, 0x64, 0x65, 0x6e, 0x73,
    0x65, 0x5f, 0x31, 0x35, 0x33, 0x2f, 0x4d, 0x61, 0x74, 0x4d, 0x75, 0x6c,
    0x00, 0x00, 0x00, 0x00, 0x02, 0x00, 0x00, 0x00, 0x08, 0x00, 0x00, 0x00,
    0x08, 0x00, 0x00, 0x00, 0x7a, 0xfc, 0xff, 0xff, 0x00, 0x00, 0x00, 0x01,
    0x10, 0x00, 0x00, 0x00, 0x10, 0x00, 0x00, 0x00, 0x0d, 0x00, 0x00, 0x00,
    0x28, 0x00, 0x00, 0x00, 0xe8, 0xfb, 0xff, 0xff, 0x18, 0x00, 0x00, 0x00,
    0x6c, 0x77, 0x38, 0x5f, 0x6d, 0x64, 0x38, 0x2f, 0x64, 0x65, 0x6e, 0x73,
    0x65, 0x5f, 0x31, 0x35, 0x32, 0x2f, 0x4d, 0x61, 0x74, 0x4d, 0x75, 0x6c,
    0x00, 0x00, 0x00, 0x00, 0x02, 0x00, 0x00, 0x00, 0x08, 0x00, 0x00, 0x00,
    0x08, 0x00, 0x00, 0x00, 0xc2, 0xfc, 0xff, 0xff, 0x00, 0x00, 0x00, 0x01,
    0x10, 0x00, 0x00, 0x00, 0x10, 0x00, 0x00, 0x00, 0x0c, 0x00, 0x00, 0x00,
    0x28, 0x00, 0x00, 0x00, 0x30, 0xfc, 0xff, 0xff, 0x18, 0x00, 0x00, 0x00,
    0x6c, 0x77, 0x38, 0x5f, 0x6d, 0x64, 0x38, 0x2f, 0x64, 0x65, 0x6e, 0x73,
    0x65, 0x5f, 0x31, 0x35, 0x31, 0x2f, 0x4d, 0x61, 0x74, 0x4d, 0x75, 0x6c,
    0x00, 0x00, 0x00, 0x00, 0x02, 0x00, 0x00, 0x00, 0x08, 0x00, 0x00, 0x00,
    0x0f, 0x00, 0x00, 0x00, 0x0a, 0xfd, 0xff, 0xff, 0x00, 0x00, 0x00, 0x01,
    0x10, 0x00, 0x00, 0x00, 0x10, 0x00, 0x00, 0x00, 0x0b, 0x00, 0x00, 0x00,
    0x38, 0x00, 0x00, 0x00, 0x78, 0xfc, 0xff, 0xff, 0x28, 0x00, 0x00, 0x00,
    0x6c, 0x77, 0x38, 0x5f, 0x6d, 0x64, 0x38, 0x2f, 0x64, 0x65, 0x6e, 0x73,
    0x65, 0x5f, 0x31, 0x35, 0x31, 0x2f, 0x42, 0x69, 0x61, 0x73, 0x41, 0x64,
    0x64, 0x2f, 0x52, 0x65, 0x61, 0x64, 0x56, 0x61, 0x72, 0x69, 0x61, 0x62,
    0x6c, 0x65, 0x4f, 0x70, 0x00, 0x00, 0x00, 0x00, 0x01, 0x00, 0x00, 0x00,
    0x08, 0x00, 0x00, 0x00, 0x5e, 0xfd, 0xff, 0xff, 0x00, 0x00, 0x00, 0x01,
    0x10, 0x00, 0x00, 0x00, 0x10, 0x00, 0x00, 0x00, 0x0a, 0x00, 0x00, 0x00,
    0x38, 0x00, 0x00, 0x00, 0xcc, 0xfc, 0xff, 0xff, 0x28, 0x00, 0x00, 0x00,
    0x6c, 0x77, 0x38, 0x5f, 0x6d, 0x64, 0x38, 0x2f, 0x64, 0x65, 0x6e, 0x73,
    0x65, 0x5f, 0x31, 0x35, 0x32, 0x2f, 0x42, 0x69, 0x61, 0x73, 0x41, 0x64,
    0x64, 0x2f, 0x52, 0x65, 0x61, 0x64, 0x56, 0x61, 0x72, 0x69, 0x61, 0x62,
    0x6c, 0x65, 0x4f, 0x70, 0x00, 0x00, 0x00, 0x00, 0x01, 0x00, 0x00, 0x00,
    0x08, 0x00, 0x00, 0x00, 0xb2, 0xfd, 0xff, 0xff, 0x00, 0x00, 0x00, 0x01,
    0x10, 0x00, 0x00, 0x00, 0x10, 0x00, 0x00, 0x00, 0x09, 0x00, 0x00, 0x00,
    0x38, 0x00, 0x00, 0x00, 0x20, 0xfd, 0xff, 0xff, 0x28, 0x00, 0x00, 0x00,
    0x6c, 0x77, 0x38, 0x5f, 0x6d, 0x64, 0x38, 0x2f, 0x64, 0x65, 0x6e, 0x73,
    0x65, 0x5f, 0x31, 0x35, 0x33, 0x2f, 0x42, 0x69, 0x61, 0x73, 0x41, 0x64,
    0x64, 0x2f, 0x52, 0x65, 0x61, 0x64, 0x56, 0x61, 0x72, 0x69, 0x61, 0x62,
    0x6c, 0x65, 0x4f, 0x70, 0x00, 0x00, 0x00, 0x00, 0x01, 0x00, 0x00, 0x00,
    0x08, 0x00, 0x00, 0x00, 0x06, 0xfe, 0xff, 0xff, 0x00, 0x00, 0x00, 0x01,
    0x10, 0x00, 0x00, 0x00, 0x10, 0x00, 0x00, 0x00, 0x08, 0x00, 0x00, 0x00,
    0x38, 0x00, 0x00, 0x00, 0x74, 0xfd, 0xff, 0xff, 0x28, 0x00, 0x00, 0x00,
    0x6c, 0x77, 0x38, 0x5f, 0x6d, 0x64, 0x38, 0x2f, 0x64, 0x65, 0x6e, 0x73,
    0x65, 0x5f, 0x31, 0x35, 0x34, 0x2f, 0x42, 0x69, 0x61, 0x73, 0x41, 0x64,
    0x64, 0x2f, 0x52, 0x65, 0x61, 0x64, 0x56, 0x61, 0x72, 0x69, 0x61, 0x62,
    0x6c, 0x65, 0x4f, 0x70, 0x00, 0x00, 0x00, 0x00, 0x01, 0x00, 0x00, 0x00,
    0x08, 0x00, 0x00, 0x00, 0x5a, 0xfe, 0xff, 0xff, 0x00, 0x00, 0x00, 0x01,
    0x10, 0x00, 0x00, 0x00, 0x10, 0x00, 0x00, 0x00, 0x07, 0x00, 0x00, 0x00,
    0x38, 0x00, 0x00, 0x00, 0xc8, 0xfd, 0xff, 0xff, 0x28, 0x00, 0x00, 0x00,
    0x6c, 0x77, 0x38, 0x5f, 0x6d, 0x64, 0x38, 0x2f, 0x64, 0x65, 0x6e, 0x73,
    0x65, 0x5f, 0x31, 0x35, 0x35, 0x2f, 0x42, 0x69, 0x61, 0x73, 0x41, 0x64,
    0x64, 0x2f, 0x52, 0x65, 0x61, 0x64, 0x56, 0x61, 0x72, 0x69, 0x61, 0x62,
    0x6c, 0x65, 0x4f, 0x70, 0x00, 0x00, 0x00, 0x00, 0x01, 0x00, 0x00, 0x00,
    0x08, 0x00, 0x00, 0x00, 0xae, 0xfe, 0xff, 0xff, 0x00, 0x00, 0x00, 0x01,
    0x10, 0x00, 0x00, 0x00, 0x10, 0x00, 0x00, 0x00, 0x06, 0x00, 0x00, 0x00,
    0x38, 0x00, 0x00, 0x00, 0x1c, 0xfe, 0xff, 0xff, 0x28, 0x00, 0x00, 0x00,
    0x6c, 0x77, 0x38, 0x5f, 0x6d, 0x64, 0x38, 0x2f, 0x64, 0x65, 0x6e, 0x73,
    0x65, 0x5f, 0x31, 0x35, 0x36, 0x2f, 0x42, 0x69, 0x61, 0x73, 0x41, 0x64,
    0x64, 0x2f, 0x52, 0x65, 0x61, 0x64, 0x56, 0x61, 0x72, 0x69, 0x61, 0x62,
    0x6c, 0x65, 0x4f, 0x70, 0x00, 0x00, 0x00, 0x00, 0x01, 0x00, 0x00, 0x00,
    0x08, 0x00, 0x00, 0x00, 0x02, 0xff, 0xff, 0xff, 0x00, 0x00, 0x00, 0x01,
    0x10, 0x00, 0x00, 0x00, 0x10, 0x00, 0x00, 0x00, 0x05, 0x00, 0x00, 0x00,
    0x38, 0x00, 0x00, 0x00, 0x70, 0xfe, 0xff, 0xff, 0x28, 0x00, 0x00, 0x00,
    0x6c, 0x77, 0x38, 0x5f, 0x6d, 0x64, 0x38, 0x2f, 0x64, 0x65, 0x6e, 0x73,
    0x65, 0x5f, 0x31, 0x35, 0x37, 0x2f, 0x42, 0x69, 0x61, 0x73, 0x41, 0x64,
    0x64, 0x2f, 0x52, 0x65, 0x61, 0x64, 0x56, 0x61, 0x72, 0x69, 0x61, 0x62,
    0x6c, 0x65, 0x4f, 0x70, 0x00, 0x00, 0x00, 0x00, 0x01, 0x00, 0x00, 0x00,
    0x08, 0x00, 0x00, 0x00, 0x56, 0xff, 0xff, 0xff, 0x00, 0x00, 0x00, 0x01,
    0x10, 0x00, 0x00, 0x00, 0x10, 0x00, 0x00, 0x00, 0x04, 0x00, 0x00, 0x00,
    0x38, 0x00, 0x00, 0x00, 0xc4, 0xfe, 0xff, 0xff, 0x28, 0x00, 0x00, 0x00,
    0x6c, 0x77, 0x38, 0x5f, 0x6d, 0x64, 0x38, 0x2f, 0x64, 0x65, 0x6e, 0x73,
    0x65, 0x5f, 0x31, 0x35, 0x38, 0x2f, 0x42, 0x69, 0x61, 0x73, 0x41, 0x64,
    0x64, 0x2f, 0x52, 0x65, 0x61, 0x64, 0x56, 0x61, 0x72, 0x69, 0x61, 0x62,
    0x6c, 0x65, 0x4f, 0x70, 0x00, 0x00, 0x00, 0x00, 0x01, 0x00, 0x00, 0x00,
    0x08, 0x00, 0x00, 0x00, 0xaa, 0xff, 0xff, 0xff, 0x00, 0x00, 0x00, 0x01,
    0x10, 0x00, 0x00, 0x00, 0x10, 0x00, 0x00, 0x00, 0x03, 0x00, 0x00, 0x00,
    0x38, 0x00, 0x00, 0x00, 0x18, 0xff, 0xff, 0xff, 0x28, 0x00, 0x00, 0x00,
    0x6c, 0x77, 0x38, 0x5f, 0x6d, 0x64, 0x38, 0x2f, 0x64, 0x65, 0x6e, 0x73,
    0x65, 0x5f, 0x31, 0x35, 0x39, 0x2f, 0x42, 0x69, 0x61, 0x73, 0x41, 0x64,
    0x64, 0x2f, 0x52, 0x65, 0x61, 0x64, 0x56, 0x61, 0x72, 0x69, 0x61, 0x62,
    0x6c, 0x65, 0x4f, 0x70, 0x00, 0x00, 0x00, 0x00, 0x01, 0x00, 0x00, 0x00,
    0x08, 0x00, 0x00, 0x00, 0x00, 0x00, 0x16, 0x00, 0x18, 0x00, 0x14, 0x00,
    0x00, 0x00, 0x10, 0x00, 0x0c, 0x00, 0x08, 0x00, 0x00, 0x00, 0x00, 0x00,
    0x00, 0x00, 0x07, 0x00, 0x16, 0x00, 0x00, 0x00, 0x00, 0x00, 0x00, 0x01,
    0x10, 0x00, 0x00, 0x00, 0x10, 0x00, 0x00, 0x00, 0x02, 0x00, 0x00, 0x00,
    0x38, 0x00, 0x00, 0x00, 0x84, 0xff, 0xff, 0xff, 0x28, 0x00, 0x00, 0x00,
    0x6c, 0x77, 0x38, 0x5f, 0x6d, 0x64, 0x38, 0x2f, 0x64, 0x65, 0x6e, 0x73,
    0x65, 0x5f, 0x31, 0x36, 0x30, 0x2f, 0x42, 0x69, 0x61, 0x73, 0x41, 0x64,
    0x64, 0x2f, 0x52, 0x65, 0x61, 0x64, 0x56, 0x61, 0x72, 0x69, 0x61, 0x62,
    0x6c, 0x65, 0x4f, 0x70, 0x00, 0x00, 0x00, 0x00, 0x01, 0x00, 0x00, 0x00,
    0x08, 0x00, 0x00, 0x00, 0x00, 0x00, 0x16, 0x00, 0x1c, 0x00, 0x18, 0x00,
    0x00, 0x00, 0x14, 0x00, 0x10, 0x00, 0x0c, 0x00, 0x00, 0x00, 0x00, 0x00,
    0x08, 0x00, 0x07, 0x00, 0x16, 0x00, 0x00, 0x00, 0x00, 0x00, 0x00, 0x01,
    0x14, 0x00, 0x00, 0x00, 0x20, 0x00, 0x00, 0x00, 0x20, 0x00, 0x00, 0x00,
    0x01, 0x00, 0x00, 0x00, 0x40, 0x00, 0x00, 0x00, 0x02, 0x00, 0x00, 0x00,
    0xff, 0xff, 0xff, 0xff, 0x0f, 0x00, 0x00, 0x00, 0x04, 0x00, 0x04, 0x00,
    0x04, 0x00, 0x00, 0x00, 0x21, 0x00, 0x00, 0x00, 0x73, 0x65, 0x72, 0x76,
    0x69, 0x6e, 0x67, 0x5f, 0x64, 0x65, 0x66, 0x61, 0x75, 0x6c, 0x74, 0x5f,
    0x64, 0x65, 0x6e, 0x73, 0x65, 0x5f, 0x31, 0x35, 0x31, 0x5f, 0x69, 0x6e,
    0x70, 0x75, 0x74, 0x3a, 0x30, 0x00, 0x00, 0x00, 0x02, 0x00, 0x00, 0x00,
    0x01, 0x00, 0x00, 0x00, 0x0f, 0x00, 0x00, 0x00, 0x02, 0x00, 0x00, 0x00,
    0x20, 0x00, 0x00, 0x00, 0x04, 0x00, 0x00, 0x00, 0xf4, 0xff, 0xff, 0xff,
    0x19, 0x00, 0x00, 0x00, 0x00, 0x00, 0x00, 0x19, 0x0c, 0x00, 0x0c, 0x00,
    0x0b, 0x00, 0x00, 0x00, 0x00, 0x00, 0x04, 0x00, 0x0c, 0x00, 0x00, 0x00,
    0x09, 0x00, 0x00, 0x00, 0x00, 0x00, 0x00, 0x09};
unsigned int lw8_md8_len = 8012;
