unsigned char lw8_md4[] = {
    0x1c, 0x00, 0x00, 0x00, 0x54, 0x46, 0x4c, 0x33, 0x14, 0x00, 0x20, 0x00,
    0x1c, 0x00, 0x18, 0x00, 0x14, 0x00, 0x10, 0x00, 0x0c, 0x00, 0x00, 0x00,
    0x08, 0x00, 0x04, 0x00, 0x14, 0x00, 0x00, 0x00, 0x1c, 0x00, 0x00, 0x00,
    0x98, 0x00, 0x00, 0x00, 0xf0, 0x00, 0x00, 0x00, 0x1c, 0x0a, 0x00, 0x00,
    0x2c, 0x0a, 0x00, 0x00, 0x28, 0x14, 0x00, 0x00, 0x03, 0x00, 0x00, 0x00,
    0x01, 0x00, 0x00, 0x00, 0x10, 0x00, 0x00, 0x00, 0x00, 0x00, 0x0a, 0x00,
    0x10, 0x00, 0x0c, 0x00, 0x08, 0x00, 0x04, 0x00, 0x0a, 0x00, 0x00, 0x00,
    0x0c, 0x00, 0x00, 0x00, 0x1c, 0x00, 0x00, 0x00, 0x3c, 0x00, 0x00, 0x00,
    0x0f, 0x00, 0x00, 0x00, 0x73, 0x65, 0x72, 0x76, 0x69, 0x6e, 0x67, 0x5f,
    0x64, 0x65, 0x66, 0x61, 0x75, 0x6c, 0x74, 0x00, 0x01, 0x00, 0x00, 0x00,
    0x04, 0x00, 0x00, 0x00, 0x90, 0xff, 0xff, 0xff, 0x13, 0x00, 0x00, 0x00,
    0x04, 0x00, 0x00, 0x00, 0x09, 0x00, 0x00, 0x00, 0x64, 0x65, 0x6e, 0x73,
    0x65, 0x5f, 0x31, 0x35, 0x30, 0x00, 0x00, 0x00, 0x01, 0x00, 0x00, 0x00,
    0x04, 0x00, 0x00, 0x00, 0xbe, 0xf5, 0xff, 0xff, 0x04, 0x00, 0x00, 0x00,
    0x0f, 0x00, 0x00, 0x00, 0x64, 0x65, 0x6e, 0x73, 0x65, 0x5f, 0x31, 0x34,
    0x35, 0x5f, 0x69, 0x6e, 0x70, 0x75, 0x74, 0x00, 0x02, 0x00, 0x00, 0x00,
    0x34, 0x00, 0x00, 0x00, 0x04, 0x00, 0x00, 0x00, 0xdc, 0xff, 0xff, 0xff,
    0x16, 0x00, 0x00, 0x00, 0x04, 0x00, 0x00, 0x00, 0x13, 0x00, 0x00, 0x00,
    0x43, 0x4f, 0x4e, 0x56, 0x45, 0x52, 0x53, 0x49, 0x4f, 0x4e, 0x5f, 0x4d,
    0x45, 0x54, 0x41, 0x44, 0x41, 0x54, 0x41, 0x00, 0x08, 0x00, 0x0c, 0x00,
    0x08, 0x00, 0x04, 0x00, 0x08, 0x00, 0x00, 0x00, 0x15, 0x00, 0x00, 0x00,
    0x04, 0x00, 0x00, 0x00, 0x13, 0x00, 0x00, 0x00, 0x6d, 0x69, 0x6e, 0x5f,
    0x72, 0x75, 0x6e, 0x74, 0x69, 0x6d, 0x65, 0x5f, 0x76, 0x65, 0x72, 0x73,
    0x69, 0x6f, 0x6e, 0x00, 0x17, 0x00, 0x00, 0x00, 0x28, 0x09, 0x00, 0x00,
    0x20, 0x09, 0x00, 0x00, 0xf0, 0x08, 0x00, 0x00, 0xc0, 0x08, 0x00, 0x00,
    0x90, 0x08, 0x00, 0x00, 0x60, 0x08, 0x00, 0x00, 0x30, 0x08, 0x00, 0x00,
    0x00, 0x08, 0x00, 0x00, 0x10, 0x06, 0x00, 0x00, 0x00, 0x05, 0x00, 0x00,
    0xf0, 0x03, 0x00, 0x00, 0xe0, 0x02, 0x00, 0x00, 0xd0, 0x01, 0x00, 0x00,
    0xc0, 0x00, 0x00, 0x00, 0xb8, 0x00, 0x00, 0x00, 0xb0, 0x00, 0x00, 0x00,
    0xa8, 0x00, 0x00, 0x00, 0xa0, 0x00, 0x00, 0x00, 0x98, 0x00, 0x00, 0x00,
    0x90, 0x00, 0x00, 0x00, 0x88, 0x00, 0x00, 0x00, 0x68, 0x00, 0x00, 0x00,
    0x04, 0x00, 0x00, 0x00, 0x96, 0xf6, 0xff, 0xff, 0x04, 0x00, 0x00, 0x00,
    0x54, 0x00, 0x00, 0x00, 0x0c, 0x00, 0x00, 0x00, 0x08, 0x00, 0x0e, 0x00,
    0x08, 0x00, 0x04, 0x00, 0x08, 0x00, 0x00, 0x00, 0x10, 0x00, 0x00, 0x00,
    0x24, 0x00, 0x00, 0x00, 0x00, 0x00, 0x06, 0x00, 0x08, 0x00, 0x04, 0x00,
    0x06, 0x00, 0x00, 0x00, 0x04, 0x00, 0x00, 0x00, 0x00, 0x00, 0x00, 0x00,
    0x00, 0x00, 0x0a, 0x00, 0x10, 0x00, 0x0c, 0x00, 0x08, 0x00, 0x04, 0x00,
    0x0a, 0x00, 0x00, 0x00, 0x02, 0x00, 0x00, 0x00, 0x02, 0x00, 0x00, 0x00,
    0x04, 0x00, 0x00, 0x00, 0x06, 0x00, 0x00, 0x00, 0x32, 0x2e, 0x31, 0x34,
    0x2e, 0x30, 0x00, 0x00, 0xf6, 0xf6, 0xff, 0xff, 0x04, 0x00, 0x00, 0x00,
    0x10, 0x00, 0x00, 0x00, 0x31, 0x2e, 0x35, 0x2e, 0x30, 0x00, 0x00, 0x00,
    0x00, 0x00, 0x00, 0x00, 0x00, 0x00, 0x00, 0x00, 0xd4, 0xed, 0xff, 0xff,
    0xd8, 0xed, 0xff, 0xff, 0xdc, 0xed, 0xff, 0xff, 0xe0, 0xed, 0xff, 0xff,
    0xe4, 0xed, 0xff, 0xff, 0xe8, 0xed, 0xff, 0xff, 0xec, 0xed, 0xff, 0xff,
    0x2e, 0xf7, 0xff, 0xff, 0x04, 0x00, 0x00, 0x00, 0x00, 0x01, 0x00, 0x00,
    0x8a, 0xe3, 0xa3, 0xbd, 0x4e, 0x62, 0xbd, 0x3e, 0xa2, 0xe7, 0x46, 0xbf,
    0x81, 0x48, 0xd7, 0xbd, 0x80, 0xed, 0x1e, 0xbf, 0x79, 0x7b, 0x5e, 0xbe,
    0x8e, 0x2a, 0xfb, 0x3e, 0xe2, 0x7c, 0xda, 0xbd, 0xe3, 0x8b, 0x73, 0xbe,
    0xff, 0xdb, 0xe1, 0xbe, 0xce, 0x8a, 0x20, 0x3f, 0x1c, 0xe6, 0xc6, 0xbe,
    0x1b, 0x78, 0xf4, 0x3d, 0x0a, 0xe8, 0xa0, 0x3e, 0xd1, 0x2c, 0xdd, 0xbe,
    0x8b, 0xe8, 0xc7, 0xbe, 0x08, 0xea, 0x97, 0xbe, 0xc5, 0x57, 0x85, 0x3e,
    0xfe, 0xb2, 0x0a, 0xbe, 0xa7, 0xb8, 0x0c, 0xbf, 0xee, 0xca, 0x0e, 0xbe,
    0x73, 0x14, 0xb8, 0xbe, 0x2c, 0x41, 0xe2, 0x3e, 0x1f, 0x4a, 0x7b, 0xbd,
    0xc7, 0xe1, 0x07, 0x3e, 0x9a, 0x61, 0x6c, 0xbe, 0x89, 0x31, 0xb8, 0xbc,
    0x83, 0xeb, 0xae, 0xbe, 0xb6, 0x50, 0xf4, 0x3e, 0xe1, 0x7a, 0xcf, 0x3d,
    0x57, 0x28, 0x37, 0x3e, 0x09, 0xa3, 0x99, 0xbe, 0xb4, 0xaf, 0x04, 0xbf,
    0xc9, 0x66, 0xd8, 0x3c, 0x6a, 0xf9, 0xaf, 0xbe, 0x7b, 0x43, 0x0c, 0xbf,
    0xa2, 0xe1, 0x5f, 0x3f, 0x75, 0x85, 0x1e, 0xbf, 0x16, 0xf6, 0xcf, 0x3e,
    0x2f, 0x13, 0x9c, 0xba, 0x46, 0x71, 0x09, 0xbf, 0xc4, 0x9b, 0x52, 0x3e,
    0x40, 0x3a, 0xc8, 0xbe, 0xab, 0x82, 0x0d, 0xbf, 0xe7, 0x9f, 0x22, 0xbe,
    0x18, 0xd7, 0xab, 0x3d, 0x62, 0x91, 0x3e, 0x3d, 0x33, 0x33, 0x11, 0xbf,
    0x0c, 0x36, 0x4a, 0xbe, 0xa4, 0x7c, 0x58, 0xbe, 0x1b, 0xf9, 0x23, 0xbf,
    0x64, 0x87, 0x41, 0x3e, 0x4a, 0xa6, 0x89, 0x3e, 0xad, 0x27, 0x0e, 0xbf,
    0xf7, 0x40, 0x9b, 0x3e, 0xbb, 0x07, 0x81, 0xbe, 0x7c, 0x99, 0x30, 0xbe,
    0x24, 0x2d, 0xfb, 0xbe, 0x42, 0xaa, 0x21, 0x3e, 0x39, 0xcc, 0x02, 0x3f,
    0x8f, 0x20, 0x16, 0x3f, 0xf4, 0x45, 0x4e, 0xbf, 0x89, 0xd8, 0x09, 0x3f,
    0x5f, 0x17, 0xc3, 0x3d, 0x3a, 0xf8, 0xff, 0xff, 0x04, 0x00, 0x00, 0x00,
    0x00, 0x01, 0x00, 0x00, 0xde, 0x8d, 0x84, 0xbe, 0x48, 0xae, 0xab, 0x3d,
    0xc8, 0x11, 0x9f, 0xbd, 0xcd, 0x46, 0xf3, 0xbe, 0x15, 0x95, 0x11, 0x3f,
    0xf5, 0x9f, 0x2b, 0x3e, 0x5e, 0x60, 0x07, 0xbf, 0x1f, 0xe2, 0x8f, 0x3c,
    0x74, 0xaa, 0x81, 0xbd, 0x50, 0xf7, 0xb0, 0x3e, 0x2c, 0x5e, 0xcb, 0xbd,
    0xe0, 0x9a, 0x9e, 0xbb, 0xe6, 0xd2, 0xf9, 0xbe, 0xb6, 0xcc, 0xb7, 0xbe,
    0x67, 0x67, 0xc8, 0x3e, 0x58, 0x5c, 0xe7, 0x3d, 0x9d, 0x11, 0xdd, 0x3e,
    0xb7, 0x12, 0x92, 0xbe, 0x26, 0x35, 0x0a, 0x3e, 0x21, 0x05, 0x32, 0x3f,
    0x96, 0xdf, 0xb9, 0x3e, 0x84, 0xdc, 0x3b, 0xbe, 0x59, 0x40, 0x70, 0x3e,
    0xc6, 0xd0, 0x2f, 0x3d, 0xdd, 0x7d, 0xad, 0xbc, 0xd0, 0xb0, 0x8f, 0x3e,
    0xb3, 0x12, 0x55, 0xbf, 0x0d, 0x20, 0x12, 0x3f, 0x80, 0xcc, 0xc7, 0xbd,
    0xdf, 0x59, 0xeb, 0xbe, 0x65, 0x51, 0x04, 0xbf, 0x63, 0x51, 0x1b, 0xbe,
    0xd3, 0x7c, 0x13, 0xbe, 0x07, 0xce, 0x05, 0x3f, 0x9d, 0x97, 0x58, 0xbf,
    0x1d, 0x92, 0x5a, 0x3d, 0x27, 0x1d, 0x06, 0x3e, 0x62, 0xb0, 0x01, 0x3f,
    0xad, 0xb9, 0xf0, 0xbd, 0xc4, 0xca, 0xfd, 0xbe, 0xc3, 0xd5, 0xe9, 0x3e,
    0x40, 0x6e, 0xab, 0x3c, 0xb0, 0x9a, 0x72, 0x3f, 0x2d, 0x18, 0xd6, 0x3e,
    0x20, 0xd0, 0x34, 0x3e, 0x7b, 0x91, 0x41, 0xbf, 0xae, 0xb1, 0x3b, 0x3f,
    0x25, 0xba, 0xe5, 0x3e, 0x30, 0xfe, 0x08, 0x3f, 0xf6, 0x97, 0xf3, 0x3e,
    0x19, 0x1a, 0x7a, 0x3e, 0x1e, 0xe4, 0xac, 0xbe, 0xe0, 0x70, 0xdc, 0xbd,
    0x10, 0xab, 0xb0, 0x3d, 0x77, 0x57, 0xaa, 0xbe, 0xf7, 0x22, 0xd0, 0x3e,
    0x53, 0x01, 0x9e, 0xbd, 0xc0, 0x70, 0xa2, 0xbd, 0x7d, 0x67, 0x85, 0x3e,
    0x12, 0x2e, 0xfc, 0xbe, 0xb0, 0x73, 0x45, 0x3d, 0x79, 0x4e, 0xc9, 0x3e,
    0x5a, 0x8f, 0xd6, 0xbd, 0x15, 0x92, 0x1c, 0xbf, 0x46, 0xf9, 0xff, 0xff,
    0x04, 0x00, 0x00, 0x00, 0x00, 0x01, 0x00, 0x00, 0xc8, 0x19, 0x47, 0x3e,
    0xdc, 0xf8, 0x15, 0x3e, 0x1c, 0x2c, 0xa4, 0xbe, 0xcc, 0xb2, 0xcb, 0x3e,
    0x11, 0xe1, 0xc1, 0x3d, 0x4a, 0xec, 0x2c, 0x3f, 0xc2, 0xfb, 0xfb, 0xbe,
    0x9c, 0x0b, 0x2f, 0x3e, 0xa6, 0xf8, 0xa8, 0x3e, 0x5c, 0x23, 0x4b, 0xbe,
    0xdb, 0x4b, 0x09, 0xbf, 0x8a, 0xc8, 0x9e, 0xbe, 0x77, 0x3f, 0x06, 0x3f,
    0x10, 0x20, 0x62, 0xbe, 0xbc, 0xb8, 0x69, 0x3e, 0x21, 0x95, 0x0e, 0xbf,
    0xe2, 0x22, 0xba, 0xbe, 0xbd, 0x69, 0xc2, 0x3e, 0x92, 0x07, 0x47, 0xbe,
    0x02, 0xd2, 0xef, 0xbe, 0x1f, 0xb2, 0xce, 0xbe, 0x95, 0xf9, 0xcb, 0x3e,
    0x75, 0x4f, 0xe0, 0x3d, 0xd5, 0x27, 0x00, 0xbf, 0x61, 0x51, 0xf5, 0x3e,
    0x1b, 0x63, 0x3c, 0x3f, 0x9e, 0x3a, 0x02, 0xbf, 0x4b, 0x72, 0x76, 0xbe,
    0xf8, 0x91, 0x91, 0xbe, 0x28, 0xf3, 0x61, 0x3f, 0x01, 0x98, 0x16, 0x3f,
    0x0a, 0x4a, 0x9d, 0x3e, 0x88, 0xa8, 0xd6, 0x3d, 0xc2, 0xc3, 0xd3, 0xbd,
    0xac, 0xfc, 0x25, 0x3e, 0x9e, 0x22, 0x10, 0xbf, 0x66, 0xeb, 0x3f, 0xbd,
    0x8a, 0xdf, 0xce, 0xbe, 0xf8, 0xe6, 0xcc, 0x3e, 0x14, 0x5f, 0xd4, 0xbe,
    0x17, 0x80, 0x95, 0xbc, 0x1c, 0x27, 0x14, 0x3f, 0xa8, 0x36, 0xf2, 0xbe,
    0x58, 0x9a, 0xc0, 0x3d, 0x4a, 0xdc, 0xc6, 0x3e, 0x0f, 0x1f, 0x1b, 0xbf,
    0xce, 0x07, 0xbc, 0xbe, 0xaf, 0x09, 0x20, 0x3f, 0xe6, 0x29, 0x56, 0xbe,
    0xcb, 0xc6, 0x84, 0xbd, 0x84, 0x2b, 0xb8, 0x3e, 0x4d, 0xb6, 0x1b, 0x3f,
    0x8e, 0xfc, 0xf3, 0x3e, 0x0e, 0xae, 0x3f, 0x3f, 0x31, 0xeb, 0x29, 0x3f,
    0xa1, 0x6e, 0x9f, 0xbe, 0x86, 0xdd, 0xd5, 0x3e, 0xe6, 0x1f, 0x25, 0xbf,
    0x54, 0x5d, 0x4a, 0xbe, 0xb6, 0x0a, 0x0e, 0xbe, 0x70, 0x39, 0xbe, 0x3e,
    0x41, 0xb5, 0xa6, 0xbe, 0x77, 0x24, 0xb2, 0xbd, 0x87, 0x40, 0xe7, 0x3e,
    0x52, 0xfa, 0xff, 0xff, 0x04, 0x00, 0x00, 0x00, 0x00, 0x01, 0x00, 0x00,
    0x84, 0x37, 0xf2, 0xbe, 0x32, 0x8a, 0xf1, 0xbe, 0xd3, 0x49, 0x88, 0xbe,
    0xa1, 0x70, 0x24, 0xba, 0x80, 0x5e, 0xe8, 0x3c, 0xe3, 0xd2, 0xb1, 0xbe,
    0x4a, 0xe0, 0xf5, 0xbe, 0x93, 0x2c, 0xc9, 0x3e, 0x51, 0x74, 0xe0, 0xba,
    0x1e, 0xa6, 0x9b, 0x3d, 0x48, 0xa4, 0x5f, 0x3e, 0xb4, 0x3d, 0x80, 0x3d,
    0x1a, 0x70, 0x9b, 0x3e, 0x81, 0x33, 0x3e, 0x3f, 0xe4, 0xdc, 0xbb, 0x3e,
    0xec, 0xee, 0x8d, 0x3e, 0xf0, 0x97, 0x12, 0xbf, 0x61, 0xc9, 0x9c, 0x3d,
    0x5c, 0x06, 0x0f, 0x3e, 0x8c, 0xc5, 0x05, 0x3f, 0x1e, 0x9b, 0x79, 0xbe,
    0x23, 0x17, 0xf8, 0xbe, 0x12, 0x7e, 0x12, 0xbf, 0x5b, 0xed, 0x87, 0x3c,
    0x40, 0x38, 0x66, 0x3d, 0x0f, 0x4a, 0x75, 0x3e, 0x9a, 0xff, 0xac, 0x3e,
    0x6a, 0x5c, 0x87, 0xbe, 0x9f, 0x1b, 0xd6, 0xbe, 0x24, 0xa9, 0x87, 0xbe,
    0x8c, 0xa3, 0x00, 0x3f, 0x6b, 0x73, 0xd4, 0xbe, 0xa4, 0x70, 0x03, 0x3e,
    0xab, 0x4a, 0xb2, 0x3e, 0x58, 0x0e, 0x63, 0x3d, 0x41, 0xb4, 0x33, 0x3d,
    0x98, 0x99, 0xac, 0x3d, 0x66, 0x2b, 0xd8, 0xbe, 0xc9, 0x24, 0x15, 0x3f,
    0x32, 0x7a, 0xa4, 0x3c, 0xff, 0x6b, 0x02, 0xbf, 0x7e, 0xe2, 0x3f, 0xbe,
    0xb8, 0x0e, 0x01, 0xbf, 0xe6, 0xc1, 0x72, 0xbe, 0xd6, 0x0f, 0x89, 0x3f,
    0x67, 0xa9, 0xdc, 0x3e, 0xc8, 0xf3, 0xbc, 0xbe, 0xdc, 0xfd, 0x4a, 0xbe,
    0x4d, 0xc0, 0x0d, 0xbf, 0x26, 0xe6, 0xd7, 0xbe, 0xf1, 0x00, 0x36, 0xbd,
    0x50, 0x0b, 0xc2, 0xbe, 0xaa, 0xbf, 0x28, 0x3e, 0x3f, 0xc5, 0x0c, 0x3e,
    0x3b, 0x64, 0x1e, 0x3e, 0xa0, 0xd0, 0xab, 0xbe, 0x85, 0xc6, 0x80, 0x3d,
    0x29, 0x76, 0x8c, 0xbe, 0xd5, 0x4a, 0x09, 0xbc, 0x44, 0x79, 0x35, 0x3f,
    0xa0, 0x27, 0xa9, 0xbd, 0x5e, 0x87, 0xe0, 0x3e, 0x6f, 0x43, 0xe1, 0xbe,
    0x5e, 0x84, 0xb3, 0xbe, 0x5e, 0xfb, 0xff, 0xff, 0x04, 0x00, 0x00, 0x00,
    0x00, 0x01, 0x00, 0x00, 0xf4, 0x3f, 0x28, 0x3f, 0x70, 0xc3, 0xd4, 0xbd,
    0xf9, 0xd0, 0xd1, 0xbe, 0xec, 0x89, 0xcd, 0xbe, 0x32, 0x68, 0xd9, 0x3e,
    0x1b, 0x83, 0x91, 0xbe, 0xf8, 0x08, 0x9c, 0x3e, 0x4d, 0xa6, 0xa3, 0xbc,
    0x89, 0xb0, 0x1a, 0xbf, 0x1d, 0x39, 0x06, 0xbf, 0xbc, 0x67, 0x9e, 0x3e,
    0xa3, 0xfc, 0x16, 0xbf, 0xec, 0x83, 0xe0, 0xbe, 0xa0, 0xe7, 0x58, 0xbe,
    0xd7, 0xf6, 0xbd, 0x3e, 0xa7, 0xcb, 0x77, 0xbd, 0x50, 0xb6, 0xdd, 0xbe,
    0x2f, 0x71, 0xa5, 0x3d, 0x0e, 0x54, 0xa8, 0xbd, 0x3e, 0x67, 0x18, 0xbe,
    0xb0, 0xf6, 0xd9, 0x3d, 0xe9, 0x14, 0xfd, 0xbe, 0x2e, 0xb5, 0x05, 0xbf,
    0xd9, 0xd8, 0xf9, 0xbe, 0x63, 0xaf, 0x19, 0x3f, 0xd8, 0xe7, 0x3e, 0x3e,
    0xdc, 0x7b, 0x50, 0xbf, 0xce, 0x97, 0x18, 0xbf, 0x89, 0x82, 0xb3, 0x3e,
    0x1e, 0xc2, 0x26, 0x3d, 0xe6, 0x0a, 0x85, 0x3f, 0x1a, 0x47, 0x10, 0x3f,
    0x9b, 0x68, 0xc9, 0xbe, 0xd3, 0x63, 0x84, 0xbf, 0x35, 0x72, 0x25, 0xbe,
    0x57, 0x4a, 0xd2, 0xbe, 0xf8, 0x5e, 0x85, 0xbd, 0x4a, 0x05, 0x4f, 0x3f,
    0x05, 0xbf, 0x7c, 0xbf, 0xe2, 0xbe, 0xac, 0x3d, 0xa1, 0x28, 0x33, 0x3f,
    0xf4, 0xc9, 0x7d, 0x3d, 0xfa, 0x1e, 0x54, 0x3f, 0xc6, 0x9b, 0x91, 0x3e,
    0xc4, 0xea, 0xe1, 0x3d, 0x8f, 0x66, 0xf4, 0x3e, 0x31, 0xc3, 0x00, 0xbe,
    0xbe, 0x8f, 0x28, 0x3f, 0xb4, 0xbd, 0xec, 0xbe, 0xbf, 0x06, 0xc7, 0x3d,
    0x21, 0x38, 0xbd, 0x3e, 0xe0, 0x3c, 0xaf, 0x3e, 0x2f, 0x37, 0x02, 0xbf,
    0x1d, 0x56, 0x1c, 0xbf, 0xdf, 0x2b, 0x93, 0xbe, 0x35, 0xf3, 0xe8, 0xbe,
    0x7b, 0x28, 0x2f, 0xbe, 0x0e, 0xd8, 0x51, 0x3e, 0x06, 0x78, 0x97, 0x3e,
    0xba, 0xe1, 0xdd, 0xbc, 0xa9, 0xef, 0x86, 0xbe, 0x14, 0xbf, 0x72, 0xbe,
    0x5f, 0x4f, 0xd8, 0xbc, 0xb4, 0x1d, 0x80, 0x3d, 0x6a, 0xfc, 0xff, 0xff,
    0x04, 0x00, 0x00, 0x00, 0xe0, 0x01, 0x00, 0x00, 0x57, 0xdb, 0x80, 0x3e,
    0x7f, 0xdf, 0xe2, 0xbe, 0x40, 0xe2, 0x96, 0x3e, 0xbd, 0xd1, 0x2f, 0xbb,
    0xa9, 0x48, 0xae, 0x3e, 0xa3, 0x22, 0xfe, 0x3e, 0x01, 0x98, 0xcb, 0xbc,
    0x80, 0x71, 0xdb, 0xbe, 0x27, 0x03, 0x0a, 0x3d, 0x38, 0xa4, 0x99, 0xbe,
    0xb2, 0xcb, 0xff, 0x3d, 0xe2, 0xf3, 0xac, 0x3e, 0xc7, 0xea, 0xbc, 0xbd,
    0x6c, 0xee, 0x63, 0xbd, 0x93, 0x00, 0xee, 0xbe, 0x98, 0x78, 0x12, 0xbf,
    0x89, 0x80, 0xe6, 0xbe, 0x0e, 0x9f, 0x64, 0xbd, 0x7d, 0xb9, 0x21, 0xbe,
    0x88, 0x4a, 0x8d, 0xbe, 0x5f, 0x8b, 0x48, 0x3e, 0xfe, 0x4c, 0x8a, 0xbe,
    0xa9, 0xc2, 0xe2, 0xbe, 0x4c, 0x20, 0x23, 0xbe, 0x26, 0xe2, 0x11, 0xbf,
    0x58, 0xd3, 0x8a, 0x3e, 0xe3, 0xaf, 0x98, 0xbe, 0xcb, 0x5f, 0xd9, 0x3e,
    0x1b, 0x50, 0xaa, 0x3c, 0x8c, 0x9c, 0xfc, 0xbd, 0x8c, 0xc4, 0x73, 0x3e,
    0x0d, 0x7a, 0xa0, 0xbe, 0x16, 0x44, 0x07, 0xbf, 0x9f, 0xaa, 0x1b, 0xbf,
    0x76, 0x98, 0xbb, 0xbe, 0x01, 0x50, 0x96, 0xbe, 0x89, 0x3b, 0xe0, 0x3e,
    0xbf, 0x56, 0x94, 0x3e, 0x05, 0xa2, 0xd2, 0xbe, 0x3e, 0x27, 0xf0, 0x3e,
    0x0b, 0x04, 0x97, 0x3e, 0x4a, 0x24, 0xe3, 0xbe, 0x7b, 0xa7, 0xd4, 0xbe,
    0x41, 0x32, 0x7f, 0x3e, 0xa7, 0x7f, 0x2e, 0xbe, 0x50, 0x64, 0xbd, 0xbe,
    0x55, 0xc9, 0xbd, 0x3e, 0x92, 0xb4, 0x4b, 0x3e, 0x3c, 0x6d, 0xbc, 0x3e,
    0x76, 0x38, 0xf0, 0xbe, 0xa9, 0xdf, 0xd6, 0xbe, 0x79, 0x41, 0xf0, 0x3e,
    0x65, 0x2f, 0x98, 0x3e, 0x15, 0xdd, 0x1f, 0xbe, 0x7d, 0xdb, 0x27, 0x3e,
    0xf2, 0xf4, 0x94, 0x3e, 0x9c, 0x76, 0x33, 0x3b, 0x44, 0x78, 0xb9, 0xbe,
    0xdf, 0x4f, 0xbe, 0x3e, 0xa6, 0xaa, 0x2d, 0x3e, 0xa3, 0xc9, 0x75, 0xbe,
    0x19, 0xff, 0xd4, 0xbd, 0x87, 0x52, 0xeb, 0x3e, 0x5f, 0xfd, 0xa6, 0x3d,
    0x97, 0xb8, 0xa4, 0x3e, 0x0b, 0x7d, 0x23, 0xbe, 0xd2, 0xb0, 0xd7, 0x3e,
    0xf9, 0xf0, 0xbc, 0x3e, 0x29, 0x15, 0x4a, 0xbe, 0x29, 0x66, 0x90, 0xbe,
    0x73, 0x6a, 0x6e, 0x3d, 0x6a, 0x7b, 0x36, 0xbe, 0x1e, 0x66, 0xd0, 0x3e,
    0x3a, 0xe0, 0xa3, 0xbe, 0xa7, 0x0e, 0xe7, 0x3e, 0xe2, 0x3f, 0x6d, 0x3e,
    0x25, 0x9e, 0x07, 0x3e, 0xad, 0xa7, 0xa2, 0xbe, 0xa6, 0x48, 0x88, 0x3e,
    0x1e, 0xb3, 0x2f, 0xbe, 0xfd, 0x8a, 0x87, 0x3e, 0xb2, 0x75, 0xff, 0xbe,
    0xc2, 0xdd, 0x3e, 0xbf, 0xba, 0x7b, 0x4f, 0xbc, 0x59, 0x8d, 0xa1, 0x3d,
    0x1b, 0x55, 0xa7, 0xbe, 0xba, 0x28, 0x00, 0x3f, 0x2d, 0x09, 0x14, 0xbf,
    0x94, 0x22, 0xec, 0xbe, 0xf0, 0xbf, 0x88, 0x3e, 0x1f, 0xc0, 0xc4, 0xbd,
    0xbe, 0x15, 0x7d, 0x3e, 0x8b, 0x51, 0x09, 0x3e, 0xe8, 0xe0, 0x0d, 0x3e,
    0x44, 0x9c, 0xad, 0xbd, 0x1c, 0xd7, 0x84, 0xbe, 0x11, 0xc5, 0xf0, 0x3d,
    0x2f, 0x39, 0x09, 0x3f, 0x18, 0x88, 0xdc, 0x3e, 0x75, 0xd7, 0x98, 0x3e,
    0xe6, 0xf7, 0x4e, 0xbe, 0xac, 0x2a, 0x15, 0x3d, 0x6d, 0x77, 0x79, 0x3d,
    0x7c, 0x33, 0xe0, 0xbd, 0xe2, 0x35, 0xd7, 0xbe, 0x7e, 0x51, 0x91, 0xbd,
    0x02, 0x14, 0x8a, 0x3c, 0x9a, 0xe2, 0xf9, 0x3e, 0x0c, 0x20, 0x58, 0xbb,
    0xcb, 0xc7, 0x92, 0xbe, 0xdb, 0x54, 0xa9, 0x3d, 0xb0, 0x53, 0xa3, 0xbe,
    0xb4, 0x0a, 0x9b, 0xbe, 0x0b, 0xe6, 0x7c, 0x3e, 0x81, 0x7b, 0xb4, 0x3e,
    0x46, 0xc1, 0xe8, 0x3e, 0x4b, 0xd1, 0xaf, 0x3e, 0xb4, 0x23, 0x57, 0x3e,
    0x0e, 0xc1, 0xb4, 0xbe, 0x9f, 0x3a, 0x8e, 0xbe, 0x56, 0xfe, 0xff, 0xff,
    0x04, 0x00, 0x00, 0x00, 0x20, 0x00, 0x00, 0x00, 0xfb, 0xd5, 0x5e, 0x3e,
    0x45, 0x20, 0x9a, 0x3d, 0x04, 0x70, 0xbe, 0xbd, 0xa5, 0xda, 0x65, 0xbd,
    0x46, 0x4d, 0xef, 0x3c, 0xfc, 0x6a, 0x0e, 0xbd, 0x41, 0x27, 0x57, 0x3e,
    0x4b, 0x2c, 0xd5, 0x3c, 0x82, 0xfe, 0xff, 0xff, 0x04, 0x00, 0x00, 0x00,
    0x20, 0x00, 0x00, 0x00, 0x4a, 0xfd, 0x96, 0x3e, 0x24, 0xfe, 0x1e, 0xbc,
    0x04, 0xcd, 0x23, 0xbc, 0xe6, 0xce, 0x39, 0x3e, 0x88, 0x25, 0x0f, 0xbd,
    0x90, 0x99, 0x66, 0xbc, 0x4b, 0x44, 0x7f, 0xba, 0xf9, 0xc6, 0x01, 0xbd,
    0xae, 0xfe, 0xff, 0xff, 0x04, 0x00, 0x00, 0x00, 0x20, 0x00, 0x00, 0x00,
    0x2e, 0x2d, 0xbd, 0xbb, 0xf5, 0x6b, 0x01, 0x3d, 0xb2, 0x59, 0x31, 0xbd,
    0xa1, 0xfe, 0x40, 0x3c, 0xd3, 0x35, 0x5a, 0xbc, 0xcd, 0x15, 0x13, 0xbe,
    0x63, 0x2c, 0xdb, 0x3c, 0x63, 0x71, 0xf1, 0x3d, 0xda, 0xfe, 0xff, 0xff,
    0x04, 0x00, 0x00, 0x00, 0x20, 0x00, 0x00, 0x00, 0x5f, 0x82, 0x2f, 0xbe,
    0x00, 0x00, 0x00, 0x00, 0x1b, 0x1a, 0x37, 0xbd, 0x71, 0x6f, 0xc2, 0xbc,
    0x7d, 0x1e, 0xb7, 0xbb, 0x39, 0x7b, 0x82, 0x3e, 0xd6, 0x84, 0x02, 0x3e,
    0x38, 0xe8, 0x8a, 0xbd, 0x06, 0xff, 0xff, 0xff, 0x04, 0x00, 0x00, 0x00,
    0x20, 0x00, 0x00, 0x00, 0x6f, 0x72, 0xb3, 0xbc, 0x87, 0xf6, 0x93, 0xbd,
    0x7c, 0xe3, 0x25, 0xbb, 0x1a, 0x91, 0xc8, 0xbc, 0x74, 0x09, 0x74, 0x3e,
    0x97, 0x0c, 0xcc, 0xbd, 0xdf, 0xa5, 0x04, 0xbd, 0x3c, 0x27, 0x0f, 0xbd,
    0x32, 0xff, 0xff, 0xff, 0x04, 0x00, 0x00, 0x00, 0x20, 0x00, 0x00, 0x00,
    0x31, 0x9c, 0x20, 0xbe, 0xf1, 0x89, 0x37, 0x3d, 0xe9, 0x97, 0x61, 0xbe,
    0x16, 0x88, 0xc1, 0xbd, 0x3c, 0xe6, 0x9f, 0x3e, 0x45, 0xb6, 0x57, 0x3d,
    0x89, 0x9a, 0x1b, 0xbe, 0x62, 0xb4, 0x26, 0x3d, 0x20, 0xf6, 0xff, 0xff,
    0x24, 0xf6, 0xff, 0xff, 0x0f, 0x00, 0x00, 0x00, 0x4d, 0x4c, 0x49, 0x52,
    0x20, 0x43, 0x6f, 0x6e, 0x76, 0x65, 0x72, 0x74, 0x65, 0x64, 0x2e, 0x00,
    0x01, 0x00, 0x00, 0x00, 0x14, 0x00, 0x00, 0x00, 0x00, 0x00, 0x0e, 0x00,
    0x18, 0x00, 0x14, 0x00, 0x10, 0x00, 0x0c, 0x00, 0x08, 0x00, 0x04, 0x00,
    0x0e, 0x00, 0x00, 0x00, 0x14, 0x00, 0x00, 0x00, 0x1c, 0x00, 0x00, 0x00,
    0xcc, 0x01, 0x00, 0x00, 0xd0, 0x01, 0x00, 0x00, 0xd4, 0x01, 0x00, 0x00,
    0x04, 0x00, 0x00, 0x00, 0x6d, 0x61, 0x69, 0x6e, 0x00, 0x00, 0x00, 0x00,
    0x07, 0x00, 0x00, 0x00, 0x74, 0x01, 0x00, 0x00, 0x2c, 0x01, 0x00, 0x00,
    0xf4, 0x00, 0x00, 0x00, 0xbc, 0x00, 0x00, 0x00, 0x84, 0x00, 0x00, 0x00,
    0x50, 0x00, 0x00, 0x00, 0x14, 0x00, 0x00, 0x00, 0x00, 0x00, 0x0e, 0x00,
    0x1a, 0x00, 0x14, 0x00, 0x10, 0x00, 0x0c, 0x00, 0x0b, 0x00, 0x04, 0x00,
    0x0e, 0x00, 0x00, 0x00, 0x1c, 0x00, 0x00, 0x00, 0x00, 0x00, 0x00, 0x09,
    0x1c, 0x00, 0x00, 0x00, 0x20, 0x00, 0x00, 0x00, 0x01, 0x00, 0x00, 0x00,
    0x00, 0x00, 0x06, 0x00, 0x08, 0x00, 0x04, 0x00, 0x06, 0x00, 0x00, 0x00,
    0x00, 0x00, 0x80, 0x3f, 0x01, 0x00, 0x00, 0x00, 0x13, 0x00, 0x00, 0x00,
    0x01, 0x00, 0x00, 0x00, 0x12, 0x00, 0x00, 0x00, 0xfe, 0xfe, 0xff, 0xff,
    0x10, 0x00, 0x00, 0x00, 0x00, 0x00, 0x00, 0x08, 0x0c, 0x00, 0x00, 0x00,
    0x10, 0x00, 0x00, 0x00, 0xf4, 0xf6, 0xff, 0xff, 0x01, 0x00, 0x00, 0x00,
    0x12, 0x00, 0x00, 0x00, 0x03, 0x00, 0x00, 0x00, 0x11, 0x00, 0x00, 0x00,
    0x0c, 0x00, 0x00, 0x00, 0x01, 0x00, 0x00, 0x00, 0x2e, 0xff, 0xff, 0xff,
    0x10, 0x00, 0x00, 0x00, 0x00, 0x00, 0x00, 0x08, 0x10, 0x00, 0x00, 0x00,
    0x14, 0x00, 0x00, 0x00, 0x1e, 0xff, 0xff, 0xff, 0x00, 0x00, 0x00, 0x01,
    0x01, 0x00, 0x00, 0x00, 0x11, 0x00, 0x00, 0x00, 0x03, 0x00, 0x00, 0x00,
    0x10, 0x00, 0x00, 0x00, 0x0b, 0x00, 0x00, 0x00, 0x02, 0x00, 0x00, 0x00,
    0x62, 0xff, 0xff, 0xff, 0x10, 0x00, 0x00, 0x00, 0x00, 0x00, 0x00, 0x08,
    0x10, 0x00, 0x00, 0x00, 0x14, 0x00, 0x00, 0x00, 0x52, 0xff, 0xff, 0xff,
    0x00, 0x00, 0x00, 0x01, 0x01, 0x00, 0x00, 0x00, 0x10, 0x00, 0x00, 0x00,
    0x03, 0x00, 0x00, 0x00, 0x0f, 0x00, 0x00, 0x00, 0x0a, 0x00, 0x00, 0x00,
    0x03, 0x00, 0x00, 0x00, 0x96, 0xff, 0xff, 0xff, 0x10, 0x00, 0x00, 0x00,
    0x00, 0x00, 0x00, 0x08, 0x10, 0x00, 0x00, 0x00, 0x14, 0x00, 0x00, 0x00,
    0x86, 0xff, 0xff, 0xff, 0x00, 0x00, 0x00, 0x01, 0x01, 0x00, 0x00, 0x00,
    0x0f, 0x00, 0x00, 0x00, 0x03, 0x00, 0x00, 0x00, 0x0e, 0x00, 0x00, 0x00,
    0x09, 0x00, 0x00, 0x00, 0x04, 0x00, 0x00, 0x00, 0xca, 0xff, 0xff, 0xff,
    0x10, 0x00, 0x00, 0x00, 0x00, 0x00, 0x00, 0x08, 0x10, 0x00, 0x00, 0x00,
    0x14, 0x00, 0x00, 0x00, 0xba, 0xff, 0xff, 0xff, 0x00, 0x00, 0x00, 0x01,
    0x01, 0x00, 0x00, 0x00, 0x0e, 0x00, 0x00, 0x00, 0x03, 0x00, 0x00, 0x00,
    0x0d, 0x00, 0x00, 0x00, 0x08, 0x00, 0x00, 0x00, 0x05, 0x00, 0x00, 0x00,
    0x00, 0x00, 0x0e, 0x00, 0x16, 0x00, 0x00, 0x00, 0x10, 0x00, 0x0c, 0x00,
    0x0b, 0x00, 0x04, 0x00, 0x0e, 0x00, 0x00, 0x00, 0x18, 0x00, 0x00, 0x00,
    0x00, 0x00, 0x00, 0x08, 0x18, 0x00, 0x00, 0x00, 0x1c, 0x00, 0x00, 0x00,
    0x00, 0x00, 0x06, 0x00, 0x08, 0x00, 0x07, 0x00, 0x06, 0x00, 0x00, 0x00,
    0x00, 0x00, 0x00, 0x01, 0x01, 0x00, 0x00, 0x00, 0x0d, 0x00, 0x00, 0x00,
    0x03, 0x00, 0x00, 0x00, 0x00, 0x00, 0x00, 0x00, 0x07, 0x00, 0x00, 0x00,
    0x06, 0x00, 0x00, 0x00, 0x01, 0x00, 0x00, 0x00, 0x13, 0x00, 0x00, 0x00,
    0x01, 0x00, 0x00, 0x00, 0x00, 0x00, 0x00, 0x00, 0x14, 0x00, 0x00, 0x00,
    0x98, 0x07, 0x00, 0x00, 0x28, 0x07, 0x00, 0x00, 0xb8, 0x06, 0x00, 0x00,
    0x60, 0x06, 0x00, 0x00, 0x08, 0x06, 0x00, 0x00, 0xb0, 0x05, 0x00, 0x00,
    0x58, 0x05, 0x00, 0x00, 0x0c, 0x05, 0x00, 0x00, 0xc0, 0x04, 0x00, 0x00,
    0x74, 0x04, 0x00, 0x00, 0x28, 0x04, 0x00, 0x00, 0xdc, 0x03, 0x00, 0x00,
    0x90, 0x03, 0x00, 0x00, 0x04, 0x03, 0x00, 0x00, 0x78, 0x02, 0x00, 0x00,
    0xec, 0x01, 0x00, 0x00, 0x60, 0x01, 0x00, 0x00, 0xd4, 0x00, 0x00, 0x00,
    0x60, 0x00, 0x00, 0x00, 0x04, 0x00, 0x00, 0x00, 0xce, 0xf8, 0xff, 0xff,
    0x00, 0x00, 0x00, 0x01, 0x14, 0x00, 0x00, 0x00, 0x1c, 0x00, 0x00, 0x00,
    0x1c, 0x00, 0x00, 0x00, 0x14, 0x00, 0x00, 0x00, 0x34, 0x00, 0x00, 0x00,
    0x02, 0x00, 0x00, 0x00, 0xff, 0xff, 0xff, 0xff, 0x08, 0x00, 0x00, 0x00,
    0xb8, 0xf8, 0xff, 0xff, 0x19, 0x00, 0x00, 0x00, 0x53, 0x74, 0x61, 0x74,
    0x65, 0x66, 0x75, 0x6c, 0x50, 0x61, 0x72, 0x74, 0x69, 0x74, 0x69, 0x6f,
    0x6e, 0x65, 0x64, 0x43, 0x61, 0x6c, 0x6c, 0x3a, 0x30, 0x00, 0x00, 0x00,
    0x02, 0x00, 0x00, 0x00, 0x01, 0x00, 0x00, 0x00, 0x08, 0x00, 0x00, 0x00,
    0x26, 0xf9, 0xff, 0xff, 0x00, 0x00, 0x00, 0x01, 0x14, 0x00, 0x00, 0x00,
    0x1c, 0x00, 0x00, 0x00, 0x1c, 0x00, 0x00, 0x00, 0x13, 0x00, 0x00, 0x00,
    0x4c, 0x00, 0x00, 0x00, 0x02, 0x00, 0x00, 0x00, 0xff, 0xff, 0xff, 0xff,
    0x08, 0x00, 0x00, 0x00, 0x10, 0xf9, 0xff, 0xff, 0x32, 0x00, 0x00, 0x00,
    0x6c, 0x77, 0x38, 0x5f, 0x6d, 0x64, 0x34, 0x2f, 0x64, 0x65, 0x6e, 0x73,
    0x65, 0x5f, 0x31, 0x35, 0x30, 0x2f, 0x4d, 0x61, 0x74, 0x4d, 0x75, 0x6c,
    0x3b, 0x6c, 0x77, 0x38, 0x5f, 0x6d, 0x64, 0x34, 0x2f, 0x64, 0x65, 0x6e,
    0x73, 0x65, 0x5f, 0x31, 0x35, 0x30, 0x2f, 0x42, 0x69, 0x61, 0x73, 0x41,
    0x64, 0x64, 0x00, 0x00, 0x02, 0x00, 0x00, 0x00, 0x01, 0x00, 0x00, 0x00,
    0x08, 0x00, 0x00, 0x00, 0x96, 0xf9, 0xff, 0xff, 0x00, 0x00, 0x00, 0x01,
    0x14, 0x00, 0x00, 0x00, 0x1c, 0x00, 0x00, 0x00, 0x1c, 0x00, 0x00, 0x00,
    0x12, 0x00, 0x00, 0x00, 0x64, 0x00, 0x00, 0x00, 0x02, 0x00, 0x00, 0x00,
    0xff, 0xff, 0xff, 0xff, 0x08, 0x00, 0x00, 0x00, 0x80, 0xf9, 0xff, 0xff,
    0x49, 0x00, 0x00, 0x00, 0x6c, 0x77, 0x38, 0x5f, 0x6d, 0x64, 0x34, 0x2f,
    0x64, 0x65, 0x6e, 0x73, 0x65, 0x5f, 0x31, 0x34, 0x39, 0x2f, 0x4d, 0x61,
    0x74, 0x4d, 0x75, 0x6c, 0x3b, 0x6c, 0x77, 0x38, 0x5f, 0x6d, 0x64, 0x34,
    0x2f, 0x64, 0x65, 0x6e, 0x73, 0x65, 0x5f, 0x31, 0x34, 0x39, 0x2f, 0x52,
    0x65, 0x6c, 0x75, 0x3b, 0x6c, 0x77, 0x38, 0x5f, 0x6d, 0x64, 0x34, 0x2f,
    0x64, 0x65, 0x6e, 0x73, 0x65, 0x5f, 0x31, 0x34, 0x39, 0x2f, 0x42, 0x69,
    0x61, 0x73, 0x41, 0x64, 0x64, 0x00, 0x00, 0x00, 0x02, 0x00, 0x00, 0x00,
    0x01, 0x00, 0x00, 0x00, 0x08, 0x00, 0x00, 0x00, 0x1e, 0xfa, 0xff, 0xff,
    0x00, 0x00, 0x00, 0x01, 0x14, 0x00, 0x00, 0x00, 0x1c, 0x00, 0x00, 0x00,
    0x1c, 0x00, 0x00, 0x00, 0x11, 0x00, 0x00, 0x00, 0x64, 0x00, 0x00, 0x00,
    0x02, 0x00, 0x00, 0x00, 0xff, 0xff, 0xff, 0xff, 0x08, 0x00, 0x00, 0x00,
    0x08, 0xfa, 0xff, 0xff, 0x49, 0x00, 0x00, 0x00, 0x6c, 0x77, 0x38, 0x5f,
    0x6d, 0x64, 0x34, 0x2f, 0x64, 0x65, 0x6e, 0x73, 0x65, 0x5f, 0x31, 0x34,
    0x38, 0x2f, 0x4d, 0x61, 0x74, 0x4d, 0x75, 0x6c, 0x3b, 0x6c, 0x77, 0x38,
    0x5f, 0x6d, 0x64, 0x34, 0x2f, 0x64, 0x65, 0x6e, 0x73, 0x65, 0x5f, 0x31,
    0x34, 0x38, 0x2f, 0x52, 0x65, 0x6c, 0x75, 0x3b, 0x6c, 0x77, 0x38, 0x5f,
    0x6d, 0x64, 0x34, 0x2f, 0x64, 0x65, 0x6e, 0x73, 0x65, 0x5f, 0x31, 0x34,
    0x38, 0x2f, 0x42, 0x69, 0x61, 0x73, 0x41, 0x64, 0x64, 0x00, 0x00, 0x00,
    0x02, 0x00, 0x00, 0x00, 0x01, 0x00, 0x00, 0x00, 0x08, 0x00, 0x00, 0x00,
    0xa6, 0xfa, 0xff, 0xff, 0x00, 0x00, 0x00, 0x01, 0x14, 0x00, 0x00, 0x00,
    0x1c, 0x00, 0x00, 0x00, 0x1c, 0x00, 0x00, 0x00, 0x10, 0x00, 0x00, 0x00,
    0x64, 0x00, 0x00, 0x00, 0x02, 0x00, 0x00, 0x00, 0xff, 0xff, 0xff, 0xff,
    0x08, 0x00, 0x00, 0x00, 0x90, 0xfa, 0xff, 0xff, 0x49, 0x00, 0x00, 0x00,
    0x6c, 0x77, 0x38, 0x5f, 0x6d, 0x64, 0x34, 0x2f, 0x64, 0x65, 0x6e, 0x73,
    0x65, 0x5f, 0x31, 0x34, 0x37, 0x2f, 0x4d, 0x61, 0x74, 0x4d, 0x75, 0x6c,
    0x3b, 0x6c, 0x77, 0x38, 0x5f, 0x6d, 0x64, 0x34, 0x2f, 0x64, 0x65, 0x6e,
    0x73, 0x65, 0x5f, 0x31, 0x34, 0x37, 0x2f, 0x52, 0x65, 0x6c, 0x75, 0x3b,
    0x6c, 0x77, 0x38, 0x5f, 0x6d, 0x64, 0x34, 0x2f, 0x64, 0x65, 0x6e, 0x73,
    0x65, 0x5f, 0x31, 0x34, 0x37, 0x2f, 0x42, 0x69, 0x61, 0x73, 0x41, 0x64,
    0x64, 0x00, 0x00, 0x00, 0x02, 0x00, 0x00, 0x00, 0x01, 0x00, 0x00, 0x00,
    0x08, 0x00, 0x00, 0x00, 0x2e, 0xfb, 0xff, 0xff, 0x00, 0x00, 0x00, 0x01,
    0x14, 0x00, 0x00, 0x00, 0x1c, 0x00, 0x00, 0x00, 0x1c, 0x00, 0x00, 0x00,
    0x0f, 0x00, 0x00, 0x00, 0x64, 0x00, 0x00, 0x00, 0x02, 0x00, 0x00, 0x00,
    0xff, 0xff, 0xff, 0xff, 0x08, 0x00, 0x00, 0x00, 0x18, 0xfb, 0xff, 0xff,
    0x49, 0x00, 0x00, 0x00, 0x6c, 0x77, 0x38, 0x5f, 0x6d, 0x64, 0x34, 0x2f,
    0x64, 0x65, 0x6e, 0x73, 0x65, 0x5f, 0x31, 0x34, 0x36, 0x2f, 0x4d, 0x61,
    0x74, 0x4d, 0x75, 0x6c, 0x3b, 0x6c, 0x77, 0x38, 0x5f, 0x6d, 0x64, 0x34,
    0x2f, 0x64, 0x65, 0x6e, 0x73, 0x65, 0x5f, 0x31, 0x34, 0x36, 0x2f, 0x52,
    0x65, 0x6c, 0x75, 0x3b, 0x6c, 0x77, 0x38, 0x5f, 0x6d, 0x64, 0x34, 0x2f,
    0x64, 0x65, 0x6e, 0x73, 0x65, 0x5f, 0x31, 0x34, 0x36, 0x2f, 0x42, 0x69,
    0x61, 0x73, 0x41, 0x64, 0x64, 0x00, 0x00, 0x00, 0x02, 0x00, 0x00, 0x00,
    0x01, 0x00, 0x00, 0x00, 0x08, 0x00, 0x00, 0x00, 0xb6, 0xfb, 0xff, 0xff,
    0x00, 0x00, 0x00, 0x01, 0x14, 0x00, 0x00, 0x00, 0x1c, 0x00, 0x00, 0x00,
    0x1c, 0x00, 0x00, 0x00, 0x0e, 0x00, 0x00, 0x00, 0x64, 0x00, 0x00, 0x00,
    0x02, 0x00, 0x00, 0x00, 0xff, 0xff, 0xff, 0xff, 0x08, 0x00, 0x00, 0x00,
    0xa0, 0xfb, 0xff, 0xff, 0x49, 0x00, 0x00, 0x00, 0x6c, 0x77, 0x38, 0x5f,
    0x6d, 0x64, 0x34, 0x2f, 0x64, 0x65, 0x6e, 0x73, 0x65, 0x5f, 0x31, 0x34,
    0x35, 0x2f, 0x4d, 0x61, 0x74, 0x4d, 0x75, 0x6c, 0x3b, 0x6c, 0x77, 0x38,
    0x5f, 0x6d, 0x64, 0x34, 0x2f, 0x64, 0x65, 0x6e, 0x73, 0x65, 0x5f, 0x31,
    0x34, 0x35, 0x2f, 0x52, 0x65, 0x6c, 0x75, 0x3b, 0x6c, 0x77, 0x38, 0x5f,
    0x6d, 0x64, 0x34, 0x2f, 0x64, 0x65, 0x6e, 0x73, 0x65, 0x5f, 0x31, 0x34,
    0x35, 0x2f, 0x42, 0x69, 0x61, 0x73, 0x41, 0x64, 0x64, 0x00, 0x00, 0x00,
    0x02, 0x00, 0x00, 0x00, 0x01, 0x00, 0x00, 0x00, 0x08, 0x00, 0x00, 0x00,
    0xaa, 0xfc, 0xff, 0xff, 0x00, 0x00, 0x00, 0x01, 0x10, 0x00, 0x00, 0x00,
    0x10, 0x00, 0x00, 0x00, 0x0d, 0x00, 0x00, 0x00, 0x28, 0x00, 0x00, 0x00,
    0x18, 0xfc, 0xff, 0xff, 0x18, 0x00, 0x00, 0x00, 0x6c, 0x77, 0x38, 0x5f,
    0x6d, 0x64, 0x34, 0x2f, 0x64, 0x65, 0x6e, 0x73, 0x65, 0x5f, 0x31, 0x35,
    0x30, 0x2f, 0x4d, 0x61, 0x74, 0x4d, 0x75, 0x6c, 0x00, 0x00, 0x00, 0x00,
    0x02, 0x00, 0x00, 0x00, 0x08, 0x00, 0x00, 0x00, 0x08, 0x00, 0x00, 0x00,
    0xf2, 0xfc, 0xff, 0xff, 0x00, 0x00, 0x00, 0x01, 0x10, 0x00, 0x00, 0x00,
    0x10, 0x00, 0x00, 0x00, 0x0c, 0x00, 0x00, 0x00, 0x28, 0x00, 0x00, 0x00,
    0x60, 0xfc, 0xff, 0xff, 0x18, 0x00, 0x00, 0x00, 0x6c, 0x77, 0x38, 0x5f,
    0x6d, 0x64, 0x34, 0x2f, 0x64, 0x65, 0x6e, 0x73, 0x65, 0x5f, 0x31, 0x34,
    0x39, 0x2f, 0x4d, 0x61, 0x74, 0x4d, 0x75, 0x6c, 0x00, 0x00, 0x00, 0x00,
    0x02, 0x00, 0x00, 0x00, 0x08, 0x00, 0x00, 0x00, 0x08, 0x00, 0x00, 0x00,
    0x3a, 0xfd, 0xff, 0xff, 0x00, 0x00, 0x00, 0x01, 0x10, 0x00, 0x00, 0x00,
    0x10, 0x00, 0x00, 0x00, 0x0b, 0x00, 0x00, 0x00, 0x28, 0x00, 0x00, 0x00,
    0xa8, 0xfc, 0xff, 0xff, 0x18, 0x00, 0x00, 0x00, 0x6c, 0x77, 0x38, 0x5f,
    0x6d, 0x64, 0x34, 0x2f, 0x64, 0x65, 0x6e, 0x73, 0x65, 0x5f, 0x31, 0x34,
    0x38, 0x2f, 0x4d, 0x61, 0x74, 0x4d, 0x75, 0x6c, 0x00, 0x00, 0x00, 0x00,
    0x02, 0x00, 0x00, 0x00, 0x08, 0x00, 0x00, 0x00, 0x08, 0x00, 0x00, 0x00,
    0x82, 0xfd, 0xff, 0xff, 0x00, 0x00, 0x00, 0x01, 0x10, 0x00, 0x00, 0x00,
    0x10, 0x00, 0x00, 0x00, 0x0a, 0x00, 0x00, 0x00, 0x28, 0x00, 0x00, 0x00,
    0xf0, 0xfc, 0xff, 0xff, 0x18, 0x00, 0x00, 0x00, 0x6c, 0x77, 0x38, 0x5f,
    0x6d, 0x64, 0x34, 0x2f, 0x64, 0x65, 0x6e, 0x73, 0x65, 0x5f, 0x31, 0x34,
    0x37, 0x2f, 0x4d, 0x61, 0x74, 0x4d, 0x75, 0x6c, 0x00, 0x00, 0x00, 0x00,
    0x02, 0x00, 0x00, 0x00, 0x08, 0x00, 0x00, 0x00, 0x08, 0x00, 0x00, 0x00,
    0xca, 0xfd, 0xff, 0xff, 0x00, 0x00, 0x00, 0x01, 0x10, 0x00, 0x00, 0x00,
    0x10, 0x00, 0x00, 0x00, 0x09, 0x00, 0x00, 0x00, 0x28, 0x00, 0x00, 0x00,
    0x38, 0xfd, 0xff, 0xff, 0x18, 0x00, 0x00, 0x00, 0x6c, 0x77, 0x38, 0x5f,
    0x6d, 0x64, 0x34, 0x2f, 0x64, 0x65, 0x6e, 0x73, 0x65, 0x5f, 0x31, 0x34,
    0x36, 0x2f, 0x4d, 0x61, 0x74, 0x4d, 0x75, 0x6c, 0x00, 0x00, 0x00, 0x00,
    0x02, 0x00, 0x00, 0x00, 0x08, 0x00, 0x00, 0x00, 0x08, 0x00, 0x00, 0x00,
    0x12, 0xfe, 0xff, 0xff, 0x00, 0x00, 0x00, 0x01, 0x10, 0x00, 0x00, 0x00,
    0x10, 0x00, 0x00, 0x00, 0x08, 0x00, 0x00, 0x00, 0x28, 0x00, 0x00, 0x00,
    0x80, 0xfd, 0xff, 0xff, 0x18, 0x00, 0x00, 0x00, 0x6c, 0x77, 0x38, 0x5f,
    0x6d, 0x64, 0x34, 0x2f, 0x64, 0x65, 0x6e, 0x73, 0x65, 0x5f, 0x31, 0x34,
    0x35, 0x2f, 0x4d, 0x61, 0x74, 0x4d, 0x75, 0x6c, 0x00, 0x00, 0x00, 0x00,
    0x02, 0x00, 0x00, 0x00, 0x08, 0x00, 0x00, 0x00, 0x0f, 0x00, 0x00, 0x00,
    0x5a, 0xfe, 0xff, 0xff, 0x00, 0x00, 0x00, 0x01, 0x10, 0x00, 0x00, 0x00,
    0x10, 0x00, 0x00, 0x00, 0x07, 0x00, 0x00, 0x00, 0x38, 0x00, 0x00, 0x00,
    0xc8, 0xfd, 0xff, 0xff, 0x28, 0x00, 0x00, 0x00, 0x6c, 0x77, 0x38, 0x5f,
    0x6d, 0x64, 0x34, 0x2f, 0x64, 0x65, 0x6e, 0x73, 0x65, 0x5f, 0x31, 0x34,
    0x35, 0x2f, 0x42, 0x69, 0x61, 0x73, 0x41, 0x64, 0x64, 0x2f, 0x52, 0x65,
    0x61, 0x64, 0x56, 0x61, 0x72, 0x69, 0x61, 0x62, 0x6c, 0x65, 0x4f, 0x70,
    0x00, 0x00, 0x00, 0x00, 0x01, 0x00, 0x00, 0x00, 0x08, 0x00, 0x00, 0x00,
    0xae, 0xfe, 0xff, 0xff, 0x00, 0x00, 0x00, 0x01, 0x10, 0x00, 0x00, 0x00,
    0x10, 0x00, 0x00, 0x00, 0x06, 0x00, 0x00, 0x00, 0x38, 0x00, 0x00, 0x00,
    0x1c, 0xfe, 0xff, 0xff, 0x28, 0x00, 0x00, 0x00, 0x6c, 0x77, 0x38, 0x5f,
    0x6d, 0x64, 0x34, 0x2f, 0x64, 0x65, 0x6e, 0x73, 0x65, 0x5f, 0x31, 0x34,
    0x36, 0x2f, 0x42, 0x69, 0x61, 0x73, 0x41, 0x64, 0x64, 0x2f, 0x52, 0x65,
    0x61, 0x64, 0x56, 0x61, 0x72, 0x69, 0x61, 0x62, 0x6c, 0x65, 0x4f, 0x70,
    0x00, 0x00, 0x00, 0x00, 0x01, 0x00, 0x00, 0x00, 0x08, 0x00, 0x00, 0x00,
    0x02, 0xff, 0xff, 0xff, 0x00, 0x00, 0x00, 0x01, 0x10, 0x00, 0x00, 0x00,
    0x10, 0x00, 0x00, 0x00, 0x05, 0x00, 0x00, 0x00, 0x38, 0x00, 0x00, 0x00,
    0x70, 0xfe, 0xff, 0xff, 0x28, 0x00, 0x00, 0x00, 0x6c, 0x77, 0x38, 0x5f,
    0x6d, 0x64, 0x34, 0x2f, 0x64, 0x65, 0x6e, 0x73, 0x65, 0x5f, 0x31, 0x34,
    0x37, 0x2f, 0x42, 0x69, 0x61, 0x73, 0x41, 0x64, 0x64, 0x2f, 0x52, 0x65,
    0x61, 0x64, 0x56, 0x61, 0x72, 0x69, 0x61, 0x62, 0x6c, 0x65, 0x4f, 0x70,
    0x00, 0x00, 0x00, 0x00, 0x01, 0x00, 0x00, 0x00, 0x08, 0x00, 0x00, 0x00,
    0x56, 0xff, 0xff, 0xff, 0x00, 0x00, 0x00, 0x01, 0x10, 0x00, 0x00, 0x00,
    0x10, 0x00, 0x00, 0x00, 0x04, 0x00, 0x00, 0x00, 0x38, 0x00, 0x00, 0x00,
    0xc4, 0xfe, 0xff, 0xff, 0x28, 0x00, 0x00, 0x00, 0x6c, 0x77, 0x38, 0x5f,
    0x6d, 0x64, 0x34, 0x2f, 0x64, 0x65, 0x6e, 0x73, 0x65, 0x5f, 0x31, 0x34,
    0x38, 0x2f, 0x42, 0x69, 0x61, 0x73, 0x41, 0x64, 0x64, 0x2f, 0x52, 0x65,
    0x61, 0x64, 0x56, 0x61, 0x72, 0x69, 0x61, 0x62, 0x6c, 0x65, 0x4f, 0x70,
    0x00, 0x00, 0x00, 0x00, 0x01, 0x00, 0x00, 0x00, 0x08, 0x00, 0x00, 0x00,
    0xaa, 0xff, 0xff, 0xff, 0x00, 0x00, 0x00, 0x01, 0x10, 0x00, 0x00, 0x00,
    0x10, 0x00, 0x00, 0x00, 0x03, 0x00, 0x00, 0x00, 0x38, 0x00, 0x00, 0x00,
    0x18, 0xff, 0xff, 0xff, 0x28, 0x00, 0x00, 0x00, 0x6c, 0x77, 0x38, 0x5f,
    0x6d, 0x64, 0x34, 0x2f, 0x64, 0x65, 0x6e, 0x73, 0x65, 0x5f, 0x31, 0x34,
    0x39, 0x2f, 0x42, 0x69, 0x61, 0x73, 0x41, 0x64, 0x64, 0x2f, 0x52, 0x65,
    0x61, 0x64, 0x56, 0x61, 0x72, 0x69, 0x61, 0x62, 0x6c, 0x65, 0x4f, 0x70,
    0x00, 0x00, 0x00, 0x00, 0x01, 0x00, 0x00, 0x00, 0x08, 0x00, 0x00, 0x00,
    0x00, 0x00, 0x16, 0x00, 0x18, 0x00, 0x14, 0x00, 0x00, 0x00, 0x10, 0x00,
    0x0c, 0x00, 0x08, 0x00, 0x00, 0x00, 0x00, 0x00, 0x00, 0x00, 0x07, 0x00,
    0x16, 0x00, 0x00, 0x00, 0x00, 0x00, 0x00, 0x01, 0x10, 0x00, 0x00, 0x00,
    0x10, 0x00, 0x00, 0x00, 0x02, 0x00, 0x00, 0x00, 0x38, 0x00, 0x00, 0x00,
    0x84, 0xff, 0xff, 0xff, 0x28, 0x00, 0x00, 0x00, 0x6c, 0x77, 0x38, 0x5f,
    0x6d, 0x64, 0x34, 0x2f, 0x64, 0x65, 0x6e, 0x73, 0x65, 0x5f, 0x31, 0x35,
    0x30, 0x2f, 0x42, 0x69, 0x61, 0x73, 0x41, 0x64, 0x64, 0x2f, 0x52, 0x65,
    0x61, 0x64, 0x56, 0x61, 0x72, 0x69, 0x61, 0x62, 0x6c, 0x65, 0x4f, 0x70,
    0x00, 0x00, 0x00, 0x00, 0x01, 0x00, 0x00, 0x00, 0x08, 0x00, 0x00, 0x00,
    0x00, 0x00, 0x16, 0x00, 0x1c, 0x00, 0x18, 0x00, 0x00, 0x00, 0x14, 0x00,
    0x10, 0x00, 0x0c, 0x00, 0x00, 0x00, 0x00, 0x00, 0x08, 0x00, 0x07, 0x00,
    0x16, 0x00, 0x00, 0x00, 0x00, 0x00, 0x00, 0x01, 0x14, 0x00, 0x00, 0x00,
    0x20, 0x00, 0x00, 0x00, 0x20, 0x00, 0x00, 0x00, 0x01, 0x00, 0x00, 0x00,
    0x40, 0x00, 0x00, 0x00, 0x02, 0x00, 0x00, 0x00, 0xff, 0xff, 0xff, 0xff,
    0x0f, 0x00, 0x00, 0x00, 0x04, 0x00, 0x04, 0x00, 0x04, 0x00, 0x00, 0x00,
    0x21, 0x00, 0x00, 0x00, 0x73, 0x65, 0x72, 0x76, 0x69, 0x6e, 0x67, 0x5f,
    0x64, 0x65, 0x66, 0x61, 0x75, 0x6c, 0x74, 0x5f, 0x64, 0x65, 0x6e, 0x73,
    0x65, 0x5f, 0x31, 0x34, 0x35, 0x5f, 0x69, 0x6e, 0x70, 0x75, 0x74, 0x3a,
    0x30, 0x00, 0x00, 0x00, 0x02, 0x00, 0x00, 0x00, 0x01, 0x00, 0x00, 0x00,
    0x0f, 0x00, 0x00, 0x00, 0x02, 0x00, 0x00, 0x00, 0x20, 0x00, 0x00, 0x00,
    0x04, 0x00, 0x00, 0x00, 0xf4, 0xff, 0xff, 0xff, 0x19, 0x00, 0x00, 0x00,
    0x00, 0x00, 0x00, 0x19, 0x0c, 0x00, 0x0c, 0x00, 0x0b, 0x00, 0x00, 0x00,
    0x00, 0x00, 0x04, 0x00, 0x0c, 0x00, 0x00, 0x00, 0x09, 0x00, 0x00, 0x00,
    0x00, 0x00, 0x00, 0x09};
unsigned int lw8_md4_len = 5260;
