unsigned char hello_world_models_hello_world_float[] = {
    0x1c, 0x00, 0x00, 0x00, 0x54, 0x46, 0x4c, 0x33, 0x14, 0x00, 0x20, 0x00,
    0x1c, 0x00, 0x18, 0x00, 0x14, 0x00, 0x10, 0x00, 0x0c, 0x00, 0x00, 0x00,
    0x08, 0x00, 0x04, 0x00, 0x14, 0x00, 0x00, 0x00, 0x1c, 0x00, 0x00, 0x00,
    0x90, 0x00, 0x00, 0x00, 0xe8, 0x00, 0x00, 0x00, 0x9c, 0x1e, 0x00, 0x00,
    0xac, 0x1e, 0x00, 0x00, 0x68, 0x24, 0x00, 0x00, 0x03, 0x00, 0x00, 0x00,
    0x01, 0x00, 0x00, 0x00, 0x10, 0x00, 0x00, 0x00, 0x00, 0x00, 0x0a, 0x00,
    0x10, 0x00, 0x0c, 0x00, 0x08, 0x00, 0x04, 0x00, 0x0a, 0x00, 0x00, 0x00,
    0x0c, 0x00, 0x00, 0x00, 0x1c, 0x00, 0x00, 0x00, 0x38, 0x00, 0x00, 0x00,
    0x0f, 0x00, 0x00, 0x00, 0x73, 0x65, 0x72, 0x76, 0x69, 0x6e, 0x67, 0x5f,
    0x64, 0x65, 0x66, 0x61, 0x75, 0x6c, 0x74, 0x00, 0x01, 0x00, 0x00, 0x00,
    0x04, 0x00, 0x00, 0x00, 0x98, 0xff, 0xff, 0xff, 0x0a, 0x00, 0x00, 0x00,
    0x04, 0x00, 0x00, 0x00, 0x07, 0x00, 0x00, 0x00, 0x64, 0x65, 0x6e, 0x73,
    0x65, 0x5f, 0x32, 0x00, 0x01, 0x00, 0x00, 0x00, 0x04, 0x00, 0x00, 0x00,
    0x46, 0xe1, 0xff, 0xff, 0x04, 0x00, 0x00, 0x00, 0x0b, 0x00, 0x00, 0x00,
    0x64, 0x65, 0x6e, 0x73, 0x65, 0x5f, 0x69, 0x6e, 0x70, 0x75, 0x74, 0x00,
    0x02, 0x00, 0x00, 0x00, 0x34, 0x00, 0x00, 0x00, 0x04, 0x00, 0x00, 0x00,
    0xdc, 0xff, 0xff, 0xff, 0x0d, 0x00, 0x00, 0x00, 0x04, 0x00, 0x00, 0x00,
    0x13, 0x00, 0x00, 0x00, 0x43, 0x4f, 0x4e, 0x56, 0x45, 0x52, 0x53, 0x49,
    0x4f, 0x4e, 0x5f, 0x4d, 0x45, 0x54, 0x41, 0x44, 0x41, 0x54, 0x41, 0x00,
    0x08, 0x00, 0x0c, 0x00, 0x08, 0x00, 0x04, 0x00, 0x08, 0x00, 0x00, 0x00,
    0x0c, 0x00, 0x00, 0x00, 0x04, 0x00, 0x00, 0x00, 0x13, 0x00, 0x00, 0x00,
    0x6d, 0x69, 0x6e, 0x5f, 0x72, 0x75, 0x6e, 0x74, 0x69, 0x6d, 0x65, 0x5f,
    0x76, 0x65, 0x72, 0x73, 0x69, 0x6f, 0x6e, 0x00, 0x0e, 0x00, 0x00, 0x00,
    0xb0, 0x1d, 0x00, 0x00, 0xa8, 0x1d, 0x00, 0x00, 0x18, 0x1d, 0x00, 0x00,
    0xe8, 0x1c, 0x00, 0x00, 0x58, 0x1c, 0x00, 0x00, 0xc8, 0x14, 0x00, 0x00,
    0xb8, 0x04, 0x00, 0x00, 0xa8, 0x00, 0x00, 0x00, 0xa0, 0x00, 0x00, 0x00,
    0x98, 0x00, 0x00, 0x00, 0x90, 0x00, 0x00, 0x00, 0x88, 0x00, 0x00, 0x00,
    0x68, 0x00, 0x00, 0x00, 0x04, 0x00, 0x00, 0x00, 0xf6, 0xe1, 0xff, 0xff,
    0x04, 0x00, 0x00, 0x00, 0x54, 0x00, 0x00, 0x00, 0x0c, 0x00, 0x00, 0x00,
    0x08, 0x00, 0x0e, 0x00, 0x08, 0x00, 0x04, 0x00, 0x08, 0x00, 0x00, 0x00,
    0x10, 0x00, 0x00, 0x00, 0x24, 0x00, 0x00, 0x00, 0x00, 0x00, 0x06, 0x00,
    0x08, 0x00, 0x04, 0x00, 0x06, 0x00, 0x00, 0x00, 0x04, 0x00, 0x00, 0x00,
    0x00, 0x00, 0x00, 0x00, 0x00, 0x00, 0x0a, 0x00, 0x10, 0x00, 0x0c, 0x00,
    0x08, 0x00, 0x04, 0x00, 0x0a, 0x00, 0x00, 0x00, 0x02, 0x00, 0x00, 0x00,
    0x02, 0x00, 0x00, 0x00, 0x04, 0x00, 0x00, 0x00, 0x06, 0x00, 0x00, 0x00,
    0x32, 0x2e, 0x31, 0x34, 0x2e, 0x30, 0x00, 0x00, 0x56, 0xe2, 0xff, 0xff,
    0x04, 0x00, 0x00, 0x00, 0x10, 0x00, 0x00, 0x00, 0x31, 0x2e, 0x35, 0x2e,
    0x30, 0x00, 0x00, 0x00, 0x00, 0x00, 0x00, 0x00, 0x00, 0x00, 0x00, 0x00,
    0x64, 0xdd, 0xff, 0xff, 0x68, 0xdd, 0xff, 0xff, 0x6c, 0xdd, 0xff, 0xff,
    0x70, 0xdd, 0xff, 0xff, 0x82, 0xe2, 0xff, 0xff, 0x04, 0x00, 0x00, 0x00,
    0x00, 0x04, 0x00, 0x00, 0xd8, 0x25, 0xbe, 0x3e, 0xe9, 0x4b, 0x3b, 0xc0,
    0x97, 0x4a, 0xce, 0xbe, 0xea, 0xf1, 0x4f, 0xbe, 0x3f, 0x38, 0x3e, 0x3d,
    0x91, 0x6c, 0x36, 0x3e, 0x8e, 0xad, 0x3f, 0xbe, 0x4c, 0x14, 0x25, 0xbf,
    0x0e, 0x52, 0x3f, 0x3f, 0xb5, 0xe6, 0x88, 0xbe, 0x52, 0x60, 0x82, 0x3f,
    0x52, 0x87, 0xa9, 0xbe, 0x18, 0xb1, 0x82, 0x3e, 0xb9, 0xfc, 0xc3, 0x3e,
    0x99, 0xac, 0x7c, 0xc1, 0xc3, 0x24, 0x5c, 0xc0, 0x60, 0x3b, 0x69, 0x3f,
    0x84, 0xd0, 0x63, 0xbe, 0x63, 0x51, 0x2d, 0xc0, 0xec, 0x2c, 0x2d, 0x3f,
    0x19, 0x4a, 0x42, 0xbe, 0xb2, 0x69, 0x76, 0xbe, 0xe3, 0xd3, 0x02, 0x3d,
    0x6f, 0x92, 0x77, 0xbf, 0x5b, 0x15, 0xed, 0xbe, 0x42, 0xda, 0xe6, 0xbf,
    0x0b, 0x6c, 0x30, 0xbe, 0x2f, 0xe4, 0x28, 0xbf, 0x88, 0xbb, 0xd1, 0x3b,
    0x8f, 0x2e, 0x04, 0x3f, 0xb7, 0xc4, 0x52, 0x3e, 0x58, 0x51, 0x8e, 0xbe,
    0xc8, 0x40, 0x72, 0x3e, 0xaf, 0xd6, 0xcc, 0xbf, 0x3f, 0x87, 0x16, 0xc0,
    0xea, 0x70, 0x7f, 0x3d, 0x6a, 0x7a, 0xc7, 0x3f, 0xf4, 0xc9, 0xb8, 0xbf,
    0x7d, 0xaf, 0xb9, 0x3c, 0x42, 0xff, 0xc8, 0xbf, 0x3f, 0x3e, 0x68, 0xbe,
    0x57, 0x63, 0xf7, 0xbb, 0x6d, 0x96, 0x12, 0x3e, 0x05, 0x36, 0x03, 0x3f,
    0x60, 0x92, 0x74, 0xbc, 0xf8, 0x80, 0x36, 0x3f, 0x7d, 0x47, 0x71, 0x3e,
    0x88, 0x1f, 0x6f, 0xbf, 0xe0, 0x9b, 0xf6, 0xbf, 0xc2, 0x58, 0x2e, 0xbe,
    0xac, 0xb8, 0x35, 0x3f, 0xaa, 0xa1, 0xb2, 0x3e, 0x22, 0xfb, 0x47, 0x3e,
    0x64, 0x0b, 0xff, 0x3f, 0x63, 0xb3, 0x8f, 0xbe, 0xa4, 0x20, 0x90, 0xbe,
    0x71, 0x5d, 0x3e, 0x3f, 0x2b, 0x5c, 0xe6, 0x3f, 0xda, 0x9a, 0x20, 0x3f,
    0x24, 0x63, 0xf5, 0x3f, 0xa3, 0x95, 0x65, 0x3f, 0x23, 0x5f, 0xa4, 0x3e,
    0xda, 0xc8, 0xe1, 0xbf, 0x1e, 0xe4, 0x0b, 0x3f, 0x98, 0x2f, 0x5c, 0xbe,
    0xa3, 0x8e, 0xad, 0xbf, 0xa9, 0x18, 0x52, 0xbf, 0x9e, 0x09, 0x22, 0xbf,
    0xfe, 0x3f, 0x1a, 0x3f, 0x52, 0xdd, 0xa2, 0xbf, 0xc2, 0xec, 0x78, 0x3e,
    0x16, 0x18, 0x22, 0xbf, 0xcf, 0xcc, 0xaa, 0xbf, 0x0e, 0x27, 0x99, 0xbe,
    0x44, 0x12, 0x3c, 0xbf, 0xa6, 0x1a, 0x46, 0xbe, 0x33, 0x67, 0x5b, 0xbe,
    0xfc, 0x6a, 0xf6, 0x3d, 0x5e, 0xae, 0x71, 0x3f, 0x28, 0x83, 0x2a, 0x3f,
    0xbe, 0x9b, 0x32, 0xbe, 0xf7, 0x60, 0xc1, 0xbd, 0x2f, 0x63, 0x1e, 0x3e,
    0x93, 0x87, 0x58, 0xbf, 0x4e, 0xd4, 0xd7, 0xbe, 0x10, 0x57, 0x18, 0xbf,
    0xda, 0x77, 0x03, 0x3e, 0x73, 0x9b, 0x38, 0x3f, 0xe9, 0xb9, 0x1b, 0x3f,
    0x91, 0x59, 0x6c, 0x3f, 0x97, 0x06, 0x2b, 0x3f, 0x00, 0x46, 0x0a, 0x3f,
    0x72, 0x8b, 0xa7, 0x3e, 0x75, 0x6e, 0xf9, 0xbe, 0xe3, 0xf5, 0x21, 0x3f,
    0x39, 0x15, 0xad, 0x3e, 0x92, 0xfa, 0xb8, 0x3e, 0x71, 0x96, 0xe5, 0xbd,
    0xda, 0x57, 0x14, 0x3f, 0xd9, 0xce, 0xb5, 0xbf, 0x17, 0xb6, 0xbf, 0xbc,
    0x72, 0x04, 0x8a, 0x3f, 0x36, 0x72, 0xb1, 0x3c, 0xe7, 0x06, 0x79, 0x3d,
    0x47, 0xc2, 0xe4, 0x3d, 0xa2, 0x98, 0x3b, 0xbf, 0x74, 0xe9, 0x23, 0x3f,
    0xe9, 0xda, 0x54, 0xbe, 0xd9, 0x0a, 0x52, 0x3e, 0xbd, 0xb4, 0xf3, 0xbf,
    0x0e, 0xd1, 0x54, 0xbf, 0x43, 0x04, 0x32, 0x3e, 0x1b, 0x0f, 0x24, 0x3e,
    0xd9, 0x23, 0x94, 0x3e, 0x1e, 0xd5, 0x7c, 0x3f, 0xf0, 0x3b, 0x7b, 0xbe,
    0xdc, 0xe7, 0x17, 0x3f, 0x7e, 0xa3, 0x0a, 0xc0, 0x4c, 0x89, 0x47, 0x3e,
    0x32, 0xb2, 0x3c, 0x3d, 0x2d, 0xb5, 0x18, 0xbf, 0xfa, 0xbf, 0x99, 0x3f,
    0x6d, 0x7e, 0x18, 0xbe, 0xf0, 0x22, 0x12, 0xbf, 0xcf, 0x16, 0x62, 0xbf,
    0x98, 0xf2, 0xdb, 0xbb, 0xe5, 0x85, 0x77, 0x3f, 0xae, 0x0f, 0x3a, 0x3f,
    0xca, 0xa8, 0x5b, 0xbe, 0x63, 0x4e, 0x58, 0x3f, 0x14, 0x5a, 0xba, 0x3e,
    0x27, 0x9c, 0xc4, 0xbf, 0x22, 0x97, 0xa0, 0xbf, 0x45, 0xc3, 0x33, 0x3f,
    0x87, 0x83, 0x77, 0xbc, 0xb2, 0xd2, 0xdb, 0xbe, 0xef, 0xb9, 0x3e, 0x3f,
    0x86, 0xbf, 0x44, 0x3e, 0xae, 0x40, 0xbb, 0x3e, 0xe2, 0xa1, 0x11, 0x3f,
    0x26, 0x11, 0x94, 0x3d, 0xcf, 0x2f, 0x51, 0xc0, 0x1f, 0xd0, 0xa0, 0x3f,
    0x4e, 0x03, 0x39, 0x3f, 0x28, 0x09, 0x2e, 0x3f, 0xaf, 0x78, 0xca, 0xbd,
    0x7f, 0xe6, 0x16, 0xc0, 0xf7, 0x7d, 0x9a, 0x3f, 0xe5, 0xc3, 0x09, 0x3e,
    0x3b, 0x7d, 0x0b, 0xc0, 0x79, 0xb9, 0xf4, 0x3c, 0xfb, 0xdf, 0x24, 0x3f,
    0xe7, 0x44, 0x2a, 0x3f, 0xf7, 0xc0, 0x38, 0xc0, 0x2b, 0x4e, 0xbe, 0xbf,
    0x6c, 0x91, 0x05, 0x3f, 0x10, 0xa3, 0x9b, 0xbd, 0x4f, 0x47, 0x79, 0x3f,
    0x16, 0xfd, 0xfa, 0x3e, 0xb2, 0xf2, 0xa6, 0xbf, 0xb3, 0x07, 0xc4, 0xbe,
    0x32, 0x9d, 0x91, 0xbe, 0xd1, 0x04, 0x49, 0x3f, 0xb8, 0x5a, 0x55, 0xbe,
    0xa3, 0x5f, 0x7c, 0xbf, 0xb7, 0x3b, 0x36, 0x3f, 0x31, 0x70, 0x86, 0x3e,
    0x50, 0x59, 0x38, 0x3e, 0x97, 0x83, 0x6b, 0x3f, 0xfe, 0x1f, 0x57, 0xbe,
    0x06, 0xc7, 0xfc, 0xbe, 0x41, 0x2a, 0x7e, 0xbf, 0xe0, 0xee, 0x11, 0xbe,
    0x79, 0x87, 0xe4, 0xbc, 0x99, 0x39, 0x16, 0xc0, 0x0b, 0xc0, 0x78, 0x3f,
    0x34, 0x5f, 0xa6, 0x3e, 0xda, 0x6f, 0x58, 0x3e, 0x0b, 0x08, 0x28, 0xbe,
    0xe6, 0x99, 0x80, 0x3c, 0xc8, 0x0a, 0x9c, 0xbe, 0xac, 0x4d, 0xfe, 0xbf,
    0xea, 0x0e, 0x6a, 0xbe, 0x2d, 0xeb, 0x55, 0xbf, 0x23, 0x8b, 0x1c, 0x3e,
    0xdb, 0xa8, 0x48, 0x3e, 0x5d, 0x6e, 0xec, 0x3e, 0x4d, 0xe7, 0xd2, 0xbf,
    0xbb, 0x44, 0x5a, 0xbe, 0x10, 0xbf, 0xfb, 0xbe, 0x8d, 0xf6, 0x6c, 0x3f,
    0xa4, 0x7f, 0xff, 0x3e, 0xe0, 0x14, 0x5d, 0xbd, 0xb5, 0x0a, 0x99, 0x3f,
    0x32, 0xb4, 0x56, 0xbe, 0xd0, 0x71, 0x98, 0x3c, 0x91, 0x93, 0xce, 0xbd,
    0xde, 0x73, 0x65, 0x3e, 0x54, 0x54, 0x3a, 0x3e, 0xc1, 0xa9, 0x25, 0x3f,
    0x7d, 0xe7, 0x0b, 0xbf, 0x9e, 0x82, 0x1b, 0x3f, 0xcc, 0x66, 0xaf, 0xbf,
    0x51, 0xa3, 0x1e, 0xbf, 0xcc, 0x31, 0xb6, 0xbd, 0x16, 0x97, 0xde, 0x3f,
    0xee, 0xda, 0xc9, 0xc0, 0x45, 0x4a, 0x3b, 0x3d, 0x64, 0xfb, 0x50, 0x3e,
    0x27, 0x14, 0x41, 0xbe, 0x88, 0xf5, 0x97, 0xbe, 0x7f, 0x04, 0x90, 0x3f,
    0xa8, 0x84, 0x11, 0x3e, 0x2f, 0xa0, 0x93, 0xbd, 0xd7, 0x68, 0x53, 0x3e,
    0x62, 0x1d, 0x79, 0xbe, 0x22, 0x53, 0xd6, 0xbf, 0x5d, 0x93, 0x7b, 0xbf,
    0x64, 0xd7, 0x9d, 0xbe, 0x7b, 0x94, 0x88, 0xbf, 0x09, 0xea, 0xe2, 0xbe,
    0xed, 0x17, 0xb6, 0xbf, 0x7e, 0xb2, 0x30, 0x3f, 0xdb, 0xfb, 0x8e, 0xbe,
    0xcd, 0x14, 0xa0, 0xbe, 0x90, 0x9c, 0xbf, 0x3f, 0xd4, 0x4b, 0xa1, 0xbc,
    0x23, 0x14, 0xa8, 0x3f, 0x27, 0xa6, 0x42, 0xbe, 0xda, 0xc5, 0xf1, 0xbb,
    0xb2, 0x1e, 0x26, 0xbe, 0x80, 0xca, 0xa5, 0x3f, 0x09, 0xc6, 0x2e, 0x3e,
    0x3f, 0xfe, 0xd3, 0x3e, 0x3c, 0xf0, 0x65, 0x3e, 0xe3, 0xaf, 0x6a, 0xbe,
    0x12, 0x73, 0x76, 0xbe, 0xc4, 0x84, 0x73, 0x3f, 0xcb, 0xf3, 0x3a, 0xc0,
    0x7a, 0xdb, 0x80, 0xbf, 0xd1, 0xee, 0x4b, 0x3f, 0x6e, 0xc1, 0x6c, 0xbe,
    0x82, 0x75, 0x33, 0x40, 0x1f, 0x48, 0xc6, 0xbf, 0x71, 0x52, 0xba, 0xbe,
    0x65, 0x82, 0xca, 0x3f, 0xa8, 0xd0, 0x21, 0x3e, 0xa7, 0x50, 0xec, 0x3e,
    0x4b, 0x6a, 0x8c, 0xbf, 0xe0, 0xbc, 0xe5, 0xbf, 0x29, 0x11, 0xec, 0x3e,
    0xa0, 0x90, 0x2c, 0xc0, 0xf2, 0x4e, 0x90, 0x3e, 0x94, 0x08, 0xff, 0xbf,
    0x57, 0x79, 0xa9, 0xbf, 0x83, 0x25, 0xc0, 0xbf, 0x8e, 0xe6, 0xff, 0xff,
    0x04, 0x00, 0x00, 0x00, 0x00, 0x10, 0x00, 0x00, 0x74, 0xe2, 0x13, 0xbe,
    0x1e, 0xb2, 0x95, 0xbd, 0x20, 0xfb, 0x06, 0xbe, 0x3e, 0x68, 0x62, 0x3e,
    0x58, 0x73, 0xf5, 0x3d, 0x2a, 0xc3, 0x43, 0xbe, 0x86, 0x0e, 0x1f, 0x3e,
    0xba, 0x59, 0x47, 0xbe, 0xb0, 0xc6, 0xd9, 0xbc, 0x86, 0x34, 0x93, 0xbd,
    0x4c, 0x22, 0x83, 0xbd, 0x20, 0x6c, 0x61, 0xbe, 0x5a, 0xc7, 0x88, 0xbe,
    0x10, 0x97, 0x99, 0x3c, 0xe0, 0x08, 0x6c, 0xbc, 0x5c, 0x7f, 0x1c, 0xbe,
    0x08, 0x90, 0x17, 0x3e, 0x6a, 0xcd, 0x97, 0xbe, 0x0e, 0x0a, 0x8d, 0xbd,
    0x2f, 0x6f, 0x81, 0x3e, 0x6a, 0x03, 0x35, 0x3e, 0xb8, 0xc1, 0xf4, 0x3d,
    0x83, 0xfd, 0x8c, 0xbe, 0x90, 0x00, 0xba, 0xbc, 0x60, 0x74, 0xfd, 0x3c,
    0x4b, 0xb7, 0x96, 0x3e, 0x72, 0x81, 0xd8, 0xbd, 0x72, 0xac, 0x82, 0xbe,
    0xcc, 0xe4, 0x44, 0xbe, 0x77, 0x33, 0x0b, 0xbe, 0xe0, 0x22, 0x13, 0xbe,
    0x24, 0xdc, 0xe6, 0xbd, 0xb9, 0x93, 0xda, 0xbf, 0xf0, 0x4d, 0x71, 0xbc,
    0x9c, 0x15, 0xf7, 0xbc, 0x71, 0x70, 0x55, 0x3f, 0x10, 0x58, 0xe1, 0x3e,
    0x57, 0x57, 0x1d, 0xbe, 0xbb, 0xc1, 0xe7, 0xbe, 0x56, 0x38, 0x64, 0xc0,
    0xd3, 0x86, 0x50, 0xbe, 0x1e, 0xbf, 0xe6, 0xbf, 0x1f, 0x13, 0x23, 0xbe,
    0x20, 0x75, 0xe0, 0x3d, 0x5a, 0xfd, 0x34, 0x3f, 0x54, 0x3e, 0x37, 0xbf,
    0x1b, 0xad, 0x21, 0x3b, 0x29, 0xf1, 0x4f, 0xbd, 0xec, 0xba, 0xf8, 0x3e,
    0x22, 0x8a, 0xd5, 0xbd, 0x92, 0x87, 0x99, 0xbe, 0xf1, 0x20, 0x0c, 0xc0,
    0x2c, 0xe6, 0xf6, 0x3d, 0x7d, 0x95, 0xbd, 0xbe, 0x6a, 0x1c, 0x36, 0xbd,
    0xd2, 0xc4, 0x4a, 0xbf, 0x91, 0x8f, 0x2b, 0x3e, 0x6d, 0x2c, 0x82, 0x3e,
    0xab, 0x63, 0x10, 0xbf, 0xbe, 0x4c, 0x94, 0x3e, 0x07, 0x6d, 0x89, 0xbe,
    0xe8, 0x99, 0x02, 0xbe, 0xd7, 0xef, 0xbb, 0x3e, 0x02, 0xb8, 0xd4, 0x3e,
    0x69, 0x80, 0x88, 0xbf, 0x9e, 0xeb, 0xc1, 0x3e, 0x35, 0xe6, 0x19, 0x3f,
    0x3a, 0x6e, 0x8d, 0x3e, 0xe3, 0xc6, 0xf4, 0xbc, 0x7d, 0x2f, 0x82, 0x3e,
    0x7c, 0x95, 0x45, 0x3f, 0x13, 0xe2, 0x9a, 0xbf, 0x31, 0xfa, 0x26, 0x3f,
    0x02, 0xd5, 0x48, 0x3c, 0xfc, 0x88, 0xa3, 0x3f, 0x7c, 0x9b, 0xf2, 0x3e,
    0x5a, 0x6d, 0x9b, 0x3d, 0xe6, 0xb9, 0x26, 0xbf, 0x9b, 0xdf, 0xbb, 0xbe,
    0xe2, 0x67, 0x64, 0x3e, 0xb4, 0xca, 0xe0, 0x3d, 0xfe, 0xa0, 0xf0, 0x3e,
    0xee, 0xe0, 0xa4, 0x3d, 0x0b, 0xcc, 0x96, 0xbf, 0x00, 0xe3, 0xed, 0xba,
    0x04, 0x5d, 0xeb, 0xbe, 0x26, 0x53, 0x79, 0xbe, 0x01, 0x03, 0xc6, 0x3e,
    0x3a, 0x41, 0x3f, 0x3f, 0x22, 0x46, 0xb2, 0xbd, 0xef, 0x3b, 0xec, 0xbe,
    0x98, 0x54, 0x88, 0x39, 0xda, 0x3f, 0xd4, 0xbe, 0x94, 0x18, 0xa1, 0xbf,
    0x2a, 0x54, 0xd9, 0x3e, 0x15, 0x55, 0x3f, 0xbe, 0x5d, 0x18, 0x18, 0x3f,
    0x97, 0x58, 0x9c, 0x3e, 0xf1, 0x7f, 0x14, 0x3f, 0x75, 0xb5, 0xaf, 0x3f,
    0xfc, 0x2a, 0x8c, 0xbd, 0xa6, 0x7e, 0x55, 0xbe, 0x51, 0x32, 0x9a, 0xbf,
    0xe2, 0xd7, 0x70, 0xbf, 0xb3, 0xf7, 0x38, 0x3f, 0xca, 0xa3, 0x38, 0xbe,
    0x55, 0x62, 0xd6, 0x3f, 0xa9, 0x3e, 0x72, 0xbf, 0xa0, 0x18, 0x81, 0x3e,
    0x54, 0x3c, 0xb5, 0x3d, 0x86, 0x9f, 0xa8, 0x3e, 0xd1, 0xf2, 0xaf, 0xbc,
    0x94, 0xbc, 0x5d, 0xbe, 0x9b, 0x69, 0x8a, 0xbe, 0xaa, 0x13, 0xaa, 0x3e,
    0x79, 0x43, 0x4a, 0x3f, 0x80, 0xdc, 0xbc, 0x3c, 0x31, 0xfc, 0x18, 0x3f,
    0x20, 0xd6, 0xaf, 0xbd, 0xab, 0x78, 0xba, 0x3f, 0xa2, 0xc4, 0x2f, 0x3f,
    0xd4, 0x3e, 0xa7, 0x3d, 0x37, 0xf6, 0x9f, 0xbf, 0x0b, 0xe0, 0xe1, 0x3c,
    0x35, 0xcf, 0xe3, 0x3e, 0x1f, 0xd1, 0x1c, 0x3e, 0x61, 0xd7, 0x29, 0x3f,
    0xba, 0x59, 0xfa, 0xbe, 0x43, 0x82, 0xac, 0x3f, 0x0d, 0xe2, 0xb8, 0xbe,
    0x89, 0x62, 0x85, 0xbe, 0x9c, 0x8b, 0x46, 0xbe, 0x5c, 0x6f, 0xb3, 0x3e,
    0xd3, 0xcc, 0xd7, 0xbf, 0x2d, 0x0a, 0x9d, 0xbf, 0x5b, 0x39, 0x3e, 0x3d,
    0xb8, 0x97, 0x4e, 0xbf, 0x5d, 0x98, 0x9f, 0xbf, 0x75, 0xb3, 0x10, 0xbf,
    0xdf, 0x31, 0x9d, 0xbe, 0x40, 0x17, 0xbf, 0xbe, 0x2a, 0x72, 0x54, 0xbe,
    0xe4, 0x87, 0x4f, 0x3f, 0x0e, 0xa3, 0x8d, 0x3e, 0x30, 0x86, 0xb2, 0xbd,
    0xff, 0xbb, 0x7d, 0xbe, 0x5f, 0xc5, 0x96, 0x3e, 0x75, 0xcd, 0xc6, 0x3f,
    0xa4, 0xd6, 0x8b, 0x3d, 0x53, 0xac, 0x42, 0x3f, 0xcf, 0x49, 0xf3, 0x3e,
    0xb4, 0xeb, 0xa8, 0x3e, 0x24, 0x09, 0xda, 0x3d, 0x48, 0x2b, 0x3a, 0x3e,
    0x00, 0x61, 0xf8, 0x3e, 0xd8, 0x56, 0x52, 0x3e, 0xb8, 0x11, 0xeb, 0x3d,
    0xa1, 0x2c, 0x1a, 0x3f, 0x2f, 0x94, 0xb1, 0x3d, 0x5a, 0xa2, 0x8f, 0x3e,
    0xd6, 0x4e, 0x91, 0xbf, 0xcc, 0x55, 0xf1, 0x3e, 0xfe, 0x35, 0xb1, 0xbd,
    0x46, 0x1b, 0x04, 0xbf, 0x56, 0x74, 0xf7, 0xbd, 0xe6, 0x01, 0xcf, 0x3e,
    0xa9, 0xe5, 0x65, 0x3f, 0x99, 0x12, 0x85, 0x3d, 0x0f, 0x6b, 0xb4, 0x3f,
    0xcd, 0x5f, 0x7f, 0xbe, 0xe7, 0x16, 0xed, 0x3f, 0x9e, 0x3a, 0x62, 0x3f,
    0x3f, 0xd0, 0xe3, 0x3e, 0xbb, 0xb2, 0x0c, 0xbf, 0xad, 0xd7, 0x17, 0xbd,
    0x91, 0x82, 0x8b, 0x3e, 0x04, 0x0b, 0x33, 0x3e, 0x79, 0x3a, 0xa1, 0x3e,
    0xd0, 0x48, 0x67, 0x3b, 0xd3, 0x74, 0x7b, 0xbf, 0x50, 0xb2, 0xdb, 0x3d,
    0x50, 0x50, 0x81, 0xbf, 0xc9, 0x48, 0x48, 0x3e, 0xa4, 0x51, 0x08, 0x3e,
    0x50, 0x57, 0x49, 0x3e, 0x61, 0xd3, 0x88, 0x3e, 0x48, 0xde, 0xf0, 0xbe,
    0x9c, 0xef, 0x26, 0x3e, 0x94, 0x6f, 0xcf, 0xbe, 0xc9, 0x2f, 0x3c, 0xbf,
    0x4d, 0xe4, 0xf6, 0x3e, 0x64, 0xaf, 0xe8, 0xbd, 0x92, 0x2a, 0x68, 0xbe,
    0xc6, 0xc2, 0x82, 0xbe, 0x83, 0x6b, 0x82, 0xbe, 0xdc, 0x0b, 0xb9, 0x3d,
    0xfc, 0x4d, 0x58, 0x3e, 0x85, 0x8f, 0x92, 0xbd, 0x23, 0x99, 0x42, 0xbe,
    0xff, 0x5c, 0xa8, 0x3d, 0xd7, 0x61, 0xeb, 0xbd, 0xd0, 0xfe, 0xd6, 0x3c,
    0x14, 0x35, 0x82, 0xbe, 0x1a, 0x61, 0x2f, 0x3d, 0xed, 0xab, 0xab, 0xbe,
    0x24, 0xa5, 0x0b, 0x3e, 0x27, 0x3d, 0x9b, 0xbe, 0xe2, 0xa3, 0x44, 0x3e,
    0x12, 0x56, 0x79, 0xbe, 0xe7, 0x00, 0x82, 0xbe, 0x14, 0x3e, 0x97, 0x3d,
    0x2c, 0xb5, 0xa4, 0x3d, 0x88, 0x90, 0x0f, 0x3e, 0x42, 0x48, 0x99, 0x39,
    0x03, 0x06, 0x4f, 0x3e, 0x79, 0x93, 0x7a, 0x3e, 0x6d, 0x09, 0x68, 0xbd,
    0x17, 0x31, 0x96, 0x3e, 0xc1, 0x8f, 0x98, 0xbd, 0x56, 0x3d, 0xb0, 0xbe,
    0xf8, 0xb6, 0x6a, 0x3d, 0xfd, 0x23, 0x86, 0x3e, 0x67, 0xed, 0x87, 0xbc,
    0xed, 0xe5, 0x47, 0xbe, 0x5e, 0x17, 0xda, 0xbe, 0x38, 0xd2, 0xde, 0xbf,
    0xf9, 0x73, 0x94, 0xbf, 0x4d, 0x9e, 0x8d, 0xbd, 0xff, 0xcf, 0x28, 0x3e,
    0xe6, 0xb4, 0x2b, 0x3e, 0x1b, 0x00, 0x0e, 0xbe, 0xa1, 0x27, 0x02, 0x40,
    0x18, 0xf3, 0xc3, 0x3f, 0x12, 0xcd, 0x41, 0x3f, 0x38, 0x09, 0xf1, 0xbe,
    0xde, 0xe1, 0xbb, 0xbe, 0xfa, 0xfd, 0xe5, 0x3c, 0xab, 0x6e, 0x92, 0x3e,
    0x3d, 0xad, 0x61, 0x3e, 0xc3, 0x98, 0x8c, 0x3e, 0x97, 0xb6, 0x01, 0x3f,
    0x77, 0xd1, 0x44, 0x3f, 0xb0, 0xfb, 0x6c, 0xbe, 0x93, 0x43, 0xb7, 0xbd,
    0x28, 0x5c, 0xd6, 0x3d, 0x53, 0xf8, 0x5d, 0xbe, 0x8c, 0xc3, 0xc8, 0x3e,
    0xd4, 0xf5, 0x9b, 0xbe, 0x44, 0x20, 0xa9, 0x3e, 0x4a, 0x63, 0x75, 0x3e,
    0xf6, 0x41, 0x66, 0x3f, 0xfd, 0x97, 0x10, 0x3f, 0x46, 0x09, 0x55, 0x3d,
    0xae, 0x21, 0xc4, 0x3e, 0xc8, 0x48, 0x67, 0xbf, 0xec, 0x69, 0x00, 0x3f,
    0x00, 0x85, 0x0d, 0xc0, 0xb5, 0x35, 0xde, 0x3d, 0xba, 0xec, 0x25, 0xbe,
    0x5b, 0x14, 0x10, 0x40, 0x75, 0x9f, 0x83, 0x3e, 0x0b, 0xbb, 0x79, 0x3e,
    0xa8, 0x11, 0x12, 0x3e, 0xf0, 0x9a, 0xa7, 0xbf, 0x81, 0xa8, 0x92, 0xbe,
    0x81, 0x52, 0x01, 0xbe, 0x3c, 0x58, 0x79, 0x3f, 0x9c, 0xa4, 0x27, 0xbf,
    0x66, 0xb4, 0xae, 0x3e, 0x7d, 0x58, 0xd8, 0x3d, 0xe9, 0xee, 0x27, 0x3f,
    0xc3, 0x3f, 0xe1, 0xbc, 0xaf, 0x92, 0xb0, 0x3d, 0xd9, 0x18, 0xe9, 0x3d,
    0x97, 0xdb, 0x8b, 0xbe, 0xb8, 0xaf, 0x9e, 0x3f, 0x4e, 0xd8, 0x39, 0x3e,
    0x34, 0xe3, 0x93, 0xbe, 0x84, 0xb9, 0x00, 0x3f, 0x12, 0x98, 0x9d, 0x3f,
    0x5e, 0x20, 0xb8, 0x3e, 0xf6, 0x8f, 0x86, 0xbe, 0x13, 0xdc, 0x46, 0xbe,
    0x85, 0x07, 0xf3, 0x3e, 0x60, 0x6f, 0x9f, 0xbe, 0x14, 0x33, 0x43, 0xbd,
    0xed, 0x91, 0xbf, 0xbe, 0x2f, 0xaa, 0x9a, 0x3f, 0x6c, 0x03, 0x5b, 0xbe,
    0x93, 0x4e, 0x03, 0xbf, 0x75, 0x00, 0x9f, 0xbe, 0xac, 0xce, 0x88, 0xbf,
    0x8e, 0xaa, 0x85, 0x3e, 0xe2, 0xa4, 0xf3, 0x3b, 0xb8, 0xfe, 0xb2, 0xbe,
    0xe9, 0xe1, 0xd4, 0x3e, 0xd1, 0xf8, 0x9a, 0xbf, 0x2c, 0xe0, 0x24, 0x3f,
    0xf2, 0x1a, 0x1e, 0xbf, 0x37, 0x89, 0x94, 0x3e, 0x8f, 0xcc, 0xe2, 0x3e,
    0x2f, 0x08, 0x7e, 0xbf, 0xa7, 0x0a, 0xa3, 0x3e, 0x67, 0xed, 0x21, 0xbd,
    0x18, 0x1e, 0x58, 0x3e, 0x1e, 0x08, 0xe5, 0x3d, 0x53, 0x5c, 0x71, 0xbf,
    0x13, 0x2e, 0xe7, 0xbf, 0x00, 0xac, 0x2f, 0x3a, 0x20, 0x18, 0x49, 0xbe,
    0xee, 0xef, 0x4d, 0x3e, 0x54, 0x09, 0xb2, 0x3e, 0xd5, 0xd9, 0x47, 0x3e,
    0x63, 0x3f, 0x91, 0x3e, 0x84, 0x08, 0x15, 0xbe, 0x63, 0xd4, 0x11, 0x3f,
    0x41, 0x09, 0xa8, 0x3e, 0xe0, 0x58, 0x07, 0x3f, 0x3c, 0x44, 0xa6, 0x3e,
    0x5e, 0x9b, 0x60, 0xbe, 0x9f, 0xfc, 0x2e, 0x3e, 0xcb, 0x1e, 0xac, 0xbd,
    0xf9, 0x60, 0xd8, 0xbd, 0xf7, 0xce, 0x03, 0x40, 0xcd, 0xb0, 0xf8, 0x3e,
    0xac, 0xc2, 0xf6, 0x3e, 0x9b, 0x34, 0x3f, 0xbf, 0xfa, 0xd6, 0x96, 0xbf,
    0x38, 0x97, 0xab, 0xbf, 0x79, 0xbf, 0x69, 0x3f, 0x0c, 0x15, 0xc1, 0x3f,
    0xbf, 0x28, 0x06, 0xbf, 0x43, 0x59, 0x1c, 0x3f, 0xbd, 0xb3, 0x91, 0xbe,
    0xc0, 0xd2, 0x8a, 0x3c, 0x6e, 0x46, 0xbf, 0xbc, 0x5f, 0xd7, 0xee, 0x3d,
    0xfd, 0xfe, 0x1c, 0x3a, 0xfa, 0x6e, 0x68, 0x3e, 0x17, 0x89, 0xaf, 0x3f,
    0xc8, 0x3d, 0x0f, 0x3d, 0xbc, 0xbd, 0x09, 0xbf, 0x04, 0x6f, 0x0e, 0xbe,
    0x59, 0xa6, 0x31, 0xbd, 0x7c, 0xc3, 0x4d, 0x3e, 0x2c, 0xcc, 0xd2, 0xbd,
    0x09, 0x6e, 0x80, 0xbe, 0x45, 0x98, 0x32, 0x3f, 0x1f, 0x32, 0xb9, 0xbd,
    0xa9, 0x7a, 0x95, 0xbd, 0x77, 0xf0, 0x95, 0x3e, 0x83, 0xbc, 0x1b, 0xbe,
    0x60, 0x66, 0x64, 0x3e, 0x8a, 0xfa, 0x06, 0x3f, 0xbd, 0x85, 0xaf, 0xbe,
    0xbc, 0xf9, 0xd1, 0xbe, 0x3c, 0x3f, 0xd3, 0x3e, 0x4e, 0xe5, 0x32, 0xbf,
    0x2d, 0x81, 0x59, 0xbf, 0x7d, 0xa1, 0x66, 0xbd, 0x0a, 0xf4, 0xad, 0xbe,
    0x0b, 0xa0, 0x89, 0x3f, 0xe4, 0xdd, 0x24, 0xbf, 0x52, 0x86, 0x9d, 0xbe,
    0xad, 0xed, 0x63, 0x3e, 0xa8, 0xc5, 0x54, 0xc0, 0x08, 0x9e, 0x1f, 0x3f,
    0x08, 0x9f, 0x5a, 0x3c, 0x32, 0x04, 0xcf, 0x3e, 0xc0, 0x28, 0xbe, 0xbe,
    0xa7, 0xb7, 0x36, 0xbd, 0xf3, 0x8f, 0x23, 0xbd, 0x00, 0x7b, 0x47, 0xbe,
    0x4a, 0x0a, 0x91, 0x3d, 0x5c, 0x6f, 0x9b, 0x3e, 0xf8, 0xc3, 0x67, 0xbf,
    0x94, 0x77, 0x86, 0xbe, 0x8e, 0x9f, 0x04, 0xbe, 0x48, 0xb2, 0xc0, 0x3e,
    0x56, 0x1d, 0x13, 0x3e, 0x48, 0x01, 0xbe, 0xbd, 0x0f, 0x58, 0x34, 0x3f,
    0xa8, 0x16, 0x28, 0x3f, 0x08, 0x76, 0xca, 0x3e, 0x6c, 0xff, 0x39, 0x3e,
    0x18, 0x93, 0xb1, 0x3d, 0x10, 0x80, 0xde, 0x3d, 0xf5, 0x99, 0xa9, 0xbe,
    0xff, 0xee, 0x40, 0xbe, 0x94, 0x71, 0xaf, 0x3d, 0x6b, 0xca, 0x4f, 0xbe,
    0xaf, 0xb9, 0x09, 0x3e, 0xc2, 0x68, 0x18, 0xbe, 0x12, 0x28, 0x82, 0x3e,
    0x67, 0xaa, 0xd9, 0xbd, 0x75, 0xb6, 0x39, 0xbe, 0x7d, 0x41, 0x4d, 0xbe,
    0x6c, 0x68, 0x97, 0xbd, 0x66, 0xdc, 0x16, 0x3e, 0xb4, 0x45, 0xeb, 0x3d,
    0x06, 0xb5, 0x15, 0xbe, 0x86, 0xbe, 0x54, 0xbe, 0x09, 0x87, 0x83, 0xbe,
    0xb4, 0x2a, 0xfe, 0xbd, 0xb4, 0x2e, 0x3b, 0x3e, 0x7a, 0x45, 0xe4, 0xbd,
    0xbc, 0xfd, 0x88, 0xbe, 0x8d, 0x8b, 0x43, 0xbd, 0xa0, 0xb7, 0xb1, 0xbc,
    0xfa, 0x8c, 0x40, 0xbe, 0x0d, 0xc0, 0x1f, 0xbe, 0x0a, 0xe7, 0xe9, 0x3d,
    0x76, 0x2e, 0x50, 0x3e, 0x31, 0x1c, 0x63, 0xbe, 0x8b, 0xeb, 0x69, 0xbe,
    0x50, 0x01, 0x41, 0xbe, 0x05, 0x16, 0x4a, 0xbe, 0xb4, 0xc3, 0x1a, 0xbf,
    0xc6, 0x1b, 0xcc, 0xbf, 0x78, 0xe4, 0x2f, 0x3f, 0x64, 0xb1, 0x6e, 0x3d,
    0xe9, 0xc9, 0x64, 0x3f, 0xcf, 0xf5, 0xc5, 0x3d, 0x76, 0x0e, 0xb3, 0xbf,
    0x79, 0x17, 0xa8, 0x3f, 0x19, 0x95, 0x07, 0x3f, 0x84, 0xe0, 0x28, 0x3f,
    0x4e, 0x23, 0x75, 0x3d, 0xf1, 0xc8, 0x0e, 0xbf, 0xba, 0x20, 0x92, 0x3f,
    0x16, 0x76, 0x6e, 0xbe, 0x24, 0xef, 0xe0, 0xbd, 0x59, 0xa4, 0x77, 0xbd,
    0x98, 0x82, 0xd0, 0xbd, 0xf5, 0x7b, 0xce, 0x3d, 0x51, 0x2f, 0x03, 0xbf,
    0x74, 0x05, 0xab, 0xbd, 0x9d, 0x04, 0x19, 0x3e, 0x8c, 0xba, 0x11, 0xbf,
    0x2d, 0x11, 0x09, 0x3f, 0x6e, 0x79, 0xd6, 0xbe, 0xe2, 0xbb, 0x12, 0xbe,
    0x89, 0xf8, 0xcd, 0x3e, 0xa6, 0x6a, 0xab, 0xbe, 0x06, 0x27, 0x84, 0xbe,
    0xf2, 0xc5, 0x26, 0x3e, 0x9d, 0xd6, 0x4d, 0xbf, 0x00, 0xdd, 0x1c, 0xbf,
    0x2d, 0x04, 0x00, 0x3f, 0x36, 0x5c, 0x50, 0xbe, 0x29, 0x38, 0xad, 0x3e,
    0x98, 0x10, 0xd8, 0x3f, 0x67, 0x96, 0x02, 0xbe, 0x72, 0x85, 0xd9, 0x3e,
    0x44, 0xf2, 0x25, 0x3e, 0x9e, 0x34, 0xfb, 0xbe, 0x18, 0x08, 0x89, 0x3f,
    0xe4, 0x3f, 0x32, 0x3f, 0xe8, 0xc5, 0xf0, 0x3e, 0xed, 0x32, 0xbf, 0x3f,
    0x60, 0x8c, 0x0d, 0xbf, 0xc8, 0x2d, 0xda, 0x3e, 0x5c, 0x54, 0x99, 0xbf,
    0xce, 0xc8, 0xf6, 0xbd, 0x89, 0x66, 0x56, 0xbf, 0xb3, 0x82, 0xad, 0x3e,
    0xd7, 0x00, 0x71, 0x3f, 0xed, 0x64, 0xde, 0xbe, 0x4c, 0xdc, 0x21, 0xbe,
    0x70, 0x83, 0x7b, 0xbe, 0xfc, 0x15, 0x49, 0xbf, 0xdb, 0x5a, 0x82, 0xbe,
    0xbd, 0x87, 0xdd, 0x3d, 0xe0, 0x1e, 0x4d, 0xbd, 0xa5, 0xd1, 0x57, 0x3e,
    0x85, 0x46, 0x93, 0xbf, 0x15, 0xf5, 0x52, 0xbe, 0x24, 0x3a, 0xa1, 0xbe,
    0x3a, 0xbf, 0xb7, 0x3e, 0x7f, 0xc6, 0x93, 0xbf, 0x8b, 0x42, 0x81, 0xbf,
    0x6f, 0xf8, 0x7f, 0x3f, 0xc2, 0x5b, 0x25, 0x3e, 0x5f, 0xc5, 0xba, 0xbf,
    0x8a, 0x1d, 0x17, 0xbe, 0x50, 0x8f, 0x03, 0xbf, 0x86, 0x8c, 0xdf, 0x3f,
    0x29, 0x9c, 0x3b, 0x3f, 0xa0, 0x1d, 0xfb, 0x3e, 0x24, 0xb9, 0x90, 0x3f,
    0x0e, 0x1b, 0x55, 0x3d, 0xd0, 0x38, 0x73, 0x3f, 0xcb, 0x27, 0x1f, 0x3e,
    0xe0, 0x70, 0x87, 0xbf, 0xe8, 0x04, 0xb6, 0xbe, 0xc8, 0x4e, 0x48, 0x3b,
    0xe5, 0x9c, 0x21, 0x3e, 0x68, 0x3d, 0xc3, 0x3e, 0xf7, 0xaf, 0x0a, 0x3f,
    0xc9, 0x6d, 0xb3, 0xbe, 0x1b, 0xe2, 0x3b, 0xbe, 0xe1, 0x3d, 0x51, 0x3d,
    0x0b, 0x74, 0x90, 0xbe, 0x8c, 0x44, 0x80, 0xbf, 0x8b, 0x7e, 0x7f, 0xbe,
    0x76, 0xce, 0x8c, 0xbe, 0xbf, 0xf0, 0x1b, 0xbc, 0x4f, 0x25, 0x41, 0xbf,
    0xdd, 0x7b, 0x8d, 0x3d, 0xde, 0x1b, 0x99, 0xbe, 0xdf, 0x40, 0x51, 0x3e,
    0x70, 0x22, 0x78, 0xbf, 0xd6, 0xce, 0xa4, 0xbc, 0x65, 0xed, 0x20, 0xbf,
    0x11, 0x59, 0xc8, 0x3e, 0x08, 0x82, 0xf7, 0xbe, 0xa7, 0x25, 0xe1, 0xbd,
    0x90, 0xa1, 0x78, 0x3f, 0xa4, 0x92, 0x85, 0xbe, 0xf3, 0xd7, 0x4e, 0xc0,
    0x54, 0xcf, 0xf9, 0x3f, 0xc5, 0x6c, 0x7d, 0xbf, 0xf6, 0xe3, 0x54, 0x3f,
    0x17, 0xc4, 0x13, 0xbf, 0x71, 0x1c, 0xfe, 0x3e, 0xb5, 0xeb, 0xe2, 0xbe,
    0xf3, 0xa3, 0x61, 0xbe, 0xda, 0x21, 0x5d, 0x3e, 0x6a, 0x3f, 0xc1, 0x3d,
    0xf9, 0xd3, 0x90, 0x3c, 0x7b, 0x20, 0x42, 0xbe, 0xa5, 0x9b, 0x0f, 0xbc,
    0x32, 0x86, 0x15, 0xbe, 0x8a, 0xbd, 0xe8, 0xbe, 0x2b, 0xae, 0x71, 0x3e,
    0x35, 0x3c, 0xe8, 0xbf, 0x0c, 0xd2, 0x2f, 0x3e, 0x0c, 0x05, 0x06, 0xbe,
    0x13, 0x04, 0xa3, 0xbd, 0x5b, 0x1f, 0x5e, 0x3e, 0x54, 0x81, 0x80, 0xbe,
    0xc3, 0x4d, 0xfb, 0xbe, 0xb2, 0x6e, 0x42, 0xbe, 0x66, 0x9d, 0x18, 0x3e,
    0xf3, 0x37, 0x7c, 0x3d, 0xa0, 0xef, 0x9e, 0xbe, 0x28, 0x21, 0x0e, 0x3e,
    0x92, 0xb3, 0xac, 0xbe, 0x0e, 0xbd, 0x1e, 0xbc, 0xb2, 0x32, 0x9f, 0xbe,
    0x9e, 0x4b, 0xb4, 0xbe, 0x8f, 0x73, 0x90, 0xbd, 0xe0, 0x61, 0x08, 0xbd,
    0x3a, 0x8c, 0x4b, 0xbe, 0x00, 0xaf, 0x3d, 0xbe, 0x10, 0x9b, 0x03, 0x3d,
    0x20, 0xb9, 0xc3, 0xbd, 0xb4, 0xf4, 0x98, 0x3d, 0x07, 0x40, 0x97, 0xbe,
    0x1c, 0x9b, 0xd6, 0x3d, 0x13, 0xa7, 0xda, 0x3c, 0x38, 0x94, 0x62, 0xbe,
    0x8d, 0x9b, 0x13, 0xbc, 0xd2, 0xd3, 0x28, 0xbe, 0xf0, 0x66, 0xf2, 0x3c,
    0x58, 0xcf, 0x3e, 0x3e, 0x70, 0x13, 0xaa, 0xbe, 0x2b, 0x77, 0x2b, 0x3e,
    0x3e, 0xb3, 0x80, 0xbe, 0xd0, 0x7a, 0x29, 0x3d, 0x74, 0x50, 0x49, 0xbe,
    0x63, 0xc4, 0x7e, 0x3d, 0xc0, 0xb4, 0xff, 0x3b, 0xf1, 0xe0, 0x25, 0xbe,
    0x2e, 0x8c, 0x52, 0x3e, 0xdc, 0x6a, 0xb4, 0x3d, 0x74, 0xa5, 0x11, 0x3f,
    0x57, 0x55, 0x91, 0xbf, 0x63, 0x8c, 0x58, 0x3f, 0x09, 0xcd, 0x8d, 0x3c,
    0xf3, 0xd9, 0x4c, 0x3d, 0xdf, 0x82, 0xa2, 0x3f, 0x7b, 0xce, 0xf4, 0x3f,
    0x87, 0x28, 0xf4, 0xbc, 0xc1, 0x5a, 0xe1, 0xbd, 0x65, 0x61, 0x92, 0x3f,
    0x52, 0xee, 0x78, 0xbf, 0x17, 0x4b, 0x2b, 0xbe, 0x7e, 0xe0, 0x5d, 0x3d,
    0x89, 0xcd, 0x41, 0xbe, 0x9a, 0x04, 0x99, 0xbf, 0x7f, 0x3f, 0x98, 0xbe,
    0x79, 0xd3, 0x71, 0xbf, 0x75, 0x75, 0x98, 0x3e, 0xac, 0x03, 0xe7, 0xbe,
    0xce, 0x8c, 0x9f, 0x3f, 0xb0, 0x12, 0x70, 0xbd, 0x51, 0xa3, 0x44, 0x3e,
    0x72, 0x5c, 0x77, 0xbd, 0x82, 0x51, 0x06, 0x3f, 0x8f, 0x5a, 0x86, 0xbe,
    0xfc, 0xc3, 0x85, 0xbd, 0x97, 0x6d, 0x72, 0xbd, 0xc2, 0xdb, 0x14, 0x3c,
    0xbe, 0x97, 0xc4, 0x3e, 0x58, 0xd6, 0x5b, 0xbf, 0xc7, 0xdc, 0x92, 0xbe,
    0x78, 0x54, 0xb9, 0x3e, 0xea, 0xb5, 0xd9, 0x3e, 0xc2, 0x12, 0x26, 0x3e,
    0xa3, 0x0b, 0x13, 0xbe, 0xa4, 0x69, 0x28, 0xc0, 0xfa, 0xdc, 0x14, 0xbf,
    0xdf, 0x94, 0xde, 0x3d, 0xc8, 0xb4, 0xee, 0x3e, 0x34, 0xc6, 0xc5, 0x3f,
    0x38, 0x08, 0x2a, 0xc0, 0x60, 0xb4, 0x3c, 0x3f, 0xce, 0x80, 0x64, 0x3f,
    0xc8, 0x8a, 0x6b, 0x3d, 0x29, 0xcf, 0x30, 0x3e, 0xd6, 0x24, 0xe0, 0x3d,
    0xe5, 0xc4, 0x0c, 0xbf, 0x3b, 0xbc, 0x03, 0xbe, 0x45, 0x3f, 0xdd, 0xbe,
    0x8c, 0xef, 0x64, 0x3e, 0x46, 0x49, 0x60, 0x3f, 0xec, 0x34, 0x19, 0xbe,
    0x46, 0x05, 0x7b, 0xbe, 0x76, 0x79, 0xad, 0xbe, 0x2c, 0x63, 0x00, 0x3e,
    0x58, 0xb2, 0x56, 0xbf, 0x7d, 0x24, 0x4f, 0x3f, 0x68, 0xcf, 0x19, 0xbd,
    0x7f, 0x87, 0xa1, 0xbc, 0xb3, 0xbd, 0xd0, 0xbe, 0x63, 0xb4, 0x2f, 0x3d,
    0x4d, 0x3a, 0xf5, 0x3e, 0x78, 0x24, 0x1f, 0xbe, 0xbe, 0x3c, 0x47, 0xbf,
    0x33, 0x10, 0xab, 0xbe, 0x1c, 0xa2, 0x55, 0x3f, 0xc0, 0xa0, 0xa2, 0x3d,
    0x21, 0x5e, 0x4a, 0xbd, 0xd7, 0x7d, 0x8f, 0x3e, 0x43, 0x19, 0x44, 0xbe,
    0x0d, 0xc3, 0x14, 0xbe, 0xc0, 0xaa, 0x6e, 0x3e, 0x44, 0x26, 0x65, 0x3f,
    0x42, 0x7f, 0xfc, 0x3e, 0x35, 0xbb, 0x24, 0x3f, 0x1e, 0x7e, 0x27, 0x3f,
    0x73, 0x62, 0x10, 0xbe, 0x5a, 0xe0, 0x46, 0xbf, 0x49, 0x73, 0x97, 0x3e,
    0xc3, 0xaa, 0x3e, 0x3e, 0x8e, 0xee, 0x3f, 0x3e, 0x0b, 0xdf, 0xe4, 0xbd,
    0xf6, 0x74, 0x2a, 0x3f, 0x08, 0x43, 0x2b, 0xbe, 0xaa, 0x55, 0xdc, 0xbd,
    0x31, 0x82, 0x3e, 0x3e, 0xe7, 0xfc, 0x9b, 0x3e, 0xe9, 0x4b, 0x94, 0xbf,
    0x32, 0xbf, 0xac, 0x3c, 0x42, 0x51, 0x9a, 0xbe, 0xab, 0x75, 0x53, 0x3e,
    0x12, 0x42, 0xe4, 0x3e, 0x40, 0xe5, 0xcc, 0xbd, 0x7c, 0x81, 0x7f, 0xbe,
    0xb3, 0x2b, 0xc8, 0x3e, 0xc7, 0x37, 0xa6, 0x3e, 0xbb, 0x79, 0xa7, 0xbe,
    0xe7, 0x27, 0xc3, 0xbc, 0x1d, 0x84, 0x0d, 0xbe, 0x15, 0x37, 0x84, 0x3f,
    0xef, 0x2b, 0x87, 0x3d, 0xba, 0xef, 0x33, 0x3f, 0x8c, 0x6c, 0x23, 0xbf,
    0xd3, 0x37, 0xb0, 0xbf, 0x3e, 0x1f, 0xa7, 0x3f, 0xa2, 0x5b, 0x90, 0x3f,
    0x92, 0x39, 0xfd, 0x3d, 0xe6, 0xaa, 0x26, 0x3f, 0xca, 0x65, 0x1a, 0xbf,
    0x1d, 0x4c, 0x0a, 0x3f, 0xe5, 0x9c, 0x45, 0xbf, 0x3b, 0xa4, 0x59, 0x3e,
    0xbe, 0x69, 0x08, 0xbf, 0x67, 0x3e, 0x84, 0x3d, 0x67, 0xe1, 0xab, 0x3f,
    0xf2, 0xed, 0x69, 0x3f, 0x58, 0xc4, 0xc1, 0x3d, 0x3f, 0xf2, 0x83, 0x3e,
    0xe0, 0x6c, 0x06, 0xbf, 0xea, 0xa7, 0x94, 0xbf, 0x72, 0x55, 0x5a, 0xbe,
    0x52, 0x6d, 0x49, 0x3e, 0xf8, 0x0b, 0x87, 0x3e, 0x5a, 0xa2, 0x5a, 0xbf,
    0xb6, 0x6d, 0x8d, 0x3e, 0xf5, 0xcf, 0x62, 0x3d, 0xd0, 0xeb, 0xe3, 0x3e,
    0xe9, 0xf9, 0xed, 0xbf, 0x49, 0x18, 0x4c, 0xbd, 0x52, 0xa1, 0x0e, 0xbe,
    0xf6, 0x22, 0x80, 0x3e, 0x87, 0x64, 0x84, 0xbe, 0x42, 0xc7, 0x85, 0xbe,
    0xae, 0x3c, 0x9e, 0xbe, 0xb0, 0x78, 0x1b, 0xbe, 0x5f, 0x6e, 0xbb, 0xbb,
    0x86, 0xca, 0xe0, 0x3d, 0xac, 0x44, 0x13, 0x3d, 0x14, 0x62, 0x12, 0x3e,
    0xa3, 0xbf, 0x61, 0xbe, 0x2e, 0xe0, 0xe0, 0xbd, 0xa2, 0x9d, 0x5c, 0xbd,
    0x4e, 0x6a, 0x0d, 0x3e, 0x50, 0x40, 0xdd, 0xbc, 0x7c, 0x83, 0x67, 0xbd,
    0xa1, 0xbc, 0x0d, 0xbe, 0x64, 0xea, 0xfe, 0x3c, 0xf2, 0xd6, 0x01, 0x3d,
    0x56, 0x64, 0x16, 0xbe, 0xe5, 0x7d, 0xcc, 0xbc, 0x84, 0xe8, 0x8d, 0xbe,
    0x7d, 0x1a, 0x84, 0x3c, 0x89, 0x0e, 0x1b, 0xbe, 0xdc, 0xf7, 0xa2, 0x3d,
    0xf4, 0xa5, 0xbe, 0x3d, 0x73, 0x59, 0x11, 0x3b, 0xb4, 0x8a, 0xc8, 0xbd,
    0xce, 0xff, 0x4c, 0x3e, 0x62, 0x48, 0x4e, 0xbd, 0xd6, 0xb3, 0x94, 0xbe,
    0xa8, 0xb9, 0x86, 0xbe, 0x0f, 0x5b, 0xf9, 0x3b, 0x54, 0x03, 0xf2, 0x3e,
    0xc4, 0xae, 0x13, 0xbf, 0x31, 0xd5, 0xad, 0x3e, 0x86, 0xdc, 0xb7, 0xbd,
    0xed, 0xdd, 0x0c, 0xbf, 0x00, 0x45, 0x37, 0xbf, 0x10, 0x64, 0xea, 0x3d,
    0x88, 0x81, 0x2f, 0x3f, 0x19, 0x0b, 0x57, 0xbf, 0xd0, 0xc2, 0x86, 0xbf,
    0xe3, 0x03, 0xda, 0x3e, 0x8d, 0x70, 0xa5, 0xbf, 0xaa, 0xd2, 0x94, 0xbe,
    0x77, 0x69, 0x01, 0xbe, 0xba, 0xd6, 0x07, 0x3f, 0xe4, 0x47, 0xae, 0x3e,
    0x52, 0xd8, 0xc5, 0x3d, 0xae, 0x28, 0x55, 0xc0, 0xb6, 0xc2, 0x00, 0x3e,
    0x9c, 0x6e, 0xd9, 0xbe, 0xe9, 0x44, 0x5a, 0x3e, 0xaf, 0x89, 0x66, 0xbf,
    0x7c, 0xe2, 0x07, 0xbe, 0x94, 0xcd, 0x4f, 0xbe, 0x0d, 0x78, 0x97, 0xbe,
    0x0e, 0xb4, 0x54, 0x3d, 0x00, 0xef, 0xf4, 0x3d, 0x12, 0xed, 0x1d, 0x3c,
    0x61, 0xa0, 0x2a, 0x3f, 0x89, 0x89, 0x2b, 0xbf, 0xff, 0x85, 0xb7, 0xbd,
    0x83, 0xbf, 0x82, 0xbf, 0xcf, 0xa7, 0x8c, 0xbe, 0xd9, 0x49, 0xef, 0x3e,
    0x95, 0x51, 0xfc, 0xbe, 0xf0, 0xd6, 0x0a, 0xbf, 0x61, 0x53, 0xef, 0x3e,
    0xe8, 0x17, 0x02, 0x3d, 0x87, 0xed, 0x84, 0x3f, 0x76, 0x1b, 0xeb, 0x3f,
    0x9c, 0x3c, 0x5d, 0x3c, 0xc1, 0x9b, 0x4e, 0x3e, 0xe2, 0xe5, 0x41, 0xbd,
    0x1d, 0xb4, 0xc4, 0xbe, 0x53, 0x59, 0x1e, 0x3e, 0x84, 0xb2, 0x5e, 0x3e,
    0x8a, 0x40, 0x24, 0xbe, 0x86, 0x8d, 0x10, 0x3f, 0x3d, 0x82, 0xfe, 0xbf,
    0xad, 0x7d, 0x24, 0x3f, 0x3c, 0xfb, 0x80, 0xbd, 0xdf, 0xa6, 0xcf, 0xbe,
    0x7c, 0x85, 0x51, 0x3d, 0xa3, 0xcb, 0x1b, 0xc0, 0x3c, 0xe8, 0xff, 0x3e,
    0x9e, 0xc1, 0x41, 0x3e, 0x7d, 0x18, 0x8b, 0xbd, 0x1d, 0xf3, 0x8f, 0xbd,
    0xd9, 0xb1, 0x8d, 0x3d, 0xb5, 0x62, 0x24, 0x3f, 0xab, 0xf6, 0x39, 0x3e,
    0x6a, 0x96, 0x0d, 0x3f, 0xa5, 0x57, 0x4e, 0x3f, 0x43, 0x8e, 0xc1, 0x3b,
    0xd3, 0xc4, 0xe2, 0x3d, 0x16, 0xa6, 0x83, 0xc0, 0xbc, 0xee, 0x6d, 0x3d,
    0xc9, 0x21, 0x23, 0xbf, 0xf9, 0xda, 0x80, 0xbf, 0x45, 0xc3, 0x7e, 0x3f,
    0x42, 0x5d, 0x7a, 0xc0, 0xc5, 0xbb, 0x97, 0x3f, 0x47, 0x1c, 0x93, 0xbf,
    0x08, 0x0a, 0x1c, 0x3e, 0x2f, 0xdc, 0x85, 0xbe, 0xa2, 0x87, 0x17, 0xc0,
    0x14, 0x19, 0x34, 0x3f, 0xe3, 0x7f, 0x95, 0xbd, 0x6f, 0xe1, 0x18, 0x3f,
    0xfc, 0x88, 0x06, 0xbf, 0xf0, 0xe1, 0x6b, 0xbb, 0x57, 0x0f, 0x65, 0x40,
    0xdc, 0x72, 0x40, 0xbe, 0x0c, 0xf1, 0x45, 0x3e, 0xc9, 0xbe, 0x1a, 0x3e,
    0xb6, 0xcc, 0xa8, 0xbf, 0x0d, 0x4e, 0xa1, 0xbe, 0x79, 0x33, 0x7f, 0xbe,
    0x22, 0x02, 0xb7, 0x3d, 0x96, 0x3f, 0x4a, 0x3f, 0xe8, 0xfe, 0xe8, 0xbd,
    0xc1, 0xfd, 0x3b, 0x3f, 0x8f, 0xa3, 0xda, 0x3b, 0xc7, 0x49, 0xb5, 0x3f,
    0x31, 0x19, 0x47, 0x3f, 0x69, 0xec, 0x8a, 0xbe, 0x57, 0xbc, 0xc5, 0xbe,
    0x3c, 0xb2, 0xae, 0x3e, 0x2a, 0x1f, 0xd4, 0x3e, 0x2a, 0x59, 0xca, 0xbd,
    0x42, 0xac, 0x5e, 0xbf, 0xd8, 0x93, 0x0a, 0xc0, 0xed, 0x5b, 0xfc, 0xbe,
    0x6e, 0x63, 0xb9, 0xbf, 0xfa, 0x59, 0x87, 0xbf, 0x0f, 0x10, 0x32, 0xbe,
    0xe1, 0xc0, 0x8f, 0xbd, 0xfe, 0x73, 0x7f, 0x3e, 0x22, 0x3b, 0x6a, 0x3b,
    0x90, 0x8e, 0x9c, 0xbe, 0x86, 0x7f, 0x05, 0x3f, 0x22, 0x28, 0xd0, 0x3d,
    0x2f, 0xa7, 0xf3, 0xbe, 0x6c, 0x17, 0xee, 0xbf, 0x20, 0x3f, 0x3a, 0x3e,
    0x24, 0x1f, 0x30, 0x3e, 0x9f, 0x03, 0x01, 0x3f, 0x68, 0x81, 0x22, 0x3f,
    0x82, 0x51, 0x14, 0xbe, 0xbc, 0xa7, 0xb7, 0x3d, 0x24, 0x66, 0x71, 0xbd,
    0x90, 0x7d, 0xfb, 0xbb, 0xe4, 0xc4, 0x87, 0x3d, 0x52, 0x7d, 0xe1, 0x3e,
    0x17, 0x91, 0x5f, 0x3e, 0x25, 0x46, 0xbc, 0xbd, 0x51, 0xcf, 0xfd, 0xbf,
    0xc6, 0xf0, 0x46, 0x3e, 0x24, 0xe0, 0xc3, 0x3f, 0x3d, 0xd3, 0x70, 0x3f,
    0x0f, 0x00, 0x0e, 0x3f, 0xbf, 0x3c, 0x16, 0x3d, 0x9c, 0x36, 0x3b, 0xbe,
    0x9e, 0x50, 0xea, 0xbe, 0x97, 0x45, 0xb2, 0x3f, 0xdd, 0x95, 0x2b, 0x40,
    0xf2, 0xc9, 0x8e, 0x3d, 0x4d, 0x24, 0xc2, 0x3e, 0x42, 0xd5, 0xeb, 0xbd,
    0x1d, 0x05, 0xdb, 0x3e, 0xc5, 0xaa, 0xe3, 0x3e, 0x31, 0x4e, 0x78, 0xbe,
    0xe8, 0x4a, 0x61, 0x3e, 0x43, 0xf4, 0x86, 0x3e, 0xf8, 0x64, 0x66, 0xc0,
    0x4e, 0x2d, 0xa2, 0x3f, 0x00, 0x3c, 0x07, 0x3b, 0x28, 0x0c, 0x4e, 0xbe,
    0xba, 0xeb, 0x96, 0x3d, 0xb2, 0xdd, 0xbf, 0x3f, 0x62, 0x73, 0x29, 0xbf,
    0x90, 0xea, 0xe1, 0xbd, 0xe1, 0xad, 0x34, 0x3e, 0xab, 0xf8, 0xdb, 0xbc,
    0x8b, 0x32, 0xb9, 0x3e, 0xce, 0xf3, 0xfa, 0xbe, 0x90, 0xc4, 0xf0, 0x3e,
    0x00, 0xfd, 0x73, 0x3f, 0xcf, 0xe0, 0x6b, 0x3e, 0x0f, 0xd8, 0x35, 0x3f,
    0xd8, 0x6f, 0x91, 0x3d, 0xbc, 0xfc, 0x34, 0x3d, 0x73, 0xe5, 0xdf, 0x3e,
    0x4a, 0x08, 0x26, 0xbf, 0x4b, 0x26, 0xef, 0xbe, 0x14, 0x53, 0x13, 0x3e,
    0x49, 0x1c, 0x15, 0xc0, 0x14, 0x50, 0x2f, 0x3f, 0x94, 0x11, 0xed, 0xbf,
    0x2b, 0xc6, 0x8b, 0xbd, 0x3d, 0x95, 0x84, 0x3e, 0xee, 0x48, 0x41, 0xc0,
    0xa6, 0xfd, 0xd4, 0x3e, 0xd6, 0x14, 0x09, 0xbd, 0xcf, 0xcb, 0x32, 0x3e,
    0x0b, 0xf4, 0xc0, 0xbe, 0x56, 0xdf, 0xe0, 0xbd, 0x8d, 0x51, 0xfa, 0x3e,
    0x00, 0x42, 0x6d, 0x3a, 0x1c, 0x28, 0x09, 0x3f, 0xf7, 0x18, 0x95, 0x3e,
    0x61, 0x20, 0x84, 0xbd, 0xda, 0x8f, 0xc4, 0xbe, 0x22, 0xb1, 0x55, 0x3e,
    0x61, 0xf3, 0xc3, 0x3e, 0x30, 0x33, 0x9c, 0x3e, 0x32, 0x8a, 0xc8, 0x3e,
    0xba, 0xe2, 0x7f, 0x3f, 0x25, 0x98, 0x0e, 0x3f, 0xf5, 0xf5, 0xa6, 0x3e,
    0xbe, 0x17, 0x3b, 0x3e, 0xc2, 0x5c, 0xa4, 0x3e, 0x46, 0x5a, 0x1e, 0xbe,
    0x78, 0x61, 0x22, 0xbf, 0xae, 0x32, 0xc6, 0xbe, 0x6b, 0x12, 0xfc, 0x3e,
    0xb1, 0x2f, 0x82, 0xbe, 0x7f, 0x54, 0xed, 0x3e, 0x7b, 0x1e, 0xc5, 0xbd,
    0x37, 0x3e, 0xf0, 0xbe, 0x98, 0x55, 0xdb, 0x3c, 0x24, 0x81, 0x18, 0x3f,
    0x32, 0x4b, 0x26, 0x3e, 0x3f, 0x9f, 0x0b, 0xbf, 0xda, 0x03, 0x1e, 0xbf,
    0x42, 0x65, 0x7d, 0xbd, 0xd9, 0x0e, 0x8d, 0xbf, 0x35, 0xfb, 0x8f, 0x3d,
    0x96, 0x27, 0x4d, 0x3f, 0x59, 0x5f, 0x75, 0x3e, 0x60, 0xad, 0x28, 0x3d,
    0xf7, 0x04, 0x13, 0x3d, 0x15, 0xd1, 0x7a, 0xbe, 0xbe, 0x4d, 0x0f, 0x3f,
    0xa9, 0xc3, 0x3b, 0x3f, 0x80, 0xb9, 0x4f, 0xbc, 0x96, 0x41, 0xc9, 0x3d,
    0x1a, 0xe2, 0x4c, 0xbf, 0xdf, 0xd1, 0x97, 0x3d, 0x5c, 0xa2, 0xbb, 0xbe,
    0xb2, 0xc3, 0xa6, 0x3e, 0x79, 0xc7, 0x9b, 0xbf, 0x1b, 0x20, 0x5c, 0xbf,
    0xee, 0x92, 0xa9, 0xbd, 0xff, 0x00, 0x0b, 0x3f, 0x72, 0x9e, 0x68, 0xbe,
    0xd6, 0x10, 0x2a, 0x3e, 0x5c, 0x37, 0x01, 0x3f, 0xcc, 0xfc, 0xa1, 0x3f,
    0x88, 0x77, 0xf3, 0x3e, 0xcf, 0x73, 0xda, 0x3d, 0x13, 0x5e, 0x9d, 0x3e,
    0xc6, 0x90, 0x1d, 0x3f, 0x9f, 0x1d, 0x90, 0xbf, 0x82, 0x10, 0x04, 0x3f,
    0x94, 0x33, 0x9a, 0x3f, 0x5d, 0x0b, 0xa5, 0xbf, 0x85, 0xf8, 0x83, 0x3e,
    0x18, 0xdd, 0x43, 0x3e, 0xf7, 0x84, 0xd0, 0x3e, 0x3c, 0x52, 0x7f, 0x3e,
    0xfd, 0x78, 0x2c, 0xbf, 0xe0, 0x4a, 0x63, 0xbd, 0xbd, 0xbc, 0x2b, 0xbf,
    0x04, 0xca, 0xb4, 0xbd, 0x95, 0xe2, 0xb0, 0xbe, 0xea, 0xd3, 0x8d, 0x3e,
    0xa7, 0x26, 0x89, 0xbe, 0xfc, 0x09, 0x59, 0xbe, 0x4e, 0x88, 0x04, 0xbf,
    0x17, 0x27, 0xd4, 0x3d, 0x63, 0xdd, 0x00, 0xbe, 0x84, 0xea, 0x80, 0x3e,
    0x42, 0xbd, 0x17, 0xbf, 0x92, 0xb5, 0x9b, 0x3f, 0x17, 0xb4, 0x82, 0x3f,
    0x5e, 0xdf, 0xd1, 0xbe, 0x70, 0xa7, 0x01, 0x3f, 0x8a, 0x4f, 0x0c, 0x3e,
    0x59, 0xce, 0xac, 0xbe, 0xdc, 0x2d, 0x3e, 0xbf, 0xbc, 0x0b, 0xce, 0xbe,
    0x5a, 0xc5, 0x90, 0xbe, 0xa4, 0x1b, 0xed, 0xbe, 0x2c, 0xc7, 0xb0, 0x3e,
    0xf6, 0x65, 0x46, 0x3f, 0xb2, 0x36, 0x6e, 0xbe, 0x57, 0x7a, 0xd9, 0x3e,
    0x8e, 0xf2, 0x4b, 0x3f, 0x4a, 0x02, 0x2f, 0x3d, 0x7d, 0x29, 0x81, 0x3e,
    0x33, 0xc6, 0x47, 0xbf, 0xd2, 0xf3, 0x09, 0x3f, 0x62, 0x62, 0x80, 0x3f,
    0x34, 0xd3, 0x06, 0x3e, 0x20, 0xc1, 0x3c, 0x3f, 0x26, 0xc2, 0x1f, 0xbe,
    0xcf, 0xef, 0x4d, 0x3e, 0x86, 0x59, 0x5e, 0x3e, 0x9a, 0x17, 0x05, 0x3e,
    0xbe, 0x37, 0x06, 0x3c, 0x40, 0x21, 0x0c, 0xbe, 0x5f, 0xec, 0xd8, 0x3d,
    0xb4, 0x60, 0x3e, 0x3f, 0x77, 0xae, 0x9c, 0x3d, 0x00, 0x3e, 0x8c, 0x3f,
    0x9a, 0xf6, 0xff, 0xff, 0x04, 0x00, 0x00, 0x00, 0x80, 0x07, 0x00, 0x00,
    0x10, 0x8c, 0x71, 0x3e, 0x17, 0x4b, 0xd4, 0x3e, 0x8a, 0x7a, 0x79, 0x3e,
    0x30, 0x23, 0xc9, 0x3e, 0x47, 0xa4, 0x6b, 0x3f, 0x09, 0x77, 0x40, 0x3d,
    0x8a, 0xcf, 0xbb, 0x3e, 0x2b, 0xfd, 0xc2, 0x3f, 0x1e, 0xb1, 0xac, 0xbd,
    0x77, 0x37, 0xe0, 0xbe, 0xb7, 0x74, 0xe3, 0x3d, 0xc0, 0xbf, 0x46, 0x3c,
    0xc0, 0xbb, 0xf7, 0x3c, 0xaa, 0xb2, 0xc3, 0xbe, 0xb5, 0x39, 0x85, 0xbe,
    0xe9, 0x2a, 0x07, 0x3f, 0x41, 0x4f, 0x8a, 0xbe, 0x4e, 0xb1, 0x8b, 0x3f,
    0x4f, 0xaf, 0x4c, 0x3f, 0x22, 0xdc, 0x1e, 0xbe, 0x88, 0xdc, 0x84, 0x3f,
    0xde, 0xa0, 0x0c, 0xbd, 0xa0, 0x90, 0xdf, 0xbe, 0x4d, 0xab, 0xc9, 0xbd,
    0x5b, 0x22, 0x88, 0xbe, 0x66, 0x80, 0x39, 0xbe, 0x1b, 0x66, 0x1b, 0x3f,
    0x01, 0x81, 0xc7, 0xbd, 0xbc, 0x82, 0x80, 0x3d, 0xca, 0x53, 0x1b, 0x3e,
    0xaa, 0x20, 0x59, 0xbf, 0x2c, 0xb9, 0x48, 0x3e, 0x7a, 0x68, 0x81, 0x3f,
    0xa8, 0xe1, 0x22, 0xbf, 0x62, 0x23, 0xba, 0x3e, 0x8d, 0x2e, 0x4f, 0x3f,
    0xdb, 0xc5, 0xc3, 0xbe, 0xd4, 0x81, 0x52, 0x3f, 0x76, 0x90, 0xc2, 0x3e,
    0x9f, 0xd3, 0xcb, 0x3c, 0x66, 0xdf, 0x96, 0x3d, 0xaa, 0xe8, 0xfa, 0xbd,
    0xeb, 0xff, 0xd0, 0x3e, 0xbe, 0x79, 0xe7, 0x3d, 0xe4, 0x2a, 0xa4, 0xbd,
    0xa9, 0xa5, 0x50, 0xbf, 0x19, 0xda, 0x6d, 0xbf, 0xbf, 0x18, 0xed, 0x3e,
    0x6a, 0x51, 0x87, 0xbf, 0x67, 0xab, 0x2e, 0xbf, 0x33, 0x29, 0xd3, 0x3d,
    0x27, 0xe4, 0x99, 0x3d, 0xea, 0xdb, 0x57, 0x3f, 0xfe, 0x65, 0xcb, 0x3e,
    0xa5, 0xcd, 0x32, 0xbf, 0xc3, 0x07, 0xee, 0xbd, 0xb3, 0x99, 0x2a, 0xbe,
    0x19, 0xa1, 0xf3, 0xbe, 0xd2, 0x4b, 0x62, 0x3e, 0x66, 0xfc, 0x08, 0xbe,
    0x8a, 0xbf, 0x01, 0xbf, 0x16, 0xbe, 0x62, 0xbd, 0xd8, 0xe9, 0x51, 0x3e,
    0xa5, 0xa9, 0x43, 0xbe, 0x36, 0xdf, 0x66, 0xbc, 0x9a, 0x59, 0x33, 0xbe,
    0xd8, 0xef, 0x94, 0xbe, 0xe4, 0x5b, 0xd3, 0xbe, 0x03, 0xff, 0x0c, 0x3e,
    0xe4, 0x62, 0x11, 0xbf, 0xb7, 0x6b, 0x00, 0x3e, 0x4d, 0x25, 0x9e, 0xbe,
    0x1e, 0xc3, 0x0a, 0xbd, 0xaa, 0x44, 0x2b, 0xbf, 0x98, 0xa5, 0x33, 0xbe,
    0x13, 0x7a, 0x37, 0xbf, 0x64, 0x54, 0x8d, 0xbf, 0x5b, 0x2f, 0x5d, 0xbf,
    0xc8, 0xb6, 0x36, 0xbe, 0xa2, 0x9d, 0x89, 0xbf, 0x1d, 0xb0, 0x21, 0xbf,
    0xad, 0xdc, 0xd2, 0xbe, 0xd6, 0xa1, 0xac, 0xbd, 0x10, 0x26, 0xd9, 0xbe,
    0x4a, 0xa1, 0x2d, 0xbe, 0xc3, 0x56, 0x2c, 0xbd, 0x9a, 0xd1, 0x28, 0xbe,
    0x01, 0x98, 0x85, 0x3d, 0xee, 0xb8, 0xb6, 0xbe, 0x25, 0x94, 0x73, 0x3e,
    0x9b, 0x58, 0x88, 0xbd, 0x87, 0x3d, 0x8b, 0xbe, 0x7b, 0x2f, 0xd4, 0x3d,
    0x92, 0xbb, 0x80, 0xbe, 0x0b, 0xaa, 0xad, 0x3e, 0x3c, 0x0e, 0x98, 0xbe,
    0x20, 0xca, 0x7c, 0xbe, 0xc1, 0xfd, 0x4c, 0x3f, 0x6c, 0xed, 0xef, 0x3d,
    0xff, 0xbf, 0x09, 0xbd, 0xad, 0x76, 0x28, 0x3e, 0x8f, 0xe8, 0x51, 0xbd,
    0x2b, 0x0b, 0xc6, 0x3d, 0x54, 0xdb, 0x4f, 0x3f, 0x2e, 0xbc, 0xf4, 0xbe,
    0x2d, 0xdb, 0x06, 0xbf, 0xc7, 0xb5, 0x7f, 0x3f, 0x2a, 0x8e, 0xb1, 0x3e,
    0xc9, 0x26, 0x88, 0xbf, 0xcf, 0x8f, 0xed, 0x3e, 0x98, 0xe4, 0xc4, 0x3e,
    0x81, 0xbb, 0x80, 0x3d, 0xfe, 0xa3, 0x8b, 0x3f, 0x05, 0x72, 0x95, 0xbe,
    0x28, 0x27, 0x89, 0xbe, 0xb7, 0x6d, 0x33, 0xbe, 0xe3, 0xe7, 0x0e, 0xbf,
    0xf2, 0x6a, 0xbc, 0x3d, 0x11, 0xe4, 0x40, 0x3e, 0xca, 0xeb, 0x45, 0x3e,
    0xf8, 0xe5, 0xcc, 0x3f, 0x77, 0xe4, 0xb7, 0xbf, 0xe6, 0xde, 0x97, 0x3e,
    0x5c, 0x76, 0xca, 0x3f, 0xc9, 0x55, 0x8f, 0xbf, 0xc5, 0x4c, 0x30, 0x3f,
    0x98, 0xcc, 0xb7, 0x3e, 0xd4, 0x56, 0xeb, 0xbe, 0x6a, 0xae, 0xe2, 0xbe,
    0x24, 0x6c, 0x40, 0x3c, 0xb0, 0xa3, 0x6d, 0xbe, 0x51, 0x5f, 0x41, 0x3e,
    0x4f, 0xaa, 0xa3, 0x3c, 0x91, 0x9b, 0x46, 0xbd, 0x45, 0xb7, 0x82, 0xbd,
    0x07, 0xc8, 0xef, 0xbe, 0xc4, 0x64, 0x6e, 0x3f, 0x99, 0xb2, 0x42, 0xbf,
    0xc1, 0x1f, 0x23, 0xbf, 0x7a, 0xae, 0x7c, 0x3f, 0x1d, 0xea, 0xc9, 0xbe,
    0x41, 0x88, 0x61, 0x3d, 0xec, 0x3f, 0x10, 0x3f, 0x46, 0xe1, 0x16, 0xbd,
    0x94, 0x0e, 0xb9, 0xbe, 0x58, 0x79, 0xb0, 0xbe, 0x28, 0x8f, 0x9b, 0x3d,
    0x91, 0x18, 0x14, 0x3e, 0xc9, 0x98, 0x42, 0x3e, 0xde, 0xb4, 0xe1, 0xbd,
    0xc6, 0xfd, 0x69, 0xbf, 0x92, 0xcb, 0x01, 0xc0, 0x3b, 0x56, 0x88, 0x3d,
    0x66, 0x2e, 0x5c, 0xbf, 0xa0, 0x6e, 0xf2, 0xbf, 0x45, 0x88, 0x38, 0xbc,
    0x10, 0x84, 0x02, 0x3e, 0xea, 0x37, 0xd2, 0xbe, 0x49, 0x81, 0x87, 0xbe,
    0xf5, 0x78, 0x53, 0xbe, 0x49, 0xb9, 0xd4, 0xbe, 0x30, 0x25, 0x82, 0x3e,
    0x24, 0x57, 0xf9, 0x3b, 0xef, 0x04, 0x70, 0x3b, 0xbc, 0x2b, 0x57, 0x3d,
    0xd4, 0xad, 0xc2, 0xbd, 0x51, 0xdf, 0xaa, 0xbe, 0x7f, 0xe7, 0x07, 0xc0,
    0x82, 0xd7, 0xf6, 0xbc, 0xa7, 0xca, 0x6f, 0x3d, 0x5b, 0x00, 0x06, 0xc0,
    0x18, 0xcf, 0x9e, 0x3e, 0x6a, 0x41, 0x18, 0xbe, 0x36, 0x4f, 0x40, 0xbe,
    0xd2, 0x37, 0x3d, 0x3c, 0x1d, 0x8d, 0x00, 0x3f, 0x46, 0xc5, 0x07, 0xbe,
    0x59, 0x17, 0x14, 0x3e, 0x3b, 0x2f, 0x08, 0x3e, 0x36, 0x04, 0xf5, 0xbd,
    0xe0, 0x27, 0x22, 0xbf, 0xe2, 0xee, 0x14, 0x3f, 0x98, 0x60, 0x4c, 0x3f,
    0x90, 0xd9, 0x51, 0xbf, 0x58, 0x12, 0x2a, 0x3f, 0x7c, 0x8c, 0x25, 0x3f,
    0x26, 0x61, 0x47, 0x3e, 0x91, 0xe5, 0x30, 0xbe, 0x2a, 0xec, 0x1a, 0xbb,
    0x9b, 0x5d, 0x4d, 0xbe, 0x0c, 0x1b, 0x08, 0x3f, 0x1a, 0xd1, 0x64, 0xbe,
    0x91, 0xbc, 0x3e, 0x3d, 0xbb, 0x99, 0xa7, 0x3e, 0x0d, 0x1f, 0x34, 0xbc,
    0xd8, 0xdc, 0x9a, 0x3f, 0xac, 0x7e, 0x9b, 0xbe, 0xc7, 0x9f, 0xc9, 0xbe,
    0x1c, 0xbc, 0x98, 0x3f, 0x0a, 0x7f, 0x48, 0xbe, 0xdf, 0xc1, 0x6b, 0xbe,
    0xc7, 0x5b, 0xe6, 0x3e, 0xb5, 0x93, 0xbf, 0xbe, 0xc4, 0xa3, 0x80, 0x3d,
    0xc8, 0xa0, 0x95, 0x3e, 0x9d, 0xc7, 0x0b, 0xbe, 0x96, 0x56, 0xb7, 0x3c,
    0x58, 0x75, 0x73, 0x3e, 0x80, 0x63, 0xd5, 0xbc, 0xc0, 0xa8, 0xe0, 0x3d,
    0x81, 0xd6, 0x69, 0x3e, 0x96, 0x99, 0xb0, 0xbd, 0xbb, 0xe2, 0x93, 0x3e,
    0x53, 0x61, 0x0f, 0x3e, 0x3e, 0x0c, 0xb4, 0x3d, 0xd4, 0x48, 0xe7, 0x3c,
    0x36, 0x0f, 0x3d, 0xbe, 0xc0, 0x0b, 0x4f, 0xbf, 0x47, 0x24, 0xd2, 0xbe,
    0x01, 0xb7, 0x39, 0x3e, 0x53, 0x67, 0xd3, 0xbe, 0xef, 0xcf, 0x16, 0xbe,
    0xcc, 0x32, 0x58, 0xbe, 0x0f, 0xb1, 0xaf, 0xbe, 0xf6, 0xc6, 0xa6, 0xbc,
    0xc2, 0x64, 0x6b, 0xbe, 0x2a, 0x2c, 0x33, 0xbe, 0x4f, 0x34, 0xca, 0x3c,
    0x59, 0x88, 0x82, 0x3e, 0x12, 0xce, 0x0b, 0xbb, 0xde, 0xf1, 0x06, 0xbe,
    0x2b, 0xd3, 0xde, 0x3d, 0xf3, 0x42, 0x63, 0x3e, 0xad, 0xef, 0xae, 0x3c,
    0x83, 0x3b, 0x28, 0x3e, 0xc6, 0x22, 0x12, 0xbe, 0x03, 0x79, 0x46, 0xbd,
    0xf0, 0x0e, 0x06, 0x3e, 0x5d, 0x21, 0xa5, 0x3e, 0xe5, 0xe7, 0xbb, 0xbd,
    0xe8, 0xc7, 0x42, 0xbf, 0x6e, 0x65, 0xf9, 0x3d, 0x2c, 0x09, 0x5e, 0xbc,
    0xda, 0x2d, 0x06, 0xbf, 0x6c, 0xd8, 0xca, 0x3d, 0x63, 0xa0, 0xe0, 0xbe,
    0x3e, 0x27, 0xe4, 0xbe, 0xc5, 0x06, 0x90, 0xbf, 0xbd, 0x18, 0x95, 0xbe,
    0xf1, 0x35, 0x20, 0xbe, 0xfb, 0x0e, 0xc3, 0x3e, 0x21, 0xd8, 0xce, 0x3e,
    0x4f, 0x13, 0x12, 0x3e, 0x8a, 0x7f, 0xc1, 0xbe, 0x29, 0x04, 0x9d, 0x3e,
    0x78, 0x0f, 0xae, 0xbe, 0xff, 0x69, 0xe5, 0x3e, 0x62, 0xf3, 0xb8, 0xbe,
    0xe8, 0x69, 0xcf, 0xbd, 0x04, 0xbc, 0xea, 0x3d, 0x9e, 0xfd, 0xf7, 0xbe,
    0x33, 0xcd, 0x57, 0x3e, 0x6f, 0x9b, 0x86, 0x3d, 0x5d, 0x9c, 0xa0, 0xbd,
    0x57, 0x55, 0x48, 0xbe, 0xcb, 0xf7, 0xf6, 0x3e, 0x66, 0xa3, 0xc1, 0xbd,
    0x63, 0x39, 0x3a, 0xbd, 0xbb, 0x1e, 0x20, 0x3f, 0xb6, 0xd7, 0xd8, 0xbe,
    0xf9, 0x01, 0x47, 0xbf, 0xe7, 0x39, 0x7d, 0xbf, 0xd7, 0xb9, 0xbb, 0x3f,
    0x0d, 0x3a, 0x1f, 0xbf, 0xd9, 0x14, 0x7e, 0xbf, 0x3b, 0xbb, 0xb6, 0x3f,
    0x75, 0x2f, 0x75, 0x3e, 0x20, 0x4c, 0x75, 0xbe, 0xf3, 0x90, 0x27, 0x3e,
    0x64, 0xce, 0x8e, 0x3e, 0xe7, 0x9c, 0x4b, 0x3d, 0xff, 0x26, 0x82, 0xbc,
    0x60, 0xea, 0xeb, 0xbd, 0xef, 0x36, 0xa4, 0xbe, 0x27, 0x64, 0x85, 0x3e,
    0x39, 0xd9, 0x89, 0xbe, 0x00, 0xb8, 0xcb, 0xbc, 0x14, 0x25, 0x12, 0x3d,
    0xd6, 0xf4, 0x4b, 0xbf, 0x4e, 0x68, 0x8a, 0x3e, 0x1a, 0x9f, 0x31, 0x3e,
    0x2e, 0x49, 0xa0, 0x3e, 0xc5, 0xb8, 0x07, 0x3e, 0x41, 0xfa, 0x56, 0x3f,
    0x4f, 0xc4, 0x0d, 0xbf, 0x1d, 0x7a, 0x9b, 0xbe, 0xee, 0x3e, 0x67, 0xbf,
    0x10, 0x6b, 0xa3, 0xbe, 0xb9, 0xd3, 0x9e, 0xbe, 0x0f, 0x39, 0x18, 0xbe,
    0xd0, 0xeb, 0x42, 0xbe, 0x54, 0xc0, 0xda, 0xbd, 0x11, 0x29, 0xa8, 0xbe,
    0x3c, 0xc3, 0x9f, 0x3e, 0x38, 0x04, 0x22, 0x3d, 0x70, 0x11, 0xb2, 0xbc,
    0xc2, 0xc9, 0x8e, 0x3e, 0x18, 0x5c, 0xcd, 0xbd, 0x27, 0x50, 0x13, 0xbe,
    0xe8, 0x72, 0x31, 0x3e, 0xd8, 0x47, 0xc3, 0x3d, 0xde, 0x38, 0x64, 0xbe,
    0x0c, 0x54, 0x5c, 0x3e, 0x6a, 0x8d, 0x91, 0x3e, 0xfe, 0x71, 0x0c, 0x3e,
    0xdd, 0xe4, 0xfe, 0x3e, 0x62, 0x3f, 0x57, 0xbe, 0xa9, 0x98, 0x36, 0x3f,
    0x8d, 0xd7, 0x45, 0x3e, 0xec, 0x18, 0x11, 0xbf, 0xa6, 0x57, 0xbb, 0x3e,
    0xc4, 0xc1, 0xe2, 0x3c, 0xba, 0x30, 0xf0, 0xbd, 0x2c, 0xc4, 0x05, 0xbe,
    0x84, 0x5e, 0x2e, 0x3e, 0x65, 0x88, 0xcc, 0xbe, 0xa2, 0xba, 0x5c, 0x3d,
    0x49, 0x9b, 0x9c, 0x3b, 0x78, 0xaf, 0x23, 0xbf, 0x7a, 0xca, 0xa2, 0xbe,
    0xb0, 0xd1, 0xa5, 0x3d, 0x46, 0x5d, 0x3b, 0x3e, 0x29, 0xcf, 0x8d, 0x3e,
    0xdf, 0xc0, 0xa0, 0x3e, 0xf2, 0xa6, 0x74, 0x3e, 0xf8, 0x11, 0x81, 0x3e,
    0x2b, 0xf6, 0x5e, 0xbe, 0x62, 0x79, 0x33, 0xbf, 0x2f, 0xa2, 0xd0, 0xbe,
    0xbf, 0x69, 0x80, 0x3e, 0xe0, 0xb9, 0x24, 0xbe, 0xf2, 0x37, 0x6f, 0x3d,
    0xfe, 0xbc, 0xf3, 0xbe, 0x47, 0x4a, 0x18, 0xbf, 0x14, 0xff, 0xbc, 0xbc,
    0x54, 0xac, 0x1b, 0xbf, 0x03, 0x6d, 0xf0, 0x3d, 0xc5, 0xbb, 0x85, 0x3f,
    0xfa, 0x48, 0x0c, 0xbf, 0x5f, 0x70, 0x10, 0x3e, 0x1d, 0xa1, 0x82, 0x3f,
    0x4c, 0xa8, 0xcb, 0xbe, 0x8a, 0x9d, 0x55, 0x3f, 0x28, 0xc5, 0x51, 0xbe,
    0xe0, 0x01, 0xb9, 0xbe, 0x1e, 0x84, 0x1b, 0xbf, 0x0f, 0x95, 0x6e, 0x3e,
    0xcc, 0x23, 0x9b, 0x3e, 0x73, 0xc8, 0x1c, 0x3e, 0x27, 0x9d, 0x27, 0x3e,
    0x7a, 0x45, 0x06, 0x3f, 0x60, 0x4e, 0x29, 0x3f, 0x01, 0x49, 0xa6, 0x3d,
    0x1d, 0x4e, 0xf3, 0x3e, 0x33, 0xd9, 0x80, 0x3f, 0x2d, 0xfa, 0x1e, 0x3e,
    0x0e, 0x13, 0x2e, 0x3e, 0x6d, 0xf9, 0x27, 0xbd, 0x77, 0xd8, 0xf2, 0xbe,
    0xb5, 0xca, 0x7b, 0x3e, 0x32, 0x7d, 0xa8, 0x3e, 0xbf, 0x34, 0x7d, 0x3e,
    0x9e, 0x08, 0xaf, 0x3e, 0x05, 0x51, 0xf8, 0x3e, 0x4e, 0xa1, 0x3f, 0x3e,
    0x8a, 0x4d, 0x9f, 0x3e, 0x0f, 0x73, 0xa2, 0xbe, 0xe4, 0x05, 0x40, 0xbe,
    0xa4, 0x6e, 0x2e, 0x3e, 0x26, 0x22, 0x8a, 0xbe, 0x10, 0x25, 0x3a, 0x3e,
    0xe0, 0x2f, 0x09, 0x3c, 0x6a, 0x04, 0x84, 0x3e, 0xee, 0x38, 0x14, 0xbe,
    0x79, 0x2a, 0xa2, 0xbe, 0x1c, 0xa2, 0x6f, 0xbe, 0x78, 0x62, 0x36, 0x3d,
    0xdc, 0xbd, 0x84, 0x3e, 0x4c, 0x50, 0x8d, 0x3e, 0xb8, 0x94, 0x97, 0x3e,
    0x87, 0x6a, 0x7c, 0xbe, 0x97, 0x45, 0xc5, 0xbe, 0xf6, 0xfa, 0xa5, 0xbf,
    0x11, 0x37, 0x52, 0x3e, 0xed, 0xdf, 0xc2, 0xbe, 0x4e, 0x15, 0x8b, 0xbf,
    0x7e, 0x57, 0x8e, 0xbe, 0x06, 0xc4, 0x2b, 0xbe, 0xb4, 0x9f, 0x40, 0xbe,
    0x7c, 0x89, 0xa0, 0x3e, 0xfc, 0xed, 0xde, 0x3e, 0xb6, 0xc8, 0x8c, 0xbe,
    0x12, 0x70, 0xe1, 0xbe, 0xb7, 0x10, 0x17, 0xbf, 0x8c, 0x1d, 0x10, 0x3d,
    0x53, 0x27, 0x2f, 0xbe, 0x80, 0xfa, 0xe8, 0x3e, 0x5b, 0x90, 0x18, 0xbd,
    0xc5, 0x9c, 0x58, 0xbe, 0x48, 0x3d, 0xea, 0x3d, 0x62, 0x60, 0xbc, 0xbd,
    0x8f, 0x91, 0xab, 0xbe, 0x33, 0xfa, 0x4e, 0xbe, 0x1b, 0xa9, 0x91, 0xbe,
    0x55, 0x34, 0x96, 0x3e, 0x17, 0xfc, 0xf1, 0xbd, 0x7e, 0x9a, 0x07, 0xbe,
    0x0a, 0x13, 0x7e, 0xbe, 0x88, 0xb0, 0x34, 0xbf, 0xab, 0x55, 0xf9, 0x3e,
    0x39, 0x8b, 0x9b, 0xbe, 0x41, 0x13, 0x00, 0x3d, 0x71, 0x7b, 0x10, 0xbe,
    0x4b, 0x77, 0x91, 0xbe, 0x7a, 0xf6, 0x0c, 0x3e, 0x9f, 0x00, 0x5e, 0xbe,
    0x2a, 0x50, 0x8b, 0x3e, 0x1b, 0x16, 0xc3, 0x3e, 0x01, 0xaa, 0x02, 0xbe,
    0xde, 0xac, 0xbd, 0xbe, 0x28, 0x9a, 0xd9, 0xbe, 0xc6, 0x19, 0x3f, 0xbe,
    0x04, 0x84, 0xe8, 0x3e, 0x04, 0xab, 0xe2, 0x3d, 0xc4, 0xf6, 0xdb, 0x3d,
    0x32, 0x1d, 0x6a, 0xbf, 0xa7, 0xea, 0x10, 0xbe, 0xaf, 0xdd, 0x5e, 0x3d,
    0x14, 0x02, 0x92, 0xbf, 0x72, 0x33, 0xfa, 0xbe, 0x4f, 0x79, 0x1d, 0x3f,
    0xc4, 0x12, 0x07, 0xbf, 0xd8, 0xb2, 0xc3, 0xbe, 0x9a, 0x23, 0x39, 0x3d,
    0x6e, 0x2c, 0x8b, 0xbd, 0xa2, 0x13, 0x26, 0xbd, 0xa8, 0x43, 0x55, 0xbe,
    0x89, 0xa0, 0x18, 0x3d, 0xfd, 0xcd, 0x0b, 0xbf, 0xf9, 0x49, 0x4c, 0xbd,
    0x34, 0x91, 0xbf, 0x3e, 0x4f, 0xfd, 0x0a, 0x3f, 0x42, 0xe9, 0x98, 0x3f,
    0x02, 0xd1, 0xa3, 0xbe, 0x16, 0x9f, 0xce, 0x3e, 0xea, 0xe1, 0x89, 0x3f,
    0x2a, 0x70, 0x97, 0x3e, 0xe6, 0x08, 0x87, 0xbe, 0xfa, 0xb7, 0xee, 0x3e,
    0x0e, 0x17, 0x99, 0xbe, 0xc5, 0x20, 0x83, 0x3e, 0x00, 0xdb, 0xce, 0x3b,
    0x68, 0x8f, 0xcd, 0x3e, 0x71, 0x40, 0xae, 0x3d, 0x36, 0x29, 0x88, 0xbd,
    0x61, 0xf3, 0xad, 0xbd, 0x85, 0x9b, 0x11, 0x3f, 0x23, 0x64, 0xb8, 0xbb,
    0x81, 0x2e, 0xfd, 0xbd, 0x57, 0xde, 0x4f, 0x3d, 0xe0, 0xfb, 0xfa, 0xbe,
    0x01, 0xb6, 0xcb, 0xbd, 0x3e, 0x01, 0x5b, 0xbf, 0xc8, 0x0b, 0xf3, 0x3e,
    0x3f, 0x8b, 0x8f, 0x3e, 0xd7, 0xa6, 0xd8, 0xbe, 0x2d, 0x4e, 0x4e, 0x3e,
    0x9e, 0xf7, 0xff, 0xbe, 0xc0, 0x2f, 0x98, 0xbe, 0x7e, 0xc5, 0x05, 0x3e,
    0x26, 0xfe, 0xff, 0xff, 0x04, 0x00, 0x00, 0x00, 0x80, 0x00, 0x00, 0x00,
    0x13, 0x02, 0xed, 0xbc, 0x18, 0x72, 0xc0, 0xbe, 0xce, 0x9d, 0x05, 0x3f,
    0xa9, 0x5c, 0x6e, 0x3e, 0xf6, 0xf0, 0x88, 0xbe, 0xa5, 0x9a, 0x19, 0x3e,
    0x9a, 0xab, 0x41, 0x3f, 0xb1, 0x8d, 0xd6, 0xbb, 0xc9, 0xd3, 0x21, 0x3f,
    0x5b, 0x1c, 0x97, 0xbd, 0xeb, 0x77, 0x29, 0x3e, 0x14, 0x13, 0xcb, 0x3c,
    0xb1, 0x74, 0xda, 0x3d, 0x28, 0x72, 0x96, 0x3e, 0xff, 0xff, 0x35, 0xbf,
    0xb8, 0xdd, 0x65, 0xbc, 0x60, 0xaf, 0x4d, 0xbf, 0xc9, 0x96, 0x0b, 0x3f,
    0x95, 0xbf, 0x27, 0x3e, 0xf2, 0xae, 0xbd, 0x3e, 0x00, 0x00, 0x00, 0x00,
    0x70, 0x0e, 0xa1, 0xbe, 0x4f, 0x59, 0x71, 0xbf, 0xb2, 0x8e, 0xdd, 0x3b,
    0xd3, 0xc7, 0xfb, 0x3d, 0x00, 0x00, 0x00, 0x00, 0x61, 0x50, 0x5d, 0x3e,
    0x8e, 0x85, 0x4a, 0xbf, 0xf5, 0xf2, 0x5a, 0x3e, 0x6e, 0x9a, 0x90, 0xbe,
    0xf3, 0x27, 0x7f, 0x3e, 0x3a, 0x1d, 0x50, 0xbf, 0xb2, 0xfe, 0xff, 0xff,
    0x04, 0x00, 0x00, 0x00, 0x20, 0x00, 0x00, 0x00, 0x34, 0x80, 0xbf, 0xbc,
    0xf4, 0xc3, 0x52, 0x3d, 0x8c, 0xee, 0x74, 0x3e, 0xc6, 0x70, 0x9b, 0xbd,
    0xf4, 0x2e, 0x35, 0xbe, 0xbe, 0x5d, 0x53, 0x3e, 0xdd, 0x21, 0x20, 0x3d,
    0xbd, 0x4e, 0x2e, 0xbd, 0xde, 0xfe, 0xff, 0xff, 0x04, 0x00, 0x00, 0x00,
    0x80, 0x00, 0x00, 0x00, 0x00, 0x00, 0x00, 0x00, 0xb7, 0x65, 0x37, 0x3e,
    0x6d, 0x0e, 0xfe, 0x3e, 0xc7, 0xdd, 0x84, 0xbe, 0xd4, 0x0d, 0x32, 0xbe,
    0x60, 0x8a, 0x3b, 0x3e, 0x63, 0x0b, 0x55, 0xbd, 0x70, 0x8e, 0xb4, 0x3e,
    0xd5, 0xb0, 0x83, 0xbd, 0x68, 0x65, 0x80, 0xbd, 0x1d, 0xb2, 0x55, 0xbe,
    0xa8, 0xd6, 0x37, 0xbe, 0xba, 0xcf, 0xf4, 0xbc, 0xfa, 0x12, 0x23, 0x3e,
    0x0a, 0x44, 0xb4, 0x3e, 0xa9, 0x34, 0x9a, 0x3e, 0xb9, 0x41, 0x1f, 0x3e,
    0x56, 0xe6, 0xa2, 0xbd, 0xee, 0x25, 0xcb, 0x3e, 0x0c, 0xad, 0x26, 0x3d,
    0x91, 0x52, 0x84, 0xbe, 0xed, 0x5e, 0xb2, 0x3e, 0xfd, 0x58, 0x82, 0xbd,
    0x28, 0x53, 0xeb, 0x3e, 0xd8, 0x29, 0xa7, 0x3c, 0x69, 0x5d, 0x11, 0xbf,
    0x73, 0x57, 0xd7, 0x3d, 0x8a, 0xac, 0x95, 0xbc, 0x49, 0x9a, 0x0f, 0xbd,
    0x30, 0xe6, 0xe5, 0x3d, 0x6e, 0x03, 0xf1, 0x3e, 0x97, 0x8b, 0x3c, 0xbf,
    0x5c, 0xfa, 0xff, 0xff, 0x60, 0xfa, 0xff, 0xff, 0x0f, 0x00, 0x00, 0x00,
    0x4d, 0x4c, 0x49, 0x52, 0x20, 0x43, 0x6f, 0x6e, 0x76, 0x65, 0x72, 0x74,
    0x65, 0x64, 0x2e, 0x00, 0x01, 0x00, 0x00, 0x00, 0x14, 0x00, 0x00, 0x00,
    0x00, 0x00, 0x0e, 0x00, 0x18, 0x00, 0x14, 0x00, 0x10, 0x00, 0x0c, 0x00,
    0x08, 0x00, 0x04, 0x00, 0x0e, 0x00, 0x00, 0x00, 0x14, 0x00, 0x00, 0x00,
    0x1c, 0x00, 0x00, 0x00, 0x24, 0x01, 0x00, 0x00, 0x28, 0x01, 0x00, 0x00,
    0x2c, 0x01, 0x00, 0x00, 0x04, 0x00, 0x00, 0x00, 0x6d, 0x61, 0x69, 0x6e,
    0x00, 0x00, 0x00, 0x00, 0x04, 0x00, 0x00, 0x00, 0xcc, 0x00, 0x00, 0x00,
    0x84, 0x00, 0x00, 0x00, 0x50, 0x00, 0x00, 0x00, 0x14, 0x00, 0x00, 0x00,
    0x00, 0x00, 0x0e, 0x00, 0x1a, 0x00, 0x14, 0x00, 0x10, 0x00, 0x0c, 0x00,
    0x0b, 0x00, 0x04, 0x00, 0x0e, 0x00, 0x00, 0x00, 0x1c, 0x00, 0x00, 0x00,
    0x00, 0x00, 0x00, 0x09, 0x1c, 0x00, 0x00, 0x00, 0x20, 0x00, 0x00, 0x00,
    0x01, 0x00, 0x00, 0x00, 0x00, 0x00, 0x06, 0x00, 0x08, 0x00, 0x04, 0x00,
    0x06, 0x00, 0x00, 0x00, 0x00, 0x00, 0x80, 0x3f, 0x01, 0x00, 0x00, 0x00,
    0x0a, 0x00, 0x00, 0x00, 0x01, 0x00, 0x00, 0x00, 0x09, 0x00, 0x00, 0x00,
    0x9a, 0xff, 0xff, 0xff, 0x10, 0x00, 0x00, 0x00, 0x00, 0x00, 0x00, 0x08,
    0x0c, 0x00, 0x00, 0x00, 0x10, 0x00, 0x00, 0x00, 0x24, 0xfb, 0xff, 0xff,
    0x01, 0x00, 0x00, 0x00, 0x09, 0x00, 0x00, 0x00, 0x03, 0x00, 0x00, 0x00,
    0x08, 0x00, 0x00, 0x00, 0x06, 0x00, 0x00, 0x00, 0x02, 0x00, 0x00, 0x00,
    0xca, 0xff, 0xff, 0xff, 0x10, 0x00, 0x00, 0x00, 0x00, 0x00, 0x00, 0x08,
    0x10, 0x00, 0x00, 0x00, 0x14, 0x00, 0x00, 0x00, 0xba, 0xff, 0xff, 0xff,
    0x00, 0x00, 0x00, 0x01, 0x01, 0x00, 0x00, 0x00, 0x08, 0x00, 0x00, 0x00,
    0x03, 0x00, 0x00, 0x00, 0x07, 0x00, 0x00, 0x00, 0x05, 0x00, 0x00, 0x00,
    0x01, 0x00, 0x00, 0x00, 0x00, 0x00, 0x0e, 0x00, 0x16, 0x00, 0x00, 0x00,
    0x10, 0x00, 0x0c, 0x00, 0x0b, 0x00, 0x04, 0x00, 0x0e, 0x00, 0x00, 0x00,
    0x18, 0x00, 0x00, 0x00, 0x00, 0x00, 0x00, 0x08, 0x18, 0x00, 0x00, 0x00,
    0x1c, 0x00, 0x00, 0x00, 0x00, 0x00, 0x06, 0x00, 0x08, 0x00, 0x07, 0x00,
    0x06, 0x00, 0x00, 0x00, 0x00, 0x00, 0x00, 0x01, 0x01, 0x00, 0x00, 0x00,
    0x07, 0x00, 0x00, 0x00, 0x03, 0x00, 0x00, 0x00, 0x00, 0x00, 0x00, 0x00,
    0x04, 0x00, 0x00, 0x00, 0x03, 0x00, 0x00, 0x00, 0x01, 0x00, 0x00, 0x00,
    0x0a, 0x00, 0x00, 0x00, 0x01, 0x00, 0x00, 0x00, 0x00, 0x00, 0x00, 0x00,
    0x0b, 0x00, 0x00, 0x00, 0x04, 0x04, 0x00, 0x00, 0x94, 0x03, 0x00, 0x00,
    0x24, 0x03, 0x00, 0x00, 0xd0, 0x02, 0x00, 0x00, 0x88, 0x02, 0x00, 0x00,
    0x3c, 0x02, 0x00, 0x00, 0xf0, 0x01, 0x00, 0x00, 0x68, 0x01, 0x00, 0x00,
    0xd8, 0x00, 0x00, 0x00, 0x60, 0x00, 0x00, 0x00, 0x04, 0x00, 0x00, 0x00,
    0x3e, 0xfc, 0xff, 0xff, 0x00, 0x00, 0x00, 0x01, 0x14, 0x00, 0x00, 0x00,
    0x1c, 0x00, 0x00, 0x00, 0x1c, 0x00, 0x00, 0x00, 0x0b, 0x00, 0x00, 0x00,
    0x34, 0x00, 0x00, 0x00, 0x02, 0x00, 0x00, 0x00, 0xff, 0xff, 0xff, 0xff,
    0x08, 0x00, 0x00, 0x00, 0x28, 0xfc, 0xff, 0xff, 0x19, 0x00, 0x00, 0x00,
    0x53, 0x74, 0x61, 0x74, 0x65, 0x66, 0x75, 0x6c, 0x50, 0x61, 0x72, 0x74,
    0x69, 0x74, 0x69, 0x6f, 0x6e, 0x65, 0x64, 0x43, 0x61, 0x6c, 0x6c, 0x3a,
    0x30, 0x00, 0x00, 0x00, 0x02, 0x00, 0x00, 0x00, 0x01, 0x00, 0x00, 0x00,
    0x08, 0x00, 0x00, 0x00, 0x96, 0xfc, 0xff, 0xff, 0x00, 0x00, 0x00, 0x01,
    0x14, 0x00, 0x00, 0x00, 0x1c, 0x00, 0x00, 0x00, 0x1c, 0x00, 0x00, 0x00,
    0x0a, 0x00, 0x00, 0x00, 0x50, 0x00, 0x00, 0x00, 0x02, 0x00, 0x00, 0x00,
    0xff, 0xff, 0xff, 0xff, 0x08, 0x00, 0x00, 0x00, 0x80, 0xfc, 0xff, 0xff,
    0x34, 0x00, 0x00, 0x00, 0x73, 0x65, 0x71, 0x75, 0x65, 0x6e, 0x74, 0x69,
    0x61, 0x6c, 0x2f, 0x64, 0x65, 0x6e, 0x73, 0x65, 0x5f, 0x32, 0x2f, 0x4d,
    0x61, 0x74, 0x4d, 0x75, 0x6c, 0x3b, 0x73, 0x65, 0x71, 0x75, 0x65, 0x6e,
    0x74, 0x69, 0x61, 0x6c, 0x2f, 0x64, 0x65, 0x6e, 0x73, 0x65, 0x5f, 0x32,
    0x2f, 0x42, 0x69, 0x61, 0x73, 0x41, 0x64, 0x64, 0x00, 0x00, 0x00, 0x00,
    0x02, 0x00, 0x00, 0x00, 0x01, 0x00, 0x00, 0x00, 0x08, 0x00, 0x00, 0x00,
    0x0a, 0xfd, 0xff, 0xff, 0x00, 0x00, 0x00, 0x01, 0x14, 0x00, 0x00, 0x00,
    0x1c, 0x00, 0x00, 0x00, 0x1c, 0x00, 0x00, 0x00, 0x09, 0x00, 0x00, 0x00,
    0x68, 0x00, 0x00, 0x00, 0x02, 0x00, 0x00, 0x00, 0xff, 0xff, 0xff, 0xff,
    0x20, 0x00, 0x00, 0x00, 0xf4, 0xfc, 0xff, 0xff, 0x4c, 0x00, 0x00, 0x00,
    0x73, 0x65, 0x71, 0x75, 0x65, 0x6e, 0x74, 0x69, 0x61, 0x6c, 0x2f, 0x64,
    0x65, 0x6e, 0x73, 0x65, 0x5f, 0x31, 0x2f, 0x4d, 0x61, 0x74, 0x4d, 0x75,
    0x6c, 0x3b, 0x73, 0x65, 0x71, 0x75, 0x65, 0x6e, 0x74, 0x69, 0x61, 0x6c,
    0x2f, 0x64, 0x65, 0x6e, 0x73, 0x65, 0x5f, 0x31, 0x2f, 0x52, 0x65, 0x6c,
    0x75, 0x3b, 0x73, 0x65, 0x71, 0x75, 0x65, 0x6e, 0x74, 0x69, 0x61, 0x6c,
    0x2f, 0x64, 0x65, 0x6e, 0x73, 0x65, 0x5f, 0x31, 0x2f, 0x42, 0x69, 0x61,
    0x73, 0x41, 0x64, 0x64, 0x00, 0x00, 0x00, 0x00, 0x02, 0x00, 0x00, 0x00,
    0x01, 0x00, 0x00, 0x00, 0x20, 0x00, 0x00, 0x00, 0x96, 0xfd, 0xff, 0xff,
    0x00, 0x00, 0x00, 0x01, 0x14, 0x00, 0x00, 0x00, 0x1c, 0x00, 0x00, 0x00,
    0x1c, 0x00, 0x00, 0x00, 0x08, 0x00, 0x00, 0x00, 0x60, 0x00, 0x00, 0x00,
    0x02, 0x00, 0x00, 0x00, 0xff, 0xff, 0xff, 0xff, 0x20, 0x00, 0x00, 0x00,
    0x80, 0xfd, 0xff, 0xff, 0x46, 0x00, 0x00, 0x00, 0x73, 0x65, 0x71, 0x75,
    0x65, 0x6e, 0x74, 0x69, 0x61, 0x6c, 0x2f, 0x64, 0x65, 0x6e, 0x73, 0x65,
    0x2f, 0x4d, 0x61, 0x74, 0x4d, 0x75, 0x6c, 0x3b, 0x73, 0x65, 0x71, 0x75,
    0x65, 0x6e, 0x74, 0x69, 0x61, 0x6c, 0x2f, 0x64, 0x65, 0x6e, 0x73, 0x65,
    0x2f, 0x52, 0x65, 0x6c, 0x75, 0x3b, 0x73, 0x65, 0x71, 0x75, 0x65, 0x6e,
    0x74, 0x69, 0x61, 0x6c, 0x2f, 0x64, 0x65, 0x6e, 0x73, 0x65, 0x2f, 0x42,
    0x69, 0x61, 0x73, 0x41, 0x64, 0x64, 0x00, 0x00, 0x02, 0x00, 0x00, 0x00,
    0x01, 0x00, 0x00, 0x00, 0x20, 0x00, 0x00, 0x00, 0x86, 0xfe, 0xff, 0xff,
    0x00, 0x00, 0x00, 0x01, 0x10, 0x00, 0x00, 0x00, 0x10, 0x00, 0x00, 0x00,
    0x07, 0x00, 0x00, 0x00, 0x28, 0x00, 0x00, 0x00, 0xf4, 0xfd, 0xff, 0xff,
    0x19, 0x00, 0x00, 0x00, 0x73, 0x65, 0x71, 0x75, 0x65, 0x6e, 0x74, 0x69,
    0x61, 0x6c, 0x2f, 0x64, 0x65, 0x6e, 0x73, 0x65, 0x5f, 0x32, 0x2f, 0x4d,
    0x61, 0x74, 0x4d, 0x75, 0x6c, 0x00, 0x00, 0x00, 0x02, 0x00, 0x00, 0x00,
    0x08, 0x00, 0x00, 0x00, 0x20, 0x00, 0x00, 0x00, 0xce, 0xfe, 0xff, 0xff,
    0x00, 0x00, 0x00, 0x01, 0x10, 0x00, 0x00, 0x00, 0x10, 0x00, 0x00, 0x00,
    0x06, 0x00, 0x00, 0x00, 0x28, 0x00, 0x00, 0x00, 0x3c, 0xfe, 0xff, 0xff,
    0x19, 0x00, 0x00, 0x00, 0x73, 0x65, 0x71, 0x75, 0x65, 0x6e, 0x74, 0x69,
    0x61, 0x6c, 0x2f, 0x64, 0x65, 0x6e, 0x73, 0x65, 0x5f, 0x31, 0x2f, 0x4d,
    0x61, 0x74, 0x4d, 0x75, 0x6c, 0x00, 0x00, 0x00, 0x02, 0x00, 0x00, 0x00,
    0x20, 0x00, 0x00, 0x00, 0x20, 0x00, 0x00, 0x00, 0x16, 0xff, 0xff, 0xff,
    0x00, 0x00, 0x00, 0x01, 0x10, 0x00, 0x00, 0x00, 0x10, 0x00, 0x00, 0x00,
    0x05, 0x00, 0x00, 0x00, 0x24, 0x00, 0x00, 0x00, 0x84, 0xfe, 0xff, 0xff,
    0x17, 0x00, 0x00, 0x00, 0x73, 0x65, 0x71, 0x75, 0x65, 0x6e, 0x74, 0x69,
    0x61, 0x6c, 0x2f, 0x64, 0x65, 0x6e, 0x73, 0x65, 0x2f, 0x4d, 0x61, 0x74,
    0x4d, 0x75, 0x6c, 0x00, 0x02, 0x00, 0x00, 0x00, 0x20, 0x00, 0x00, 0x00,
    0x0f, 0x00, 0x00, 0x00, 0x5a, 0xff, 0xff, 0xff, 0x00, 0x00, 0x00, 0x01,
    0x10, 0x00, 0x00, 0x00, 0x10, 0x00, 0x00, 0x00, 0x04, 0x00, 0x00, 0x00,
    0x34, 0x00, 0x00, 0x00, 0xc8, 0xfe, 0xff, 0xff, 0x27, 0x00, 0x00, 0x00,
    0x73, 0x65, 0x71, 0x75, 0x65, 0x6e, 0x74, 0x69, 0x61, 0x6c, 0x2f, 0x64,
    0x65, 0x6e, 0x73, 0x65, 0x2f, 0x42, 0x69, 0x61, 0x73, 0x41, 0x64, 0x64,
    0x2f, 0x52, 0x65, 0x61, 0x64, 0x56, 0x61, 0x72, 0x69, 0x61, 0x62, 0x6c,
    0x65, 0x4f, 0x70, 0x00, 0x01, 0x00, 0x00, 0x00, 0x20, 0x00, 0x00, 0x00,
    0xaa, 0xff, 0xff, 0xff, 0x00, 0x00, 0x00, 0x01, 0x10, 0x00, 0x00, 0x00,
    0x10, 0x00, 0x00, 0x00, 0x03, 0x00, 0x00, 0x00, 0x38, 0x00, 0x00, 0x00,
    0x18, 0xff, 0xff, 0xff, 0x29, 0x00, 0x00, 0x00, 0x73, 0x65, 0x71, 0x75,
    0x65, 0x6e, 0x74, 0x69, 0x61, 0x6c, 0x2f, 0x64, 0x65, 0x6e, 0x73, 0x65,
    0x5f, 0x32, 0x2f, 0x42, 0x69, 0x61, 0x73, 0x41, 0x64, 0x64, 0x2f, 0x52,
    0x65, 0x61, 0x64, 0x56, 0x61, 0x72, 0x69, 0x61, 0x62, 0x6c, 0x65, 0x4f,
    0x70, 0x00, 0x00, 0x00, 0x01, 0x00, 0x00, 0x00, 0x08, 0x00, 0x00, 0x00,
    0x00, 0x00, 0x16, 0x00, 0x18, 0x00, 0x14, 0x00, 0x00, 0x00, 0x10, 0x00,
    0x0c, 0x00, 0x08, 0x00, 0x00, 0x00, 0x00, 0x00, 0x00, 0x00, 0x07, 0x00,
    0x16, 0x00, 0x00, 0x00, 0x00, 0x00, 0x00, 0x01, 0x10, 0x00, 0x00, 0x00,
    0x10, 0x00, 0x00, 0x00, 0x02, 0x00, 0x00, 0x00, 0x38, 0x00, 0x00, 0x00,
    0x84, 0xff, 0xff, 0xff, 0x29, 0x00, 0x00, 0x00, 0x73, 0x65, 0x71, 0x75,
    0x65, 0x6e, 0x74, 0x69, 0x61, 0x6c, 0x2f, 0x64, 0x65, 0x6e, 0x73, 0x65,
    0x5f, 0x31, 0x2f, 0x42, 0x69, 0x61, 0x73, 0x41, 0x64, 0x64, 0x2f, 0x52,
    0x65, 0x61, 0x64, 0x56, 0x61, 0x72, 0x69, 0x61, 0x62, 0x6c, 0x65, 0x4f,
    0x70, 0x00, 0x00, 0x00, 0x01, 0x00, 0x00, 0x00, 0x20, 0x00, 0x00, 0x00,
    0x00, 0x00, 0x16, 0x00, 0x1c, 0x00, 0x18, 0x00, 0x00, 0x00, 0x14, 0x00,
    0x10, 0x00, 0x0c, 0x00, 0x00, 0x00, 0x00, 0x00, 0x08, 0x00, 0x07, 0x00,
    0x16, 0x00, 0x00, 0x00, 0x00, 0x00, 0x00, 0x01, 0x14, 0x00, 0x00, 0x00,
    0x20, 0x00, 0x00, 0x00, 0x20, 0x00, 0x00, 0x00, 0x01, 0x00, 0x00, 0x00,
    0x3c, 0x00, 0x00, 0x00, 0x02, 0x00, 0x00, 0x00, 0xff, 0xff, 0xff, 0xff,
    0x0f, 0x00, 0x00, 0x00, 0x04, 0x00, 0x04, 0x00, 0x04, 0x00, 0x00, 0x00,
    0x1d, 0x00, 0x00, 0x00, 0x73, 0x65, 0x72, 0x76, 0x69, 0x6e, 0x67, 0x5f,
    0x64, 0x65, 0x66, 0x61, 0x75, 0x6c, 0x74, 0x5f, 0x64, 0x65, 0x6e, 0x73,
    0x65, 0x5f, 0x69, 0x6e, 0x70, 0x75, 0x74, 0x3a, 0x30, 0x00, 0x00, 0x00,
    0x02, 0x00, 0x00, 0x00, 0x01, 0x00, 0x00, 0x00, 0x0f, 0x00, 0x00, 0x00,
    0x02, 0x00, 0x00, 0x00, 0x20, 0x00, 0x00, 0x00, 0x04, 0x00, 0x00, 0x00,
    0xf4, 0xff, 0xff, 0xff, 0x19, 0x00, 0x00, 0x00, 0x00, 0x00, 0x00, 0x19,
    0x0c, 0x00, 0x0c, 0x00, 0x0b, 0x00, 0x00, 0x00, 0x00, 0x00, 0x04, 0x00,
    0x0c, 0x00, 0x00, 0x00, 0x09, 0x00, 0x00, 0x00, 0x00, 0x00, 0x00, 0x09};
unsigned int hello_world_models_hello_world_float_len = 9420;
