unsigned char lw16_md4[] = {
    0x1c, 0x00, 0x00, 0x00, 0x54, 0x46, 0x4c, 0x33, 0x14, 0x00, 0x20, 0x00,
    0x1c, 0x00, 0x18, 0x00, 0x14, 0x00, 0x10, 0x00, 0x0c, 0x00, 0x00, 0x00,
    0x08, 0x00, 0x04, 0x00, 0x14, 0x00, 0x00, 0x00, 0x1c, 0x00, 0x00, 0x00,
    0x98, 0x00, 0x00, 0x00, 0xf0, 0x00, 0x00, 0x00, 0x9c, 0x19, 0x00, 0x00,
    0xac, 0x19, 0x00, 0x00, 0xc0, 0x23, 0x00, 0x00, 0x03, 0x00, 0x00, 0x00,
    0x01, 0x00, 0x00, 0x00, 0x10, 0x00, 0x00, 0x00, 0x00, 0x00, 0x0a, 0x00,
    0x10, 0x00, 0x0c, 0x00, 0x08, 0x00, 0x04, 0x00, 0x0a, 0x00, 0x00, 0x00,
    0x0c, 0x00, 0x00, 0x00, 0x1c, 0x00, 0x00, 0x00, 0x3c, 0x00, 0x00, 0x00,
    0x0f, 0x00, 0x00, 0x00, 0x73, 0x65, 0x72, 0x76, 0x69, 0x6e, 0x67, 0x5f,
    0x64, 0x65, 0x66, 0x61, 0x75, 0x6c, 0x74, 0x00, 0x01, 0x00, 0x00, 0x00,
    0x04, 0x00, 0x00, 0x00, 0x90, 0xff, 0xff, 0xff, 0x13, 0x00, 0x00, 0x00,
    0x04, 0x00, 0x00, 0x00, 0x09, 0x00, 0x00, 0x00, 0x64, 0x65, 0x6e, 0x73,
    0x65, 0x5f, 0x31, 0x37, 0x33, 0x00, 0x00, 0x00, 0x01, 0x00, 0x00, 0x00,
    0x04, 0x00, 0x00, 0x00, 0x3e, 0xe6, 0xff, 0xff, 0x04, 0x00, 0x00, 0x00,
    0x0f, 0x00, 0x00, 0x00, 0x64, 0x65, 0x6e, 0x73, 0x65, 0x5f, 0x31, 0x36,
    0x38, 0x5f, 0x69, 0x6e, 0x70, 0x75, 0x74, 0x00, 0x02, 0x00, 0x00, 0x00,
    0x34, 0x00, 0x00, 0x00, 0x04, 0x00, 0x00, 0x00, 0xdc, 0xff, 0xff, 0xff,
    0x16, 0x00, 0x00, 0x00, 0x04, 0x00, 0x00, 0x00, 0x13, 0x00, 0x00, 0x00,
    0x43, 0x4f, 0x4e, 0x56, 0x45, 0x52, 0x53, 0x49, 0x4f, 0x4e, 0x5f, 0x4d,
    0x45, 0x54, 0x41, 0x44, 0x41, 0x54, 0x41, 0x00, 0x08, 0x00, 0x0c, 0x00,
    0x08, 0x00, 0x04, 0x00, 0x08, 0x00, 0x00, 0x00, 0x15, 0x00, 0x00, 0x00,
    0x04, 0x00, 0x00, 0x00, 0x13, 0x00, 0x00, 0x00, 0x6d, 0x69, 0x6e, 0x5f,
    0x72, 0x75, 0x6e, 0x74, 0x69, 0x6d, 0x65, 0x5f, 0x76, 0x65, 0x72, 0x73,
    0x69, 0x6f, 0x6e, 0x00, 0x17, 0x00, 0x00, 0x00, 0xa8, 0x18, 0x00, 0x00,
    0xa0, 0x18, 0x00, 0x00, 0x70, 0x18, 0x00, 0x00, 0x20, 0x18, 0x00, 0x00,
    0xd0, 0x17, 0x00, 0x00, 0x80, 0x17, 0x00, 0x00, 0x30, 0x17, 0x00, 0x00,
    0xe0, 0x16, 0x00, 0x00, 0x10, 0x13, 0x00, 0x00, 0x00, 0x0f, 0x00, 0x00,
    0xf0, 0x0a, 0x00, 0x00, 0xe0, 0x06, 0x00, 0x00, 0xd0, 0x02, 0x00, 0x00,
    0xc0, 0x00, 0x00, 0x00, 0xb8, 0x00, 0x00, 0x00, 0xb0, 0x00, 0x00, 0x00,
    0xa8, 0x00, 0x00, 0x00, 0xa0, 0x00, 0x00, 0x00, 0x98, 0x00, 0x00, 0x00,
    0x90, 0x00, 0x00, 0x00, 0x88, 0x00, 0x00, 0x00, 0x68, 0x00, 0x00, 0x00,
    0x04, 0x00, 0x00, 0x00, 0x16, 0xe7, 0xff, 0xff, 0x04, 0x00, 0x00, 0x00,
    0x54, 0x00, 0x00, 0x00, 0x0c, 0x00, 0x00, 0x00, 0x08, 0x00, 0x0e, 0x00,
    0x08, 0x00, 0x04, 0x00, 0x08, 0x00, 0x00, 0x00, 0x10, 0x00, 0x00, 0x00,
    0x24, 0x00, 0x00, 0x00, 0x00, 0x00, 0x06, 0x00, 0x08, 0x00, 0x04, 0x00,
    0x06, 0x00, 0x00, 0x00, 0x04, 0x00, 0x00, 0x00, 0x00, 0x00, 0x00, 0x00,
    0x00, 0x00, 0x0a, 0x00, 0x10, 0x00, 0x0c, 0x00, 0x08, 0x00, 0x04, 0x00,
    0x0a, 0x00, 0x00, 0x00, 0x02, 0x00, 0x00, 0x00, 0x02, 0x00, 0x00, 0x00,
    0x04, 0x00, 0x00, 0x00, 0x06, 0x00, 0x00, 0x00, 0x32, 0x2e, 0x31, 0x34,
    0x2e, 0x30, 0x00, 0x00, 0x76, 0xe7, 0xff, 0xff, 0x04, 0x00, 0x00, 0x00,
    0x10, 0x00, 0x00, 0x00, 0x31, 0x2e, 0x35, 0x2e, 0x30, 0x00, 0x00, 0x00,
    0x00, 0x00, 0x00, 0x00, 0x00, 0x00, 0x00, 0x00, 0x3c, 0xde, 0xff, 0xff,
    0x40, 0xde, 0xff, 0xff, 0x44, 0xde, 0xff, 0xff, 0x48, 0xde, 0xff, 0xff,
    0x4c, 0xde, 0xff, 0xff, 0x50, 0xde, 0xff, 0xff, 0x54, 0xde, 0xff, 0xff,
    0xae, 0xe7, 0xff, 0xff, 0x04, 0x00, 0x00, 0x00, 0x00, 0x02, 0x00, 0x00,
    0xa4, 0x2d, 0x26, 0x3e, 0x4d, 0x2c, 0xf7, 0xbe, 0xf1, 0xea, 0x7f, 0xbe,
    0x10, 0x40, 0x22, 0xbf, 0x10, 0xbe, 0xb7, 0x3e, 0x40, 0xb4, 0xc9, 0xbe,
    0x6f, 0xb3, 0x5e, 0xbe, 0xd7, 0x18, 0x05, 0x3e, 0xfc, 0x6f, 0xc8, 0xbc,
    0x40, 0x78, 0xce, 0x3e, 0x35, 0xd3, 0x46, 0x3e, 0xd7, 0x41, 0x16, 0xbf,
    0x74, 0x0c, 0x08, 0xbf, 0xb3, 0xe3, 0xe5, 0xbe, 0x37, 0xeb, 0x9a, 0xbe,
    0x29, 0x09, 0x3e, 0xbe, 0xcb, 0xc5, 0x95, 0x3e, 0x9b, 0x3d, 0xc1, 0x3e,
    0xac, 0x3f, 0x02, 0x3e, 0x2a, 0x48, 0x85, 0xbd, 0x58, 0xee, 0xba, 0xbe,
    0xc8, 0xd5, 0xdd, 0x3e, 0x74, 0x5c, 0x41, 0xbe, 0x2d, 0x4f, 0x57, 0x3e,
    0x0e, 0xd4, 0x55, 0xbf, 0x00, 0xbb, 0xfb, 0x3e, 0x72, 0x0d, 0x46, 0x3e,
    0x2e, 0xe4, 0xd8, 0x3e, 0x81, 0x9d, 0xca, 0xbb, 0x80, 0xf4, 0xcc, 0x3e,
    0xe2, 0x3f, 0xd6, 0x3e, 0x5c, 0x8d, 0xc0, 0xbe, 0x63, 0x1b, 0x89, 0xbe,
    0xd3, 0x19, 0x8b, 0xbe, 0xb6, 0x13, 0x2e, 0xbe, 0x4d, 0x6a, 0xdb, 0xbd,
    0x00, 0xf0, 0xca, 0xbb, 0x98, 0x66, 0x9d, 0xbe, 0xb9, 0x1f, 0x6b, 0xbd,
    0xed, 0xf7, 0x39, 0x3e, 0x01, 0xd4, 0xb0, 0x3d, 0x70, 0x17, 0xb2, 0x3e,
    0x05, 0xf1, 0x93, 0xbd, 0x0f, 0x08, 0x78, 0xbd, 0x14, 0xa3, 0x9f, 0x3e,
    0xeb, 0xa9, 0xf2, 0x3e, 0x7e, 0xf1, 0x70, 0x3d, 0xd7, 0xd9, 0x02, 0x3e,
    0xad, 0xc5, 0x98, 0x3d, 0xf4, 0x2d, 0x83, 0x3e, 0xec, 0x21, 0xa0, 0xbe,
    0xb7, 0xdd, 0x67, 0x3e, 0x20, 0x07, 0xde, 0xbe, 0xe0, 0x61, 0xb6, 0x3d,
    0x0c, 0xd1, 0xc4, 0xbe, 0x18, 0x80, 0x9c, 0x3d, 0x55, 0x86, 0x18, 0x3e,
    0x70, 0x62, 0xac, 0x3d, 0xef, 0x73, 0x86, 0x3e, 0x97, 0x5f, 0xde, 0xbd,
    0x12, 0x74, 0x90, 0x3d, 0x58, 0xbd, 0x9f, 0x3e, 0xe7, 0xd1, 0x8c, 0xbe,
    0x69, 0x10, 0x8b, 0xbe, 0x0a, 0xbb, 0x2d, 0x3e, 0x85, 0xf6, 0x9f, 0x3d,
    0x70, 0x6b, 0x1f, 0xbe, 0xaa, 0x22, 0x17, 0xbe, 0xe0, 0x44, 0x52, 0x3d,
    0x08, 0x75, 0x7b, 0xbe, 0x94, 0x72, 0x8f, 0x3e, 0xe3, 0xd8, 0x56, 0xbf,
    0x58, 0x2c, 0x2e, 0x3f, 0xe8, 0x72, 0xcf, 0x3e, 0x60, 0xc8, 0x0d, 0x3f,
    0x21, 0x49, 0x2f, 0xbf, 0xc5, 0xba, 0x81, 0x3e, 0xd7, 0x48, 0xac, 0x3e,
    0x45, 0x66, 0x83, 0x3e, 0xcd, 0xf1, 0x97, 0x3e, 0xde, 0xab, 0x1b, 0x3e,
    0x04, 0xe3, 0xfa, 0x3a, 0xb1, 0x96, 0xc2, 0xbe, 0xd1, 0x42, 0x07, 0xbd,
    0x1c, 0xfe, 0xfb, 0x3e, 0x88, 0x41, 0xd0, 0xbe, 0x3d, 0xce, 0x1f, 0x3d,
    0x9b, 0x6f, 0xa9, 0xbd, 0x42, 0x22, 0x29, 0x3e, 0xc0, 0x20, 0x4e, 0xbe,
    0x2b, 0xcd, 0x53, 0xbe, 0xef, 0xe1, 0x50, 0xbe, 0x53, 0xfb, 0x1d, 0xbd,
    0xd0, 0x8c, 0x4d, 0xbe, 0xf3, 0x18, 0xb3, 0x3d, 0xf2, 0xe3, 0xed, 0x3e,
    0x35, 0x3e, 0x6b, 0x3c, 0xf5, 0xc4, 0x8f, 0xbe, 0x88, 0x5a, 0xd8, 0x3d,
    0x57, 0x42, 0x48, 0xbe, 0xa4, 0xe6, 0xda, 0x3e, 0x40, 0x78, 0xa9, 0xbd,
    0xfa, 0x95, 0xbc, 0xbd, 0xf1, 0x1b, 0x2f, 0xbe, 0x5d, 0x55, 0xd1, 0xbe,
    0xa0, 0xe6, 0x21, 0xbe, 0x5d, 0xa3, 0x47, 0x3d, 0xd3, 0x15, 0x18, 0xbe,
    0x89, 0x61, 0xd5, 0x3e, 0x89, 0x19, 0x5a, 0xbe, 0xc7, 0x6d, 0x2b, 0xbe,
    0x26, 0xef, 0x3d, 0xbe, 0x36, 0x54, 0x43, 0x3e, 0x02, 0x2c, 0x8e, 0x3e,
    0xf4, 0x21, 0x06, 0x3f, 0xe6, 0x84, 0xc6, 0x3e, 0xdc, 0xe3, 0x9a, 0xbe,
    0x68, 0x70, 0xe3, 0x3e, 0xc6, 0x5b, 0x92, 0x3e, 0x71, 0x69, 0x2b, 0x3f,
    0x47, 0x09, 0x19, 0xbf, 0x6c, 0xa2, 0xfe, 0xbe, 0xe5, 0x71, 0x69, 0xbe,
    0xdf, 0xdd, 0xde, 0xbe, 0xb9, 0x1b, 0xb7, 0x3d, 0x73, 0x68, 0x4e, 0x3d,
    0x39, 0x91, 0x1f, 0xbf, 0x10, 0x9e, 0xbd, 0xbe, 0xba, 0xe9, 0xff, 0xff,
    0x04, 0x00, 0x00, 0x00, 0x00, 0x04, 0x00, 0x00, 0x22, 0x4f, 0x2d, 0x3e,
    0x34, 0x55, 0xdc, 0x3d, 0xad, 0xd6, 0xc3, 0x3e, 0x6f, 0x16, 0xa6, 0xbe,
    0x22, 0x0e, 0x90, 0xbe, 0x04, 0x7d, 0xa5, 0x3d, 0x22, 0xc3, 0xcc, 0x3e,
    0xc6, 0x4d, 0xcc, 0x3c, 0x8b, 0xc3, 0xb0, 0x3e, 0xf1, 0xbe, 0xd5, 0xbd,
    0xd2, 0xa4, 0x2d, 0x3e, 0xbd, 0xd8, 0x77, 0xbe, 0xd4, 0x13, 0xe0, 0x3e,
    0x71, 0x9c, 0xc5, 0x3e, 0x40, 0xfc, 0xe3, 0xbc, 0xd8, 0x20, 0x77, 0xbe,
    0xd2, 0x1e, 0x44, 0xbe, 0x44, 0xc9, 0x89, 0x3d, 0x02, 0xfa, 0xb2, 0x3e,
    0x99, 0xa2, 0xa7, 0xbd, 0x5c, 0x9a, 0x6c, 0x3e, 0x2a, 0xc8, 0xe8, 0x3e,
    0xa6, 0x79, 0xa4, 0x3e, 0x43, 0x0a, 0x2e, 0xbd, 0x61, 0xe6, 0xae, 0x3e,
    0xf6, 0x98, 0xbe, 0xbe, 0xd8, 0xa3, 0x14, 0xbd, 0xd9, 0x5a, 0x6b, 0xbe,
    0x6f, 0x1c, 0x43, 0x3e, 0xca, 0x0f, 0x76, 0xbe, 0x0c, 0x1d, 0x8d, 0xbe,
    0x2e, 0x2c, 0xee, 0x3d, 0xb9, 0x19, 0x89, 0x3e, 0xee, 0x1d, 0x78, 0xbe,
    0xdb, 0x75, 0xb3, 0xbe, 0xb9, 0x2a, 0xae, 0xbe, 0x46, 0x43, 0xa7, 0x3e,
    0x29, 0xa2, 0x86, 0x3e, 0x8f, 0x1c, 0x6a, 0xbc, 0xfb, 0xac, 0x82, 0x3e,
    0x9e, 0x2e, 0x75, 0x3e, 0x60, 0x98, 0x6d, 0x3e, 0xc4, 0x86, 0xa1, 0xbe,
    0xba, 0xe1, 0x61, 0xbe, 0xc5, 0x6f, 0x9b, 0x3e, 0x48, 0x9a, 0x11, 0x3d,
    0xc8, 0x01, 0xa4, 0xbd, 0xb1, 0x84, 0x4f, 0x3e, 0xdc, 0xba, 0xee, 0x3d,
    0xec, 0xcd, 0x51, 0xbe, 0x08, 0x54, 0xc4, 0xbe, 0x51, 0xb0, 0x71, 0xbe,
    0x22, 0x31, 0x8c, 0x3e, 0x2d, 0x67, 0x03, 0x3d, 0x4f, 0xf5, 0xc7, 0x3d,
    0x83, 0x28, 0xfa, 0xbe, 0xd8, 0xb4, 0x56, 0xbe, 0x37, 0x93, 0xd4, 0xbe,
    0xbc, 0xbb, 0xab, 0x3d, 0x04, 0x9e, 0x47, 0xbe, 0x4b, 0xda, 0x99, 0x3e,
    0xda, 0xa7, 0x4c, 0x3e, 0xad, 0x35, 0xbc, 0x3e, 0x61, 0xea, 0x3a, 0x3e,
    0x2d, 0xc4, 0xad, 0x3e, 0xfc, 0xdc, 0xc7, 0x3d, 0xb5, 0x52, 0xc5, 0xbe,
    0xfc, 0xb2, 0xa9, 0x3d, 0x0a, 0xe0, 0xbf, 0xbe, 0x43, 0xcf, 0xd4, 0xbe,
    0xa2, 0x36, 0x83, 0xbe, 0xbe, 0x5a, 0x10, 0x3e, 0x87, 0x08, 0xd0, 0xbe,
    0x17, 0xa3, 0x85, 0x3e, 0x04, 0x46, 0xe3, 0xbd, 0x96, 0x87, 0x7e, 0xbe,
    0x72, 0xac, 0x16, 0x3e, 0x2c, 0x9d, 0xde, 0xbd, 0xca, 0xbc, 0x44, 0xbe,
    0x18, 0xfe, 0x57, 0xbd, 0xa9, 0x15, 0x8b, 0x3e, 0x06, 0x3a, 0x09, 0xbe,
    0x8d, 0x07, 0xab, 0xbe, 0xaa, 0xcf, 0xc6, 0xbe, 0xec, 0xf9, 0xa6, 0x3d,
    0x3f, 0xfc, 0x94, 0xbe, 0xb0, 0x84, 0xf5, 0x3c, 0x4a, 0x30, 0x1b, 0xbe,
    0x21, 0xde, 0x8d, 0x3e, 0x4d, 0x57, 0xc6, 0x3e, 0xf2, 0x9e, 0x6b, 0x3e,
    0xf4, 0x07, 0xe7, 0x3d, 0xd6, 0x23, 0xd3, 0xbe, 0x29, 0x6d, 0xa3, 0x3e,
    0xe6, 0x16, 0x94, 0xbe, 0xd4, 0x20, 0xda, 0xbd, 0x15, 0xdb, 0x53, 0xbe,
    0x65, 0x45, 0x8a, 0x3e, 0x7a, 0x21, 0x02, 0x3e, 0x67, 0x53, 0x8b, 0x3d,
    0xc1, 0x7e, 0xaf, 0xbd, 0xde, 0xb9, 0xc3, 0xbd, 0x9e, 0xf6, 0x96, 0xbe,
    0xde, 0xb0, 0x43, 0xbd, 0x44, 0x8f, 0x1d, 0xbe, 0x80, 0x4b, 0x23, 0x3e,
    0x44, 0xc9, 0xfd, 0x3d, 0xf5, 0xbb, 0x92, 0x3d, 0x66, 0x36, 0x28, 0x3d,
    0x9d, 0x99, 0xd7, 0x3e, 0xa4, 0x39, 0xdb, 0x3d, 0x75, 0xe6, 0xcb, 0xbe,
    0x76, 0xa4, 0x55, 0x3e, 0x46, 0xed, 0x08, 0x3e, 0x09, 0x96, 0x34, 0xbe,
    0xc7, 0xfe, 0xc5, 0x3e, 0x46, 0x23, 0xdd, 0xbe, 0x1a, 0xea, 0x8a, 0x3e,
    0x65, 0xf8, 0x8f, 0xbe, 0xbd, 0x2a, 0x12, 0x3c, 0xc6, 0xca, 0x51, 0x3e,
    0xf8, 0x0b, 0x2a, 0xbe, 0x5a, 0x11, 0x73, 0x3e, 0x8d, 0xfb, 0xf7, 0xbd,
    0x45, 0x8f, 0x01, 0x3f, 0x05, 0x6e, 0x53, 0xbe, 0x75, 0x91, 0x6f, 0xbe,
    0xf5, 0xda, 0xfe, 0x3d, 0x41, 0x71, 0x5e, 0xbe, 0xa2, 0x6f, 0x50, 0x3e,
    0xe9, 0xcf, 0xaa, 0x3c, 0x91, 0x98, 0xd7, 0x3e, 0xe4, 0xaa, 0x02, 0x3f,
    0x80, 0xd2, 0x41, 0x3e, 0xfe, 0x3a, 0xe7, 0x3e, 0xd5, 0x90, 0x13, 0xbf,
    0xec, 0x66, 0xee, 0x3d, 0x97, 0x2c, 0x02, 0x3e, 0x0b, 0xf9, 0x98, 0x3e,
    0x1f, 0x7f, 0x99, 0x3e, 0x3f, 0xd7, 0xbd, 0xbe, 0x34, 0x02, 0xcc, 0x3d,
    0x00, 0xab, 0x0e, 0xbe, 0x79, 0xe8, 0x3e, 0xbe, 0x5c, 0xf1, 0xce, 0xbe,
    0x75, 0x17, 0x86, 0x3e, 0x10, 0x8f, 0xeb, 0xbc, 0xd0, 0x03, 0x97, 0xbd,
    0x92, 0x50, 0xa6, 0xbe, 0xf8, 0x58, 0x66, 0xbe, 0x28, 0xb0, 0xda, 0xbd,
    0x1a, 0x5e, 0x15, 0x3e, 0x40, 0x41, 0x4e, 0xbd, 0xf1, 0x07, 0x8e, 0x3e,
    0x78, 0xe6, 0x1b, 0x3d, 0x01, 0x9a, 0x8c, 0xbe, 0x40, 0x87, 0x4e, 0xbc,
    0x16, 0xb3, 0x40, 0x3e, 0x97, 0x0b, 0xa7, 0x3e, 0xf4, 0x55, 0x20, 0xbe,
    0x76, 0xce, 0x61, 0x3e, 0xe4, 0x7c, 0x8b, 0x3d, 0x99, 0x80, 0xe5, 0x3e,
    0xa5, 0x01, 0x2d, 0x3d, 0x54, 0x04, 0xb2, 0x3e, 0x4b, 0x95, 0x68, 0x3d,
    0x0b, 0x12, 0x04, 0x3d, 0x2a, 0x6f, 0xbf, 0xbd, 0x0c, 0xdc, 0xeb, 0x3d,
    0x7b, 0x98, 0x33, 0x3e, 0xe0, 0x45, 0xc2, 0xbc, 0x68, 0x80, 0xd7, 0xbc,
    0x5b, 0x31, 0x63, 0x3e, 0x82, 0x09, 0x2e, 0x3e, 0xdc, 0xc5, 0xb7, 0xbd,
    0x97, 0xa5, 0x5f, 0xbe, 0x55, 0x22, 0xd5, 0xbe, 0x30, 0xb2, 0xd2, 0xbe,
    0xaf, 0xa1, 0x0e, 0x3e, 0x14, 0x1b, 0xc5, 0xbe, 0xb7, 0x01, 0x7e, 0x3e,
    0xe9, 0x46, 0x50, 0xbe, 0x9c, 0x5e, 0xdb, 0xbd, 0xaf, 0x40, 0xb1, 0xbd,
    0x78, 0xd0, 0x23, 0xbe, 0xee, 0x05, 0xb9, 0xbe, 0x47, 0x24, 0xab, 0xbe,
    0x53, 0x6d, 0xb4, 0xbe, 0x42, 0x19, 0xda, 0xbe, 0x9c, 0x30, 0xbc, 0xbd,
    0x3b, 0xdd, 0xb8, 0x3e, 0x7b, 0xbe, 0xd8, 0x3e, 0xae, 0xe0, 0xa8, 0xbe,
    0xd9, 0xe3, 0xcb, 0x3e, 0x4b, 0xb1, 0x8e, 0x3c, 0x80, 0xdb, 0xa4, 0x3d,
    0x55, 0x86, 0x9a, 0x3c, 0x35, 0xcf, 0x5d, 0xbe, 0x63, 0x8b, 0x74, 0x3e,
    0x56, 0x76, 0xb6, 0xbe, 0xfb, 0x4e, 0xd1, 0x3e, 0xb8, 0x93, 0x8d, 0x3e,
    0x05, 0x42, 0xba, 0x3e, 0x50, 0x20, 0x5b, 0xbd, 0xf8, 0xba, 0xb5, 0x3e,
    0x73, 0x44, 0x95, 0xbe, 0x3d, 0xb4, 0x9b, 0x3e, 0x0b, 0xec, 0xd1, 0x3d,
    0xf9, 0x0b, 0xb0, 0x3e, 0x26, 0x3a, 0x5e, 0x3e, 0x50, 0x5b, 0x0c, 0x3f,
    0x6a, 0xd7, 0x36, 0xbe, 0xe4, 0x1a, 0xc7, 0xbc, 0xd7, 0xe6, 0xa3, 0xbe,
    0xaa, 0xed, 0x02, 0x3e, 0x4b, 0xfd, 0xb6, 0x3e, 0xc7, 0xa4, 0xdc, 0x3e,
    0x61, 0xeb, 0xd5, 0x3e, 0xf0, 0x58, 0x30, 0xbd, 0xeb, 0xc4, 0xdc, 0x3e,
    0xf8, 0xaf, 0xd4, 0xbc, 0x75, 0x87, 0x43, 0xbe, 0xc8, 0xe2, 0x38, 0x3d,
    0x8f, 0xfe, 0xc5, 0x3e, 0x6e, 0x6c, 0x1b, 0xbe, 0x38, 0xa9, 0xe2, 0xbd,
    0xad, 0x76, 0x31, 0x3f, 0x64, 0xa4, 0x9a, 0x3d, 0x03, 0x58, 0xa9, 0x3e,
    0xd0, 0x23, 0x7a, 0xbe, 0x54, 0x96, 0x81, 0xbb, 0x76, 0x55, 0x56, 0x3f,
    0xd4, 0x3e, 0x94, 0xbe, 0xb6, 0x7f, 0x90, 0xbe, 0x97, 0xf1, 0xa5, 0x3e,
    0xb3, 0x65, 0x54, 0x3e, 0x0e, 0xa2, 0x90, 0xbd, 0xc2, 0x7d, 0x2a, 0x3e,
    0x9e, 0xd2, 0x90, 0xbe, 0x03, 0x73, 0x87, 0x3e, 0x22, 0xe4, 0x1a, 0xbe,
    0xa8, 0x7f, 0x6e, 0xbe, 0xb5, 0x1e, 0x70, 0xbe, 0xdd, 0x03, 0x51, 0x3e,
    0x6d, 0x62, 0x95, 0x3e, 0x6a, 0xe5, 0x68, 0xbe, 0x4e, 0xc5, 0x94, 0xbd,
    0xb1, 0xc9, 0x92, 0xbe, 0xe0, 0xa0, 0xd3, 0xbd, 0xed, 0x1f, 0x69, 0x3e,
    0x43, 0xdc, 0xaf, 0x3e, 0x60, 0xe9, 0x91, 0x3e, 0x6d, 0xe6, 0x0c, 0xbe,
    0x88, 0xe8, 0xcd, 0xbe, 0x10, 0x74, 0xb1, 0xbd, 0xa1, 0x9a, 0x1a, 0xbe,
    0xc6, 0xed, 0xff, 0xff, 0x04, 0x00, 0x00, 0x00, 0x00, 0x04, 0x00, 0x00,
    0x7e, 0x27, 0x4a, 0x3e, 0xdd, 0x1d, 0x93, 0x3e, 0x4c, 0xb6, 0xba, 0xbe,
    0x23, 0xc2, 0xcf, 0x3e, 0x5c, 0x69, 0xd7, 0x3d, 0x3e, 0xe8, 0x00, 0x3e,
    0xa6, 0xb5, 0x36, 0xbe, 0x41, 0x6d, 0xd1, 0x3e, 0x5a, 0xab, 0x62, 0x3e,
    0x88, 0x27, 0x2e, 0xbd, 0x31, 0x2a, 0xcf, 0xbe, 0xfc, 0x8b, 0x69, 0xbe,
    0x3e, 0x53, 0xb7, 0xbe, 0x50, 0x91, 0xef, 0xbd, 0x6e, 0x28, 0x6b, 0xbe,
    0x84, 0xd8, 0xaa, 0xbe, 0x51, 0x9b, 0xb6, 0x3e, 0x1c, 0x88, 0x95, 0xbd,
    0x34, 0xb4, 0x1e, 0xbe, 0xd2, 0xfe, 0xb6, 0xbe, 0x0a, 0x64, 0x1b, 0x3e,
    0x80, 0xcc, 0xcf, 0xbb, 0x96, 0xd8, 0x89, 0xbe, 0xb1, 0xcc, 0x9b, 0xbe,
    0xd6, 0x7e, 0x72, 0xbe, 0xf8, 0xb6, 0x31, 0xbe, 0x2e, 0xc4, 0x10, 0xbe,
    0x31, 0x79, 0xc2, 0x3e, 0x92, 0xee, 0x32, 0xbe, 0x7f, 0x3a, 0xc2, 0xbe,
    0x82, 0xa4, 0x3f, 0x3e, 0x22, 0x86, 0xac, 0xbe, 0xeb, 0x6e, 0xc8, 0x3e,
    0x63, 0x14, 0x8d, 0xbe, 0x02, 0xe3, 0x3a, 0xbd, 0x95, 0xbe, 0xa3, 0x3e,
    0xab, 0x5f, 0x84, 0x3e, 0xd3, 0x42, 0x2b, 0xbe, 0xdd, 0xe0, 0xb4, 0xbe,
    0x21, 0xaa, 0x57, 0xbe, 0x3b, 0x39, 0x2c, 0x3e, 0x4a, 0x3c, 0xe0, 0x3e,
    0x10, 0x78, 0xad, 0x3e, 0xfd, 0xdf, 0x4a, 0xbd, 0x96, 0x24, 0xda, 0x3e,
    0x93, 0x12, 0x9a, 0xbe, 0x2c, 0x6f, 0xe4, 0x3d, 0x44, 0xd2, 0xe9, 0xbe,
    0xec, 0xaf, 0xc2, 0xbd, 0x93, 0xee, 0x32, 0xbe, 0x56, 0x76, 0x83, 0xbe,
    0xed, 0x71, 0x6c, 0xbe, 0x75, 0x06, 0xf6, 0x3d, 0x55, 0x1e, 0x7f, 0xbe,
    0x88, 0xde, 0x3e, 0xbe, 0xf2, 0x39, 0x5c, 0x3e, 0x0a, 0x14, 0x8e, 0xbe,
    0xcb, 0x7c, 0xba, 0x3d, 0x1d, 0x03, 0x1f, 0x3e, 0xe8, 0x7a, 0xbf, 0xbe,
    0x58, 0x31, 0x98, 0xbe, 0x24, 0x4a, 0x7f, 0xbd, 0x73, 0x33, 0xfd, 0xbd,
    0x33, 0xb7, 0xaf, 0x3e, 0x82, 0x38, 0x33, 0x3e, 0x6e, 0xb8, 0xe2, 0xbc,
    0xec, 0xa5, 0xaa, 0x3e, 0xf3, 0x79, 0xd2, 0x3e, 0x0a, 0xf3, 0x2a, 0xbe,
    0xa3, 0x6c, 0x9f, 0xbe, 0x62, 0xec, 0xc9, 0x3e, 0x1a, 0x29, 0x49, 0xbe,
    0x84, 0x21, 0x83, 0x3e, 0xe2, 0x8c, 0xd6, 0x3e, 0xe6, 0xcf, 0x31, 0xbe,
    0xe6, 0xaf, 0x90, 0xbe, 0xf3, 0xf0, 0x0c, 0x3f, 0x56, 0x5c, 0x64, 0x3e,
    0xc4, 0xf2, 0x3f, 0xbe, 0x0b, 0x4e, 0xd7, 0xbe, 0x01, 0x64, 0x8b, 0x3e,
    0xda, 0x67, 0xe6, 0x3d, 0x0a, 0x8f, 0x10, 0x3e, 0xa0, 0x05, 0x66, 0xbd,
    0x3d, 0x11, 0x91, 0xbe, 0xe5, 0x35, 0x9e, 0xbe, 0x77, 0x17, 0x79, 0xbd,
    0x61, 0x5b, 0xfc, 0x3e, 0xc0, 0x08, 0x12, 0xbe, 0x78, 0xca, 0x8c, 0xbe,
    0x98, 0xd0, 0xe6, 0x3e, 0x18, 0x0a, 0x9f, 0xbc, 0x37, 0x57, 0x88, 0x3d,
    0x10, 0x7a, 0xd4, 0xbe, 0xb9, 0x29, 0x06, 0x3f, 0x32, 0xdb, 0x99, 0x3e,
    0x12, 0x7d, 0x2e, 0x3e, 0x87, 0x4a, 0xca, 0xbe, 0x0d, 0xfb, 0xc6, 0xbd,
    0x8d, 0x6c, 0xbf, 0x3e, 0x8d, 0x53, 0x90, 0xbe, 0x1b, 0xd6, 0x15, 0xbf,
    0xf8, 0x91, 0xfa, 0x3e, 0xf6, 0xdf, 0x0c, 0x3d, 0x59, 0x8d, 0xea, 0x3e,
    0x96, 0x0b, 0xb9, 0x3e, 0x05, 0x37, 0xd7, 0x3a, 0xa5, 0x60, 0x81, 0xbe,
    0x66, 0x89, 0xeb, 0x3e, 0x0e, 0xff, 0x3e, 0x3e, 0xd1, 0x10, 0x9c, 0xbd,
    0xe3, 0x82, 0xb8, 0x3e, 0x98, 0xd4, 0x66, 0xbe, 0x3f, 0x4d, 0xff, 0xbe,
    0x64, 0x99, 0x0a, 0x3f, 0x0a, 0x7f, 0x50, 0x3e, 0xe3, 0x93, 0xe1, 0x3e,
    0xf8, 0xa1, 0x72, 0x3e, 0x05, 0xd9, 0x01, 0x3e, 0xd3, 0xe7, 0x8a, 0xbe,
    0xd1, 0x56, 0x69, 0xbe, 0x3f, 0x84, 0x0a, 0x3e, 0xab, 0x27, 0x0a, 0x3c,
    0x2b, 0x3c, 0xd6, 0x3e, 0x03, 0xbb, 0xd0, 0x3d, 0x6d, 0xcb, 0xc3, 0xbe,
    0x4a, 0x8f, 0xc1, 0x3e, 0x79, 0x7c, 0xef, 0xbd, 0x82, 0xb4, 0x75, 0x3e,
    0x1f, 0x57, 0x6a, 0xbe, 0x58, 0x57, 0xe9, 0xbd, 0xa0, 0xb0, 0xba, 0xbe,
    0x87, 0xcd, 0x63, 0xbe, 0x44, 0x47, 0xd8, 0x3d, 0xf6, 0x70, 0x68, 0x3e,
    0xfc, 0xa9, 0xec, 0x3d, 0x80, 0xf9, 0x33, 0xbe, 0x1a, 0x67, 0x3e, 0xbe,
    0xec, 0x98, 0xa2, 0xbd, 0xd4, 0x84, 0xd5, 0x3d, 0x22, 0xae, 0xa5, 0xbe,
    0xfc, 0x9d, 0x17, 0xbe, 0x6c, 0x84, 0xe8, 0x3d, 0x80, 0x17, 0x1f, 0x3b,
    0xcc, 0x52, 0xac, 0x3d, 0xd2, 0x4f, 0xd5, 0xbe, 0x4c, 0x68, 0x1c, 0x3d,
    0xd7, 0xe5, 0x9a, 0x3e, 0x6e, 0xc0, 0xb9, 0x3e, 0xdd, 0x7b, 0x95, 0x3e,
    0xb8, 0xc0, 0xcb, 0xbd, 0x1c, 0xa5, 0x02, 0xbc, 0x1e, 0x8b, 0x9f, 0x3d,
    0x87, 0x02, 0xc3, 0xbe, 0xb4, 0x97, 0x9c, 0xbd, 0x85, 0xbe, 0xc4, 0xbd,
    0xdb, 0x3b, 0x12, 0x3e, 0x7a, 0x2a, 0xd2, 0xbe, 0xbc, 0x3b, 0xce, 0xbe,
    0x6d, 0xdf, 0x19, 0x3e, 0xbe, 0xd6, 0x62, 0x3e, 0x36, 0xa1, 0xa5, 0xbe,
    0xa0, 0xf2, 0x67, 0xbc, 0x94, 0x73, 0x3e, 0xbe, 0x11, 0x4c, 0x7f, 0xbe,
    0xe8, 0x98, 0x4d, 0xbd, 0x86, 0x73, 0x73, 0x3e, 0x28, 0xaf, 0x5d, 0xbe,
    0x78, 0x87, 0x14, 0xbe, 0x59, 0xf9, 0x69, 0xbe, 0xfc, 0x7e, 0xa1, 0xbe,
    0x1c, 0x0b, 0xb0, 0xbe, 0xc8, 0xfe, 0xb4, 0xbe, 0x3c, 0x0e, 0xd9, 0x3d,
    0xf0, 0x53, 0x89, 0xbe, 0x59, 0x21, 0x85, 0x3e, 0x2c, 0x9e, 0xb5, 0xbe,
    0x71, 0x58, 0x29, 0x3e, 0x72, 0xc1, 0xb5, 0xbe, 0xe5, 0xa6, 0x8b, 0x3e,
    0x78, 0xb7, 0x02, 0x3e, 0x2d, 0x09, 0x10, 0x3d, 0x41, 0x45, 0x9a, 0x3d,
    0x08, 0x8d, 0x45, 0x3d, 0xce, 0x45, 0x13, 0x3d, 0xcf, 0xe6, 0xfa, 0x3e,
    0xb3, 0xe3, 0x6a, 0xbd, 0xf5, 0x60, 0x94, 0x3e, 0xd0, 0x29, 0x86, 0x3e,
    0x85, 0x42, 0xbc, 0x3e, 0xaf, 0xc4, 0xa1, 0xbe, 0xc5, 0xe0, 0x86, 0x3e,
    0xdd, 0xce, 0xa1, 0x3e, 0xef, 0x77, 0xbf, 0x3e, 0x92, 0x25, 0x34, 0x3e,
    0x8a, 0x93, 0x76, 0x3e, 0x44, 0xd0, 0xb1, 0x3e, 0x84, 0xf7, 0x25, 0xbe,
    0x03, 0xad, 0xfe, 0x3d, 0xed, 0xb5, 0x01, 0x3f, 0xa2, 0x5b, 0xea, 0x3e,
    0x0f, 0x4e, 0x0e, 0xbf, 0xef, 0x82, 0x09, 0xbe, 0x67, 0xd7, 0x71, 0xbe,
    0x61, 0x81, 0x31, 0xbe, 0xca, 0x68, 0x6c, 0x3e, 0x48, 0x58, 0x06, 0x3f,
    0x8f, 0x00, 0x01, 0x3f, 0x40, 0x2a, 0x6f, 0x3c, 0x00, 0xac, 0xdc, 0xbe,
    0x80, 0xe0, 0x1d, 0x3c, 0xa6, 0x93, 0x20, 0x3e, 0x74, 0x2b, 0xa6, 0xbe,
    0x18, 0xc9, 0x31, 0xbd, 0xc0, 0xcd, 0xdf, 0x3b, 0xa5, 0x3a, 0xd6, 0x3e,
    0xd6, 0xd3, 0xa5, 0xbe, 0x40, 0x7e, 0xb0, 0x3c, 0x96, 0xa7, 0xaa, 0xbe,
    0xd7, 0x83, 0x85, 0x3e, 0xb0, 0x87, 0xce, 0xbc, 0xcb, 0x74, 0x9b, 0x3e,
    0x7c, 0xca, 0xf8, 0xbd, 0x6b, 0x83, 0x99, 0x3e, 0x23, 0x2e, 0xb6, 0x3e,
    0xc2, 0x37, 0x93, 0xbe, 0x4b, 0x64, 0xb2, 0xbe, 0x7e, 0x59, 0x44, 0xbe,
    0x10, 0x51, 0x1f, 0xbe, 0x14, 0x80, 0x07, 0xbe, 0x18, 0x8b, 0x55, 0xbd,
    0xa7, 0xdf, 0x40, 0xbe, 0xa2, 0xf7, 0x02, 0xbe, 0x56, 0xb2, 0x04, 0xbe,
    0x60, 0xc7, 0x48, 0x3d, 0x86, 0x92, 0x2c, 0xbe, 0xf0, 0xe5, 0x11, 0xbd,
    0x1d, 0x10, 0x70, 0xbe, 0x35, 0xc5, 0xa5, 0xbe, 0x64, 0x13, 0xcb, 0x3d,
    0xec, 0xd3, 0xc8, 0xbe, 0xd1, 0x60, 0xb3, 0x3e, 0x9f, 0x5c, 0x1d, 0x3f,
    0xe1, 0x1b, 0x50, 0xbe, 0xe8, 0x1c, 0xab, 0xbd, 0xd5, 0x75, 0x09, 0x3f,
    0xae, 0x9e, 0x32, 0x3d, 0xa7, 0xe8, 0x92, 0xbe, 0xab, 0xa5, 0x9d, 0x3d,
    0x9e, 0x85, 0x88, 0x3e, 0xc8, 0xcb, 0x7f, 0x3e, 0xce, 0x1d, 0x58, 0x3c,
    0xef, 0x96, 0x60, 0x3e, 0xe0, 0x6d, 0xea, 0x3e, 0x36, 0x0b, 0x98, 0x3d,
    0xc3, 0x85, 0xf3, 0x3e, 0xd2, 0xf1, 0xff, 0xff, 0x04, 0x00, 0x00, 0x00,
    0x00, 0x04, 0x00, 0x00, 0xcf, 0x4a, 0xb6, 0x3e, 0x64, 0x06, 0xc8, 0x3d,
    0xb8, 0xab, 0xc3, 0xbd, 0xd0, 0xa0, 0x74, 0xbe, 0xf0, 0x2a, 0x4d, 0x3d,
    0xa0, 0x3d, 0xfa, 0xbd, 0xa2, 0x2b, 0x40, 0x3e, 0x7f, 0x7e, 0xab, 0x3e,
    0xe6, 0x4b, 0x96, 0xbe, 0x4b, 0x56, 0xc5, 0xbe, 0xf0, 0xb8, 0xa4, 0xbd,
    0xce, 0x81, 0x66, 0x3e, 0x0c, 0xc7, 0xaf, 0xbe, 0x39, 0x11, 0xba, 0xbe,
    0x7e, 0x82, 0x68, 0xbe, 0x48, 0x0c, 0x58, 0xbd, 0xeb, 0x27, 0xb2, 0x3e,
    0x22, 0x96, 0xd4, 0xbe, 0xdf, 0xdf, 0xa5, 0x3e, 0xf2, 0x7c, 0x83, 0xbe,
    0x90, 0xca, 0x25, 0x3d, 0xd1, 0x3f, 0x8a, 0x3e, 0xec, 0x39, 0x42, 0x3e,
    0xd7, 0x10, 0x8e, 0xbe, 0x47, 0xda, 0xaf, 0x3e, 0x8a, 0x60, 0x36, 0x3e,
    0x35, 0xc1, 0xe2, 0xbe, 0xf3, 0x48, 0xa7, 0xbc, 0x99, 0x84, 0x27, 0xbf,
    0x54, 0x4d, 0x75, 0xbe, 0x64, 0xf3, 0xab, 0xbe, 0xa3, 0x62, 0xbe, 0x3e,
    0x7f, 0xbc, 0x7b, 0xbe, 0x94, 0x21, 0x5d, 0x3e, 0x74, 0x82, 0xc5, 0x3e,
    0x1f, 0x1e, 0xc7, 0x3e, 0x97, 0x4f, 0x76, 0xbe, 0xab, 0x7f, 0x10, 0xbe,
    0x7a, 0x58, 0x83, 0xbe, 0x8b, 0xbb, 0xa8, 0xbe, 0xc6, 0x55, 0x38, 0xbe,
    0xee, 0xbc, 0x05, 0x3f, 0xd4, 0x23, 0x12, 0xbe, 0x19, 0xe1, 0xbc, 0x3e,
    0x70, 0x4b, 0xeb, 0x3e, 0x20, 0x89, 0xed, 0xbe, 0xde, 0x78, 0x36, 0x3f,
    0x90, 0x34, 0xf0, 0x3c, 0xd7, 0x30, 0xb8, 0x3e, 0x14, 0x86, 0xa2, 0xbe,
    0x50, 0x51, 0x69, 0xbe, 0x02, 0xa0, 0x0b, 0xbe, 0x55, 0x96, 0xac, 0x3e,
    0x51, 0xa6, 0xb5, 0x3e, 0x3c, 0x0e, 0xaa, 0xbd, 0x68, 0xbc, 0x31, 0xbe,
    0x52, 0xe7, 0xad, 0xbe, 0x23, 0x4c, 0x81, 0x3e, 0xe8, 0xda, 0x39, 0x3d,
    0x04, 0xcf, 0x70, 0xbe, 0xf2, 0xc1, 0x39, 0x3e, 0xd4, 0xf7, 0xf8, 0x3d,
    0xb4, 0x06, 0xb3, 0x3d, 0x4b, 0xf7, 0xcf, 0x3e, 0xb9, 0x58, 0xa2, 0x3e,
    0x50, 0xee, 0xf9, 0x3e, 0x71, 0x5c, 0x96, 0x3e, 0x5a, 0x5e, 0x26, 0x3f,
    0xaa, 0xbe, 0xed, 0xbe, 0xf8, 0x40, 0x81, 0xbe, 0x1d, 0x1c, 0xb4, 0x3d,
    0x97, 0x02, 0x82, 0x3d, 0x3d, 0x6e, 0x33, 0xbd, 0xd7, 0x44, 0x45, 0x3e,
    0x36, 0x6a, 0xe4, 0xbd, 0x9a, 0x53, 0x9c, 0x3e, 0x55, 0x14, 0x18, 0x3f,
    0xc6, 0x72, 0x89, 0xba, 0x61, 0x46, 0x13, 0x3f, 0x99, 0x8e, 0x91, 0x3e,
    0xe3, 0xa9, 0x90, 0x3e, 0x7e, 0x6c, 0xae, 0x3c, 0xb4, 0x9c, 0x00, 0x3f,
    0x31, 0xa7, 0x8e, 0x3d, 0x67, 0x6d, 0x4a, 0xbe, 0x83, 0xa3, 0x9b, 0xbe,
    0x30, 0xfa, 0x23, 0x3e, 0xed, 0x09, 0xbf, 0x3e, 0x59, 0x6e, 0x6c, 0xbe,
    0x47, 0x00, 0x93, 0xbe, 0x85, 0xdb, 0xb1, 0xbd, 0xe3, 0x77, 0x79, 0x3e,
    0xd4, 0x51, 0x49, 0xbd, 0x49, 0x88, 0xfd, 0x3e, 0xfc, 0x44, 0x80, 0x3e,
    0x6a, 0x49, 0x1b, 0x3e, 0xe0, 0x14, 0x26, 0xbd, 0xe3, 0x7d, 0x24, 0x3e,
    0xe1, 0x33, 0x9c, 0x3d, 0xee, 0x3e, 0x63, 0xbe, 0xc5, 0xbd, 0x9b, 0x3e,
    0x0f, 0xdd, 0x3c, 0x3e, 0xbd, 0x51, 0xf5, 0xbd, 0xa7, 0x60, 0x15, 0xbe,
    0xee, 0x53, 0x98, 0x3e, 0xc7, 0x7c, 0x25, 0x3c, 0x98, 0xaf, 0x96, 0x3e,
    0x82, 0x56, 0x7a, 0xbd, 0xf8, 0x69, 0x1f, 0x3e, 0xb1, 0xf4, 0x28, 0x3e,
    0x54, 0xd8, 0x01, 0xbf, 0x5c, 0xae, 0xa0, 0xbd, 0xf5, 0xbb, 0xd3, 0x3e,
    0x8c, 0xbb, 0x0e, 0x3d, 0x0e, 0x83, 0xe6, 0x3d, 0xfc, 0x27, 0x1a, 0xbf,
    0x0e, 0x45, 0xb8, 0xbc, 0x6e, 0x1f, 0xb0, 0x3d, 0xb9, 0x79, 0xb4, 0xbe,
    0xb0, 0x9e, 0x38, 0x3e, 0x85, 0x82, 0x80, 0x3e, 0x26, 0x31, 0x66, 0x3e,
    0x8c, 0xf9, 0xcb, 0xbe, 0x27, 0x7d, 0xc1, 0x3d, 0x5f, 0x89, 0x9f, 0xbe,
    0x65, 0xa1, 0x03, 0xbf, 0x2c, 0x6f, 0xfa, 0xbe, 0x38, 0x61, 0x7e, 0x3d,
    0xe4, 0xe7, 0xad, 0x3d, 0x32, 0x8d, 0x8c, 0xbe, 0x3d, 0x6b, 0xb1, 0x3e,
    0x3e, 0xc7, 0xa1, 0x3c, 0x14, 0x6e, 0x3c, 0xbe, 0x3e, 0x3c, 0xc4, 0x3e,
    0x6f, 0x7b, 0x71, 0xbe, 0x3e, 0x32, 0xce, 0xbe, 0xae, 0x83, 0xcf, 0x3e,
    0x3a, 0x92, 0xac, 0x3d, 0x8c, 0x7b, 0x00, 0xbd, 0x85, 0x1b, 0xf6, 0x3e,
    0xf5, 0xc9, 0x9d, 0xbe, 0xa2, 0xd8, 0xcf, 0x3e, 0xb9, 0xa3, 0x71, 0xbe,
    0x08, 0xb7, 0xa9, 0xbd, 0xdc, 0x4d, 0xbd, 0x3d, 0x4c, 0x3d, 0x26, 0x3f,
    0xe8, 0x6a, 0x4b, 0x3d, 0xda, 0xab, 0x23, 0x3f, 0xd3, 0xa0, 0xaa, 0x3e,
    0x8c, 0x8c, 0xcb, 0x3e, 0x70, 0x77, 0xe9, 0xbc, 0x51, 0xd3, 0xab, 0xbe,
    0xc4, 0x16, 0xe0, 0xbd, 0xfa, 0x87, 0x9a, 0xbe, 0x77, 0xbd, 0x0b, 0x3f,
    0xb2, 0x89, 0x9a, 0x3e, 0x7e, 0xfe, 0xcf, 0x3e, 0x60, 0x3c, 0x12, 0x3e,
    0xb1, 0x8f, 0x58, 0x3e, 0x96, 0x0b, 0x5a, 0xbe, 0xc7, 0x13, 0xba, 0x3e,
    0x09, 0x0f, 0x17, 0x3e, 0xc5, 0xf8, 0x8f, 0x3e, 0xf8, 0x87, 0xa9, 0x3e,
    0x4e, 0x3c, 0x33, 0x3e, 0xf5, 0xb6, 0xce, 0x3e, 0xed, 0x33, 0x4a, 0x3e,
    0xd7, 0x96, 0xbe, 0x3e, 0xeb, 0x57, 0xfb, 0x3e, 0x3a, 0x55, 0x31, 0x3e,
    0x2d, 0xe3, 0xe5, 0x3e, 0x15, 0x71, 0x37, 0xbe, 0x32, 0x3b, 0x0d, 0x3f,
    0xcd, 0xaf, 0x3e, 0xbe, 0xb4, 0x1d, 0xa5, 0x3d, 0xcc, 0xa7, 0x85, 0xbe,
    0x8e, 0x7e, 0x97, 0xbe, 0x08, 0xd8, 0x47, 0xbd, 0x27, 0xe8, 0x98, 0x3e,
    0xce, 0xaf, 0x80, 0xbe, 0x09, 0x18, 0x57, 0xbe, 0xe1, 0x78, 0x7a, 0x3e,
    0x53, 0xa5, 0x91, 0x3d, 0xfa, 0xcb, 0x83, 0xbd, 0xac, 0x8c, 0xae, 0xbe,
    0x06, 0x19, 0x2b, 0xbe, 0x9d, 0x92, 0x87, 0x3c, 0xee, 0x15, 0xd8, 0xbd,
    0x80, 0x49, 0xca, 0xbd, 0x49, 0xce, 0x66, 0xbe, 0xe3, 0xb2, 0x92, 0x3e,
    0x06, 0xd0, 0x2b, 0x3e, 0xb4, 0xdb, 0xf0, 0xbd, 0xfe, 0xbf, 0x6b, 0x3e,
    0x7c, 0x45, 0xa7, 0xbc, 0x7f, 0x2a, 0xb1, 0x3e, 0xa1, 0x47, 0x1f, 0xbe,
    0xf9, 0x19, 0xc2, 0x3e, 0xb9, 0xdd, 0x35, 0xbe, 0xb4, 0xfd, 0x46, 0x3e,
    0xbc, 0x96, 0x2e, 0x3e, 0x21, 0x4e, 0xf8, 0x3d, 0xae, 0xc0, 0x17, 0x3f,
    0x1b, 0xb1, 0x0a, 0xbe, 0x46, 0x1d, 0x2b, 0x3d, 0xb0, 0xb8, 0x0b, 0x3f,
    0xdb, 0x77, 0x0c, 0x3e, 0x50, 0x7b, 0xf3, 0xbc, 0x44, 0x00, 0x9f, 0x3d,
    0xf9, 0xfd, 0xb6, 0x3e, 0xc6, 0x8a, 0x43, 0xbe, 0xa7, 0x36, 0x4c, 0x3e,
    0x87, 0x3d, 0x1f, 0x3e, 0xf3, 0xee, 0x60, 0xbe, 0x67, 0x0d, 0xb9, 0x3e,
    0xa7, 0x27, 0x92, 0xbe, 0xa4, 0x36, 0xb5, 0xbe, 0x69, 0xda, 0x66, 0x3d,
    0xf7, 0xde, 0xb1, 0xbe, 0x26, 0x00, 0x4d, 0xbc, 0x62, 0x03, 0xa8, 0x3e,
    0x54, 0xf8, 0x45, 0x3e, 0x71, 0xd7, 0xad, 0xbe, 0xc3, 0xd3, 0xd8, 0x3e,
    0xc0, 0x18, 0x6a, 0x3d, 0x20, 0xb4, 0xb8, 0x3e, 0xc3, 0xe4, 0xfb, 0x3e,
    0x8b, 0x53, 0x22, 0x3e, 0xc4, 0xb7, 0x38, 0xbb, 0xc5, 0x6f, 0x8f, 0xbe,
    0x09, 0xb5, 0x6f, 0xbe, 0x88, 0x01, 0xa8, 0xbe, 0x3a, 0xf9, 0x1c, 0x3e,
    0xdc, 0x65, 0x09, 0x3f, 0x2f, 0xec, 0x06, 0xbf, 0xaa, 0xb5, 0xa7, 0x3e,
    0x84, 0x19, 0x45, 0x3d, 0x67, 0x95, 0xb3, 0x3d, 0xfd, 0xed, 0x06, 0xbe,
    0x44, 0x4b, 0xcb, 0x3d, 0x16, 0x70, 0x5e, 0x3e, 0x88, 0x5d, 0x88, 0xbe,
    0x30, 0x83, 0xa1, 0x3e, 0xc8, 0x8b, 0x2e, 0xbe, 0xfd, 0xb8, 0x07, 0x3f,
    0x83, 0xfe, 0x1e, 0xbe, 0x25, 0xe3, 0xcd, 0xbe, 0x1c, 0x48, 0x74, 0x3e,
    0x76, 0x4f, 0xde, 0x3d, 0xd5, 0x4f, 0x51, 0x3e, 0xb8, 0x5a, 0xad, 0xbe,
    0x1e, 0xfa, 0x15, 0x3d, 0xbb, 0x0b, 0xea, 0xbe, 0x2a, 0xb3, 0x05, 0xbf,
    0xe3, 0x7e, 0x57, 0xbe, 0xd0, 0xc9, 0x1f, 0xbe, 0xde, 0xf5, 0xff, 0xff,
    0x04, 0x00, 0x00, 0x00, 0x00, 0x04, 0x00, 0x00, 0xab, 0xfb, 0x6d, 0xbe,
    0xa2, 0x58, 0x22, 0x3e, 0xc4, 0x0a, 0x9f, 0x3d, 0x0e, 0xbf, 0x8a, 0xbe,
    0x5d, 0x82, 0xd9, 0x3e, 0x34, 0xd2, 0x74, 0xbe, 0x10, 0xd3, 0x43, 0x3d,
    0x03, 0xa9, 0x64, 0xbe, 0x16, 0xd3, 0x1a, 0x3e, 0xed, 0xab, 0x9a, 0xbe,
    0xc4, 0x4d, 0xbe, 0xbd, 0xd4, 0x94, 0xd7, 0xbd, 0x25, 0x54, 0x97, 0xbe,
    0x50, 0x68, 0xaf, 0x3c, 0x6e, 0x88, 0x82, 0xbe, 0xac, 0x1e, 0x32, 0xbe,
    0x44, 0xd5, 0x84, 0xbe, 0x84, 0x71, 0xa4, 0xbd, 0xf2, 0x2b, 0xea, 0xbc,
    0xc7, 0x04, 0xfb, 0xbe, 0x40, 0xc5, 0x28, 0xbd, 0xf8, 0xa0, 0xde, 0xbe,
    0x28, 0x65, 0x4c, 0x3d, 0x7e, 0x69, 0x8d, 0x3e, 0xcf, 0xe9, 0x2f, 0x3e,
    0xb5, 0xc2, 0x84, 0x3d, 0xec, 0xe3, 0x93, 0x3e, 0x18, 0x46, 0x58, 0x3e,
    0xec, 0x2f, 0x79, 0xbe, 0x8b, 0xef, 0xa5, 0x3e, 0x64, 0xee, 0x63, 0x3e,
    0x73, 0x07, 0x7f, 0xbe, 0x3e, 0x1b, 0xe6, 0x3e, 0xde, 0x9f, 0x62, 0x3e,
    0x7a, 0x7f, 0x28, 0x3e, 0x12, 0x54, 0xb6, 0x3e, 0x24, 0x24, 0x9c, 0x3d,
    0xcd, 0x64, 0xbf, 0xbe, 0x56, 0x15, 0xa1, 0x3e, 0xdc, 0xc7, 0xad, 0xbe,
    0xe7, 0xc5, 0x04, 0x3f, 0x5f, 0x65, 0xc7, 0x3e, 0xfd, 0x7a, 0x6d, 0xbd,
    0x22, 0x06, 0xc0, 0x3e, 0xe8, 0x7e, 0xc3, 0x3e, 0xe8, 0x05, 0xf5, 0x3c,
    0x9f, 0x83, 0x8d, 0x3e, 0x83, 0xe3, 0xcc, 0xbd, 0x96, 0x2e, 0xaf, 0xbe,
    0x56, 0xf8, 0x75, 0xbe, 0x52, 0x6b, 0x30, 0x3f, 0xf3, 0xa2, 0x64, 0xbe,
    0x9a, 0x13, 0x9f, 0xbe, 0x94, 0x1e, 0xce, 0xbe, 0x4b, 0xd1, 0x52, 0xbe,
    0x4e, 0xc3, 0x56, 0xbe, 0x39, 0x07, 0x90, 0x3e, 0xcd, 0x79, 0x92, 0x3e,
    0xd2, 0x44, 0x3a, 0x3d, 0x32, 0x92, 0xa7, 0x3e, 0xdd, 0xe1, 0x3f, 0xbd,
    0xc6, 0x8f, 0xcb, 0xbd, 0x9c, 0x89, 0x0f, 0xbe, 0x47, 0x39, 0x37, 0x3e,
    0x7f, 0xfb, 0x13, 0xbc, 0xc4, 0x83, 0xdc, 0xbd, 0x23, 0xd7, 0x85, 0x3e,
    0x9a, 0xe3, 0x5e, 0xbe, 0xc6, 0xd9, 0x8b, 0xbd, 0xc4, 0xb5, 0x36, 0x3d,
    0x30, 0x0f, 0x0c, 0xbd, 0xb5, 0xc2, 0xba, 0xbd, 0x23, 0x18, 0xb7, 0xbe,
    0x82, 0xdd, 0x0e, 0x3f, 0x17, 0x38, 0x0c, 0x3e, 0xcf, 0x18, 0xe3, 0x3d,
    0x0e, 0x72, 0xe5, 0xbe, 0xd4, 0x8f, 0x31, 0x3d, 0x8e, 0x64, 0x8a, 0xbe,
    0xce, 0x4f, 0x01, 0x3f, 0xad, 0xdb, 0x67, 0x3e, 0x51, 0xf6, 0x28, 0x3e,
    0x0d, 0xac, 0xc1, 0xbe, 0x07, 0x2c, 0xaa, 0xbe, 0xca, 0xd9, 0x9e, 0x3e,
    0x26, 0xd9, 0x8c, 0x3d, 0xb5, 0x5c, 0xa7, 0xbe, 0x9f, 0x09, 0xb5, 0x3e,
    0xcb, 0x67, 0x4a, 0x3e, 0xc3, 0x38, 0x27, 0xbe, 0x22, 0x21, 0x75, 0x3e,
    0xd1, 0xc3, 0xce, 0xbe, 0x6a, 0x1b, 0xb9, 0x3e, 0xd3, 0x78, 0x66, 0xbe,
    0xda, 0xb6, 0x54, 0x3e, 0x61, 0x4e, 0x54, 0xbe, 0xc5, 0x53, 0x9f, 0xbe,
    0xa8, 0x13, 0x8d, 0x3e, 0xe9, 0x6e, 0xce, 0xbd, 0x48, 0xb9, 0x9a, 0xbe,
    0xbc, 0x66, 0x83, 0x3e, 0x84, 0xab, 0x8c, 0xbe, 0xb5, 0xcf, 0x7a, 0xbe,
    0xcc, 0x16, 0xd4, 0x3d, 0xe8, 0x8f, 0x02, 0xbe, 0x68, 0x75, 0x70, 0xbd,
    0x0f, 0xda, 0x0d, 0xbd, 0x33, 0x03, 0x80, 0xbe, 0xb7, 0x72, 0xd3, 0x3e,
    0x10, 0xca, 0x1b, 0x3e, 0xa1, 0xa0, 0x8e, 0x3e, 0xb2, 0x87, 0x60, 0x3e,
    0x30, 0x88, 0x07, 0xbe, 0xa0, 0x90, 0xc0, 0xbe, 0x99, 0xd1, 0xd5, 0xbb,
    0xed, 0x8f, 0x13, 0xbe, 0xdb, 0x89, 0x8a, 0x3e, 0x49, 0xce, 0x8f, 0x3e,
    0xce, 0xf9, 0x74, 0x3e, 0x03, 0x24, 0xfe, 0xbb, 0xa0, 0x07, 0xd1, 0xbd,
    0xa2, 0x7c, 0x60, 0x3e, 0xb0, 0x54, 0x91, 0xbe, 0x5d, 0xb0, 0xb1, 0xbd,
    0x5b, 0xc0, 0xc5, 0x3e, 0x69, 0xb6, 0x98, 0x3e, 0x03, 0x3c, 0x1c, 0xbe,
    0x53, 0x1d, 0x9f, 0xbe, 0x2a, 0x88, 0x39, 0x3c, 0x95, 0x0b, 0x7e, 0xbe,
    0x79, 0x11, 0xc7, 0x3d, 0x77, 0xd8, 0xde, 0x3e, 0x26, 0x1d, 0x8b, 0x3e,
    0x4c, 0x78, 0xf6, 0x3e, 0xc0, 0x28, 0x75, 0xbe, 0x45, 0x4b, 0xc9, 0x3e,
    0x01, 0x67, 0x9d, 0xbe, 0xf4, 0x1c, 0xa6, 0xbd, 0x17, 0xd5, 0x02, 0x3f,
    0xca, 0x5a, 0xa4, 0x3e, 0x09, 0x51, 0x08, 0x3d, 0xf0, 0x94, 0xd6, 0xbe,
    0x4a, 0xb7, 0x58, 0xbe, 0x1f, 0x97, 0xc4, 0x3e, 0x78, 0x75, 0xcb, 0x3e,
    0xa9, 0x85, 0x10, 0x3f, 0x62, 0xb5, 0x11, 0xbf, 0x16, 0x9b, 0x78, 0x3e,
    0x0a, 0x41, 0xb8, 0xbe, 0xa7, 0xd9, 0xa2, 0xbe, 0x58, 0x57, 0x71, 0x3d,
    0x47, 0x4b, 0xb3, 0x3e, 0x56, 0x51, 0x0a, 0x3f, 0x2c, 0xaf, 0xb7, 0x3e,
    0x7d, 0x48, 0x5e, 0x3e, 0x4f, 0x74, 0x90, 0x3e, 0x61, 0x66, 0xa2, 0xbe,
    0x77, 0x27, 0x73, 0x3e, 0xab, 0xd8, 0x69, 0xbe, 0x72, 0x05, 0x6b, 0xbd,
    0x0d, 0xfc, 0xbb, 0x3d, 0x00, 0x20, 0xe3, 0xbe, 0x14, 0x73, 0xfb, 0x3e,
    0x78, 0x6b, 0x60, 0x3e, 0xc8, 0xff, 0xa1, 0x3d, 0xb2, 0x3a, 0xc3, 0x3e,
    0x17, 0x7c, 0x84, 0xbd, 0x0d, 0x11, 0x75, 0xbe, 0xf0, 0xb4, 0xbe, 0xbe,
    0x83, 0xf3, 0x30, 0xbe, 0xef, 0x47, 0xd0, 0xbe, 0x3d, 0x4d, 0x32, 0x3e,
    0xb2, 0xab, 0xda, 0x3e, 0xd0, 0x99, 0x8f, 0x3e, 0xd1, 0x14, 0xdd, 0x3e,
    0x8c, 0x7f, 0xbb, 0xbe, 0x50, 0x31, 0xd6, 0x3e, 0xc0, 0x7f, 0xf2, 0x3e,
    0x57, 0x91, 0x95, 0xbe, 0xd7, 0x8b, 0x31, 0x3e, 0xd9, 0x05, 0x50, 0x3d,
    0xb0, 0x8d, 0xa9, 0x3e, 0x98, 0xec, 0xf6, 0xbd, 0x29, 0xdb, 0xe6, 0x3e,
    0x4a, 0x25, 0x03, 0x3f, 0x77, 0x76, 0xf3, 0x3d, 0xff, 0xda, 0xc6, 0x3d,
    0x1f, 0x07, 0x94, 0xbe, 0x3a, 0x7c, 0x11, 0xbc, 0x97, 0x71, 0x61, 0x3e,
    0xb9, 0xf1, 0x78, 0xbd, 0x4b, 0x01, 0x02, 0xbe, 0x37, 0x85, 0xe1, 0xbe,
    0xff, 0x7f, 0xc5, 0x3d, 0xbe, 0x5f, 0x44, 0x3e, 0x80, 0x30, 0x0d, 0xbf,
    0x10, 0xfd, 0xad, 0xbe, 0x41, 0x0c, 0x2a, 0x3e, 0xec, 0x09, 0xf6, 0xbd,
    0x18, 0x63, 0x88, 0x3e, 0xdf, 0x57, 0xa8, 0x3e, 0xe8, 0x62, 0x73, 0x3b,
    0x5f, 0x48, 0xf4, 0x3e, 0x6e, 0xe2, 0x8d, 0xbe, 0x31, 0xa5, 0x65, 0xbe,
    0x18, 0x29, 0xb6, 0x3e, 0x08, 0x1c, 0x0c, 0x3e, 0xeb, 0x8a, 0x77, 0x3e,
    0x37, 0x76, 0x21, 0x3e, 0xda, 0x13, 0x92, 0xbe, 0x27, 0xbf, 0x0c, 0x3f,
    0x6e, 0xa7, 0xe9, 0x3e, 0x8e, 0x84, 0x80, 0xbd, 0xb2, 0x82, 0x3b, 0xbe,
    0x5f, 0xcd, 0x0d, 0xbd, 0xf0, 0x09, 0x06, 0x3e, 0xa8, 0x5b, 0x70, 0x3c,
    0x5e, 0xa5, 0xbb, 0x3e, 0xdc, 0x15, 0xd7, 0xbd, 0xa6, 0x35, 0x72, 0xbe,
    0xbb, 0xa1, 0xa0, 0x3d, 0xfb, 0x96, 0x5b, 0x3d, 0xad, 0x3a, 0x26, 0x3c,
    0x18, 0x99, 0x1d, 0xbe, 0x8f, 0xcd, 0xba, 0xbe, 0x7b, 0x65, 0xc1, 0xbe,
    0x27, 0x7b, 0xd0, 0x3e, 0x67, 0xf7, 0x62, 0xbe, 0x95, 0xca, 0x1d, 0x3d,
    0xd0, 0x9f, 0xcd, 0xbe, 0x34, 0xaf, 0xcf, 0x3d, 0x9d, 0x08, 0x83, 0x3e,
    0x14, 0xec, 0xe1, 0x3d, 0x10, 0xd7, 0xb5, 0x3c, 0xeb, 0xfb, 0x8d, 0x3e,
    0xdc, 0xae, 0x9f, 0x3e, 0xd5, 0xca, 0x7d, 0xbe, 0x2e, 0x4d, 0x44, 0xbe,
    0x1a, 0x77, 0x4f, 0x3e, 0xff, 0xec, 0x87, 0xbe, 0x69, 0xb4, 0x8d, 0xbe,
    0x82, 0x20, 0x2f, 0x3e, 0x90, 0xd2, 0x9e, 0xbc, 0x00, 0xb0, 0x16, 0xba,
    0xcb, 0xac, 0x51, 0xbe, 0x94, 0xc8, 0x01, 0xbe, 0x34, 0xb8, 0xb1, 0xbd,
    0x24, 0xca, 0x05, 0xbe, 0xb0, 0x3a, 0x50, 0x3d, 0x30, 0xd0, 0x73, 0xbd,
    0xa0, 0xc4, 0x87, 0x3c, 0x43, 0x4e, 0xc1, 0xbe, 0x69, 0x45, 0xdb, 0xbe,
    0xd5, 0x7d, 0x8c, 0xbe, 0xf7, 0x2b, 0x5c, 0xbe, 0x43, 0xfd, 0xbe, 0x3e,
    0xea, 0xf9, 0xff, 0xff, 0x04, 0x00, 0x00, 0x00, 0xc0, 0x03, 0x00, 0x00,
    0x67, 0x3f, 0xb6, 0xbe, 0x5b, 0x3a, 0xd1, 0xbe, 0xe9, 0x56, 0xc8, 0x3e,
    0x15, 0x6a, 0x32, 0x3e, 0xcd, 0xcb, 0x7d, 0x3e, 0xd5, 0xf4, 0x2a, 0x3f,
    0xf5, 0xf0, 0x75, 0x3e, 0x0a, 0xd6, 0xa2, 0xbd, 0xbd, 0x0d, 0xce, 0xbe,
    0x3d, 0x74, 0x7c, 0xbe, 0xeb, 0x4e, 0x81, 0x3e, 0x5c, 0xc9, 0x4f, 0xbc,
    0x6c, 0xeb, 0x83, 0x3e, 0xe0, 0x53, 0x64, 0xbe, 0x0d, 0xa1, 0xb4, 0xbe,
    0x65, 0xe7, 0x9e, 0x3e, 0x81, 0xf6, 0x56, 0x3e, 0x1c, 0x9c, 0x4f, 0x3e,
    0x3f, 0xe6, 0xc6, 0xbe, 0x91, 0x31, 0xac, 0xbe, 0x7a, 0xa7, 0xe2, 0xbd,
    0xdc, 0xa5, 0x65, 0xbe, 0xc1, 0xc6, 0xdd, 0xbe, 0x5d, 0xbe, 0x80, 0x3d,
    0xb9, 0x3b, 0x7b, 0xbe, 0x6d, 0x5b, 0xa2, 0x3d, 0x5e, 0xfe, 0xb1, 0xbe,
    0x0f, 0xb4, 0x2f, 0xbe, 0x6d, 0x5f, 0xd2, 0xbe, 0xc7, 0xbd, 0xcc, 0x3d,
    0x2f, 0x54, 0x47, 0xbe, 0x6b, 0x15, 0xf9, 0x3e, 0x23, 0x52, 0x19, 0xbe,
    0xe8, 0xd0, 0x8b, 0xbe, 0xe6, 0x9a, 0xf7, 0xbd, 0xc7, 0xce, 0x14, 0xbf,
    0x45, 0xff, 0x8e, 0x3e, 0xd7, 0xf4, 0x11, 0x3e, 0x49, 0x06, 0x11, 0xbe,
    0x4e, 0xb2, 0xb3, 0xbe, 0x6b, 0x31, 0x0f, 0xbd, 0xe5, 0x9d, 0x4c, 0xbe,
    0xdf, 0x2d, 0x36, 0xbe, 0xea, 0x19, 0xec, 0x3d, 0xa9, 0x82, 0x87, 0xbe,
    0x19, 0xf1, 0xad, 0x3d, 0x86, 0x77, 0x99, 0xbd, 0x63, 0x04, 0x0a, 0x3f,
    0x3b, 0x38, 0xb3, 0xbe, 0xd1, 0x2a, 0x86, 0x3e, 0xef, 0xf8, 0x31, 0x3f,
    0x3c, 0xc0, 0xc6, 0xbe, 0x56, 0xb3, 0x0a, 0xbe, 0x51, 0x62, 0xa4, 0xbe,
    0x33, 0x65, 0x5c, 0x3e, 0xed, 0xab, 0x84, 0xbd, 0x97, 0x72, 0x13, 0xbe,
    0xcf, 0x57, 0xc4, 0x3d, 0x7f, 0x40, 0xdf, 0xbd, 0x30, 0x23, 0x52, 0x3c,
    0xa2, 0xef, 0x10, 0x3c, 0xdb, 0x7c, 0xa1, 0xbe, 0x3d, 0x0b, 0x92, 0x3e,
    0x7e, 0x15, 0x99, 0x3e, 0x3c, 0x47, 0x02, 0x3e, 0xc1, 0x91, 0xab, 0x3e,
    0x6d, 0x91, 0x59, 0x3e, 0x46, 0x02, 0xdd, 0xbe, 0x64, 0x60, 0xcf, 0x3d,
    0x5f, 0x75, 0xdc, 0xbe, 0x1e, 0x46, 0x1a, 0xbe, 0x2c, 0x11, 0xb3, 0xbe,
    0x23, 0xb4, 0x0b, 0x3e, 0x52, 0xc6, 0x12, 0x3e, 0x37, 0xf9, 0xbb, 0xbe,
    0x0a, 0xbc, 0xbc, 0xbe, 0x99, 0x8c, 0x33, 0x3e, 0x69, 0x4a, 0xa1, 0x3e,
    0x13, 0xc9, 0xe8, 0xbd, 0x14, 0x60, 0x9d, 0xbd, 0x46, 0x36, 0x1d, 0xbd,
    0xda, 0xc2, 0xca, 0xbe, 0x67, 0xb6, 0x1c, 0xbe, 0xc0, 0x96, 0x0e, 0xbd,
    0xdf, 0x6c, 0x6c, 0x3e, 0x18, 0xa1, 0xcf, 0x3e, 0xe3, 0x2c, 0x14, 0xbe,
    0x5e, 0x54, 0x5e, 0xbe, 0x36, 0x69, 0xbc, 0x3e, 0x02, 0xd6, 0x63, 0xbe,
    0x19, 0xc4, 0xc1, 0x3d, 0x99, 0x79, 0x2a, 0x3d, 0xc8, 0x2b, 0xc1, 0x3e,
    0x90, 0xdc, 0x7d, 0xbd, 0x90, 0xf8, 0xca, 0xbd, 0x72, 0x74, 0xbd, 0xbe,
    0xad, 0xb8, 0xa6, 0xbd, 0xba, 0xc8, 0xab, 0xbe, 0xaa, 0xab, 0x38, 0x3e,
    0x92, 0x37, 0x31, 0x3e, 0xcd, 0x44, 0x3b, 0x3e, 0x92, 0x75, 0x58, 0x3e,
    0x56, 0x9b, 0xd0, 0x3e, 0x34, 0xa1, 0xcf, 0xba, 0x91, 0xee, 0xbc, 0x3e,
    0xb7, 0x19, 0xed, 0xbe, 0x6b, 0x75, 0xfd, 0x3d, 0x97, 0x27, 0xc1, 0xbe,
    0xb9, 0x67, 0x8b, 0x3e, 0xe9, 0xb2, 0xac, 0x3e, 0x4f, 0x4e, 0x88, 0x3e,
    0x53, 0xee, 0x87, 0xbe, 0xd9, 0x2a, 0x92, 0xbe, 0x39, 0x25, 0x85, 0xbe,
    0xec, 0xc5, 0xa9, 0x3e, 0xed, 0x77, 0xb6, 0xbd, 0xd8, 0x5f, 0x1a, 0x3d,
    0x4c, 0x50, 0x1e, 0x3e, 0x3b, 0x34, 0x93, 0xbd, 0xe1, 0x31, 0x81, 0xbd,
    0x02, 0x3b, 0x9e, 0x3e, 0x2d, 0x60, 0xb2, 0x3e, 0x38, 0xb5, 0x89, 0x3e,
    0x14, 0x9e, 0xa3, 0xbe, 0xb1, 0x1e, 0x96, 0xbe, 0xf7, 0x1e, 0xdc, 0x3e,
    0x9b, 0x53, 0x63, 0xbe, 0x0f, 0xb1, 0xb2, 0xbe, 0x61, 0xff, 0x15, 0x3e,
    0xe7, 0x58, 0x3f, 0xbe, 0x31, 0xd4, 0x63, 0xbd, 0x94, 0x38, 0x76, 0x3e,
    0xc1, 0xb8, 0xc0, 0xbe, 0xd6, 0x27, 0x89, 0x3e, 0x1c, 0x4f, 0xb6, 0x3e,
    0x15, 0xfb, 0x6f, 0xbe, 0x08, 0x4b, 0x6d, 0x3e, 0xd8, 0x35, 0xb8, 0xbe,
    0x79, 0x02, 0xba, 0x3e, 0x9b, 0x72, 0x04, 0x3e, 0x1e, 0xbd, 0x2f, 0xbd,
    0xc8, 0x11, 0xb2, 0xbd, 0x7a, 0x87, 0xd8, 0xbe, 0x7c, 0x89, 0xe6, 0xbe,
    0x99, 0x07, 0xe3, 0x3e, 0x4e, 0x54, 0x71, 0xbb, 0x3b, 0xfc, 0xac, 0xbe,
    0x86, 0x24, 0xa7, 0xbe, 0x39, 0x45, 0x61, 0x3e, 0xb8, 0x53, 0xf2, 0x3d,
    0xfd, 0x98, 0x43, 0x3e, 0x0c, 0xd0, 0x05, 0xbe, 0x48, 0x07, 0x0a, 0xbf,
    0x01, 0x43, 0x81, 0x3d, 0x48, 0xcf, 0x1e, 0x3e, 0xe4, 0xf0, 0xe6, 0xbe,
    0xe5, 0xcf, 0xaf, 0xbe, 0xf5, 0x8d, 0xe9, 0xbe, 0xcb, 0x84, 0x6c, 0x3e,
    0x1f, 0xd1, 0x30, 0xbe, 0x2d, 0x5d, 0xc6, 0x3d, 0xec, 0xf7, 0xd0, 0xbe,
    0xbd, 0x62, 0xde, 0xbe, 0xff, 0x20, 0xa6, 0xbe, 0xa5, 0xcd, 0xa9, 0xbe,
    0x2f, 0x69, 0x5d, 0x3e, 0xba, 0x7e, 0x5a, 0xbe, 0x61, 0x2f, 0x01, 0xbe,
    0xdf, 0x88, 0xb4, 0xbe, 0xb6, 0x0e, 0x5c, 0xbe, 0x83, 0x64, 0xd0, 0x3c,
    0x90, 0xa7, 0xb9, 0xbe, 0x2e, 0x8c, 0x01, 0xbf, 0x0b, 0x99, 0x33, 0xbc,
    0xca, 0xe1, 0x82, 0x3e, 0xf4, 0x90, 0x8d, 0x3e, 0xd3, 0x3b, 0x9c, 0xbd,
    0xca, 0x9f, 0xf3, 0xbe, 0xbe, 0x6d, 0xfc, 0xbe, 0x4f, 0xb9, 0xc6, 0xbd,
    0x3c, 0x20, 0xc1, 0xbe, 0xdb, 0x7d, 0xb2, 0xbe, 0x17, 0x54, 0xd8, 0xbe,
    0x60, 0x1e, 0x9a, 0x3e, 0xcd, 0x67, 0x8c, 0x3d, 0xc0, 0x8b, 0x51, 0x3d,
    0x1e, 0x76, 0xe6, 0x3e, 0x1b, 0x02, 0x45, 0x3e, 0x5d, 0x0e, 0xce, 0x3e,
    0x26, 0xa2, 0x39, 0xbe, 0x84, 0x99, 0x57, 0xbe, 0x09, 0xed, 0x6f, 0xbe,
    0x3c, 0xe3, 0x3f, 0xbe, 0xde, 0xa6, 0x2e, 0x3e, 0xa9, 0xc1, 0x89, 0x3e,
    0xd5, 0xbc, 0xee, 0x3e, 0x85, 0x08, 0x4a, 0x3d, 0x39, 0xb1, 0x42, 0x3e,
    0x7b, 0x41, 0x18, 0x3e, 0x91, 0xbb, 0x64, 0xbe, 0x9d, 0x22, 0x03, 0xbe,
    0xc8, 0x69, 0x66, 0xbe, 0x91, 0x9d, 0xa5, 0x3e, 0xa5, 0x9f, 0x27, 0xbe,
    0x80, 0xe1, 0xb5, 0x3e, 0xbb, 0x85, 0x99, 0xbe, 0x76, 0xed, 0x50, 0x3d,
    0xdd, 0x74, 0x88, 0x3e, 0x21, 0x4d, 0x6a, 0x3e, 0x92, 0xb8, 0xa6, 0xbd,
    0x63, 0x43, 0x86, 0xbe, 0x49, 0xb6, 0x95, 0xbe, 0xfa, 0x40, 0xca, 0xbe,
    0x24, 0x3f, 0xa7, 0xbd, 0x00, 0x1f, 0xc5, 0x3c, 0x4d, 0xd1, 0x37, 0x3e,
    0xa1, 0x74, 0x95, 0x3e, 0xf7, 0x5c, 0xbe, 0xbe, 0x64, 0x3e, 0xbc, 0x3e,
    0x31, 0x42, 0x8e, 0xbe, 0x39, 0x7e, 0x3f, 0x3e, 0x0d, 0xcf, 0xe2, 0xbd,
    0xc4, 0xf7, 0x82, 0x3e, 0x9b, 0x16, 0x37, 0xbe, 0x67, 0x4d, 0x97, 0x3e,
    0xab, 0xa6, 0x01, 0x3e, 0x99, 0xc1, 0x98, 0x3e, 0xbb, 0x45, 0x12, 0xbf,
    0x15, 0x04, 0x59, 0x3e, 0x29, 0x3c, 0x9d, 0x3e, 0x8b, 0x53, 0x73, 0x3e,
    0x6a, 0xdf, 0xd9, 0x3e, 0x2f, 0x72, 0x0b, 0xbf, 0x2c, 0x14, 0x63, 0x3d,
    0xa4, 0x20, 0x24, 0x3e, 0xdc, 0x57, 0xcd, 0x3e, 0x32, 0x67, 0xf6, 0x3d,
    0x5e, 0x20, 0xbe, 0xbe, 0x28, 0xfc, 0x41, 0x3d, 0xad, 0xe5, 0xda, 0x3e,
    0xb6, 0xfd, 0xff, 0xff, 0x04, 0x00, 0x00, 0x00, 0x40, 0x00, 0x00, 0x00,
    0x57, 0x19, 0x40, 0xbd, 0x7c, 0x39, 0x07, 0xbe, 0xe5, 0x79, 0xe8, 0x3d,
    0xa4, 0xf9, 0x91, 0x3d, 0x29, 0xd4, 0x2c, 0xbd, 0x88, 0xc3, 0x34, 0x3e,
    0xdb, 0x81, 0x49, 0xbc, 0xa4, 0x8f, 0x83, 0xbd, 0x93, 0xfa, 0x18, 0xbe,
    0x6a, 0x36, 0x78, 0xbd, 0x59, 0x8c, 0xb2, 0xbd, 0xad, 0x02, 0x9a, 0xbd,
    0xd1, 0xad, 0x51, 0x3b, 0xd4, 0x7f, 0x94, 0x3b, 0x9c, 0x7a, 0xd2, 0x3b,
    0x16, 0x27, 0x9f, 0xbd, 0x02, 0xfe, 0xff, 0xff, 0x04, 0x00, 0x00, 0x00,
    0x40, 0x00, 0x00, 0x00, 0x00, 0x00, 0x00, 0x00, 0x33, 0x90, 0x12, 0x3d,
    0x66, 0xc6, 0xd6, 0xbd, 0x0e, 0x50, 0x04, 0x3d, 0x7e, 0xa8, 0x4d, 0x3d,
    0xbe, 0xb6, 0x3a, 0x3b, 0x87, 0x5c, 0x4b, 0x3c, 0xed, 0xa4, 0x64, 0xbd,
    0x3c, 0x07, 0xc0, 0x3c, 0xa5, 0x9e, 0x98, 0xbd, 0xd9, 0x92, 0x28, 0x3e,
    0xc5, 0x3c, 0x17, 0xbd, 0x65, 0x67, 0x9a, 0x3c, 0x3e, 0x93, 0x5d, 0x3e,
    0x24, 0xad, 0x9f, 0xbc, 0x00, 0x00, 0x00, 0x00, 0x4e, 0xfe, 0xff, 0xff,
    0x04, 0x00, 0x00, 0x00, 0x40, 0x00, 0x00, 0x00, 0x00, 0x00, 0x00, 0x00,
    0x90, 0xc9, 0xee, 0xbd, 0xe9, 0xaa, 0x22, 0xbd, 0x00, 0x00, 0x00, 0x00,
    0x68, 0x6a, 0x19, 0xbe, 0x90, 0x32, 0xd2, 0x3c, 0xb2, 0x95, 0x22, 0x3e,
    0x20, 0x93, 0x3c, 0xbd, 0x05, 0xc0, 0x02, 0x3e, 0xb6, 0xcf, 0xe8, 0x3d,
    0xa8, 0x94, 0x7d, 0xba, 0x57, 0xd6, 0x86, 0x3c, 0x29, 0xaa, 0x1a, 0x3e,
    0xfe, 0xc0, 0x3d, 0xbd, 0x1b, 0x0c, 0xab, 0xbd, 0xad, 0xcc, 0x98, 0xbd,
    0x9a, 0xfe, 0xff, 0xff, 0x04, 0x00, 0x00, 0x00, 0x40, 0x00, 0x00, 0x00,
    0x00, 0x00, 0x00, 0x00, 0x00, 0x00, 0x00, 0x00, 0xc7, 0x7b, 0xb9, 0x3d,
    0x92, 0x10, 0x02, 0xbc, 0x1b, 0x59, 0x43, 0x3e, 0x68, 0xf8, 0x0f, 0x3b,
    0x55, 0xb3, 0x3b, 0x3e, 0xd3, 0xe6, 0xc3, 0xbd, 0x00, 0x00, 0x00, 0x00,
    0xe9, 0xae, 0x13, 0xbd, 0x00, 0x00, 0x00, 0x00, 0xd0, 0x4b, 0xbf, 0x3b,
    0x16, 0x99, 0x71, 0xbd, 0x00, 0x00, 0x00, 0x00, 0x00, 0x00, 0x00, 0x00,
    0xc2, 0x12, 0x7a, 0xbd, 0xe6, 0xfe, 0xff, 0xff, 0x04, 0x00, 0x00, 0x00,
    0x40, 0x00, 0x00, 0x00, 0xa6, 0xbf, 0x36, 0xbc, 0x79, 0x06, 0x13, 0x3c,
    0xf9, 0xdb, 0x53, 0xbc, 0x21, 0x49, 0xd0, 0x3c, 0x00, 0x00, 0x00, 0x00,
    0x00, 0x00, 0x00, 0x00, 0x48, 0x29, 0xb7, 0x3b, 0x22, 0x97, 0x4e, 0xbd,
    0x23, 0xda, 0x64, 0x3e, 0x00, 0x00, 0x00, 0x00, 0xb7, 0xbc, 0x27, 0x3d,
    0x96, 0x21, 0x1b, 0x3c, 0xce, 0x97, 0x21, 0x3e, 0xe7, 0x0f, 0x24, 0x3d,
    0x88, 0xc4, 0x64, 0x3d, 0x16, 0x03, 0xfc, 0xbb, 0x32, 0xff, 0xff, 0xff,
    0x04, 0x00, 0x00, 0x00, 0x20, 0x00, 0x00, 0x00, 0x48, 0x09, 0xfd, 0xbd,
    0x43, 0x1c, 0x2b, 0xbd, 0x2e, 0xb2, 0x74, 0xbd, 0x04, 0x8e, 0xcc, 0xbc,
    0x82, 0xc7, 0x49, 0x3e, 0x95, 0x55, 0x16, 0x3d, 0x9b, 0xbf, 0x9e, 0xbc,
    0x56, 0xff, 0xcd, 0x3c, 0x08, 0xf6, 0xff, 0xff, 0x0c, 0xf6, 0xff, 0xff,
    0x0f, 0x00, 0x00, 0x00, 0x4d, 0x4c, 0x49, 0x52, 0x20, 0x43, 0x6f, 0x6e,
    0x76, 0x65, 0x72, 0x74, 0x65, 0x64, 0x2e, 0x00, 0x01, 0x00, 0x00, 0x00,
    0x14, 0x00, 0x00, 0x00, 0x00, 0x00, 0x0e, 0x00, 0x18, 0x00, 0x14, 0x00,
    0x10, 0x00, 0x0c, 0x00, 0x08, 0x00, 0x04, 0x00, 0x0e, 0x00, 0x00, 0x00,
    0x14, 0x00, 0x00, 0x00, 0x1c, 0x00, 0x00, 0x00, 0xcc, 0x01, 0x00, 0x00,
    0xd0, 0x01, 0x00, 0x00, 0xd4, 0x01, 0x00, 0x00, 0x04, 0x00, 0x00, 0x00,
    0x6d, 0x61, 0x69, 0x6e, 0x00, 0x00, 0x00, 0x00, 0x07, 0x00, 0x00, 0x00,
    0x74, 0x01, 0x00, 0x00, 0x2c, 0x01, 0x00, 0x00, 0xf4, 0x00, 0x00, 0x00,
    0xbc, 0x00, 0x00, 0x00, 0x84, 0x00, 0x00, 0x00, 0x50, 0x00, 0x00, 0x00,
    0x14, 0x00, 0x00, 0x00, 0x00, 0x00, 0x0e, 0x00, 0x1a, 0x00, 0x14, 0x00,
    0x10, 0x00, 0x0c, 0x00, 0x0b, 0x00, 0x04, 0x00, 0x0e, 0x00, 0x00, 0x00,
    0x1c, 0x00, 0x00, 0x00, 0x00, 0x00, 0x00, 0x09, 0x1c, 0x00, 0x00, 0x00,
    0x20, 0x00, 0x00, 0x00, 0x01, 0x00, 0x00, 0x00, 0x00, 0x00, 0x06, 0x00,
    0x08, 0x00, 0x04, 0x00, 0x06, 0x00, 0x00, 0x00, 0x00, 0x00, 0x80, 0x3f,
    0x01, 0x00, 0x00, 0x00, 0x13, 0x00, 0x00, 0x00, 0x01, 0x00, 0x00, 0x00,
    0x12, 0x00, 0x00, 0x00, 0xfe, 0xfe, 0xff, 0xff, 0x10, 0x00, 0x00, 0x00,
    0x00, 0x00, 0x00, 0x08, 0x0c, 0x00, 0x00, 0x00, 0x10, 0x00, 0x00, 0x00,
    0xdc, 0xf6, 0xff, 0xff, 0x01, 0x00, 0x00, 0x00, 0x12, 0x00, 0x00, 0x00,
    0x03, 0x00, 0x00, 0x00, 0x11, 0x00, 0x00, 0x00, 0x0c, 0x00, 0x00, 0x00,
    0x01, 0x00, 0x00, 0x00, 0x2e, 0xff, 0xff, 0xff, 0x10, 0x00, 0x00, 0x00,
    0x00, 0x00, 0x00, 0x08, 0x10, 0x00, 0x00, 0x00, 0x14, 0x00, 0x00, 0x00,
    0x1e, 0xff, 0xff, 0xff, 0x00, 0x00, 0x00, 0x01, 0x01, 0x00, 0x00, 0x00,
    0x11, 0x00, 0x00, 0x00, 0x03, 0x00, 0x00, 0x00, 0x10, 0x00, 0x00, 0x00,
    0x0b, 0x00, 0x00, 0x00, 0x02, 0x00, 0x00, 0x00, 0x62, 0xff, 0xff, 0xff,
    0x10, 0x00, 0x00, 0x00, 0x00, 0x00, 0x00, 0x08, 0x10, 0x00, 0x00, 0x00,
    0x14, 0x00, 0x00, 0x00, 0x52, 0xff, 0xff, 0xff, 0x00, 0x00, 0x00, 0x01,
    0x01, 0x00, 0x00, 0x00, 0x10, 0x00, 0x00, 0x00, 0x03, 0x00, 0x00, 0x00,
    0x0f, 0x00, 0x00, 0x00, 0x0a, 0x00, 0x00, 0x00, 0x03, 0x00, 0x00, 0x00,
    0x96, 0xff, 0xff, 0xff, 0x10, 0x00, 0x00, 0x00, 0x00, 0x00, 0x00, 0x08,
    0x10, 0x00, 0x00, 0x00, 0x14, 0x00, 0x00, 0x00, 0x86, 0xff, 0xff, 0xff,
    0x00, 0x00, 0x00, 0x01, 0x01, 0x00, 0x00, 0x00, 0x0f, 0x00, 0x00, 0x00,
    0x03, 0x00, 0x00, 0x00, 0x0e, 0x00, 0x00, 0x00, 0x09, 0x00, 0x00, 0x00,
    0x04, 0x00, 0x00, 0x00, 0xca, 0xff, 0xff, 0xff, 0x10, 0x00, 0x00, 0x00,
    0x00, 0x00, 0x00, 0x08, 0x10, 0x00, 0x00, 0x00, 0x14, 0x00, 0x00, 0x00,
    0xba, 0xff, 0xff, 0xff, 0x00, 0x00, 0x00, 0x01, 0x01, 0x00, 0x00, 0x00,
    0x0e, 0x00, 0x00, 0x00, 0x03, 0x00, 0x00, 0x00, 0x0d, 0x00, 0x00, 0x00,
    0x08, 0x00, 0x00, 0x00, 0x05, 0x00, 0x00, 0x00, 0x00, 0x00, 0x0e, 0x00,
    0x16, 0x00, 0x00, 0x00, 0x10, 0x00, 0x0c, 0x00, 0x0b, 0x00, 0x04, 0x00,
    0x0e, 0x00, 0x00, 0x00, 0x18, 0x00, 0x00, 0x00, 0x00, 0x00, 0x00, 0x08,
    0x18, 0x00, 0x00, 0x00, 0x1c, 0x00, 0x00, 0x00, 0x00, 0x00, 0x06, 0x00,
    0x08, 0x00, 0x07, 0x00, 0x06, 0x00, 0x00, 0x00, 0x00, 0x00, 0x00, 0x01,
    0x01, 0x00, 0x00, 0x00, 0x0d, 0x00, 0x00, 0x00, 0x03, 0x00, 0x00, 0x00,
    0x00, 0x00, 0x00, 0x00, 0x07, 0x00, 0x00, 0x00, 0x06, 0x00, 0x00, 0x00,
    0x01, 0x00, 0x00, 0x00, 0x13, 0x00, 0x00, 0x00, 0x01, 0x00, 0x00, 0x00,
    0x00, 0x00, 0x00, 0x00, 0x14, 0x00, 0x00, 0x00, 0xb0, 0x07, 0x00, 0x00,
    0x40, 0x07, 0x00, 0x00, 0xd0, 0x06, 0x00, 0x00, 0x78, 0x06, 0x00, 0x00,
    0x20, 0x06, 0x00, 0x00, 0xc8, 0x05, 0x00, 0x00, 0x70, 0x05, 0x00, 0x00,
    0x24, 0x05, 0x00, 0x00, 0xd8, 0x04, 0x00, 0x00, 0x8c, 0x04, 0x00, 0x00,
    0x40, 0x04, 0x00, 0x00, 0xf4, 0x03, 0x00, 0x00, 0xa8, 0x03, 0x00, 0x00,
    0x18, 0x03, 0x00, 0x00, 0x88, 0x02, 0x00, 0x00, 0xf8, 0x01, 0x00, 0x00,
    0x68, 0x01, 0x00, 0x00, 0xd8, 0x00, 0x00, 0x00, 0x60, 0x00, 0x00, 0x00,
    0x04, 0x00, 0x00, 0x00, 0xb6, 0xf8, 0xff, 0xff, 0x00, 0x00, 0x00, 0x01,
    0x14, 0x00, 0x00, 0x00, 0x1c, 0x00, 0x00, 0x00, 0x1c, 0x00, 0x00, 0x00,
    0x14, 0x00, 0x00, 0x00, 0x34, 0x00, 0x00, 0x00, 0x02, 0x00, 0x00, 0x00,
    0xff, 0xff, 0xff, 0xff, 0x08, 0x00, 0x00, 0x00, 0xa0, 0xf8, 0xff, 0xff,
    0x19, 0x00, 0x00, 0x00, 0x53, 0x74, 0x61, 0x74, 0x65, 0x66, 0x75, 0x6c,
    0x50, 0x61, 0x72, 0x74, 0x69, 0x74, 0x69, 0x6f, 0x6e, 0x65, 0x64, 0x43,
    0x61, 0x6c, 0x6c, 0x3a, 0x30, 0x00, 0x00, 0x00, 0x02, 0x00, 0x00, 0x00,
    0x01, 0x00, 0x00, 0x00, 0x08, 0x00, 0x00, 0x00, 0x0e, 0xf9, 0xff, 0xff,
    0x00, 0x00, 0x00, 0x01, 0x14, 0x00, 0x00, 0x00, 0x1c, 0x00, 0x00, 0x00,
    0x1c, 0x00, 0x00, 0x00, 0x13, 0x00, 0x00, 0x00, 0x50, 0x00, 0x00, 0x00,
    0x02, 0x00, 0x00, 0x00, 0xff, 0xff, 0xff, 0xff, 0x08, 0x00, 0x00, 0x00,
    0xf8, 0xf8, 0xff, 0xff, 0x34, 0x00, 0x00, 0x00, 0x6c, 0x77, 0x31, 0x36,
    0x5f, 0x6d, 0x64, 0x34, 0x2f, 0x64, 0x65, 0x6e, 0x73, 0x65, 0x5f, 0x31,
    0x37, 0x33, 0x2f, 0x4d, 0x61, 0x74, 0x4d, 0x75, 0x6c, 0x3b, 0x6c, 0x77,
    0x31, 0x36, 0x5f, 0x6d, 0x64, 0x34, 0x2f, 0x64, 0x65, 0x6e, 0x73, 0x65,
    0x5f, 0x31, 0x37, 0x33, 0x2f, 0x42, 0x69, 0x61, 0x73, 0x41, 0x64, 0x64,
    0x00, 0x00, 0x00, 0x00, 0x02, 0x00, 0x00, 0x00, 0x01, 0x00, 0x00, 0x00,
    0x08, 0x00, 0x00, 0x00, 0x82, 0xf9, 0xff, 0xff, 0x00, 0x00, 0x00, 0x01,
    0x14, 0x00, 0x00, 0x00, 0x1c, 0x00, 0x00, 0x00, 0x1c, 0x00, 0x00, 0x00,
    0x12, 0x00, 0x00, 0x00, 0x68, 0x00, 0x00, 0x00, 0x02, 0x00, 0x00, 0x00,
    0xff, 0xff, 0xff, 0xff, 0x10, 0x00, 0x00, 0x00, 0x6c, 0xf9, 0xff, 0xff,
    0x4c, 0x00, 0x00, 0x00, 0x6c, 0x77, 0x31, 0x36, 0x5f, 0x6d, 0x64, 0x34,
    0x2f, 0x64, 0x65, 0x6e, 0x73, 0x65, 0x5f, 0x31, 0x37, 0x32, 0x2f, 0x4d,
    0x61, 0x74, 0x4d, 0x75, 0x6c, 0x3b, 0x6c, 0x77, 0x31, 0x36, 0x5f, 0x6d,
    0x64, 0x34, 0x2f, 0x64, 0x65, 0x6e, 0x73, 0x65, 0x5f, 0x31, 0x37, 0x32,
    0x2f, 0x52, 0x65, 0x6c, 0x75, 0x3b, 0x6c, 0x77, 0x31, 0x36, 0x5f, 0x6d,
    0x64, 0x34, 0x2f, 0x64, 0x65, 0x6e, 0x73, 0x65, 0x5f, 0x31, 0x37, 0x32,
    0x2f, 0x42, 0x69, 0x61, 0x73, 0x41, 0x64, 0x64, 0x00, 0x00, 0x00, 0x00,
    0x02, 0x00, 0x00, 0x00, 0x01, 0x00, 0x00, 0x00, 0x10, 0x00, 0x00, 0x00,
    0x0e, 0xfa, 0xff, 0xff, 0x00, 0x00, 0x00, 0x01, 0x14, 0x00, 0x00, 0x00,
    0x1c, 0x00, 0x00, 0x00, 0x1c, 0x00, 0x00, 0x00, 0x11, 0x00, 0x00, 0x00,
    0x68, 0x00, 0x00, 0x00, 0x02, 0x00, 0x00, 0x00, 0xff, 0xff, 0xff, 0xff,
    0x10, 0x00, 0x00, 0x00, 0xf8, 0xf9, 0xff, 0xff, 0x4c, 0x00, 0x00, 0x00,
    0x6c, 0x77, 0x31, 0x36, 0x5f, 0x6d, 0x64, 0x34, 0x2f, 0x64, 0x65, 0x6e,
    0x73, 0x65, 0x5f, 0x31, 0x37, 0x31, 0x2f, 0x4d, 0x61, 0x74, 0x4d, 0x75,
    0x6c, 0x3b, 0x6c, 0x77, 0x31, 0x36, 0x5f, 0x6d, 0x64, 0x34, 0x2f, 0x64,
    0x65, 0x6e, 0x73, 0x65, 0x5f, 0x31, 0x37, 0x31, 0x2f, 0x52, 0x65, 0x6c,
    0x75, 0x3b, 0x6c, 0x77, 0x31, 0x36, 0x5f, 0x6d, 0x64, 0x34, 0x2f, 0x64,
    0x65, 0x6e, 0x73, 0x65, 0x5f, 0x31, 0x37, 0x31, 0x2f, 0x42, 0x69, 0x61,
    0x73, 0x41, 0x64, 0x64, 0x00, 0x00, 0x00, 0x00, 0x02, 0x00, 0x00, 0x00,
    0x01, 0x00, 0x00, 0x00, 0x10, 0x00, 0x00, 0x00, 0x9a, 0xfa, 0xff, 0xff,
    0x00, 0x00, 0x00, 0x01, 0x14, 0x00, 0x00, 0x00, 0x1c, 0x00, 0x00, 0x00,
    0x1c, 0x00, 0x00, 0x00, 0x10, 0x00, 0x00, 0x00, 0x68, 0x00, 0x00, 0x00,
    0x02, 0x00, 0x00, 0x00, 0xff, 0xff, 0xff, 0xff, 0x10, 0x00, 0x00, 0x00,
    0x84, 0xfa, 0xff, 0xff, 0x4c, 0x00, 0x00, 0x00, 0x6c, 0x77, 0x31, 0x36,
    0x5f, 0x6d, 0x64, 0x34, 0x2f, 0x64, 0x65, 0x6e, 0x73, 0x65, 0x5f, 0x31,
    0x37, 0x30, 0x2f, 0x4d, 0x61, 0x74, 0x4d, 0x75, 0x6c, 0x3b, 0x6c, 0x77,
    0x31, 0x36, 0x5f, 0x6d, 0x64, 0x34, 0x2f, 0x64, 0x65, 0x6e, 0x73, 0x65,
    0x5f, 0x31, 0x37, 0x30, 0x2f, 0x52, 0x65, 0x6c, 0x75, 0x3b, 0x6c, 0x77,
    0x31, 0x36, 0x5f, 0x6d, 0x64, 0x34, 0x2f, 0x64, 0x65, 0x6e, 0x73, 0x65,
    0x5f, 0x31, 0x37, 0x30, 0x2f, 0x42, 0x69, 0x61, 0x73, 0x41, 0x64, 0x64,
    0x00, 0x00, 0x00, 0x00, 0x02, 0x00, 0x00, 0x00, 0x01, 0x00, 0x00, 0x00,
    0x10, 0x00, 0x00, 0x00, 0x26, 0xfb, 0xff, 0xff, 0x00, 0x00, 0x00, 0x01,
    0x14, 0x00, 0x00, 0x00, 0x1c, 0x00, 0x00, 0x00, 0x1c, 0x00, 0x00, 0x00,
    0x0f, 0x00, 0x00, 0x00, 0x68, 0x00, 0x00, 0x00, 0x02, 0x00, 0x00, 0x00,
    0xff, 0xff, 0xff, 0xff, 0x10, 0x00, 0x00, 0x00, 0x10, 0xfb, 0xff, 0xff,
    0x4c, 0x00, 0x00, 0x00, 0x6c, 0x77, 0x31, 0x36, 0x5f, 0x6d, 0x64, 0x34,
    0x2f, 0x64, 0x65, 0x6e, 0x73, 0x65, 0x5f, 0x31, 0x36, 0x39, 0x2f, 0x4d,
    0x61, 0x74, 0x4d, 0x75, 0x6c, 0x3b, 0x6c, 0x77, 0x31, 0x36, 0x5f, 0x6d,
    0x64, 0x34, 0x2f, 0x64, 0x65, 0x6e, 0x73, 0x65, 0x5f, 0x31, 0x36, 0x39,
    0x2f, 0x52, 0x65, 0x6c, 0x75, 0x3b, 0x6c, 0x77, 0x31, 0x36, 0x5f, 0x6d,
    0x64, 0x34, 0x2f, 0x64, 0x65, 0x6e, 0x73, 0x65, 0x5f, 0x31, 0x36, 0x39,
    0x2f, 0x42, 0x69, 0x61, 0x73, 0x41, 0x64, 0x64, 0x00, 0x00, 0x00, 0x00,
    0x02, 0x00, 0x00, 0x00, 0x01, 0x00, 0x00, 0x00, 0x10, 0x00, 0x00, 0x00,
    0xb2, 0xfb, 0xff, 0xff, 0x00, 0x00, 0x00, 0x01, 0x14, 0x00, 0x00, 0x00,
    0x1c, 0x00, 0x00, 0x00, 0x1c, 0x00, 0x00, 0x00, 0x0e, 0x00, 0x00, 0x00,
    0x68, 0x00, 0x00, 0x00, 0x02, 0x00, 0x00, 0x00, 0xff, 0xff, 0xff, 0xff,
    0x10, 0x00, 0x00, 0x00, 0x9c, 0xfb, 0xff, 0xff, 0x4c, 0x00, 0x00, 0x00,
    0x6c, 0x77, 0x31, 0x36, 0x5f, 0x6d, 0x64, 0x34, 0x2f, 0x64, 0x65, 0x6e,
    0x73, 0x65, 0x5f, 0x31, 0x36, 0x38, 0x2f, 0x4d, 0x61, 0x74, 0x4d, 0x75,
    0x6c, 0x3b, 0x6c, 0x77, 0x31, 0x36, 0x5f, 0x6d, 0x64, 0x34, 0x2f, 0x64,
    0x65, 0x6e, 0x73, 0x65, 0x5f, 0x31, 0x36, 0x38, 0x2f, 0x52, 0x65, 0x6c,
    0x75, 0x3b, 0x6c, 0x77, 0x31, 0x36, 0x5f, 0x6d, 0x64, 0x34, 0x2f, 0x64,
    0x65, 0x6e, 0x73, 0x65, 0x5f, 0x31, 0x36, 0x38, 0x2f, 0x42, 0x69, 0x61,
    0x73, 0x41, 0x64, 0x64, 0x00, 0x00, 0x00, 0x00, 0x02, 0x00, 0x00, 0x00,
    0x01, 0x00, 0x00, 0x00, 0x10, 0x00, 0x00, 0x00, 0xaa, 0xfc, 0xff, 0xff,
    0x00, 0x00, 0x00, 0x01, 0x10, 0x00, 0x00, 0x00, 0x10, 0x00, 0x00, 0x00,
    0x0d, 0x00, 0x00, 0x00, 0x28, 0x00, 0x00, 0x00, 0x18, 0xfc, 0xff, 0xff,
    0x19, 0x00, 0x00, 0x00, 0x6c, 0x77, 0x31, 0x36, 0x5f, 0x6d, 0x64, 0x34,
    0x2f, 0x64, 0x65, 0x6e, 0x73, 0x65, 0x5f, 0x31, 0x37, 0x33, 0x2f, 0x4d,
    0x61, 0x74, 0x4d, 0x75, 0x6c, 0x00, 0x00, 0x00, 0x02, 0x00, 0x00, 0x00,
    0x08, 0x00, 0x00, 0x00, 0x10, 0x00, 0x00, 0x00, 0xf2, 0xfc, 0xff, 0xff,
    0x00, 0x00, 0x00, 0x01, 0x10, 0x00, 0x00, 0x00, 0x10, 0x00, 0x00, 0x00,
    0x0c, 0x00, 0x00, 0x00, 0x28, 0x00, 0x00, 0x00, 0x60, 0xfc, 0xff, 0xff,
    0x19, 0x00, 0x00, 0x00, 0x6c, 0x77, 0x31, 0x36, 0x5f, 0x6d, 0x64, 0x34,
    0x2f, 0x64, 0x65, 0x6e, 0x73, 0x65, 0x5f, 0x31, 0x37, 0x32, 0x2f, 0x4d,
    0x61, 0x74, 0x4d, 0x75, 0x6c, 0x00, 0x00, 0x00, 0x02, 0x00, 0x00, 0x00,
    0x10, 0x00, 0x00, 0x00, 0x10, 0x00, 0x00, 0x00, 0x3a, 0xfd, 0xff, 0xff,
    0x00, 0x00, 0x00, 0x01, 0x10, 0x00, 0x00, 0x00, 0x10, 0x00, 0x00, 0x00,
    0x0b, 0x00, 0x00, 0x00, 0x28, 0x00, 0x00, 0x00, 0xa8, 0xfc, 0xff, 0xff,
    0x19, 0x00, 0x00, 0x00, 0x6c, 0x77, 0x31, 0x36, 0x5f, 0x6d, 0x64, 0x34,
    0x2f, 0x64, 0x65, 0x6e, 0x73, 0x65, 0x5f, 0x31, 0x37, 0x31, 0x2f, 0x4d,
    0x61, 0x74, 0x4d, 0x75, 0x6c, 0x00, 0x00, 0x00, 0x02, 0x00, 0x00, 0x00,
    0x10, 0x00, 0x00, 0x00, 0x10, 0x00, 0x00, 0x00, 0x82, 0xfd, 0xff, 0xff,
    0x00, 0x00, 0x00, 0x01, 0x10, 0x00, 0x00, 0x00, 0x10, 0x00, 0x00, 0x00,
    0x0a, 0x00, 0x00, 0x00, 0x28, 0x00, 0x00, 0x00, 0xf0, 0xfc, 0xff, 0xff,
    0x19, 0x00, 0x00, 0x00, 0x6c, 0x77, 0x31, 0x36, 0x5f, 0x6d, 0x64, 0x34,
    0x2f, 0x64, 0x65, 0x6e, 0x73, 0x65, 0x5f, 0x31, 0x37, 0x30, 0x2f, 0x4d,
    0x61, 0x74, 0x4d, 0x75, 0x6c, 0x00, 0x00, 0x00, 0x02, 0x00, 0x00, 0x00,
    0x10, 0x00, 0x00, 0x00, 0x10, 0x00, 0x00, 0x00, 0xca, 0xfd, 0xff, 0xff,
    0x00, 0x00, 0x00, 0x01, 0x10, 0x00, 0x00, 0x00, 0x10, 0x00, 0x00, 0x00,
    0x09, 0x00, 0x00, 0x00, 0x28, 0x00, 0x00, 0x00, 0x38, 0xfd, 0xff, 0xff,
    0x19, 0x00, 0x00, 0x00, 0x6c, 0x77, 0x31, 0x36, 0x5f, 0x6d, 0x64, 0x34,
    0x2f, 0x64, 0x65, 0x6e, 0x73, 0x65, 0x5f, 0x31, 0x36, 0x39, 0x2f, 0x4d,
    0x61, 0x74, 0x4d, 0x75, 0x6c, 0x00, 0x00, 0x00, 0x02, 0x00, 0x00, 0x00,
    0x10, 0x00, 0x00, 0x00, 0x10, 0x00, 0x00, 0x00, 0x12, 0xfe, 0xff, 0xff,
    0x00, 0x00, 0x00, 0x01, 0x10, 0x00, 0x00, 0x00, 0x10, 0x00, 0x00, 0x00,
    0x08, 0x00, 0x00, 0x00, 0x28, 0x00, 0x00, 0x00, 0x80, 0xfd, 0xff, 0xff,
    0x19, 0x00, 0x00, 0x00, 0x6c, 0x77, 0x31, 0x36, 0x5f, 0x6d, 0x64, 0x34,
    0x2f, 0x64, 0x65, 0x6e, 0x73, 0x65, 0x5f, 0x31, 0x36, 0x38, 0x2f, 0x4d,
    0x61, 0x74, 0x4d, 0x75, 0x6c, 0x00, 0x00, 0x00, 0x02, 0x00, 0x00, 0x00,
    0x10, 0x00, 0x00, 0x00, 0x0f, 0x00, 0x00, 0x00, 0x5a, 0xfe, 0xff, 0xff,
    0x00, 0x00, 0x00, 0x01, 0x10, 0x00, 0x00, 0x00, 0x10, 0x00, 0x00, 0x00,
    0x07, 0x00, 0x00, 0x00, 0x38, 0x00, 0x00, 0x00, 0xc8, 0xfd, 0xff, 0xff,
    0x29, 0x00, 0x00, 0x00, 0x6c, 0x77, 0x31, 0x36, 0x5f, 0x6d, 0x64, 0x34,
    0x2f, 0x64, 0x65, 0x6e, 0x73, 0x65, 0x5f, 0x31, 0x36, 0x38, 0x2f, 0x42,
    0x69, 0x61, 0x73, 0x41, 0x64, 0x64, 0x2f, 0x52, 0x65, 0x61, 0x64, 0x56,
    0x61, 0x72, 0x69, 0x61, 0x62, 0x6c, 0x65, 0x4f, 0x70, 0x00, 0x00, 0x00,
    0x01, 0x00, 0x00, 0x00, 0x10, 0x00, 0x00, 0x00, 0xae, 0xfe, 0xff, 0xff,
    0x00, 0x00, 0x00, 0x01, 0x10, 0x00, 0x00, 0x00, 0x10, 0x00, 0x00, 0x00,
    0x06, 0x00, 0x00, 0x00, 0x38, 0x00, 0x00, 0x00, 0x1c, 0xfe, 0xff, 0xff,
    0x29, 0x00, 0x00, 0x00, 0x6c, 0x77, 0x31, 0x36, 0x5f, 0x6d, 0x64, 0x34,
    0x2f, 0x64, 0x65, 0x6e, 0x73, 0x65, 0x5f, 0x31, 0x36, 0x39, 0x2f, 0x42,
    0x69, 0x61, 0x73, 0x41, 0x64, 0x64, 0x2f, 0x52, 0x65, 0x61, 0x64, 0x56,
    0x61, 0x72, 0x69, 0x61, 0x62, 0x6c, 0x65, 0x4f, 0x70, 0x00, 0x00, 0x00,
    0x01, 0x00, 0x00, 0x00, 0x10, 0x00, 0x00, 0x00, 0x02, 0xff, 0xff, 0xff,
    0x00, 0x00, 0x00, 0x01, 0x10, 0x00, 0x00, 0x00, 0x10, 0x00, 0x00, 0x00,
    0x05, 0x00, 0x00, 0x00, 0x38, 0x00, 0x00, 0x00, 0x70, 0xfe, 0xff, 0xff,
    0x29, 0x00, 0x00, 0x00, 0x6c, 0x77, 0x31, 0x36, 0x5f, 0x6d, 0x64, 0x34,
    0x2f, 0x64, 0x65, 0x6e, 0x73, 0x65, 0x5f, 0x31, 0x37, 0x30, 0x2f, 0x42,
    0x69, 0x61, 0x73, 0x41, 0x64, 0x64, 0x2f, 0x52, 0x65, 0x61, 0x64, 0x56,
    0x61, 0x72, 0x69, 0x61, 0x62, 0x6c, 0x65, 0x4f, 0x70, 0x00, 0x00, 0x00,
    0x01, 0x00, 0x00, 0x00, 0x10, 0x00, 0x00, 0x00, 0x56, 0xff, 0xff, 0xff,
    0x00, 0x00, 0x00, 0x01, 0x10, 0x00, 0x00, 0x00, 0x10, 0x00, 0x00, 0x00,
    0x04, 0x00, 0x00, 0x00, 0x38, 0x00, 0x00, 0x00, 0xc4, 0xfe, 0xff, 0xff,
    0x29, 0x00, 0x00, 0x00, 0x6c, 0x77, 0x31, 0x36, 0x5f, 0x6d, 0x64, 0x34,
    0x2f, 0x64, 0x65, 0x6e, 0x73, 0x65, 0x5f, 0x31, 0x37, 0x31, 0x2f, 0x42,
    0x69, 0x61, 0x73, 0x41, 0x64, 0x64, 0x2f, 0x52, 0x65, 0x61, 0x64, 0x56,
    0x61, 0x72, 0x69, 0x61, 0x62, 0x6c, 0x65, 0x4f, 0x70, 0x00, 0x00, 0x00,
    0x01, 0x00, 0x00, 0x00, 0x10, 0x00, 0x00, 0x00, 0xaa, 0xff, 0xff, 0xff,
    0x00, 0x00, 0x00, 0x01, 0x10, 0x00, 0x00, 0x00, 0x10, 0x00, 0x00, 0x00,
    0x03, 0x00, 0x00, 0x00, 0x38, 0x00, 0x00, 0x00, 0x18, 0xff, 0xff, 0xff,
    0x29, 0x00, 0x00, 0x00, 0x6c, 0x77, 0x31, 0x36, 0x5f, 0x6d, 0x64, 0x34,
    0x2f, 0x64, 0x65, 0x6e, 0x73, 0x65, 0x5f, 0x31, 0x37, 0x32, 0x2f, 0x42,
    0x69, 0x61, 0x73, 0x41, 0x64, 0x64, 0x2f, 0x52, 0x65, 0x61, 0x64, 0x56,
    0x61, 0x72, 0x69, 0x61, 0x62, 0x6c, 0x65, 0x4f, 0x70, 0x00, 0x00, 0x00,
    0x01, 0x00, 0x00, 0x00, 0x10, 0x00, 0x00, 0x00, 0x00, 0x00, 0x16, 0x00,
    0x18, 0x00, 0x14, 0x00, 0x00, 0x00, 0x10, 0x00, 0x0c, 0x00, 0x08, 0x00,
    0x00, 0x00, 0x00, 0x00, 0x00, 0x00, 0x07, 0x00, 0x16, 0x00, 0x00, 0x00,
    0x00, 0x00, 0x00, 0x01, 0x10, 0x00, 0x00, 0x00, 0x10, 0x00, 0x00, 0x00,
    0x02, 0x00, 0x00, 0x00, 0x38, 0x00, 0x00, 0x00, 0x84, 0xff, 0xff, 0xff,
    0x29, 0x00, 0x00, 0x00, 0x6c, 0x77, 0x31, 0x36, 0x5f, 0x6d, 0x64, 0x34,
    0x2f, 0x64, 0x65, 0x6e, 0x73, 0x65, 0x5f, 0x31, 0x37, 0x33, 0x2f, 0x42,
    0x69, 0x61, 0x73, 0x41, 0x64, 0x64, 0x2f, 0x52, 0x65, 0x61, 0x64, 0x56,
    0x61, 0x72, 0x69, 0x61, 0x62, 0x6c, 0x65, 0x4f, 0x70, 0x00, 0x00, 0x00,
    0x01, 0x00, 0x00, 0x00, 0x08, 0x00, 0x00, 0x00, 0x00, 0x00, 0x16, 0x00,
    0x1c, 0x00, 0x18, 0x00, 0x00, 0x00, 0x14, 0x00, 0x10, 0x00, 0x0c, 0x00,
    0x00, 0x00, 0x00, 0x00, 0x08, 0x00, 0x07, 0x00, 0x16, 0x00, 0x00, 0x00,
    0x00, 0x00, 0x00, 0x01, 0x14, 0x00, 0x00, 0x00, 0x20, 0x00, 0x00, 0x00,
    0x20, 0x00, 0x00, 0x00, 0x01, 0x00, 0x00, 0x00, 0x40, 0x00, 0x00, 0x00,
    0x02, 0x00, 0x00, 0x00, 0xff, 0xff, 0xff, 0xff, 0x0f, 0x00, 0x00, 0x00,
    0x04, 0x00, 0x04, 0x00, 0x04, 0x00, 0x00, 0x00, 0x21, 0x00, 0x00, 0x00,
    0x73, 0x65, 0x72, 0x76, 0x69, 0x6e, 0x67, 0x5f, 0x64, 0x65, 0x66, 0x61,
    0x75, 0x6c, 0x74, 0x5f, 0x64, 0x65, 0x6e, 0x73, 0x65, 0x5f, 0x31, 0x36,
    0x38, 0x5f, 0x69, 0x6e, 0x70, 0x75, 0x74, 0x3a, 0x30, 0x00, 0x00, 0x00,
    0x02, 0x00, 0x00, 0x00, 0x01, 0x00, 0x00, 0x00, 0x0f, 0x00, 0x00, 0x00,
    0x02, 0x00, 0x00, 0x00, 0x20, 0x00, 0x00, 0x00, 0x04, 0x00, 0x00, 0x00,
    0xf4, 0xff, 0xff, 0xff, 0x19, 0x00, 0x00, 0x00, 0x00, 0x00, 0x00, 0x19,
    0x0c, 0x00, 0x0c, 0x00, 0x0b, 0x00, 0x00, 0x00, 0x00, 0x00, 0x04, 0x00,
    0x0c, 0x00, 0x00, 0x00, 0x09, 0x00, 0x00, 0x00, 0x00, 0x00, 0x00, 0x09};
unsigned int lw16_md4_len = 9252;
