unsigned char lw32_md4[] = {
    0x1c, 0x00, 0x00, 0x00, 0x54, 0x46, 0x4c, 0x33, 0x14, 0x00, 0x20, 0x00,
    0x1c, 0x00, 0x18, 0x00, 0x14, 0x00, 0x10, 0x00, 0x0c, 0x00, 0x00, 0x00,
    0x08, 0x00, 0x04, 0x00, 0x14, 0x00, 0x00, 0x00, 0x1c, 0x00, 0x00, 0x00,
    0x98, 0x00, 0x00, 0x00, 0xf0, 0x00, 0x00, 0x00, 0x9c, 0x50, 0x00, 0x00,
    0xac, 0x50, 0x00, 0x00, 0xc0, 0x5a, 0x00, 0x00, 0x03, 0x00, 0x00, 0x00,
    0x01, 0x00, 0x00, 0x00, 0x10, 0x00, 0x00, 0x00, 0x00, 0x00, 0x0a, 0x00,
    0x10, 0x00, 0x0c, 0x00, 0x08, 0x00, 0x04, 0x00, 0x0a, 0x00, 0x00, 0x00,
    0x0c, 0x00, 0x00, 0x00, 0x1c, 0x00, 0x00, 0x00, 0x3c, 0x00, 0x00, 0x00,
    0x0f, 0x00, 0x00, 0x00, 0x73, 0x65, 0x72, 0x76, 0x69, 0x6e, 0x67, 0x5f,
    0x64, 0x65, 0x66, 0x61, 0x75, 0x6c, 0x74, 0x00, 0x01, 0x00, 0x00, 0x00,
    0x04, 0x00, 0x00, 0x00, 0x90, 0xff, 0xff, 0xff, 0x13, 0x00, 0x00, 0x00,
    0x04, 0x00, 0x00, 0x00, 0x09, 0x00, 0x00, 0x00, 0x64, 0x65, 0x6e, 0x73,
    0x65, 0x5f, 0x31, 0x39, 0x36, 0x00, 0x00, 0x00, 0x01, 0x00, 0x00, 0x00,
    0x04, 0x00, 0x00, 0x00, 0x3e, 0xaf, 0xff, 0xff, 0x04, 0x00, 0x00, 0x00,
    0x0f, 0x00, 0x00, 0x00, 0x64, 0x65, 0x6e, 0x73, 0x65, 0x5f, 0x31, 0x39,
    0x31, 0x5f, 0x69, 0x6e, 0x70, 0x75, 0x74, 0x00, 0x02, 0x00, 0x00, 0x00,
    0x34, 0x00, 0x00, 0x00, 0x04, 0x00, 0x00, 0x00, 0xdc, 0xff, 0xff, 0xff,
    0x16, 0x00, 0x00, 0x00, 0x04, 0x00, 0x00, 0x00, 0x13, 0x00, 0x00, 0x00,
    0x43, 0x4f, 0x4e, 0x56, 0x45, 0x52, 0x53, 0x49, 0x4f, 0x4e, 0x5f, 0x4d,
    0x45, 0x54, 0x41, 0x44, 0x41, 0x54, 0x41, 0x00, 0x08, 0x00, 0x0c, 0x00,
    0x08, 0x00, 0x04, 0x00, 0x08, 0x00, 0x00, 0x00, 0x15, 0x00, 0x00, 0x00,
    0x04, 0x00, 0x00, 0x00, 0x13, 0x00, 0x00, 0x00, 0x6d, 0x69, 0x6e, 0x5f,
    0x72, 0x75, 0x6e, 0x74, 0x69, 0x6d, 0x65, 0x5f, 0x76, 0x65, 0x72, 0x73,
    0x69, 0x6f, 0x6e, 0x00, 0x17, 0x00, 0x00, 0x00, 0xa8, 0x4f, 0x00, 0x00,
    0xa0, 0x4f, 0x00, 0x00, 0x70, 0x4f, 0x00, 0x00, 0xe0, 0x4e, 0x00, 0x00,
    0x50, 0x4e, 0x00, 0x00, 0xc0, 0x4d, 0x00, 0x00, 0x30, 0x4d, 0x00, 0x00,
    0xa0, 0x4c, 0x00, 0x00, 0x10, 0x45, 0x00, 0x00, 0x00, 0x35, 0x00, 0x00,
    0xf0, 0x24, 0x00, 0x00, 0xe0, 0x14, 0x00, 0x00, 0xd0, 0x04, 0x00, 0x00,
    0xc0, 0x00, 0x00, 0x00, 0xb8, 0x00, 0x00, 0x00, 0xb0, 0x00, 0x00, 0x00,
    0xa8, 0x00, 0x00, 0x00, 0xa0, 0x00, 0x00, 0x00, 0x98, 0x00, 0x00, 0x00,
    0x90, 0x00, 0x00, 0x00, 0x88, 0x00, 0x00, 0x00, 0x68, 0x00, 0x00, 0x00,
    0x04, 0x00, 0x00, 0x00, 0x16, 0xb0, 0xff, 0xff, 0x04, 0x00, 0x00, 0x00,
    0x54, 0x00, 0x00, 0x00, 0x0c, 0x00, 0x00, 0x00, 0x08, 0x00, 0x0e, 0x00,
    0x08, 0x00, 0x04, 0x00, 0x08, 0x00, 0x00, 0x00, 0x10, 0x00, 0x00, 0x00,
    0x24, 0x00, 0x00, 0x00, 0x00, 0x00, 0x06, 0x00, 0x08, 0x00, 0x04, 0x00,
    0x06, 0x00, 0x00, 0x00, 0x04, 0x00, 0x00, 0x00, 0x00, 0x00, 0x00, 0x00,
    0x00, 0x00, 0x0a, 0x00, 0x10, 0x00, 0x0c, 0x00, 0x08, 0x00, 0x04, 0x00,
    0x0a, 0x00, 0x00, 0x00, 0x02, 0x00, 0x00, 0x00, 0x02, 0x00, 0x00, 0x00,
    0x04, 0x00, 0x00, 0x00, 0x06, 0x00, 0x00, 0x00, 0x32, 0x2e, 0x31, 0x34,
    0x2e, 0x30, 0x00, 0x00, 0x76, 0xb0, 0xff, 0xff, 0x04, 0x00, 0x00, 0x00,
    0x10, 0x00, 0x00, 0x00, 0x31, 0x2e, 0x35, 0x2e, 0x30, 0x00, 0x00, 0x00,
    0x00, 0x00, 0x00, 0x00, 0x00, 0x00, 0x00, 0x00, 0x3c, 0xa7, 0xff, 0xff,
    0x40, 0xa7, 0xff, 0xff, 0x44, 0xa7, 0xff, 0xff, 0x48, 0xa7, 0xff, 0xff,
    0x4c, 0xa7, 0xff, 0xff, 0x50, 0xa7, 0xff, 0xff, 0x54, 0xa7, 0xff, 0xff,
    0xae, 0xb0, 0xff, 0xff, 0x04, 0x00, 0x00, 0x00, 0x00, 0x04, 0x00, 0x00,
    0xeb, 0x3f, 0x8a, 0xbd, 0xc1, 0x09, 0xb7, 0x3c, 0xd2, 0x52, 0xcf, 0xbe,
    0xd4, 0x7a, 0x88, 0xbe, 0x69, 0x71, 0x4e, 0x3d, 0xe0, 0xe0, 0xb5, 0xbe,
    0x20, 0x7c, 0xad, 0xbd, 0x80, 0x69, 0xb0, 0xbe, 0xb7, 0xa1, 0x27, 0xbe,
    0x48, 0xbd, 0x5e, 0x3e, 0x3d, 0xc0, 0x89, 0xbc, 0xf9, 0xaf, 0xce, 0x3d,
    0xd6, 0x88, 0x7f, 0x3d, 0x99, 0xfe, 0x1a, 0xbe, 0x9d, 0x25, 0xdd, 0x3c,
    0x14, 0xd4, 0x2d, 0xbc, 0xb5, 0x76, 0x87, 0x3d, 0x60, 0x56, 0x2d, 0xbc,
    0x65, 0xc5, 0xde, 0xbe, 0xbf, 0x04, 0xf7, 0xbe, 0xdf, 0x09, 0x28, 0xbd,
    0xc9, 0xa6, 0xd0, 0xbd, 0x73, 0x03, 0x14, 0xbf, 0x52, 0x72, 0xa6, 0xbd,
    0x3e, 0x8e, 0xd9, 0xbe, 0x34, 0x3d, 0x7b, 0x3e, 0x7d, 0x9b, 0xe6, 0xbd,
    0x09, 0xf3, 0x11, 0x3d, 0x25, 0x03, 0x1d, 0xbe, 0x83, 0x0c, 0x9d, 0xbe,
    0x93, 0xaf, 0x5d, 0x3e, 0x01, 0xd5, 0x41, 0xbe, 0x52, 0x4a, 0xa5, 0xbc,
    0xf4, 0x82, 0xe8, 0xbd, 0x77, 0x89, 0x00, 0x3f, 0x72, 0xf2, 0x92, 0xbe,
    0xfe, 0x1f, 0xc9, 0x3e, 0xc6, 0x3c, 0x56, 0xbe, 0x18, 0xa6, 0x2d, 0x3d,
    0x7b, 0x6b, 0x42, 0x3e, 0xe6, 0x97, 0xae, 0xbe, 0x05, 0x31, 0x83, 0xbe,
    0x29, 0xdd, 0xf5, 0xbe, 0x02, 0x87, 0x72, 0xbe, 0x66, 0x79, 0x2e, 0x3e,
    0x1b, 0xa4, 0x32, 0x3c, 0x70, 0x88, 0x5b, 0xbd, 0x7b, 0x50, 0x0c, 0x3e,
    0xbf, 0x12, 0x6e, 0x3e, 0x20, 0xce, 0x35, 0xbd, 0xc8, 0x1d, 0x47, 0x3e,
    0x66, 0xcf, 0x01, 0x3e, 0x17, 0x89, 0x32, 0xbd, 0x61, 0xd0, 0x95, 0xbd,
    0x7b, 0x4b, 0xb7, 0xbe, 0x4a, 0x64, 0xbf, 0x3e, 0xc9, 0x22, 0x1c, 0x3e,
    0x3b, 0xae, 0x1e, 0xbf, 0xae, 0xa7, 0x81, 0x3e, 0x0d, 0xd8, 0x14, 0xbe,
    0x0f, 0xdd, 0x8f, 0xbd, 0x50, 0xae, 0xdd, 0xba, 0x25, 0xf2, 0xb6, 0x3e,
    0x7d, 0xee, 0xe2, 0x3e, 0x98, 0xd8, 0x86, 0x3e, 0x36, 0x12, 0xf7, 0xbc,
    0xde, 0x85, 0xb4, 0x3e, 0xc8, 0x89, 0xd5, 0xbe, 0x04, 0x84, 0xb4, 0xbe,
    0xc1, 0x42, 0x48, 0xbe, 0x3f, 0x4e, 0xc4, 0xbe, 0x63, 0x3c, 0x9f, 0x3e,
    0x34, 0x74, 0x87, 0xbe, 0x3e, 0x20, 0x23, 0xbe, 0x5e, 0xfd, 0x07, 0x3e,
    0x4c, 0x51, 0xac, 0x3d, 0x3d, 0x53, 0xf9, 0x3d, 0x53, 0x2d, 0x29, 0xbe,
    0x40, 0xef, 0x01, 0x3d, 0x7a, 0xd0, 0xae, 0x3e, 0xbd, 0xc3, 0x83, 0x3e,
    0xd8, 0x17, 0xa7, 0xbe, 0x29, 0x09, 0xf8, 0x3b, 0x19, 0xe6, 0x23, 0xbe,
    0xa2, 0x6f, 0x02, 0xbd, 0xd8, 0x62, 0x38, 0x3e, 0x97, 0x55, 0x6c, 0x3e,
    0xe5, 0x3c, 0x92, 0x3e, 0xab, 0x15, 0xe3, 0x3d, 0x2b, 0x08, 0x04, 0xbe,
    0x15, 0xa2, 0x47, 0x3e, 0x89, 0x8c, 0xa5, 0x3d, 0x48, 0x3f, 0x71, 0xbe,
    0xa1, 0x97, 0xc1, 0xbe, 0x09, 0x3c, 0xc2, 0x3e, 0xb3, 0x47, 0x91, 0xbe,
    0x8b, 0xf2, 0xa5, 0xbe, 0xc1, 0x26, 0x84, 0x3e, 0x66, 0x32, 0x68, 0x3e,
    0x11, 0x11, 0xdb, 0xbd, 0x47, 0xa0, 0x71, 0xbd, 0x0b, 0x50, 0xdc, 0x3d,
    0x98, 0x8a, 0x2a, 0xbd, 0xff, 0x7f, 0x94, 0xbe, 0xd4, 0x83, 0xf5, 0x3d,
    0x28, 0x44, 0xbf, 0xbe, 0xa5, 0x78, 0x25, 0x3e, 0x5e, 0xd8, 0xc8, 0x3e,
    0xc6, 0xc7, 0x09, 0x3b, 0x49, 0x2a, 0x72, 0x3e, 0xe6, 0x84, 0x84, 0xbe,
    0xcc, 0xf2, 0xfc, 0x3d, 0xd5, 0x81, 0x66, 0xbe, 0xd8, 0x6c, 0x90, 0x3e,
    0x59, 0x45, 0x59, 0x3e, 0xc1, 0x86, 0xbd, 0xbe, 0x83, 0x1a, 0x89, 0xbe,
    0x74, 0xbc, 0x1a, 0x3e, 0x51, 0x73, 0x47, 0xbe, 0xeb, 0xb7, 0xe2, 0xbe,
    0x3e, 0x1b, 0xa6, 0x3e, 0x72, 0xa8, 0x6b, 0xbe, 0x03, 0x9a, 0x3c, 0xbe,
    0x4e, 0x6a, 0xf0, 0x3c, 0x37, 0x0a, 0xcc, 0x3e, 0xbb, 0x85, 0xb7, 0x3d,
    0x6f, 0xa2, 0xf1, 0x3c, 0x0a, 0x86, 0x8b, 0x3e, 0x18, 0x3f, 0x0c, 0x3d,
    0x29, 0x74, 0xe7, 0x3e, 0x99, 0xa2, 0x0f, 0xbf, 0x78, 0x1e, 0xd7, 0x3e,
    0xb4, 0x02, 0xb6, 0xbe, 0xf6, 0xc5, 0x26, 0x3e, 0xdc, 0x7e, 0x86, 0x3e,
    0xdd, 0xc4, 0xb5, 0x3e, 0xdd, 0x32, 0x86, 0x3e, 0xff, 0xac, 0x2c, 0xbd,
    0xa9, 0xbf, 0xd2, 0xbe, 0x3f, 0x4a, 0x5d, 0x3e, 0x2f, 0xa9, 0x03, 0xbe,
    0xd3, 0x7c, 0x66, 0x3e, 0xce, 0xea, 0x9d, 0xbe, 0xc5, 0x9e, 0x12, 0x3d,
    0x24, 0x7f, 0xbc, 0x3e, 0xc8, 0x46, 0x6a, 0xbd, 0xcb, 0x04, 0x65, 0xbd,
    0x2f, 0x36, 0x89, 0xbe, 0x95, 0x98, 0xd1, 0xbe, 0xf1, 0x8e, 0xbb, 0x3e,
    0xba, 0x73, 0xe0, 0x3e, 0x8b, 0x68, 0x9d, 0x3e, 0x16, 0x5f, 0x88, 0x3e,
    0x2f, 0x77, 0xe5, 0x3e, 0x18, 0xe9, 0x9d, 0x3c, 0xe4, 0xc1, 0x84, 0x3e,
    0x08, 0x38, 0x8d, 0x3e, 0x66, 0xfd, 0x60, 0xbe, 0x72, 0x91, 0xf9, 0xbe,
    0x8f, 0x63, 0x34, 0xbf, 0x50, 0xba, 0x7f, 0x3e, 0x4f, 0x83, 0x37, 0xbc,
    0x57, 0x23, 0xfd, 0x3d, 0x8c, 0x86, 0xc2, 0x3e, 0x31, 0x9f, 0xaf, 0xbe,
    0x13, 0x64, 0xa6, 0xbe, 0xe4, 0x2f, 0xc6, 0x3d, 0xb0, 0xa7, 0x2b, 0x3e,
    0x1c, 0x3b, 0xa7, 0xbe, 0x5d, 0xf2, 0x28, 0xbe, 0xa7, 0x92, 0xc0, 0xbe,
    0xb4, 0xfa, 0x1f, 0xbe, 0x8e, 0xf3, 0x3f, 0xbe, 0x90, 0x4f, 0x5d, 0xbe,
    0xa0, 0x93, 0xd1, 0xbd, 0xab, 0x31, 0x93, 0xbc, 0xbd, 0x2a, 0x53, 0x3e,
    0x10, 0xa5, 0x64, 0x3d, 0x6d, 0x74, 0xd0, 0xbd, 0x61, 0xff, 0xa6, 0x3d,
    0xf0, 0x07, 0xd8, 0x3e, 0x07, 0xc7, 0x14, 0xbe, 0x05, 0xd2, 0x9c, 0x3e,
    0xf8, 0xc6, 0x87, 0xbc, 0xa9, 0x70, 0xa7, 0x3d, 0x6b, 0x2c, 0x2c, 0x3e,
    0xd4, 0x99, 0x39, 0x3c, 0x11, 0x26, 0x33, 0xbd, 0xce, 0xcc, 0x45, 0xbd,
    0x28, 0xc8, 0x37, 0x3e, 0xe4, 0xb8, 0xac, 0xbe, 0xf5, 0xb3, 0x74, 0x3e,
    0x1c, 0x51, 0x82, 0x3e, 0x90, 0x12, 0x91, 0x3e, 0xef, 0xbb, 0x83, 0x3e,
    0x9d, 0x8e, 0xb1, 0xbd, 0x48, 0x8d, 0xd9, 0xbe, 0xc7, 0x3e, 0x69, 0xbe,
    0x24, 0x16, 0x43, 0x3e, 0x01, 0x3c, 0xe0, 0x3c, 0x36, 0x30, 0x97, 0x3e,
    0xba, 0x86, 0xf1, 0xbd, 0x40, 0x85, 0xbd, 0x3d, 0x79, 0x30, 0x1e, 0xbd,
    0xe7, 0x5c, 0x10, 0xbf, 0x05, 0x55, 0xa4, 0xbd, 0x0f, 0xb8, 0x05, 0x3e,
    0xfe, 0x2c, 0x29, 0x3e, 0xa6, 0x07, 0x63, 0x3e, 0xa0, 0x80, 0x72, 0x3d,
    0x85, 0xbb, 0x1f, 0x3e, 0x3a, 0x72, 0xd8, 0xbe, 0x5e, 0x3e, 0x95, 0x3e,
    0xdb, 0x6e, 0x91, 0x3e, 0xe2, 0xb5, 0x57, 0x3d, 0x32, 0x18, 0x73, 0x3e,
    0x21, 0xaa, 0x54, 0xbe, 0x2b, 0x7b, 0x6c, 0xbe, 0x0f, 0x93, 0x19, 0xbc,
    0x89, 0xf2, 0x9d, 0xbd, 0xc4, 0xa2, 0xde, 0x3c, 0xe4, 0x64, 0x14, 0x3e,
    0x6e, 0xb7, 0xcf, 0x3c, 0xd6, 0x68, 0xa6, 0x3e, 0x22, 0x7a, 0x81, 0xbd,
    0x16, 0x5e, 0x2f, 0xbe, 0xe5, 0xec, 0xbc, 0xbd, 0x92, 0x11, 0xcf, 0xbe,
    0x48, 0xe0, 0x91, 0x3e, 0xbf, 0xfa, 0x86, 0x3e, 0x7c, 0xa2, 0x4c, 0x3e,
    0x9b, 0x20, 0x82, 0xbe, 0x0b, 0xbd, 0x58, 0x3e, 0x58, 0xe6, 0x8b, 0xbe,
    0xa2, 0x78, 0xbc, 0x3b, 0x3a, 0x25, 0xa6, 0x3e, 0xbc, 0x98, 0x94, 0xbe,
    0x37, 0x71, 0x5e, 0xbe, 0x9f, 0xe1, 0x45, 0xbe, 0x91, 0xa2, 0x1c, 0x3e,
    0x76, 0x69, 0x6f, 0xbe, 0x82, 0x18, 0x85, 0x3e, 0x5c, 0x8c, 0x5e, 0x3e,
    0x13, 0xb0, 0x15, 0x3d, 0xf0, 0x88, 0xc5, 0x3e, 0x3b, 0xf6, 0xbd, 0x3e,
    0x20, 0x7c, 0x02, 0xbf, 0x86, 0x76, 0x8c, 0xbd, 0xb2, 0x1a, 0xb6, 0xbe,
    0x02, 0xa6, 0x84, 0xbe, 0x47, 0x69, 0x57, 0x3e, 0x86, 0x32, 0x88, 0x3e,
    0x7e, 0xd8, 0x95, 0x3e, 0x1b, 0xdd, 0xbe, 0x3e, 0x10, 0x8c, 0xa6, 0x3d,
    0xee, 0x8f, 0xa0, 0xbd, 0xba, 0xb4, 0xff, 0xff, 0x04, 0x00, 0x00, 0x00,
    0x00, 0x10, 0x00, 0x00, 0xb8, 0x7c, 0x24, 0x3e, 0x7f, 0x46, 0xe4, 0x3d,
    0x35, 0x65, 0x49, 0xbe, 0x76, 0xa2, 0x17, 0xbe, 0xd0, 0x58, 0xb3, 0x3d,
    0x89, 0x50, 0x1e, 0x3e, 0x5c, 0xc0, 0x81, 0x3e, 0x76, 0x17, 0x38, 0xbe,
    0x5c, 0x02, 0x9f, 0x3d, 0x8e, 0xb4, 0xf4, 0xbd, 0xe2, 0x06, 0x6a, 0x3e,
    0xc6, 0x26, 0x92, 0xbc, 0x7e, 0x58, 0x85, 0x3d, 0x7c, 0x6f, 0x9a, 0xbe,
    0x84, 0xf7, 0x5c, 0xbe, 0x96, 0xe9, 0xc2, 0x3d, 0xc7, 0x6b, 0x84, 0xbe,
    0xac, 0xc8, 0xaf, 0x3d, 0xc4, 0xbd, 0x6e, 0x3e, 0x2f, 0x34, 0x19, 0x3e,
    0x80, 0x8e, 0x21, 0x3b, 0xfd, 0x34, 0x41, 0x3e, 0x1d, 0xbd, 0x2c, 0x3d,
    0x1d, 0xd9, 0x58, 0xbe, 0xa2, 0x25, 0xa6, 0xbe, 0x50, 0xbb, 0xa7, 0xbc,
    0x37, 0x88, 0x91, 0x3e, 0x69, 0x5e, 0xdb, 0xbc, 0x6d, 0xff, 0xda, 0xbd,
    0x77, 0xb9, 0x75, 0x3e, 0xa7, 0x0c, 0x9d, 0xbe, 0xda, 0x6d, 0x89, 0xbe,
    0xd8, 0xb0, 0xf0, 0xbc, 0x9b, 0xce, 0x3c, 0xbe, 0x56, 0x86, 0x79, 0x3d,
    0x76, 0x2f, 0x3a, 0x3e, 0xcf, 0x77, 0xe2, 0x3d, 0xaa, 0xf0, 0x7e, 0x3e,
    0x8c, 0x00, 0x48, 0xbd, 0xc1, 0x10, 0x52, 0xbe, 0xc4, 0xdf, 0x83, 0xbe,
    0x1e, 0xa7, 0x06, 0x3d, 0xe0, 0x1d, 0xa6, 0xbc, 0xdd, 0x4b, 0x79, 0x3e,
    0xcd, 0xa8, 0x5c, 0x3e, 0xb8, 0x57, 0x0a, 0x3e, 0xf2, 0xa6, 0xad, 0x3d,
    0x8b, 0x6f, 0x4f, 0x3e, 0xa4, 0xcd, 0xea, 0x3d, 0x5a, 0x0f, 0x83, 0xbe,
    0x3e, 0xc3, 0x39, 0x3e, 0x89, 0x44, 0x04, 0x3e, 0x62, 0x39, 0x64, 0xbe,
    0x86, 0xe0, 0xd5, 0xbe, 0x4f, 0x02, 0x22, 0xbe, 0xf2, 0xe5, 0x1a, 0x3e,
    0xdf, 0x37, 0xbe, 0x3e, 0x1b, 0x08, 0x22, 0x3e, 0x04, 0xf3, 0xd1, 0x3d,
    0xd9, 0xd6, 0xe2, 0x3d, 0x74, 0x6d, 0x94, 0xbe, 0xba, 0x4e, 0x20, 0xbc,
    0x06, 0x5f, 0x74, 0xbd, 0xfe, 0x33, 0xfb, 0x3d, 0xc4, 0xed, 0x96, 0x3e,
    0xb4, 0x0d, 0x10, 0x3e, 0xd9, 0x6f, 0x9d, 0x3e, 0x02, 0x2d, 0x47, 0x3e,
    0x11, 0x3b, 0x00, 0x3d, 0x22, 0xe0, 0xae, 0x3d, 0x62, 0x8c, 0x07, 0x3f,
    0x89, 0x16, 0x5d, 0x3e, 0xdf, 0xf1, 0x68, 0xbe, 0x3e, 0x32, 0x75, 0x3e,
    0xb8, 0x36, 0x85, 0x3d, 0xc8, 0x55, 0x3c, 0x3d, 0x6c, 0x52, 0x33, 0x3e,
    0xfe, 0xd7, 0x94, 0xbd, 0x31, 0xac, 0x8e, 0x3c, 0x97, 0xde, 0xe4, 0xbc,
    0xce, 0xea, 0x7f, 0xbe, 0x73, 0xfd, 0xe5, 0x3e, 0xe9, 0x35, 0x55, 0x3e,
    0x08, 0x53, 0x81, 0x3e, 0x69, 0xec, 0x98, 0x3e, 0x6e, 0x7f, 0x57, 0x3d,
    0x58, 0xab, 0x40, 0xbe, 0x8d, 0xbe, 0x60, 0xbe, 0xd0, 0x1e, 0x3d, 0xbe,
    0xd9, 0x21, 0x28, 0x3e, 0x88, 0x97, 0x61, 0xbd, 0x5f, 0x45, 0x7f, 0xbe,
    0x7f, 0x91, 0x03, 0xbe, 0x91, 0xb1, 0x89, 0xbe, 0x42, 0x59, 0x06, 0x3e,
    0xe4, 0xe4, 0x5f, 0x3e, 0x6d, 0x38, 0xa6, 0xbe, 0xce, 0xdb, 0x9d, 0xbe,
    0x9f, 0x32, 0x36, 0x3e, 0x39, 0xab, 0x14, 0xbe, 0x3d, 0x2c, 0xda, 0x3e,
    0x30, 0x9e, 0xf8, 0xbc, 0x07, 0x4b, 0x5f, 0xbe, 0x66, 0xdc, 0xb7, 0xbe,
    0x20, 0x88, 0xf1, 0xbd, 0xca, 0xbc, 0xed, 0xbd, 0x88, 0x6c, 0x49, 0x3d,
    0x57, 0x46, 0x85, 0x3e, 0x8c, 0x90, 0x63, 0xbe, 0xaa, 0x01, 0x7e, 0x3e,
    0xb9, 0x5e, 0x5d, 0xbe, 0x2c, 0x9d, 0xfa, 0x3d, 0x39, 0x6c, 0x07, 0x3e,
    0xc1, 0xd6, 0xcc, 0xbe, 0xc3, 0x44, 0x5d, 0xbe, 0x39, 0xc4, 0x51, 0xbe,
    0x70, 0xa8, 0x8f, 0xbe, 0x01, 0x0a, 0x00, 0xbf, 0x3a, 0xbc, 0x21, 0x3e,
    0x01, 0xc7, 0xc2, 0x3d, 0x25, 0xfb, 0xb5, 0x3e, 0xb1, 0x7d, 0xa7, 0x3e,
    0x76, 0x7a, 0x6b, 0x3e, 0x76, 0xab, 0x1f, 0xbe, 0xb1, 0xbe, 0xb5, 0x3d,
    0x4a, 0x8a, 0x12, 0x3e, 0x21, 0xb7, 0x21, 0xbd, 0x09, 0xd8, 0x12, 0x3e,
    0x8b, 0x63, 0x1b, 0x3e, 0xcd, 0xd4, 0x4a, 0xbe, 0x7c, 0x8e, 0x8c, 0x3e,
    0x4d, 0xb8, 0x92, 0x3e, 0x18, 0x23, 0xb0, 0xbe, 0xc0, 0x0a, 0x43, 0x3e,
    0x19, 0x83, 0xc1, 0x3e, 0x85, 0x80, 0x2a, 0x3d, 0xad, 0x53, 0x5d, 0x3d,
    0xb6, 0xc6, 0x90, 0x3e, 0xcf, 0xa9, 0x99, 0x3e, 0x18, 0x82, 0x5c, 0xbe,
    0xbe, 0x58, 0xc1, 0x3d, 0x53, 0x32, 0x86, 0xbe, 0x56, 0x4f, 0x26, 0xbe,
    0x09, 0x22, 0x11, 0x3d, 0x52, 0xe4, 0x56, 0xbd, 0x99, 0x73, 0xc1, 0xbd,
    0xc5, 0x63, 0x02, 0x3e, 0xdd, 0x1f, 0x74, 0xbe, 0xfc, 0x50, 0x81, 0x3e,
    0x83, 0x30, 0xc7, 0x3e, 0x45, 0x38, 0x06, 0xbe, 0x56, 0xd5, 0x47, 0x3d,
    0xf5, 0xc6, 0xa8, 0x3d, 0xf0, 0xc9, 0xbb, 0x3d, 0xa7, 0x82, 0x89, 0xbe,
    0x64, 0x7a, 0xff, 0xbd, 0x89, 0x0d, 0x64, 0x3e, 0x0c, 0x0a, 0x7b, 0xbe,
    0xb0, 0x4b, 0x50, 0x3e, 0xcb, 0x02, 0x49, 0x3e, 0xad, 0xdc, 0x40, 0xbe,
    0x69, 0x16, 0x83, 0xbe, 0x92, 0x45, 0x88, 0x3e, 0x24, 0xca, 0x48, 0xbc,
    0x6b, 0xf9, 0x11, 0xbc, 0x59, 0xa5, 0x56, 0xbe, 0x48, 0x28, 0x8b, 0xbc,
    0xd8, 0x96, 0x35, 0x3e, 0x8e, 0x9f, 0x6b, 0x3e, 0xe6, 0x59, 0x39, 0xbe,
    0x60, 0x65, 0x3c, 0x3d, 0x6f, 0xfb, 0x9b, 0xbd, 0xbb, 0x04, 0x37, 0x3e,
    0x73, 0xb7, 0x82, 0x3e, 0xf6, 0x97, 0xae, 0x3e, 0xbc, 0x05, 0x33, 0x3e,
    0x35, 0xe5, 0x4f, 0x3d, 0x6a, 0xcc, 0xce, 0xbe, 0xbd, 0x73, 0xb3, 0x3c,
    0xe6, 0xe9, 0x9a, 0x3e, 0x14, 0x53, 0x91, 0x3e, 0x95, 0xf4, 0xad, 0xbd,
    0x66, 0x83, 0x5d, 0x3e, 0xb4, 0x45, 0x75, 0xbd, 0xaf, 0x03, 0x83, 0x3e,
    0x89, 0xe2, 0x86, 0x3e, 0x78, 0x14, 0x4c, 0x3d, 0xd6, 0x51, 0x70, 0xbe,
    0x79, 0xec, 0x3f, 0x3d, 0xf8, 0xd7, 0x5f, 0x3b, 0xb2, 0x81, 0x81, 0xbe,
    0x91, 0xa9, 0x40, 0x3e, 0xe4, 0x7d, 0x4b, 0xbe, 0x20, 0xd9, 0xe7, 0x3d,
    0xde, 0x34, 0x6b, 0x3e, 0x3f, 0xea, 0x02, 0xbe, 0x48, 0x1b, 0x82, 0xbd,
    0x94, 0xe0, 0xac, 0xbd, 0xb3, 0xfb, 0x9b, 0xbe, 0x50, 0xb2, 0x8a, 0xbd,
    0xcc, 0x71, 0x80, 0xbd, 0x60, 0x22, 0x3d, 0xbd, 0x90, 0x60, 0x2b, 0x3e,
    0x1e, 0xc0, 0x47, 0x3e, 0x30, 0x35, 0xbb, 0xbd, 0x3a, 0xa9, 0x78, 0xbe,
    0x08, 0xc3, 0x0b, 0x3e, 0x25, 0x43, 0x4b, 0xbe, 0x60, 0xab, 0x95, 0xbc,
    0x60, 0xf3, 0x1a, 0xbc, 0x42, 0x91, 0xe4, 0xbd, 0x60, 0x95, 0x54, 0xbd,
    0x30, 0x89, 0xe3, 0xbc, 0x86, 0xa9, 0x98, 0xbe, 0xd0, 0x55, 0x7e, 0xbe,
    0xb2, 0x7e, 0xff, 0xbd, 0x8b, 0xe6, 0x1e, 0xbe, 0x9a, 0xf8, 0x1f, 0x3e,
    0x70, 0x03, 0x7f, 0xbe, 0x68, 0x02, 0x27, 0xbd, 0xb1, 0xbc, 0x37, 0xbe,
    0xd0, 0x30, 0x28, 0xbd, 0x69, 0x75, 0x9a, 0x3e, 0x28, 0x84, 0x6c, 0xbe,
    0xe1, 0x59, 0x87, 0x3e, 0x7a, 0x71, 0x51, 0xbe, 0x4b, 0x8c, 0x21, 0xbe,
    0xaa, 0xcf, 0x3d, 0xbe, 0xe6, 0x41, 0x24, 0x3d, 0x1c, 0x79, 0x22, 0x3e,
    0x45, 0x63, 0xce, 0x3e, 0x6b, 0x77, 0x2d, 0x3d, 0xa8, 0xa5, 0x03, 0xbd,
    0x29, 0xb4, 0x71, 0x3e, 0xe2, 0xe0, 0x3b, 0x3e, 0x78, 0x00, 0x6f, 0x3e,
    0xcd, 0x27, 0x15, 0xbe, 0x20, 0xbb, 0x86, 0xbc, 0x84, 0x5d, 0xbe, 0xbd,
    0xc8, 0x0c, 0xad, 0x3e, 0x98, 0x56, 0x71, 0xbe, 0xec, 0x5d, 0xda, 0xbd,
    0xf2, 0x1f, 0x8f, 0xbe, 0x0d, 0x01, 0x4f, 0x3e, 0xb0, 0x7b, 0xf4, 0xbc,
    0x09, 0x9c, 0xd9, 0x3d, 0xb4, 0x76, 0x40, 0xbe, 0x5d, 0x48, 0x4f, 0xbd,
    0x91, 0xef, 0x9d, 0x3e, 0x44, 0x37, 0x35, 0x3e, 0x64, 0x8d, 0x87, 0x3d,
    0xf0, 0xe4, 0x4e, 0x3e, 0x45, 0xdc, 0x7e, 0xbe, 0x7d, 0x31, 0x00, 0x3d,
    0x38, 0xdf, 0x00, 0x3f, 0x96, 0x0b, 0x7d, 0x3e, 0xed, 0x93, 0xa6, 0xbe,
    0x65, 0x41, 0xa3, 0x3d, 0xbe, 0x67, 0x94, 0x3e, 0xdd, 0xc4, 0x7a, 0x3c,
    0x72, 0xf1, 0x97, 0xbd, 0x29, 0x44, 0xdd, 0x3c, 0x9d, 0x2e, 0xf2, 0xbe,
    0x65, 0xa5, 0x56, 0x3d, 0xf1, 0xe2, 0x79, 0x3d, 0xf9, 0x46, 0x93, 0x3e,
    0x94, 0x36, 0x9a, 0xbd, 0xe8, 0x11, 0x1f, 0x3d, 0x81, 0x59, 0xc2, 0x3d,
    0x18, 0xbc, 0x55, 0x3d, 0x73, 0xcf, 0x62, 0x3e, 0xfa, 0x95, 0x7f, 0xbe,
    0x18, 0xbb, 0x17, 0x3e, 0xc8, 0xa0, 0x8f, 0xbe, 0xb0, 0xdd, 0x91, 0x3e,
    0x34, 0xec, 0x97, 0x3e, 0xf5, 0x21, 0x6d, 0x3e, 0xd0, 0x14, 0x0d, 0x3d,
    0x25, 0xaa, 0x24, 0x3d, 0x70, 0x47, 0x81, 0xba, 0x3a, 0x65, 0x77, 0x3e,
    0x7e, 0xda, 0x3c, 0x3e, 0x80, 0x39, 0x6b, 0x3d, 0x06, 0xee, 0xae, 0x3e,
    0x4a, 0xbd, 0x1a, 0x3e, 0xac, 0x1c, 0x02, 0xbe, 0xce, 0x92, 0xac, 0xbe,
    0xc9, 0x4b, 0xc0, 0xbd, 0x79, 0xc8, 0x82, 0x3e, 0xf4, 0x1c, 0x01, 0x3e,
    0xf6, 0xc8, 0x29, 0xbe, 0x91, 0xb0, 0x34, 0xbe, 0x54, 0x6e, 0x3d, 0x3e,
    0x82, 0x10, 0x9a, 0xbe, 0xef, 0x56, 0x7a, 0xbe, 0x93, 0xfd, 0x7a, 0xbd,
    0x15, 0x6f, 0x1d, 0xbe, 0x40, 0xfd, 0x30, 0x3e, 0x3c, 0xec, 0xc1, 0xbd,
    0x6c, 0xca, 0x95, 0xbd, 0x76, 0x61, 0xee, 0xbd, 0x53, 0xcc, 0x90, 0x3e,
    0x18, 0x82, 0x2b, 0x3e, 0x33, 0xfe, 0x9c, 0xbe, 0xca, 0xfe, 0x5b, 0x3e,
    0x4d, 0x4b, 0x40, 0x3e, 0x66, 0x54, 0x1e, 0xbe, 0x5d, 0x68, 0x8e, 0xbd,
    0x00, 0xaa, 0x8e, 0x3a, 0x50, 0x61, 0x99, 0xbe, 0x00, 0xb5, 0xd9, 0xba,
    0x50, 0x97, 0x5d, 0xbe, 0xea, 0x7a, 0x57, 0xbe, 0x8c, 0x21, 0x63, 0x3e,
    0x08, 0xb2, 0x10, 0x3d, 0xf4, 0x6e, 0x6a, 0xbe, 0xc6, 0xf2, 0x9c, 0xbd,
    0xd0, 0xe8, 0x7d, 0xbd, 0x58, 0x03, 0x77, 0xbe, 0x77, 0xf4, 0x70, 0x3e,
    0x91, 0x77, 0x3a, 0x3e, 0xd9, 0xa7, 0x99, 0xbe, 0x50, 0xf5, 0x14, 0xbe,
    0x48, 0x32, 0x28, 0x3e, 0xb2, 0xac, 0xe4, 0xbd, 0xac, 0x27, 0x5f, 0xbe,
    0xf1, 0xad, 0xaa, 0xbe, 0x83, 0xd2, 0x8b, 0x3d, 0x04, 0x91, 0x40, 0x3e,
    0x23, 0xcd, 0x27, 0xbe, 0x80, 0x3b, 0x67, 0x3b, 0x1c, 0xfa, 0x35, 0x3e,
    0xea, 0xf6, 0xb6, 0xbd, 0x38, 0x4e, 0x00, 0x3d, 0x19, 0x5d, 0x22, 0xbd,
    0x56, 0xeb, 0x71, 0x3e, 0x6f, 0xd4, 0x24, 0x3e, 0xde, 0x9e, 0x2b, 0x3e,
    0xcf, 0xe9, 0x13, 0xbe, 0x72, 0x49, 0x11, 0x3c, 0xce, 0x05, 0xa8, 0xbd,
    0xcc, 0x18, 0x6b, 0xbe, 0x19, 0x2c, 0x1c, 0xbe, 0x88, 0xf5, 0x13, 0xbd,
    0xfc, 0xbe, 0x47, 0xbd, 0x4f, 0x70, 0xa5, 0x3c, 0xc0, 0xae, 0x4f, 0x3c,
    0xb8, 0x15, 0x35, 0xbe, 0x16, 0x42, 0x5a, 0x3e, 0xf3, 0xa9, 0xbe, 0x3c,
    0x35, 0x66, 0xbe, 0x3d, 0xe4, 0x1f, 0xaf, 0x3d, 0x9f, 0xb6, 0x4f, 0xbe,
    0x5c, 0xcd, 0xf6, 0xbd, 0x30, 0xed, 0x21, 0x3e, 0xf7, 0x6e, 0x8e, 0x3d,
    0x88, 0xec, 0xc8, 0x3e, 0x55, 0x8f, 0x69, 0xbe, 0xfd, 0xc1, 0x5d, 0xbe,
    0x88, 0x88, 0xad, 0x3e, 0x2c, 0xfd, 0x9e, 0xbd, 0x14, 0x04, 0xd6, 0x3d,
    0x9c, 0xa8, 0x38, 0xbe, 0x1d, 0x1a, 0x4c, 0xbe, 0x88, 0x9a, 0x8a, 0x3e,
    0x8e, 0xa1, 0x5d, 0x3e, 0x1d, 0x14, 0x63, 0xbe, 0xc2, 0x6e, 0x6f, 0x3e,
    0xed, 0x65, 0xa5, 0x3e, 0x01, 0x43, 0x46, 0x3e, 0xb3, 0x72, 0xdd, 0x3d,
    0x9a, 0x68, 0x47, 0x3e, 0xdd, 0x73, 0x94, 0x3e, 0x56, 0x39, 0x17, 0x3d,
    0x75, 0x75, 0xee, 0x3d, 0xd2, 0xfe, 0x95, 0xbe, 0x14, 0xf7, 0x9e, 0x3e,
    0xd7, 0x06, 0x87, 0xbd, 0x01, 0x54, 0x36, 0xbe, 0xe6, 0x2a, 0x37, 0x3e,
    0xdf, 0xe2, 0x0e, 0xbe, 0xae, 0x24, 0x47, 0x3e, 0x93, 0x88, 0x81, 0xbd,
    0xff, 0x95, 0xcf, 0xbd, 0x42, 0xda, 0xaa, 0x3e, 0xf1, 0x16, 0x81, 0xbd,
    0x8f, 0x02, 0xef, 0xbd, 0x6e, 0xb1, 0xf1, 0xbc, 0x33, 0x25, 0xcc, 0xbe,
    0x50, 0x3f, 0xfc, 0xbc, 0xe7, 0x14, 0xc3, 0x3e, 0x8c, 0x1e, 0x8a, 0x3e,
    0x42, 0x49, 0xea, 0xbb, 0x1c, 0x53, 0x01, 0x3e, 0x74, 0x0b, 0xe8, 0x3d,
    0x2f, 0x6f, 0xc8, 0xbe, 0xec, 0xd5, 0xc0, 0x3d, 0xb0, 0x5e, 0x8b, 0x3d,
    0x55, 0xef, 0xb7, 0xbd, 0x16, 0x1b, 0x7e, 0x3e, 0xec, 0xba, 0x02, 0xbe,
    0xb0, 0xcf, 0xe0, 0x3e, 0x3d, 0x2e, 0x5c, 0xbe, 0xf4, 0xcd, 0x45, 0x3d,
    0xca, 0x93, 0x14, 0x3e, 0xc9, 0xa8, 0x61, 0xbe, 0xa0, 0x43, 0x96, 0xbe,
    0xb9, 0x71, 0x27, 0xbe, 0x96, 0x1c, 0x8c, 0x3d, 0x17, 0x40, 0x4f, 0xbe,
    0x62, 0x69, 0x59, 0x3e, 0x6d, 0xce, 0x60, 0xbe, 0x55, 0x71, 0x9a, 0x3e,
    0xb6, 0xf3, 0x20, 0xbe, 0x8b, 0xb5, 0x92, 0x3e, 0x89, 0x9f, 0xf4, 0xbd,
    0xee, 0xa3, 0x28, 0xbe, 0x8d, 0xeb, 0x66, 0x3e, 0x16, 0xdf, 0x84, 0x3e,
    0x69, 0x1a, 0x1a, 0xbe, 0xda, 0x2a, 0x8c, 0x3e, 0xb2, 0x59, 0xb1, 0x3d,
    0xf7, 0x21, 0x06, 0xbd, 0x7d, 0x76, 0x31, 0x3e, 0x35, 0x43, 0x7b, 0xbe,
    0x00, 0x6b, 0x6b, 0x3d, 0xec, 0xcd, 0xb9, 0x3d, 0x8b, 0x08, 0x84, 0x3e,
    0x93, 0xb7, 0x91, 0x3d, 0x20, 0x09, 0x51, 0xbc, 0x42, 0x46, 0xad, 0xbe,
    0x23, 0xdf, 0x81, 0x3e, 0x63, 0xcf, 0x95, 0x3e, 0xca, 0x02, 0x1f, 0xbe,
    0x06, 0x71, 0x39, 0x3e, 0xfa, 0xef, 0x2d, 0xbe, 0xda, 0xd0, 0x65, 0xbe,
    0x10, 0x4c, 0xb8, 0xbe, 0xac, 0x35, 0x6f, 0x3e, 0x6f, 0x21, 0xe7, 0x3d,
    0x30, 0x43, 0x83, 0xbd, 0x23, 0x05, 0xb5, 0xbd, 0x86, 0x3c, 0x80, 0xbd,
    0xf7, 0xce, 0x5a, 0xbe, 0xd1, 0xb3, 0x18, 0xbd, 0x26, 0x25, 0x1d, 0xbd,
    0x53, 0xdf, 0x3e, 0x3e, 0x59, 0xdb, 0xa8, 0x3d, 0x40, 0x2a, 0xc2, 0xbc,
    0xa7, 0xf8, 0x19, 0xbe, 0x92, 0xb3, 0x33, 0xbe, 0x16, 0x2e, 0x88, 0xbe,
    0x1c, 0x5d, 0x2e, 0xbe, 0x23, 0xe1, 0x9a, 0x3e, 0x88, 0xe0, 0x6e, 0x3e,
    0x4a, 0xdb, 0x4c, 0xbe, 0x42, 0x27, 0xbf, 0xbd, 0x7e, 0x95, 0xd3, 0xbd,
    0x86, 0xc3, 0x6c, 0x3e, 0x66, 0xd0, 0x93, 0x3e, 0x6d, 0xdb, 0x5d, 0xbe,
    0xd4, 0x66, 0x8b, 0xbe, 0xbc, 0xda, 0xa9, 0xbd, 0xbb, 0x74, 0x9c, 0xbd,
    0x0e, 0xad, 0xea, 0x3d, 0x9e, 0x8b, 0x02, 0x3e, 0x80, 0x69, 0xbc, 0x3c,
    0x71, 0x80, 0x2c, 0xbe, 0x55, 0x20, 0x98, 0x3e, 0x5e, 0xff, 0x22, 0xbe,
    0x32, 0x50, 0x6b, 0x3e, 0x2c, 0xb8, 0xa2, 0x3d, 0x30, 0x04, 0x86, 0xbe,
    0x29, 0xc0, 0x58, 0xbe, 0x70, 0xd3, 0x88, 0xbd, 0x8c, 0xbb, 0x83, 0x3e,
    0x41, 0xf0, 0x37, 0xbe, 0xd1, 0xe4, 0xe3, 0xbd, 0x79, 0x74, 0x28, 0xbe,
    0xbc, 0x75, 0x29, 0xbd, 0x1f, 0xb2, 0x94, 0xbe, 0x0c, 0xd3, 0xc1, 0x3c,
    0xf4, 0x80, 0x2e, 0x3d, 0xb4, 0xd8, 0x9a, 0xbd, 0xf1, 0xaa, 0x29, 0xbe,
    0x2a, 0x63, 0x21, 0xbe, 0xb5, 0xbd, 0xa7, 0x3d, 0x7c, 0x6a, 0x77, 0x3e,
    0xf3, 0xbc, 0xd0, 0x3d, 0x9a, 0x72, 0x34, 0xbe, 0x00, 0x0a, 0x98, 0xba,
    0x8b, 0xf1, 0x30, 0xbe, 0xd7, 0x9c, 0x6c, 0x3e, 0x88, 0x49, 0x24, 0x3e,
    0x70, 0x11, 0x6d, 0x3d, 0xcf, 0x69, 0xf8, 0x3d, 0xaa, 0x0d, 0x53, 0xbe,
    0xec, 0x7a, 0xc7, 0xbd, 0x7c, 0x1f, 0x6a, 0x3d, 0x25, 0x7c, 0x87, 0xbe,
    0x78, 0x0f, 0xbd, 0x3d, 0x76, 0x1e, 0x18, 0xbe, 0xb8, 0xa3, 0x94, 0xbe,
    0xd0, 0xb8, 0x9b, 0xbc, 0x1f, 0x52, 0x05, 0xbe, 0x32, 0xde, 0x90, 0xbe,
    0x2a, 0xd5, 0x63, 0xbe, 0xb2, 0xa4, 0x80, 0x3e, 0x6e, 0x1e, 0x9d, 0xbe,
    0xc5, 0xf3, 0x45, 0xbe, 0x8e, 0xc3, 0x70, 0xbe, 0xc2, 0xf3, 0xfc, 0x3d,
    0xb0, 0x1d, 0xca, 0x3d, 0x6e, 0x0e, 0xed, 0xbd, 0xe0, 0x57, 0x84, 0x3d,
    0xe7, 0x10, 0x86, 0x3e, 0x98, 0xbb, 0x79, 0x3d, 0x25, 0x7a, 0x82, 0x3e,
    0xb8, 0x68, 0xf6, 0x3d, 0x00, 0x42, 0x01, 0x3d, 0xa6, 0x9e, 0x3d, 0x3e,
    0x36, 0xf2, 0xdd, 0xbd, 0x66, 0xc0, 0xd3, 0xbd, 0xec, 0x7d, 0xdf, 0xbc,
    0xa6, 0x98, 0x9b, 0xbe, 0x4c, 0x31, 0x98, 0xbe, 0xd1, 0xb1, 0xb6, 0x3c,
    0xb5, 0x14, 0x0d, 0xbe, 0x4c, 0xd9, 0x8a, 0x3e, 0x56, 0xa5, 0xf2, 0xbd,
    0x04, 0xd3, 0x98, 0x3d, 0xaf, 0xa3, 0xa6, 0x3d, 0x72, 0x9b, 0x94, 0xbd,
    0x1c, 0x52, 0x02, 0xbe, 0xfe, 0x15, 0x98, 0xbe, 0x5a, 0x7a, 0x69, 0x3e,
    0x0c, 0xe6, 0xa0, 0x3d, 0x7e, 0x80, 0x49, 0x3e, 0x86, 0x1c, 0x34, 0x3e,
    0xae, 0x54, 0x65, 0x3e, 0x7b, 0x62, 0x7a, 0xbe, 0x41, 0x50, 0x0a, 0xbe,
    0x26, 0x1a, 0xb9, 0xbd, 0xf9, 0x07, 0x39, 0xbe, 0xbe, 0x1c, 0x66, 0x3e,
    0x0b, 0xdf, 0x80, 0x3e, 0x80, 0xdb, 0xe4, 0x3b, 0xac, 0x19, 0x04, 0x3e,
    0x04, 0xf6, 0x88, 0xbe, 0xe8, 0x82, 0x3a, 0x3d, 0x73, 0xbe, 0x78, 0xbe,
    0x0b, 0x17, 0x31, 0xbe, 0x08, 0xda, 0x78, 0x3d, 0x79, 0x37, 0x8d, 0x3e,
    0xaf, 0x44, 0x8f, 0x3e, 0x60, 0x97, 0x48, 0xbc, 0x64, 0x48, 0xa7, 0xbd,
    0xac, 0x7a, 0x05, 0x3e, 0x03, 0x6e, 0x6a, 0xbe, 0xee, 0x1a, 0x5f, 0x3e,
    0xbc, 0x46, 0x41, 0x3e, 0x00, 0x29, 0xd4, 0x3c, 0xa5, 0x7f, 0x83, 0xbe,
    0x42, 0xcf, 0x69, 0xbe, 0x84, 0x26, 0x21, 0x3e, 0x38, 0xe6, 0xa2, 0xbd,
    0xc0, 0x4e, 0xdd, 0x3b, 0x70, 0xea, 0x2e, 0x3e, 0x88, 0xe4, 0x4c, 0xbd,
    0x1e, 0xb8, 0x98, 0xbd, 0xc0, 0x23, 0x7d, 0x3c, 0xf2, 0x7f, 0x68, 0xbe,
    0x28, 0x6d, 0x68, 0x3d, 0x0a, 0x94, 0x25, 0x3e, 0xa2, 0xc6, 0x68, 0xbe,
    0x01, 0x8b, 0x84, 0xbe, 0x0a, 0x42, 0xb6, 0x3e, 0xf5, 0x70, 0x16, 0xbe,
    0x49, 0xef, 0x9c, 0x3e, 0xbf, 0xde, 0x5d, 0x3e, 0xc6, 0x1d, 0x22, 0x3e,
    0x01, 0x7f, 0x87, 0x3d, 0x83, 0x77, 0xab, 0x3d, 0x16, 0x89, 0x76, 0xbd,
    0x95, 0xa7, 0x65, 0xbd, 0xe4, 0xeb, 0xe9, 0x3c, 0xe7, 0x42, 0x2b, 0xbe,
    0x4c, 0x3e, 0xa0, 0x3d, 0x2f, 0xc6, 0xbe, 0x3d, 0xc2, 0x92, 0x59, 0x3e,
    0xdd, 0xfb, 0x68, 0x3d, 0xb3, 0x67, 0x93, 0x3d, 0x3a, 0xc9, 0x4d, 0xbe,
    0xae, 0xb2, 0x04, 0xbe, 0x96, 0x8f, 0x20, 0x3d, 0xd3, 0x02, 0x2d, 0x3e,
    0xb9, 0xa3, 0x0c, 0xbd, 0xa5, 0x15, 0x9c, 0x3e, 0x1c, 0x10, 0xbd, 0x3d,
    0x5d, 0x79, 0xe4, 0x3d, 0x53, 0xb4, 0xc2, 0xbd, 0x76, 0x0b, 0x35, 0x3e,
    0xca, 0xad, 0x75, 0x3e, 0x9c, 0xd7, 0x19, 0x3e, 0x87, 0x77, 0xa4, 0x3e,
    0x2c, 0x0c, 0x7c, 0x3e, 0xa9, 0x33, 0xe0, 0xbd, 0xcc, 0x2d, 0xaf, 0x3e,
    0xda, 0x80, 0xfa, 0x3e, 0x7e, 0x6b, 0x00, 0xbe, 0xa6, 0xe4, 0x1f, 0x3d,
    0xa5, 0x5d, 0x9a, 0x3d, 0x50, 0x1c, 0x5e, 0xbe, 0xde, 0x00, 0xee, 0xbc,
    0x32, 0x46, 0x6d, 0x3e, 0x0d, 0x31, 0xbe, 0x3d, 0x67, 0x2a, 0xb4, 0xbc,
    0x67, 0xed, 0x0f, 0x3e, 0xde, 0xd3, 0x60, 0x3e, 0x9f, 0x8a, 0x3b, 0xbe,
    0x2e, 0x09, 0x99, 0x3e, 0x35, 0x53, 0x92, 0x3e, 0x2c, 0x0b, 0x76, 0x3d,
    0x41, 0xb7, 0x9d, 0x3e, 0xd4, 0xdb, 0xbf, 0xbd, 0x35, 0xfc, 0xa7, 0x3e,
    0x93, 0x1a, 0xaf, 0x3e, 0x32, 0x27, 0x53, 0x3d, 0x68, 0xe3, 0xe6, 0xbd,
    0xe1, 0x2d, 0x2c, 0x3c, 0x81, 0x3c, 0x05, 0x3e, 0x32, 0xa9, 0x0a, 0xbe,
    0xac, 0x20, 0x99, 0x3d, 0x89, 0x00, 0xe3, 0xbd, 0xc0, 0xea, 0x91, 0x3b,
    0x02, 0xcb, 0x3b, 0xbe, 0xc1, 0xb2, 0x92, 0x3e, 0x6a, 0x84, 0x3e, 0x3e,
    0xca, 0x47, 0x9e, 0xbd, 0x9a, 0xcd, 0x7f, 0x3e, 0x09, 0x1a, 0x06, 0xbe,
    0x24, 0x35, 0xf8, 0x3d, 0xc5, 0xa3, 0xbc, 0x3b, 0xfc, 0xf4, 0xa7, 0x3e,
    0xc2, 0x96, 0x76, 0x3d, 0xf6, 0xa7, 0xff, 0xbd, 0x7d, 0x2d, 0xb4, 0x3d,
    0x18, 0x6f, 0xa9, 0x3d, 0xe4, 0xf0, 0xf2, 0xbe, 0x79, 0x48, 0x40, 0xbd,
    0x00, 0x50, 0xda, 0xb9, 0xcd, 0x94, 0x89, 0x3e, 0xa3, 0x80, 0x96, 0xbe,
    0x97, 0x3a, 0x32, 0xbe, 0x14, 0xd2, 0xd1, 0x3d, 0x9c, 0x37, 0x7a, 0x3e,
    0x86, 0x30, 0x45, 0x3e, 0x90, 0x8b, 0x02, 0xbd, 0x77, 0x85, 0x16, 0x3c,
    0x2f, 0x6b, 0x7a, 0x3e, 0x9c, 0x46, 0xd4, 0xbd, 0xba, 0x37, 0x49, 0x3e,
    0x88, 0xf3, 0x29, 0x3e, 0xa0, 0xd1, 0x0d, 0xbe, 0x8a, 0x56, 0x51, 0xbd,
    0x64, 0xe1, 0xe7, 0x3d, 0x04, 0xb0, 0xc7, 0x3d, 0x3d, 0xdd, 0x91, 0x3e,
    0x91, 0xe1, 0xac, 0x3d, 0x68, 0x49, 0x0f, 0xbe, 0xe0, 0xc8, 0x85, 0x3e,
    0x00, 0x55, 0xd9, 0xbd, 0xeb, 0x5f, 0x06, 0xbe, 0x2f, 0x9f, 0xbf, 0xbd,
    0xe8, 0x5d, 0x6b, 0xbe, 0x33, 0xbd, 0x88, 0x3e, 0x13, 0x78, 0x1d, 0x3e,
    0x19, 0x62, 0xd8, 0x3d, 0x6f, 0xa2, 0xdd, 0xbe, 0x54, 0xfb, 0xc4, 0xbd,
    0x23, 0x59, 0x93, 0x3e, 0x37, 0x69, 0x0a, 0x3e, 0xa2, 0x3d, 0x98, 0xbe,
    0x5f, 0xe5, 0xac, 0x3e, 0xe6, 0x71, 0x4c, 0x3e, 0x98, 0x78, 0x39, 0xbd,
    0x58, 0x12, 0x8e, 0x3e, 0x64, 0x5a, 0x13, 0xbd, 0xe4, 0xc3, 0x8c, 0x3e,
    0x66, 0xd8, 0x45, 0x3e, 0x23, 0xdf, 0x2d, 0xbe, 0x5b, 0xcf, 0x22, 0xbd,
    0x43, 0x05, 0x4e, 0x3e, 0x26, 0xfc, 0x71, 0xbd, 0xa9, 0xb2, 0x8c, 0x3e,
    0x5f, 0xbf, 0x1b, 0x3d, 0x6c, 0x3c, 0x7b, 0x3e, 0xcc, 0xa2, 0x02, 0x3d,
    0x84, 0x04, 0x16, 0x3e, 0x85, 0x0d, 0x24, 0x3e, 0x96, 0xa0, 0x60, 0x3e,
    0xb4, 0xbe, 0xbb, 0x3e, 0x1c, 0x3b, 0xbf, 0xbd, 0xdb, 0xd3, 0xcf, 0xbc,
    0xf7, 0xca, 0xeb, 0xbd, 0x2b, 0x06, 0x88, 0x3e, 0x04, 0x14, 0x2d, 0x3e,
    0x38, 0x14, 0x41, 0x3d, 0xfc, 0x21, 0xcf, 0x3c, 0x59, 0x90, 0xfb, 0xbd,
    0xc9, 0x15, 0x8b, 0x3e, 0x72, 0x20, 0x23, 0xbd, 0x7f, 0x6d, 0x21, 0xbe,
    0x7c, 0x9c, 0x43, 0x3e, 0x37, 0xe0, 0x2c, 0xbe, 0x68, 0x57, 0x6f, 0x3b,
    0x01, 0x5b, 0x7c, 0xbd, 0xae, 0xf6, 0x41, 0xbe, 0x80, 0x04, 0x47, 0xbe,
    0xca, 0xe6, 0x0f, 0x3e, 0x61, 0xc8, 0xab, 0xbd, 0x66, 0xf8, 0xc7, 0xbd,
    0x2f, 0x41, 0x52, 0xbe, 0x95, 0xbe, 0x89, 0x3e, 0xaa, 0x23, 0x95, 0xbd,
    0x0b, 0x90, 0x03, 0xbf, 0x83, 0xbd, 0xe2, 0x3d, 0xe0, 0xfd, 0xc1, 0x3d,
    0xe8, 0xcb, 0xb0, 0x3e, 0x7f, 0x56, 0xb1, 0x3e, 0x49, 0x97, 0x95, 0xbe,
    0xa0, 0x70, 0x86, 0x3e, 0xbd, 0x26, 0x8d, 0xbe, 0xbd, 0xd3, 0x93, 0x3d,
    0x33, 0xe9, 0x08, 0x3c, 0xa5, 0xe3, 0x66, 0x3e, 0x24, 0x09, 0x82, 0x3e,
    0x4b, 0x0e, 0x7d, 0xbc, 0x99, 0x2b, 0x46, 0x3e, 0xa4, 0x7b, 0x47, 0x3b,
    0x4d, 0x97, 0x0b, 0xbe, 0x8c, 0x9c, 0x22, 0x3e, 0x52, 0x73, 0x22, 0x3e,
    0xe4, 0xde, 0x33, 0xbe, 0xb7, 0x70, 0xbe, 0xbe, 0x29, 0x5a, 0xb4, 0xbc,
    0xfa, 0x53, 0x16, 0x3e, 0x10, 0x18, 0xe0, 0xbd, 0xdd, 0xd4, 0x91, 0x3d,
    0x50, 0xea, 0x7b, 0x3d, 0x0e, 0xd6, 0x87, 0xbd, 0xf5, 0x6e, 0x70, 0xbe,
    0xbc, 0x9a, 0x0f, 0xbe, 0x36, 0xe1, 0x31, 0x3e, 0x8e, 0x26, 0x9b, 0xbc,
    0x64, 0x25, 0x92, 0xbe, 0x65, 0xa3, 0x8f, 0x3e, 0x70, 0x97, 0x65, 0xbe,
    0xa4, 0x2d, 0x55, 0xbe, 0x6a, 0xd5, 0x88, 0xbd, 0x06, 0x3d, 0x4e, 0x3c,
    0xab, 0x27, 0x39, 0xbe, 0xb0, 0x74, 0x82, 0xbd, 0xaf, 0x37, 0x3f, 0xbe,
    0x4d, 0xfc, 0x91, 0x3e, 0xf3, 0x58, 0x9f, 0xbe, 0xc9, 0x66, 0xd9, 0x3e,
    0xd5, 0x3d, 0x21, 0x3e, 0x61, 0xb4, 0x92, 0xbe, 0x48, 0xf5, 0x80, 0x3c,
    0x5b, 0xeb, 0x7b, 0x3e, 0x43, 0xd9, 0x61, 0xbd, 0x66, 0xf1, 0xd8, 0xbd,
    0x19, 0x4c, 0x0c, 0x3e, 0xd6, 0x33, 0xa9, 0x3e, 0x99, 0x5c, 0x44, 0xbd,
    0x22, 0x5b, 0xb8, 0x3d, 0xd2, 0xbe, 0x7b, 0x3e, 0xf8, 0xa5, 0x68, 0x3d,
    0x0b, 0x95, 0x8e, 0xbe, 0x1c, 0x05, 0x91, 0xbe, 0xae, 0x68, 0x75, 0x3e,
    0x8a, 0x0c, 0xa9, 0x3d, 0x82, 0xf1, 0x3b, 0x3e, 0x3c, 0x8a, 0x54, 0x3e,
    0x12, 0xa4, 0xb5, 0x3e, 0xfc, 0xf6, 0xe9, 0x3c, 0xe0, 0x0b, 0x30, 0x3e,
    0xdd, 0x03, 0x3a, 0x3d, 0x1d, 0xf7, 0x7f, 0xbe, 0x3d, 0x40, 0x3b, 0x3e,
    0xe3, 0xa3, 0xaa, 0x3e, 0xee, 0xdd, 0x74, 0x3e, 0x5e, 0x49, 0x58, 0x3e,
    0x27, 0xf3, 0x83, 0xbe, 0x53, 0x81, 0x0f, 0x3c, 0xe5, 0xbb, 0x98, 0x3e,
    0x39, 0x5d, 0x84, 0x3e, 0xb6, 0xa4, 0x87, 0x3e, 0x38, 0x15, 0x8a, 0xbe,
    0x6d, 0xd5, 0x83, 0xbe, 0x1c, 0xc7, 0x59, 0xbe, 0x85, 0x60, 0x05, 0x3e,
    0x8f, 0x9a, 0x19, 0x3d, 0xb2, 0xd3, 0xd3, 0x3e, 0x04, 0xa4, 0x4a, 0x3e,
    0x22, 0xe1, 0xa7, 0xbe, 0x80, 0x7e, 0x47, 0xbd, 0x70, 0xad, 0xc4, 0x3d,
    0xaf, 0x2d, 0x31, 0xbe, 0x80, 0xd9, 0x8e, 0xbc, 0xc8, 0xe2, 0x04, 0x3e,
    0x95, 0x4c, 0x83, 0xbe, 0xd6, 0x6d, 0x1d, 0x3e, 0xf5, 0x08, 0x8b, 0x3e,
    0xbb, 0x8d, 0xfe, 0x3c, 0xbc, 0x36, 0x8b, 0x3e, 0x6c, 0x55, 0x6f, 0xbd,
    0xea, 0xe0, 0x78, 0xbe, 0x45, 0x65, 0x4b, 0xbe, 0x08, 0x4a, 0x1f, 0x3e,
    0x5d, 0x50, 0xdc, 0xbc, 0x0c, 0x34, 0xf8, 0x3d, 0x0c, 0x2b, 0x14, 0x3e,
    0xca, 0xf3, 0xc8, 0x3e, 0x1d, 0x53, 0x6a, 0xbe, 0xec, 0x7f, 0x30, 0xbe,
    0x95, 0xd0, 0xa2, 0xbd, 0x01, 0x7c, 0x3d, 0xbc, 0xd8, 0xcc, 0x20, 0x3e,
    0xe4, 0x0e, 0xb8, 0x3e, 0x09, 0x06, 0x9d, 0x3d, 0x8c, 0xab, 0x1d, 0x3e,
    0xd0, 0x2e, 0x07, 0xbe, 0xc1, 0xe1, 0x89, 0x3e, 0x4e, 0x0b, 0x4f, 0xbd,
    0x72, 0x5c, 0x01, 0xbe, 0x33, 0xb3, 0x46, 0x3e, 0xde, 0xd2, 0x9c, 0x3e,
    0x62, 0xd8, 0x86, 0xbe, 0xf7, 0xb3, 0x4a, 0xbe, 0xf9, 0xc2, 0x84, 0x3d,
    0x96, 0xbc, 0x77, 0x3e, 0x32, 0x8e, 0xc9, 0xbd, 0x78, 0xf7, 0x94, 0xbe,
    0xa8, 0xd1, 0x56, 0x3d, 0x62, 0xa6, 0x20, 0xbe, 0x6a, 0x2e, 0x91, 0xbd,
    0x3a, 0xd4, 0xcb, 0x3d, 0x62, 0xa9, 0xc7, 0x39, 0x0c, 0x5d, 0x9d, 0x3e,
    0x2d, 0x57, 0x7a, 0xbd, 0xe0, 0x05, 0x57, 0x3e, 0x0a, 0x7e, 0x30, 0x3e,
    0x91, 0xa5, 0x41, 0x3e, 0x89, 0x62, 0x06, 0x3e, 0x09, 0x41, 0x96, 0x3d,
    0x46, 0x8e, 0x91, 0x3e, 0x32, 0xf6, 0x98, 0xbe, 0x17, 0x1c, 0xe5, 0x3d,
    0x26, 0xde, 0x61, 0x3e, 0x16, 0xd1, 0xaf, 0xbd, 0x32, 0x2e, 0x3f, 0x3d,
    0x75, 0xdc, 0x69, 0x3c, 0x61, 0x78, 0xec, 0xbe, 0xe3, 0x7a, 0x72, 0xbc,
    0xb5, 0x78, 0x5b, 0x3d, 0x45, 0x39, 0x3d, 0x3c, 0xd9, 0xcc, 0x87, 0x3d,
    0x7b, 0xd1, 0x69, 0xbe, 0xe1, 0x6e, 0xcb, 0xbe, 0x56, 0x6f, 0x09, 0x3e,
    0xc1, 0x87, 0x1f, 0xbd, 0x0a, 0x90, 0x1b, 0x3e, 0x60, 0xa1, 0xb3, 0xbc,
    0x45, 0x3a, 0x97, 0x3d, 0xe8, 0x47, 0x53, 0x3d, 0x51, 0xea, 0x24, 0xbe,
    0x1e, 0xba, 0x89, 0x3e, 0x1d, 0xee, 0xbd, 0xbd, 0x2e, 0x95, 0xfd, 0xbb,
    0x6d, 0x1f, 0x44, 0x3e, 0xff, 0x22, 0x8f, 0xbd, 0x88, 0xec, 0x8d, 0x3d,
    0x56, 0x81, 0x91, 0x3e, 0x4e, 0xdf, 0x8a, 0x3e, 0x66, 0x2c, 0x9c, 0x3d,
    0xb3, 0x6b, 0x00, 0x3e, 0x24, 0xa5, 0x03, 0x3d, 0xe1, 0x91, 0x7f, 0x3e,
    0x1e, 0x6e, 0xb9, 0xbd, 0xf8, 0x8d, 0x1f, 0x3e, 0x53, 0x1c, 0xec, 0x3c,
    0x51, 0xac, 0x0f, 0xbe, 0x2a, 0x9e, 0x9d, 0xbe, 0xa9, 0xcb, 0x2a, 0x3e,
    0x72, 0xd8, 0xdc, 0x3b, 0x23, 0x9e, 0x91, 0x3e, 0x79, 0xf7, 0x7d, 0x3e,
    0x54, 0x41, 0x81, 0x3e, 0x2e, 0x1c, 0x00, 0x3e, 0x50, 0x9a, 0x33, 0xbd,
    0x53, 0x5f, 0xa3, 0xbe, 0x41, 0xd5, 0xeb, 0xbb, 0xd5, 0x1b, 0x3d, 0xbe,
    0x95, 0x88, 0x8b, 0x3e, 0xca, 0xd8, 0x24, 0x3e, 0x0c, 0xfb, 0x40, 0x3e,
    0x38, 0x5f, 0x0d, 0x3e, 0x96, 0xc2, 0x75, 0x3e, 0x79, 0xbc, 0x0d, 0xbe,
    0x54, 0x25, 0xa5, 0x3e, 0x5e, 0x89, 0x88, 0x3b, 0x8b, 0x6b, 0x6f, 0xbe,
    0x4c, 0x36, 0x48, 0x3e, 0x6d, 0x64, 0xa4, 0x3d, 0x94, 0xf8, 0x74, 0xbe,
    0x5f, 0xb1, 0x4e, 0x3d, 0x39, 0xb5, 0x1b, 0x3e, 0x2a, 0x0c, 0x8c, 0x3e,
    0x49, 0xaf, 0x69, 0x3d, 0x16, 0xef, 0xed, 0xbd, 0xeb, 0xaa, 0x92, 0x3e,
    0x1e, 0x22, 0x17, 0x3e, 0x40, 0x01, 0x83, 0xbc, 0xef, 0x87, 0xfb, 0xbd,
    0xa0, 0x82, 0xb6, 0xbe, 0x79, 0xfc, 0xe9, 0xbd, 0x30, 0xb4, 0x4c, 0x3e,
    0xa5, 0x2d, 0xc2, 0xbd, 0x63, 0x93, 0x21, 0x3e, 0x31, 0xec, 0x71, 0xbd,
    0x7c, 0xce, 0xbf, 0x3d, 0x60, 0xa4, 0x33, 0xbd, 0x04, 0x98, 0xfc, 0xbc,
    0xdb, 0xa2, 0xf4, 0x3e, 0x2a, 0xfa, 0xd9, 0x3e, 0x98, 0xdd, 0x1b, 0x3e,
    0xd0, 0x40, 0x64, 0xbd, 0x70, 0x02, 0xae, 0xbd, 0xc7, 0x40, 0x94, 0x3e,
    0x58, 0xdb, 0xdf, 0x3d, 0xb5, 0x90, 0x86, 0x3d, 0xbf, 0x08, 0x39, 0xbd,
    0x45, 0xa2, 0x93, 0x3e, 0x03, 0x3f, 0x05, 0x3e, 0x49, 0x78, 0xa5, 0x3e,
    0x80, 0xd8, 0x8d, 0x3e, 0x1b, 0x2b, 0xb8, 0x3d, 0xc6, 0x6b, 0x44, 0x3e,
    0xeb, 0x79, 0x21, 0xbe, 0xc4, 0x5e, 0x77, 0x3e, 0x6d, 0xdf, 0x24, 0xbe,
    0x5f, 0x84, 0x60, 0xbe, 0x88, 0x36, 0x3f, 0x3e, 0xb5, 0x49, 0x3e, 0xbe,
    0x1e, 0xa0, 0x04, 0x3e, 0x05, 0xf9, 0xac, 0x3e, 0xcd, 0xe7, 0xa5, 0xbc,
    0xb2, 0x99, 0xa1, 0xbd, 0x9e, 0x4f, 0x00, 0x3f, 0xff, 0x98, 0x73, 0xbe,
    0x82, 0xe8, 0xe9, 0x3c, 0x09, 0x72, 0x9a, 0x3e, 0x6c, 0xb3, 0x67, 0xbe,
    0xb6, 0xb6, 0x01, 0x3e, 0x0a, 0x6e, 0xf5, 0x3e, 0x69, 0xe8, 0xd6, 0x3d,
    0x83, 0xa1, 0xb4, 0xbd, 0x1b, 0xd7, 0x0a, 0x3e, 0x12, 0xc0, 0x08, 0x3e,
    0xcc, 0x71, 0x40, 0x3d, 0xb0, 0xe3, 0xb4, 0x3e, 0xa0, 0xb6, 0xed, 0xbd,
    0x12, 0x08, 0x99, 0xbd, 0xdf, 0xa3, 0xee, 0x3d, 0x7a, 0xe0, 0x27, 0x3d,
    0x4e, 0xc7, 0x62, 0x3e, 0x3f, 0x18, 0x04, 0xbd, 0x33, 0x7b, 0x48, 0x3c,
    0xe6, 0xb6, 0x54, 0x3e, 0x98, 0xf5, 0x54, 0x3e, 0xc3, 0x96, 0x86, 0x3e,
    0xfe, 0xc4, 0x8f, 0x3d, 0x3c, 0xea, 0x88, 0xbe, 0x0f, 0x0e, 0xb0, 0x3b,
    0x10, 0x1f, 0xff, 0xbc, 0xdc, 0xec, 0xe8, 0x3d, 0x4c, 0xa8, 0xa6, 0xbc,
    0x17, 0xbe, 0xa8, 0x3d, 0xe0, 0x1a, 0xfd, 0xbd, 0x37, 0x09, 0xcc, 0xbd,
    0x91, 0xfb, 0x41, 0x3e, 0xf8, 0x42, 0xce, 0xbd, 0xe9, 0x48, 0x06, 0x3e,
    0x29, 0xc5, 0x88, 0x3e, 0x5c, 0x09, 0xd8, 0xbe, 0x38, 0x69, 0x6b, 0xbe,
    0xa7, 0x5d, 0xce, 0x3e, 0x25, 0xce, 0x54, 0x3e, 0x60, 0x9b, 0x89, 0x3e,
    0x40, 0x73, 0xaa, 0x3d, 0x22, 0x11, 0x09, 0xbe, 0x15, 0x07, 0xe7, 0xbd,
    0xef, 0x38, 0x53, 0x3e, 0x76, 0xa1, 0x37, 0xbe, 0x0c, 0xe4, 0x36, 0xbe,
    0x24, 0xc3, 0xd6, 0x3d, 0xd4, 0xde, 0x8a, 0xbe, 0x76, 0x91, 0x89, 0xbd,
    0xb3, 0xfa, 0x85, 0x3d, 0xab, 0x90, 0x15, 0x3e, 0x3a, 0xfc, 0x89, 0xbe,
    0x21, 0x79, 0x0f, 0x3e, 0x97, 0xa9, 0x78, 0x3e, 0xc5, 0xff, 0x80, 0x3d,
    0xa0, 0x4b, 0xc7, 0xbd, 0x67, 0xd6, 0x92, 0xbe, 0x3c, 0xf4, 0x75, 0xbe,
    0xdd, 0xe8, 0x84, 0xbd, 0x07, 0x57, 0x35, 0xbe, 0x2b, 0xe4, 0x99, 0xbc,
    0xc1, 0x5b, 0xc1, 0xbd, 0x5f, 0xba, 0x60, 0xbd, 0xc6, 0xc4, 0xff, 0xff,
    0x04, 0x00, 0x00, 0x00, 0x00, 0x10, 0x00, 0x00, 0xb0, 0xc3, 0x89, 0x3e,
    0x4a, 0x3d, 0xd8, 0x3c, 0x54, 0x8d, 0x0f, 0xbf, 0x35, 0x74, 0x95, 0x3d,
    0xa0, 0xff, 0x73, 0x3e, 0x49, 0xf6, 0x90, 0x3d, 0x4b, 0x3c, 0x5d, 0x3e,
    0x68, 0x7c, 0x8a, 0x3e, 0x0e, 0xff, 0x5a, 0x3e, 0xb6, 0xa8, 0x42, 0x3e,
    0x5a, 0x36, 0x35, 0xbe, 0x42, 0x20, 0x82, 0xbe, 0x86, 0xd5, 0x76, 0xbe,
    0x24, 0x04, 0xb0, 0x3e, 0xc3, 0x94, 0xf3, 0x3d, 0x1e, 0x38, 0x34, 0xbe,
    0xdb, 0xb2, 0x9b, 0xbe, 0x49, 0x44, 0x77, 0x3e, 0xeb, 0x2d, 0x1f, 0xbe,
    0x51, 0xed, 0x86, 0xbe, 0xa1, 0x99, 0x8e, 0xbe, 0x98, 0x29, 0x03, 0xbe,
    0x11, 0x44, 0x9d, 0xbd, 0xf8, 0x76, 0xf6, 0x3d, 0x48, 0x25, 0x8b, 0x3e,
    0x10, 0x26, 0x13, 0x3d, 0xcb, 0x81, 0x9d, 0xbc, 0xf9, 0x94, 0x99, 0x3e,
    0x8e, 0xff, 0x4f, 0x3d, 0x34, 0x08, 0xbe, 0x3d, 0x7b, 0xeb, 0xd2, 0x3d,
    0x07, 0x5e, 0x66, 0xbe, 0xf4, 0x08, 0x57, 0xbc, 0x4f, 0xa0, 0x4a, 0x3d,
    0x06, 0x10, 0x85, 0xbd, 0x67, 0x39, 0x84, 0x3b, 0x1c, 0x6f, 0xad, 0xbd,
    0x21, 0xd8, 0x87, 0x3e, 0x2a, 0x3b, 0x18, 0xbe, 0x88, 0xf2, 0xa0, 0xbe,
    0x46, 0x9c, 0x8d, 0xbe, 0x3c, 0x9f, 0x03, 0x3e, 0x8a, 0x99, 0x9d, 0xbe,
    0x94, 0x47, 0x02, 0x3e, 0x99, 0xd2, 0x1d, 0x3e, 0x7e, 0xfb, 0x3a, 0x3e,
    0x02, 0xbd, 0x06, 0x3e, 0x90, 0xd8, 0x5b, 0x3d, 0x76, 0xac, 0x90, 0xbd,
    0x28, 0x42, 0x93, 0xbe, 0x21, 0x49, 0xa0, 0xbe, 0x32, 0x66, 0xbb, 0xbd,
    0xe4, 0x39, 0x2f, 0xbe, 0xba, 0x04, 0x3b, 0x3e, 0xcf, 0x13, 0x87, 0x3e,
    0xcc, 0x5e, 0x1d, 0x3e, 0xd6, 0xa8, 0x9e, 0xbe, 0x22, 0x67, 0xa4, 0xbd,
    0x5a, 0xf8, 0x0c, 0xbd, 0x1a, 0x8f, 0x4c, 0xbe, 0x27, 0xae, 0x9a, 0xbe,
    0x02, 0xfe, 0x52, 0xbe, 0x17, 0x8b, 0x92, 0xbe, 0xc2, 0xd8, 0x06, 0x3e,
    0x80, 0x82, 0x5d, 0x3b, 0x2e, 0xf1, 0x4f, 0xbe, 0x4c, 0x5e, 0x04, 0xbc,
    0x6e, 0xfa, 0x5e, 0x3e, 0x14, 0x96, 0x54, 0xbe, 0xe9, 0xcf, 0x25, 0xbe,
    0xb5, 0xdd, 0x0e, 0x3d, 0xf2, 0x1a, 0x54, 0x3e, 0x4a, 0x1f, 0xb1, 0x3e,
    0xb3, 0xb1, 0x31, 0x3e, 0xd0, 0xf5, 0x46, 0xbd, 0xaf, 0xe5, 0x3e, 0x3e,
    0x90, 0xc5, 0x13, 0x3a, 0x0c, 0x73, 0xb6, 0x3e, 0x19, 0xdd, 0x9b, 0x3e,
    0x26, 0xcd, 0x0f, 0xbe, 0xd5, 0xd1, 0x0a, 0xbe, 0xfa, 0x3f, 0x18, 0x3e,
    0x0e, 0xb7, 0x10, 0x3e, 0xda, 0xf7, 0x60, 0x3e, 0x56, 0x5b, 0xa0, 0x3e,
    0x75, 0xca, 0x97, 0xbd, 0x3b, 0xb6, 0x0f, 0x3e, 0x92, 0x73, 0x50, 0x3e,
    0x51, 0x56, 0x33, 0xbd, 0x48, 0x6c, 0x81, 0x3b, 0x35, 0x0d, 0xab, 0x3d,
    0x7d, 0x2d, 0xe5, 0x3d, 0xcb, 0x4d, 0xb0, 0x3c, 0x54, 0x82, 0x73, 0xbe,
    0x62, 0x92, 0x16, 0xbc, 0xd9, 0x67, 0xb6, 0x3d, 0x1e, 0x24, 0xfc, 0xbd,
    0x9a, 0x0b, 0x37, 0x3e, 0x20, 0xb5, 0xc2, 0x3c, 0x4b, 0x56, 0xb5, 0x3d,
    0x71, 0x23, 0xff, 0x3b, 0x9b, 0x37, 0x81, 0xbe, 0xc1, 0x77, 0xa6, 0x3d,
    0x27, 0xdb, 0x7b, 0x3e, 0x27, 0x27, 0x96, 0xbe, 0x58, 0xb5, 0x1d, 0xbd,
    0x82, 0xa5, 0x62, 0x3e, 0x13, 0xe9, 0xb5, 0x3d, 0xbb, 0x04, 0x4c, 0xbe,
    0x38, 0xbb, 0xa5, 0xbe, 0x9c, 0x4b, 0x1c, 0xbe, 0xf2, 0x41, 0x2f, 0x3e,
    0x57, 0xd4, 0x45, 0xbe, 0xae, 0xe5, 0x99, 0x3b, 0x8e, 0x0f, 0xae, 0xbe,
    0x18, 0xa2, 0x9a, 0x3d, 0xc5, 0xa2, 0x66, 0x3e, 0xe1, 0xf5, 0x04, 0x3e,
    0x00, 0xd8, 0x74, 0xbc, 0x49, 0x1e, 0x09, 0xbd, 0x84, 0x77, 0x5c, 0xbe,
    0xd6, 0x61, 0xe1, 0x3b, 0x6a, 0x92, 0x7b, 0x3e, 0x2c, 0x52, 0xdb, 0xbc,
    0x1e, 0xc9, 0x44, 0x3d, 0x01, 0xd0, 0x97, 0x3e, 0xb9, 0x30, 0x3b, 0xbe,
    0x25, 0x6c, 0x07, 0xbe, 0x4d, 0x06, 0xbd, 0xbe, 0x72, 0x75, 0x1b, 0xbe,
    0x76, 0x7e, 0xcd, 0x3e, 0xe2, 0xb1, 0x0f, 0x3e, 0xd7, 0x33, 0x35, 0x3e,
    0x3a, 0x19, 0x4c, 0xbe, 0xfd, 0x2e, 0xf2, 0xbd, 0x0b, 0xb9, 0x36, 0xbe,
    0x4e, 0xba, 0x23, 0xbd, 0x5b, 0x27, 0x91, 0xbd, 0x88, 0x2a, 0x55, 0x3e,
    0x2e, 0x8d, 0x85, 0x3e, 0xf5, 0x53, 0xbd, 0x3e, 0x03, 0x2d, 0x15, 0x3e,
    0x19, 0xec, 0xc9, 0xbe, 0xb4, 0x82, 0x9e, 0xbd, 0x45, 0x8d, 0x6c, 0xbd,
    0xc9, 0x7c, 0x8f, 0xbe, 0x7f, 0x79, 0x58, 0xbe, 0x8d, 0x55, 0xf9, 0x3e,
    0x22, 0x04, 0xfd, 0x3d, 0x89, 0x46, 0xb3, 0x3e, 0x70, 0xd4, 0xde, 0xbc,
    0x3b, 0x4e, 0x1b, 0xbe, 0x51, 0xf1, 0x06, 0x3e, 0xde, 0x3d, 0x0b, 0x3e,
    0x68, 0x27, 0xd6, 0x3d, 0xef, 0x4e, 0x8b, 0x3c, 0xc6, 0xf9, 0x67, 0x3e,
    0xab, 0x0e, 0x29, 0x3e, 0x89, 0x65, 0xa9, 0x3d, 0x68, 0x1f, 0xc8, 0x3a,
    0x36, 0xc8, 0x46, 0xbe, 0x94, 0x4e, 0x8c, 0xbd, 0x0e, 0xbb, 0x6b, 0x3e,
    0xd2, 0x39, 0x33, 0x3e, 0x46, 0xda, 0x2b, 0xbe, 0x15, 0xeb, 0x84, 0x3e,
    0x6d, 0xb1, 0x95, 0xbe, 0xd0, 0xde, 0xc2, 0xbc, 0x91, 0x8a, 0x1b, 0xbe,
    0x28, 0x05, 0x34, 0xbe, 0x9e, 0xd8, 0x7d, 0x3e, 0x93, 0x7b, 0x26, 0xbe,
    0x68, 0x9b, 0x75, 0xbd, 0xea, 0xb3, 0x1d, 0xbe, 0xe6, 0xa9, 0x0b, 0x3e,
    0x46, 0x03, 0x7a, 0xbe, 0x40, 0x1e, 0x8f, 0xbc, 0x8f, 0xfe, 0x83, 0xbe,
    0x99, 0xa6, 0x2d, 0xbe, 0xb0, 0xfb, 0xd6, 0xbd, 0x23, 0xf6, 0x4d, 0xbe,
    0xbb, 0xc7, 0x44, 0xbe, 0xfc, 0x3c, 0x9c, 0x3e, 0x26, 0x25, 0x9a, 0xbe,
    0xd8, 0x3a, 0x95, 0xbe, 0x22, 0xcc, 0xa7, 0xbd, 0x8c, 0xa8, 0x52, 0x3e,
    0x08, 0xc6, 0x25, 0xbd, 0x89, 0x9f, 0x36, 0x3d, 0xc0, 0x14, 0xda, 0x3c,
    0x6c, 0x1b, 0xf9, 0x3d, 0x94, 0xd6, 0x81, 0x3d, 0xe5, 0xf5, 0x53, 0xbe,
    0xba, 0xe6, 0x3d, 0xbe, 0xc1, 0xb0, 0x0b, 0xbf, 0xc9, 0xd8, 0x00, 0x3c,
    0xf3, 0xb6, 0x56, 0x3d, 0xbd, 0xfe, 0x4d, 0x3d, 0x0f, 0xe9, 0x25, 0x3e,
    0xdc, 0x5a, 0x45, 0x3e, 0xff, 0xd4, 0x65, 0x3e, 0xef, 0x19, 0xf2, 0x3e,
    0x85, 0x76, 0x89, 0x3e, 0xef, 0xac, 0x9a, 0xbe, 0xde, 0xd3, 0xf0, 0x3d,
    0x58, 0x3a, 0x78, 0xbc, 0xf6, 0x37, 0xce, 0x3e, 0x13, 0x5a, 0x34, 0x3d,
    0xae, 0x3f, 0x4a, 0xbe, 0xf7, 0xba, 0xc2, 0x3d, 0x21, 0xc4, 0x09, 0x3e,
    0x28, 0xfb, 0xf9, 0xbc, 0xf3, 0x33, 0x03, 0x3e, 0x09, 0x7c, 0x0f, 0xbf,
    0xfa, 0xa2, 0x9b, 0x3d, 0xa7, 0xa0, 0x8a, 0x3e, 0xcb, 0xba, 0x7e, 0x3e,
    0xe0, 0x6f, 0x40, 0x3e, 0x56, 0xe5, 0x2d, 0xbe, 0x35, 0x8d, 0x8d, 0x3e,
    0xa2, 0x69, 0xd9, 0xbd, 0x18, 0xc7, 0xf6, 0x3d, 0x5f, 0xc7, 0x54, 0xbe,
    0x1a, 0x27, 0x54, 0xbe, 0x42, 0xaa, 0xc9, 0x3e, 0x7c, 0xfa, 0xd7, 0xbd,
    0x42, 0x5c, 0x38, 0x3d, 0xac, 0x6a, 0x7c, 0x3e, 0xe5, 0xe1, 0x54, 0xbe,
    0x04, 0x9a, 0x5c, 0xba, 0x6b, 0x9c, 0x35, 0x3e, 0x93, 0xea, 0x9a, 0xbe,
    0xb9, 0xd7, 0x73, 0xbe, 0x37, 0x69, 0x75, 0x3e, 0x99, 0x28, 0xf0, 0x3c,
    0x49, 0x4b, 0x0f, 0x3e, 0x34, 0xb5, 0xa5, 0xbe, 0x57, 0x6e, 0xf8, 0x3d,
    0xf9, 0xac, 0x00, 0xbe, 0xe6, 0x08, 0x57, 0x3e, 0x6d, 0x8b, 0x27, 0x3e,
    0x27, 0x93, 0x75, 0x3e, 0x61, 0x74, 0x15, 0x3d, 0x24, 0x7a, 0xea, 0xbc,
    0xb7, 0x93, 0x8e, 0x3e, 0xb1, 0x65, 0x0a, 0x3e, 0x5c, 0x36, 0xc9, 0x3d,
    0x69, 0xe0, 0xad, 0xbe, 0x80, 0x2a, 0x02, 0x3e, 0x67, 0x45, 0x05, 0x3e,
    0xb7, 0x48, 0xc7, 0xbe, 0x43, 0x8b, 0x87, 0x3e, 0x7a, 0x3b, 0xcb, 0xbe,
    0x48, 0x49, 0xa0, 0x3d, 0xd9, 0xe0, 0x12, 0xbe, 0xb1, 0xa6, 0x3e, 0xbc,
    0x11, 0xc8, 0xa4, 0x3e, 0x60, 0x95, 0x87, 0xbe, 0x3e, 0x99, 0x26, 0xbe,
    0xc0, 0x93, 0x1a, 0xbe, 0x46, 0x85, 0x98, 0x3c, 0x41, 0x6b, 0x6b, 0x3e,
    0x07, 0x15, 0x42, 0x3e, 0x6e, 0xb4, 0x30, 0x3d, 0x3e, 0xf6, 0x1b, 0xbc,
    0x98, 0xcb, 0x8d, 0xbe, 0xfb, 0xd3, 0x03, 0xbd, 0x99, 0x74, 0xd8, 0xbc,
    0x41, 0x14, 0xac, 0xbc, 0x87, 0x1c, 0x34, 0xbe, 0xc1, 0xac, 0xf7, 0xbd,
    0x1b, 0xe9, 0x63, 0xbe, 0x74, 0xb2, 0x37, 0xbe, 0xd6, 0xea, 0x61, 0xbd,
    0x6e, 0x0b, 0xe1, 0xbc, 0x2a, 0x68, 0x0c, 0xbd, 0x40, 0x26, 0xa9, 0x3e,
    0xee, 0x15, 0x1b, 0x3e, 0x9c, 0xb7, 0x82, 0x3e, 0x64, 0x33, 0x1d, 0xbe,
    0xa3, 0x9c, 0xa4, 0x3d, 0x70, 0xf5, 0x9c, 0xbb, 0x1d, 0x78, 0xc4, 0x3d,
    0xef, 0xed, 0xea, 0xbd, 0xcb, 0xf8, 0x18, 0xbe, 0x78, 0x3b, 0x82, 0x3d,
    0xa8, 0xcc, 0x11, 0xbd, 0x39, 0x02, 0x68, 0x3e, 0x6c, 0x3b, 0x50, 0xbe,
    0x93, 0xd4, 0x32, 0xbd, 0xb3, 0xcd, 0x10, 0x3d, 0xf3, 0x39, 0x1f, 0x3e,
    0x00, 0xec, 0x58, 0x3d, 0xee, 0xd8, 0x57, 0xbe, 0xe2, 0x66, 0xa4, 0x3b,
    0x0a, 0x24, 0xe0, 0xbd, 0x85, 0x20, 0x0f, 0xbd, 0x2d, 0x47, 0x9c, 0xbd,
    0x80, 0xbe, 0x6c, 0x3c, 0x04, 0x1f, 0x88, 0xbe, 0x1e, 0x6d, 0x3e, 0x3e,
    0x66, 0x0b, 0x54, 0xbe, 0x6a, 0xc9, 0x7a, 0xbe, 0x98, 0x1e, 0x69, 0x3d,
    0x24, 0xc1, 0xe4, 0xbd, 0x0c, 0xd9, 0x12, 0x3e, 0x06, 0x42, 0x75, 0xbe,
    0xb0, 0xd1, 0x78, 0xbd, 0x46, 0xbf, 0x3a, 0xbe, 0x90, 0x24, 0x5f, 0xbd,
    0xfa, 0x1e, 0x94, 0x3e, 0xb6, 0xef, 0x81, 0xbe, 0x01, 0x94, 0x1b, 0xbe,
    0x32, 0xb2, 0x66, 0x3e, 0xf8, 0x3c, 0x13, 0xbd, 0x70, 0x32, 0x01, 0x3e,
    0x30, 0x96, 0x87, 0x3d, 0x6c, 0x97, 0xef, 0x3d, 0xd3, 0xa0, 0xa9, 0xbd,
    0xd2, 0x58, 0x49, 0x3e, 0x92, 0x1c, 0x67, 0x3e, 0xe8, 0x83, 0x40, 0xbe,
    0x6c, 0x9a, 0x89, 0xbd, 0xfe, 0xb2, 0xa4, 0xbd, 0xbf, 0x4b, 0x84, 0x3e,
    0xa8, 0x6a, 0xed, 0xbd, 0x08, 0x72, 0x1f, 0xbe, 0x58, 0x01, 0xb9, 0x3d,
    0x90, 0x01, 0xe9, 0x3d, 0x00, 0xc6, 0x6f, 0x3d, 0xc0, 0x90, 0xa3, 0xbb,
    0x88, 0x05, 0x14, 0xbe, 0x1a, 0x34, 0x41, 0x3e, 0xe8, 0xf0, 0xd4, 0x3d,
    0x84, 0x9f, 0x8a, 0x3d, 0xbf, 0x09, 0x9b, 0x3e, 0x5c, 0x50, 0x65, 0xbe,
    0xb2, 0x0f, 0x76, 0x3e, 0x3d, 0xe4, 0x9b, 0xbe, 0x27, 0x2e, 0x84, 0x3e,
    0x00, 0x10, 0x9e, 0x39, 0xfa, 0x1e, 0x4f, 0xbe, 0x11, 0x18, 0x2e, 0xbe,
    0x1e, 0xdb, 0x7a, 0xbe, 0xc4, 0x0b, 0xaf, 0x3d, 0x80, 0xfb, 0x8b, 0x3b,
    0x34, 0x2b, 0x9b, 0xbe, 0x50, 0x1a, 0xc6, 0xbd, 0x28, 0xdc, 0x92, 0xbe,
    0x76, 0x60, 0x47, 0x3e, 0x90, 0x41, 0x7f, 0x3d, 0xe2, 0x8e, 0xd8, 0xbd,
    0xd3, 0x34, 0x81, 0xbe, 0x16, 0x87, 0x92, 0xbe, 0x53, 0x8d, 0x9f, 0xbc,
    0x14, 0x6c, 0xb7, 0x3d, 0xf6, 0xe8, 0x28, 0xbd, 0x2b, 0x10, 0x6c, 0x3d,
    0x13, 0x7f, 0x48, 0x3e, 0xf5, 0xda, 0x4e, 0xbd, 0x8c, 0x05, 0x9d, 0xbe,
    0xe8, 0x1b, 0x40, 0x3e, 0xe7, 0xbb, 0x0a, 0xbe, 0xb4, 0x29, 0x3e, 0xbe,
    0xf6, 0x67, 0x42, 0x3e, 0x47, 0x0d, 0x7c, 0x3e, 0xd2, 0x82, 0x68, 0x3e,
    0xc2, 0x43, 0x78, 0x3e, 0xb9, 0x28, 0x17, 0x3e, 0x6d, 0x09, 0xe5, 0x3d,
    0xd3, 0xa5, 0x88, 0xbe, 0x19, 0x28, 0x99, 0xbe, 0x1d, 0x95, 0x51, 0xbe,
    0xfd, 0x08, 0x19, 0xbe, 0xca, 0xc6, 0x54, 0x3e, 0x2b, 0x18, 0x97, 0xbd,
    0x14, 0x88, 0x79, 0x3d, 0xc6, 0x60, 0xf4, 0xbd, 0x5e, 0xe9, 0x56, 0x3d,
    0x79, 0x07, 0x48, 0x3d, 0x74, 0x1f, 0x5a, 0xbd, 0xa4, 0xc7, 0x6b, 0xbd,
    0xd3, 0x20, 0xfe, 0xbd, 0x96, 0x20, 0x92, 0xbe, 0x51, 0x7b, 0x44, 0xbc,
    0xfd, 0x5b, 0xec, 0xbd, 0xb0, 0x66, 0xb8, 0x3d, 0xe5, 0x88, 0xbc, 0x3e,
    0x02, 0x6d, 0xcc, 0xbd, 0x40, 0xc3, 0x05, 0x3e, 0x18, 0xaf, 0x99, 0x3e,
    0x69, 0x86, 0x99, 0xbe, 0xa3, 0x07, 0x8e, 0xbd, 0xc7, 0x9e, 0x1b, 0xbe,
    0xf0, 0x43, 0x97, 0xbc, 0xfc, 0xf2, 0xb0, 0x3d, 0x63, 0x10, 0x3c, 0x3e,
    0x03, 0x4b, 0x0e, 0x3e, 0xcc, 0xf3, 0x67, 0x3e, 0x05, 0x8f, 0x16, 0x3e,
    0xaf, 0xc8, 0x8f, 0x3d, 0xce, 0x9b, 0x81, 0x3d, 0x11, 0xb3, 0x15, 0xbc,
    0x93, 0xfb, 0x0b, 0xbf, 0x65, 0x5c, 0x8f, 0x3d, 0x91, 0xbf, 0x53, 0x3e,
    0x57, 0xc4, 0x1b, 0x3e, 0x48, 0x05, 0x09, 0xbd, 0x73, 0x82, 0x70, 0x3e,
    0x85, 0x44, 0xab, 0x3c, 0x87, 0x59, 0x78, 0xbe, 0x13, 0x3c, 0x37, 0x3e,
    0x9e, 0x79, 0x6c, 0xbe, 0x4e, 0xc3, 0x4f, 0x3e, 0x76, 0x70, 0x51, 0xbc,
    0xa5, 0xa5, 0x12, 0xbe, 0xcc, 0xa6, 0x65, 0xbe, 0x35, 0x59, 0x99, 0xbe,
    0x0c, 0xc0, 0x91, 0xbe, 0xee, 0x6d, 0x60, 0xbe, 0x9c, 0x16, 0x95, 0x3d,
    0x3c, 0x9d, 0x28, 0x3e, 0x7c, 0xc6, 0x8a, 0x3d, 0x28, 0x74, 0x1f, 0xbe,
    0x3b, 0x62, 0x96, 0xbe, 0xb8, 0xc4, 0x61, 0x3d, 0xed, 0x6c, 0x10, 0xbe,
    0xaf, 0xa2, 0x97, 0xbe, 0xba, 0xde, 0xb2, 0xbd, 0x24, 0xfe, 0xf3, 0x3d,
    0xf0, 0xc9, 0x5a, 0xbe, 0x36, 0x2f, 0xce, 0xbd, 0x7a, 0xf0, 0xb1, 0xbd,
    0xd0, 0x83, 0x04, 0xbd, 0x20, 0xde, 0x52, 0xbc, 0xe8, 0x11, 0x15, 0xbd,
    0xc8, 0x2f, 0x2d, 0x3d, 0x59, 0xef, 0x86, 0x3e, 0xd0, 0x91, 0x19, 0xbe,
    0x7f, 0xea, 0x99, 0x3e, 0x02, 0xef, 0x51, 0x3e, 0xbb, 0x04, 0x88, 0x3e,
    0x92, 0x56, 0x68, 0x3e, 0x7e, 0x2b, 0x9f, 0xbd, 0x16, 0xaf, 0x84, 0xbe,
    0x16, 0x99, 0x54, 0x3e, 0xa0, 0x22, 0x41, 0xbc, 0xdc, 0x46, 0xcd, 0xbd,
    0x45, 0x46, 0x38, 0xbe, 0xd1, 0x9c, 0xa8, 0xbd, 0xef, 0x1b, 0x12, 0x3e,
    0x2e, 0x21, 0x13, 0xbe, 0xf6, 0x03, 0x32, 0x3e, 0xfb, 0x3d, 0x56, 0xbe,
    0x7e, 0xec, 0x8f, 0x3e, 0x78, 0x80, 0xa6, 0x3c, 0xc7, 0x04, 0x63, 0x3e,
    0x61, 0x00, 0x5b, 0xbe, 0x64, 0xa3, 0x05, 0xbe, 0xfd, 0x97, 0xbe, 0x3d,
    0x15, 0x65, 0x6a, 0xbe, 0xf5, 0xfd, 0x5a, 0xbc, 0xbb, 0xe6, 0x82, 0x3c,
    0x11, 0x26, 0x8c, 0xbe, 0x36, 0x37, 0x88, 0x3e, 0x3b, 0x14, 0x17, 0x3d,
    0xc7, 0xc5, 0x10, 0xbe, 0x65, 0x0c, 0x4e, 0x3e, 0x48, 0x55, 0x30, 0xbe,
    0x08, 0xc2, 0x5a, 0xbe, 0x18, 0xfa, 0x76, 0x3e, 0xce, 0x38, 0xdb, 0xbc,
    0xab, 0xfa, 0xc1, 0xbb, 0xc2, 0x38, 0x74, 0x3e, 0x63, 0x3d, 0x4b, 0xbe,
    0x2f, 0xb0, 0x45, 0xbe, 0x8e, 0x59, 0xa5, 0xbe, 0x92, 0x7e, 0x95, 0xbe,
    0x50, 0x77, 0xd9, 0xbd, 0xfc, 0x5e, 0xaf, 0x3d, 0xd4, 0x2c, 0xb0, 0x3d,
    0xe8, 0xe8, 0xba, 0x3e, 0xbf, 0xe9, 0x74, 0xbe, 0x74, 0xa8, 0x4b, 0x3e,
    0x8a, 0xb2, 0xb3, 0x3e, 0x65, 0x2d, 0x1e, 0x3e, 0xb7, 0xf8, 0x64, 0xbd,
    0xe9, 0x67, 0x8d, 0x3c, 0xe6, 0x75, 0x24, 0xbe, 0xbb, 0xa4, 0xae, 0x3e,
    0xdf, 0xe3, 0x53, 0x3e, 0xdd, 0xa8, 0x08, 0x3e, 0xb5, 0xea, 0x9d, 0x3e,
    0x24, 0x61, 0x9d, 0xbd, 0xbf, 0x09, 0x9a, 0xbd, 0xcd, 0x14, 0xa4, 0xbe,
    0x7c, 0x84, 0xbc, 0x3c, 0x95, 0xb4, 0x0d, 0xbd, 0x9b, 0x8d, 0xf5, 0x3d,
    0x9e, 0xb8, 0x61, 0x3e, 0x0f, 0xa9, 0x6a, 0xbe, 0xc3, 0x8a, 0x5a, 0x3d,
    0xbc, 0x39, 0x56, 0xbd, 0xcf, 0xeb, 0x15, 0xbe, 0x62, 0x81, 0x6b, 0xbe,
    0x10, 0x97, 0xd4, 0x3c, 0x91, 0xf8, 0x9a, 0xbd, 0xe9, 0xad, 0xf8, 0x3d,
    0xd0, 0xc4, 0xbd, 0x3e, 0xe5, 0x88, 0x13, 0x3e, 0x24, 0x83, 0x5a, 0xbe,
    0x1e, 0xa5, 0x70, 0xbe, 0xa5, 0xce, 0xa6, 0xbe, 0x8f, 0x37, 0x36, 0x3e,
    0xe0, 0x3b, 0x37, 0x3e, 0xcb, 0x9c, 0xb9, 0x3c, 0x7d, 0xd4, 0xea, 0x3d,
    0xd0, 0xfd, 0x86, 0xbe, 0xa9, 0x7d, 0x7f, 0x3d, 0xe2, 0xa4, 0x07, 0x3e,
    0xbb, 0x98, 0xe1, 0x3c, 0x28, 0xf8, 0x8d, 0x3e, 0x32, 0x6a, 0x0f, 0x3e,
    0x97, 0x10, 0xb6, 0x3d, 0x81, 0xf6, 0x12, 0xbd, 0x8d, 0x36, 0xed, 0xbb,
    0xb4, 0xa5, 0x66, 0xbe, 0xa4, 0x8d, 0x8e, 0x3e, 0x1b, 0xc8, 0x43, 0x3e,
    0x77, 0x88, 0x36, 0x3e, 0xf8, 0x43, 0x53, 0xbe, 0xa1, 0x80, 0xb8, 0xbe,
    0xbb, 0xf2, 0x90, 0x3e, 0x2c, 0xce, 0x27, 0x3e, 0x1d, 0x0a, 0xff, 0x3d,
    0xb7, 0x5c, 0xa1, 0xbe, 0x57, 0xd1, 0x93, 0x3d, 0xe1, 0x2c, 0x97, 0xbe,
    0x47, 0xaf, 0x88, 0x3c, 0x69, 0x92, 0x19, 0xbe, 0x06, 0x20, 0xdf, 0x3c,
    0xa0, 0x48, 0xd0, 0xbc, 0x0c, 0x54, 0x5e, 0xbe, 0x97, 0x72, 0x94, 0x3e,
    0x73, 0x90, 0x1e, 0x3e, 0x51, 0x81, 0x11, 0x3e, 0x12, 0xba, 0x0d, 0xbf,
    0x39, 0x15, 0x84, 0x3d, 0x38, 0x3e, 0x7f, 0x3e, 0x74, 0x25, 0x00, 0xbd,
    0xc8, 0xa5, 0x20, 0x3e, 0x5d, 0x64, 0x0a, 0x3e, 0xf7, 0xdb, 0x06, 0xbd,
    0x38, 0x6a, 0xd8, 0x3e, 0xc7, 0xfa, 0xb9, 0x3c, 0x5a, 0x14, 0x2e, 0xbe,
    0xae, 0x45, 0x6b, 0xbe, 0x90, 0x2d, 0xc6, 0x3d, 0xb1, 0xe1, 0xad, 0x3e,
    0xec, 0xe6, 0x86, 0x3e, 0x02, 0xbb, 0x8a, 0x3e, 0x66, 0x91, 0x10, 0x3e,
    0xec, 0x1a, 0x8f, 0xbb, 0xbc, 0xfd, 0xc9, 0xbe, 0x75, 0xac, 0xec, 0xbc,
    0xdd, 0xdf, 0x47, 0xbd, 0x16, 0xcc, 0x63, 0xbe, 0x08, 0x19, 0xfd, 0x3e,
    0xa4, 0xb0, 0x02, 0x3e, 0x61, 0xce, 0x7e, 0xbd, 0x57, 0xd2, 0x00, 0x3e,
    0x86, 0xf8, 0xdb, 0x3d, 0x2b, 0xe5, 0xab, 0x3d, 0x55, 0xba, 0x80, 0x3e,
    0x18, 0x14, 0x39, 0x3e, 0xe3, 0xda, 0xba, 0x3d, 0x69, 0x61, 0xed, 0x3e,
    0x80, 0x51, 0x3f, 0x3d, 0x9b, 0xcf, 0x3a, 0x3e, 0xca, 0x34, 0xa8, 0x3d,
    0x85, 0x08, 0xab, 0xbe, 0x30, 0x1e, 0xbe, 0x3d, 0xa1, 0xb3, 0x7b, 0x3c,
    0x4e, 0x7c, 0x0a, 0xbe, 0x73, 0x19, 0x7a, 0x3d, 0xbf, 0x8c, 0x37, 0x3e,
    0xed, 0x8a, 0x32, 0xbe, 0xa9, 0xf5, 0x48, 0x3e, 0x0a, 0xa0, 0x28, 0xbd,
    0xdf, 0x98, 0x42, 0x3e, 0xb7, 0x6b, 0x7e, 0x3e, 0x27, 0xef, 0x95, 0xbe,
    0xf3, 0x4e, 0xdf, 0x3e, 0xeb, 0xe9, 0x59, 0x3b, 0x62, 0xd8, 0x16, 0xbe,
    0x57, 0xdf, 0xdf, 0xbe, 0xca, 0x04, 0xf5, 0x3d, 0x13, 0x10, 0x5b, 0xbe,
    0xb0, 0x7b, 0x66, 0x3e, 0x93, 0xcb, 0x28, 0x3e, 0xaf, 0x6c, 0x8c, 0x3e,
    0x78, 0x55, 0x20, 0xbd, 0xb7, 0xdd, 0xae, 0xbe, 0xf3, 0xda, 0x36, 0xbe,
    0x56, 0x4b, 0x11, 0xbe, 0xb0, 0x01, 0x42, 0x3e, 0xe4, 0xb7, 0x2d, 0x3e,
    0xa6, 0xea, 0x9e, 0x3e, 0xbc, 0x99, 0xbc, 0xbc, 0x5a, 0x69, 0xdc, 0xbd,
    0x35, 0xed, 0xf6, 0x3e, 0xb0, 0x32, 0x62, 0xbb, 0xe9, 0x8f, 0x15, 0x3a,
    0xa9, 0x80, 0xbe, 0xbd, 0x9c, 0xda, 0x9e, 0x3e, 0xcc, 0xc8, 0x82, 0xbe,
    0x08, 0xda, 0xfe, 0xbd, 0x1b, 0x4b, 0xb9, 0x3e, 0x8e, 0x1d, 0x17, 0xbe,
    0x4e, 0x88, 0xb8, 0x3d, 0x00, 0x6f, 0x15, 0x3e, 0xd0, 0xdc, 0xeb, 0xbc,
    0x61, 0xc0, 0xbe, 0xbc, 0x9b, 0x1d, 0x7a, 0xbe, 0x1a, 0x5e, 0xf2, 0x3e,
    0xbe, 0x99, 0x91, 0x3e, 0x91, 0x0c, 0xa5, 0xbd, 0xc4, 0xd2, 0x35, 0x3d,
    0xae, 0x1a, 0x42, 0x3d, 0xed, 0xa2, 0x26, 0xbd, 0xa5, 0xfe, 0x0c, 0x3d,
    0x6d, 0xb8, 0x8b, 0x3e, 0xb4, 0x09, 0x6c, 0x3e, 0x00, 0x05, 0xaa, 0x3b,
    0x2f, 0x45, 0xf1, 0xbd, 0x99, 0x46, 0x8e, 0x3e, 0x58, 0xc7, 0x94, 0xbe,
    0xc0, 0xac, 0x5b, 0x3d, 0xd5, 0xf3, 0x76, 0xbe, 0x17, 0x5e, 0x12, 0x3e,
    0x88, 0x0d, 0x30, 0x3e, 0x15, 0x7c, 0x55, 0xbd, 0xbd, 0x75, 0x08, 0xbd,
    0x61, 0xdd, 0x91, 0xbe, 0xb5, 0x82, 0x18, 0xbe, 0x24, 0xd0, 0xbb, 0xbd,
    0xee, 0x1b, 0x29, 0xbe, 0x4a, 0xf8, 0x1b, 0x3e, 0x19, 0x39, 0x91, 0xbe,
    0x61, 0x1a, 0x95, 0x3d, 0x23, 0x4c, 0x0a, 0x3d, 0x3a, 0xdc, 0x8c, 0x3e,
    0xe2, 0xa1, 0x2d, 0x3e, 0x04, 0xb9, 0xdb, 0xbd, 0xd6, 0x5d, 0x24, 0x3e,
    0xbe, 0x6c, 0x26, 0xbe, 0x8e, 0x38, 0x50, 0x3e, 0xac, 0xd0, 0x81, 0xbe,
    0x5e, 0x58, 0xfe, 0x3d, 0x09, 0xed, 0x35, 0xbd, 0x8e, 0xea, 0x78, 0xbe,
    0x2e, 0xaa, 0xf9, 0xbd, 0x80, 0x4f, 0xfd, 0xbc, 0x73, 0x2f, 0x8e, 0x3e,
    0xab, 0x43, 0x97, 0xbe, 0xcf, 0x30, 0x92, 0x3e, 0xd0, 0xb1, 0x89, 0xbe,
    0x47, 0x10, 0x82, 0xbe, 0xf9, 0x92, 0x84, 0xbe, 0x42, 0x46, 0xce, 0xbd,
    0x17, 0x9c, 0xa9, 0xbd, 0xa4, 0xb6, 0x66, 0x3e, 0x66, 0x9f, 0x4b, 0x3e,
    0xf6, 0x97, 0x3e, 0xbe, 0xc7, 0x65, 0x36, 0x3e, 0xda, 0x23, 0x94, 0x3e,
    0x35, 0x00, 0xce, 0xbe, 0x78, 0xba, 0xd7, 0x3d, 0x40, 0x14, 0x69, 0x3e,
    0x1f, 0x51, 0xa2, 0xbe, 0xa7, 0x1f, 0x56, 0xbe, 0x66, 0xae, 0x84, 0x3e,
    0x39, 0x35, 0x06, 0xbc, 0x76, 0x25, 0x8f, 0x3e, 0x7f, 0xaf, 0x51, 0xbe,
    0x21, 0x30, 0xa0, 0x3e, 0x56, 0x9a, 0x55, 0x3d, 0x16, 0xcf, 0x0a, 0x3e,
    0xa8, 0xcc, 0x0b, 0x3d, 0x41, 0xfd, 0x6f, 0x3e, 0x62, 0xb6, 0x35, 0xbe,
    0x05, 0xb5, 0x8d, 0xbe, 0xa8, 0x61, 0x42, 0xbe, 0xca, 0xeb, 0xf5, 0x3c,
    0xc7, 0x2c, 0x9d, 0x3e, 0x4c, 0xa2, 0xd8, 0xbd, 0x88, 0xf8, 0x82, 0x3c,
    0x9d, 0x4e, 0xd1, 0x3d, 0x0a, 0x65, 0x19, 0x3e, 0x6e, 0xef, 0x0e, 0xbe,
    0xc9, 0xd4, 0x1f, 0xbe, 0x2a, 0xb8, 0x43, 0xbe, 0xb8, 0xf3, 0x1e, 0x3e,
    0xc6, 0x40, 0x4c, 0x3e, 0x5b, 0xa7, 0x03, 0x3d, 0x87, 0x87, 0x0c, 0xbd,
    0xa2, 0xf1, 0x0f, 0x3e, 0xe1, 0x81, 0x2b, 0xbe, 0xbd, 0xde, 0xb6, 0xbd,
    0x5e, 0xb4, 0x5a, 0x3e, 0x9e, 0x42, 0xee, 0x3d, 0xc4, 0x8d, 0x85, 0xbc,
    0x4f, 0xb3, 0x99, 0xbd, 0xf4, 0xe6, 0xa0, 0xbe, 0x0b, 0x86, 0xfe, 0xbc,
    0xca, 0x8f, 0xb6, 0x3e, 0x76, 0x76, 0x34, 0x3e, 0xd1, 0x52, 0x14, 0x3e,
    0x30, 0x7a, 0x87, 0xbd, 0xdb, 0x52, 0x08, 0xbe, 0xb3, 0xf9, 0xaa, 0x3e,
    0x28, 0x9f, 0x1f, 0x3e, 0xb7, 0x24, 0x28, 0x3d, 0x65, 0x68, 0x86, 0x3e,
    0xa5, 0x87, 0xda, 0x3d, 0xc5, 0xbd, 0x7a, 0xbd, 0x69, 0x44, 0x84, 0xbe,
    0xf7, 0xcd, 0x30, 0xbe, 0xeb, 0xbe, 0x4a, 0xbe, 0x6d, 0xa8, 0x7f, 0x3e,
    0xab, 0x1e, 0xe7, 0xbd, 0xdb, 0xd1, 0x87, 0xbe, 0x42, 0xf9, 0x97, 0xbe,
    0xa5, 0xc1, 0xe3, 0x3d, 0xa2, 0xa3, 0x81, 0x3e, 0x41, 0x78, 0xf6, 0xbc,
    0x90, 0x90, 0xb4, 0xbd, 0xf7, 0x18, 0xc4, 0x3b, 0x86, 0x35, 0x55, 0xbe,
    0x9b, 0x5c, 0x75, 0x3e, 0x08, 0x45, 0xb0, 0x3d, 0x6e, 0xff, 0xfd, 0xbd,
    0x9b, 0x47, 0x73, 0xbd, 0x53, 0x51, 0x14, 0x3e, 0x0c, 0x84, 0x5b, 0xbe,
    0x9d, 0xb4, 0xec, 0xbd, 0xcb, 0x5a, 0x4b, 0xbe, 0x7a, 0xc3, 0xbe, 0xbd,
    0x84, 0xaa, 0x44, 0xbe, 0xdc, 0x25, 0xe1, 0xbd, 0xcb, 0x0f, 0x02, 0x3e,
    0xa4, 0xa0, 0x17, 0x3e, 0x75, 0xfb, 0x81, 0x3d, 0x84, 0x01, 0x4e, 0x3d,
    0xeb, 0x78, 0xd4, 0x3d, 0xf0, 0x31, 0x03, 0x3e, 0xa1, 0x33, 0x9f, 0xbe,
    0xbd, 0xd8, 0x38, 0xbe, 0x27, 0xbc, 0x90, 0xbe, 0x90, 0x37, 0x2c, 0xbe,
    0x4a, 0xcd, 0x8d, 0xbd, 0x98, 0xac, 0x2b, 0xbe, 0xc0, 0xda, 0x7f, 0xbc,
    0xb1, 0xf1, 0x88, 0xbe, 0x54, 0xa6, 0xa9, 0x3d, 0xc5, 0x9d, 0x88, 0x3e,
    0x5e, 0x97, 0x06, 0x3e, 0x17, 0x2e, 0x1d, 0x3d, 0x5b, 0xec, 0x55, 0xbe,
    0xad, 0xb2, 0xc8, 0x3e, 0xe9, 0x8d, 0x80, 0x3d, 0x7e, 0x3b, 0x4d, 0x3d,
    0x79, 0xd2, 0x90, 0x3e, 0x91, 0x18, 0xaa, 0x3e, 0xd2, 0xa9, 0x84, 0xbd,
    0x58, 0xcf, 0x04, 0xbe, 0x78, 0x16, 0x04, 0xbe, 0xc2, 0x7b, 0xae, 0xbe,
    0x90, 0x03, 0xbf, 0x3e, 0xd1, 0x7d, 0xa4, 0x3e, 0xfb, 0x23, 0x52, 0x3e,
    0xa3, 0xae, 0x50, 0xbe, 0x7a, 0xbe, 0xb8, 0xbe, 0x26, 0xe1, 0x51, 0x3d,
    0x6c, 0x52, 0xcd, 0xbd, 0x7f, 0xf7, 0x94, 0xbd, 0x53, 0x4c, 0x45, 0xbe,
    0x8a, 0x3a, 0x83, 0x3e, 0x42, 0xd6, 0x2f, 0x3e, 0xe7, 0xf9, 0xc3, 0x3e,
    0x06, 0x90, 0x9e, 0xbe, 0xcf, 0x6b, 0x8a, 0x3c, 0xb6, 0x71, 0x96, 0xbd,
    0xe9, 0x1d, 0x8b, 0x3e, 0x78, 0x68, 0x23, 0x3e, 0x16, 0x5b, 0x9e, 0x3e,
    0x22, 0xa0, 0x4a, 0xbe, 0x94, 0x6f, 0x4c, 0xbe, 0x0b, 0x3e, 0x9b, 0x3e,
    0x20, 0x6a, 0xc5, 0xbb, 0xb9, 0x3f, 0x8c, 0xbe, 0xc5, 0xc9, 0x37, 0xbe,
    0xb1, 0x40, 0x36, 0x3d, 0xd6, 0x25, 0x48, 0x3d, 0xbc, 0x53, 0xe4, 0x3e,
    0xf3, 0x76, 0x77, 0xbe, 0x84, 0x70, 0x14, 0x3e, 0x4d, 0xca, 0x2a, 0x3e,
    0xb9, 0xd0, 0xa9, 0xbd, 0xf3, 0xc1, 0x13, 0x3e, 0x8f, 0xcc, 0x79, 0x3d,
    0x82, 0xf8, 0x5b, 0x3e, 0xf4, 0x58, 0x0c, 0x3e, 0x13, 0x10, 0x17, 0x3d,
    0x21, 0xa1, 0x51, 0xbe, 0x35, 0xea, 0x5f, 0xbe, 0x4a, 0xc2, 0xcd, 0xbd,
    0x0b, 0x48, 0xb3, 0x3e, 0xde, 0xc0, 0xae, 0x3d, 0xfb, 0xca, 0x83, 0xbe,
    0x36, 0xd7, 0x85, 0x3c, 0xd2, 0xe6, 0x1e, 0x3e, 0x24, 0x2d, 0x64, 0xbe,
    0xc6, 0xb8, 0x92, 0x3e, 0x16, 0x5f, 0x40, 0x3e, 0x45, 0x95, 0x81, 0x3e,
    0xb7, 0xab, 0x8c, 0x3e, 0xaa, 0x7b, 0x26, 0xbe, 0xd7, 0x45, 0x5b, 0x3e,
    0x34, 0xbe, 0x59, 0x3e, 0x4a, 0xbb, 0x57, 0xbe, 0xeb, 0x97, 0x9d, 0x3d,
    0x5f, 0xcf, 0x1e, 0xbe, 0x73, 0x94, 0x6b, 0xbe, 0xa7, 0xb7, 0x0c, 0xbe,
    0x1b, 0x9b, 0x16, 0xbe, 0x00, 0xb3, 0x3c, 0x3d, 0xe0, 0x4e, 0x97, 0x3c,
    0xe6, 0x20, 0xca, 0xbd, 0xaa, 0xfe, 0x79, 0xbe, 0x10, 0xfb, 0x1d, 0x3d,
    0x96, 0xae, 0x96, 0xbe, 0x6c, 0x5d, 0x96, 0x3d, 0xf6, 0x2f, 0xd8, 0xbd,
    0x98, 0x0f, 0x56, 0x3d, 0xd8, 0x94, 0x92, 0x3d, 0x71, 0x37, 0x81, 0xbe,
    0xb4, 0xb5, 0xe8, 0x3d, 0xae, 0xa5, 0x1b, 0x3e, 0x18, 0x51, 0x1e, 0xbd,
    0xf6, 0x56, 0x03, 0xbe, 0x80, 0xd2, 0xcb, 0x3d, 0xd4, 0x91, 0xeb, 0x3d,
    0x1b, 0x73, 0x0c, 0xbe, 0x37, 0x13, 0x03, 0xbe, 0x84, 0x51, 0xd3, 0x3d,
    0x5e, 0x3b, 0x3d, 0x3e, 0xf0, 0x37, 0x3b, 0x3d, 0x9a, 0xda, 0x65, 0xbe,
    0xdc, 0x5f, 0x82, 0xbe, 0x50, 0xd7, 0xb0, 0xbc, 0x82, 0xa1, 0x7b, 0xbe,
    0x3a, 0x1e, 0x3d, 0xbe, 0x9e, 0xa6, 0xd1, 0xbd, 0x77, 0x6a, 0xc5, 0xbe,
    0xac, 0xae, 0x80, 0x3e, 0x7c, 0x76, 0xb3, 0x3e, 0xaa, 0x3b, 0x6c, 0x3e,
    0x2f, 0x50, 0x01, 0x3c, 0x82, 0x91, 0x80, 0xbe, 0x8e, 0xe7, 0xff, 0xbc,
    0x16, 0x00, 0x29, 0xbe, 0x85, 0xd4, 0x7e, 0xbd, 0x7c, 0xbe, 0xe3, 0xbd,
    0xd6, 0x4a, 0x29, 0xbe, 0xd1, 0x24, 0x03, 0x3e, 0xd7, 0xde, 0x96, 0x3d,
    0x85, 0x73, 0x72, 0x3e, 0x0b, 0x19, 0xa6, 0xbe, 0xbc, 0x00, 0xb0, 0xbd,
    0xfb, 0xbc, 0xf2, 0xbd, 0x63, 0x51, 0x96, 0xbc, 0xad, 0xca, 0x1f, 0xbe,
    0x30, 0x7b, 0xdc, 0x3b, 0x10, 0xe3, 0x68, 0x3c, 0x66, 0x47, 0x19, 0xbe,
    0x80, 0x95, 0xf2, 0x3d, 0x10, 0x7b, 0x73, 0x3e, 0xfe, 0x1d, 0x96, 0x3d,
    0x21, 0xb9, 0x81, 0x3e, 0x7c, 0x41, 0xb1, 0x3d, 0xce, 0xd7, 0xd9, 0x3d,
    0x9d, 0xe9, 0x22, 0x3e, 0xe6, 0xd9, 0x4c, 0x3e, 0xcc, 0x80, 0x1c, 0xbd,
    0x6f, 0x56, 0x7d, 0x3e, 0x81, 0xc6, 0x4f, 0x3e, 0x76, 0xfd, 0xff, 0x3d,
    0x22, 0x64, 0x18, 0x3d, 0x01, 0xa2, 0x8e, 0x3e, 0x28, 0xc5, 0xcd, 0x3d,
    0xf7, 0x63, 0x08, 0x3e, 0x22, 0x00, 0xb3, 0x3e, 0xa6, 0x04, 0xb9, 0x3d,
    0x6a, 0xb2, 0xf9, 0xbd, 0xc3, 0xd3, 0xaa, 0xbd, 0x45, 0x62, 0x46, 0x3c,
    0x1c, 0x62, 0xf2, 0x3d, 0xf2, 0x78, 0x3e, 0x3e, 0x56, 0x30, 0x81, 0x3e,
    0x1f, 0x95, 0xe9, 0xbc, 0x41, 0x26, 0x5e, 0xbc, 0xdd, 0x1d, 0xb1, 0xbd,
    0x3e, 0x93, 0xa7, 0x3e, 0x14, 0xaf, 0x0f, 0xbe, 0xac, 0xd8, 0xf8, 0x3d,
    0x06, 0x68, 0xbf, 0x3c, 0xad, 0x46, 0x9f, 0xbe, 0x38, 0x06, 0x61, 0xbe,
    0xee, 0x90, 0x48, 0xbe, 0x74, 0x1b, 0x4f, 0xbe, 0x1e, 0xe8, 0x18, 0x3e,
    0x0f, 0x9a, 0x01, 0xbe, 0x0d, 0x5d, 0x7b, 0x3e, 0xb6, 0x65, 0x7f, 0x3e,
    0xf2, 0x75, 0x51, 0xbe, 0x1c, 0x0c, 0x2e, 0x3e, 0x86, 0xa1, 0x4c, 0x3d,
    0x5c, 0x08, 0x70, 0x3d, 0x15, 0x6c, 0x4a, 0x3c, 0x53, 0x6a, 0x5d, 0x3e,
    0x8d, 0xfe, 0x01, 0x3d, 0x1e, 0xc5, 0xe5, 0x3d, 0x40, 0xb7, 0x80, 0x3e,
    0x54, 0x70, 0x2b, 0xbe, 0xb5, 0x3c, 0xe9, 0xbd, 0xef, 0x02, 0x63, 0x3e,
    0x45, 0x85, 0xd3, 0xbe, 0xc0, 0x18, 0xbb, 0x3e, 0xd4, 0x99, 0x10, 0x3e,
    0x03, 0xa2, 0x60, 0x3e, 0xcf, 0xe4, 0x59, 0xbe, 0x67, 0x63, 0xc4, 0x3c,
    0x04, 0x79, 0xa2, 0x3c, 0xd4, 0x7b, 0x12, 0xbe, 0x4f, 0x1c, 0xa9, 0xbd,
    0x8e, 0xf0, 0x35, 0xbe, 0xa3, 0x68, 0x9d, 0x3e, 0x8e, 0x02, 0x30, 0x3e,
    0x72, 0xfa, 0x3a, 0x3e, 0x1c, 0x2e, 0x7d, 0x3e, 0xa2, 0xb9, 0x8e, 0xbe,
    0x3b, 0xdd, 0xc1, 0x3d, 0x5b, 0xf6, 0x47, 0xbe, 0x50, 0x7a, 0x53, 0x3e,
    0x5a, 0x22, 0xe2, 0xbd, 0x0e, 0x1c, 0x47, 0xbe, 0x38, 0xb0, 0x6d, 0x3e,
    0xc0, 0x88, 0x21, 0x3e, 0x85, 0x30, 0x91, 0xbe, 0x65, 0x24, 0xf4, 0x3d,
    0x01, 0x79, 0x5b, 0x3e, 0xb5, 0xb1, 0xbe, 0xbe, 0x58, 0x30, 0x48, 0x3d,
    0xe8, 0x79, 0x9d, 0x3e, 0x1a, 0x8f, 0x3e, 0xbe, 0xbb, 0xe1, 0xb6, 0x3d,
    0x80, 0x2d, 0xe7, 0x3e, 0xbc, 0x7c, 0xba, 0x3e, 0x9c, 0xbe, 0xb0, 0x3e,
    0x99, 0xa6, 0x00, 0xbd, 0x55, 0x65, 0x80, 0xbc, 0x10, 0x67, 0xbe, 0xbd,
    0xfc, 0xc2, 0x61, 0xbe, 0x8e, 0x56, 0xfc, 0xbd, 0xf8, 0x56, 0x8b, 0xbe,
    0xcc, 0x39, 0x26, 0x3c, 0x84, 0x75, 0x55, 0x3e, 0xda, 0xa3, 0x90, 0x3e,
    0x4e, 0xeb, 0x50, 0x3e, 0x46, 0x60, 0x54, 0xbe, 0x0b, 0xb3, 0x73, 0x3e,
    0x1a, 0x4a, 0x11, 0xbc, 0x9a, 0x11, 0xcb, 0x3e, 0xbe, 0x07, 0x6e, 0x3e,
    0xd1, 0x57, 0x26, 0xbe, 0x15, 0x0f, 0xa5, 0x3e, 0x4c, 0x47, 0x4e, 0x3e,
    0x66, 0x6b, 0x4d, 0xbd, 0x05, 0x95, 0x88, 0xbe, 0x4e, 0x64, 0x48, 0xbe,
    0x09, 0x2d, 0x6e, 0xbe, 0x65, 0xee, 0x60, 0x3e, 0xe5, 0x59, 0x52, 0x3e,
    0x93, 0x41, 0x07, 0xbf, 0xe2, 0x3a, 0x0f, 0x3d, 0xf9, 0xcd, 0x0f, 0x3e,
    0x7a, 0x88, 0xcd, 0x3d, 0x25, 0xe8, 0x4e, 0x3e, 0x2c, 0xfb, 0x7b, 0x3e,
    0x0a, 0xa7, 0x63, 0x3d, 0x0d, 0x45, 0x2e, 0x3e, 0xc2, 0x34, 0x5d, 0xbe,
    0x26, 0xe5, 0x52, 0x3d, 0x70, 0x30, 0x39, 0x3e, 0x9e, 0x77, 0x91, 0x3e,
    0x16, 0xa2, 0x9a, 0xbd, 0xf5, 0xbd, 0xb2, 0x3d, 0x9d, 0xc1, 0x3c, 0xbe,
    0xd8, 0x4e, 0xe7, 0x3d, 0x51, 0x82, 0x98, 0x3e, 0x7a, 0x4b, 0x99, 0xbd,
    0x2f, 0xe2, 0xc6, 0xbd, 0x21, 0xc2, 0x74, 0xbe, 0x63, 0x59, 0xc9, 0xba,
    0x8a, 0xa7, 0xe0, 0x3e, 0x0c, 0x6a, 0x5e, 0xbe, 0x99, 0x8f, 0x99, 0x3e,
    0x5b, 0x18, 0x2a, 0xbe, 0x65, 0x44, 0x98, 0x3e, 0x11, 0xf4, 0x07, 0x3e,
    0x9c, 0x00, 0xff, 0xbd, 0x84, 0xa7, 0xdd, 0x3d, 0x0f, 0x71, 0x47, 0xbe,
    0xd2, 0xd4, 0xff, 0xff, 0x04, 0x00, 0x00, 0x00, 0x00, 0x10, 0x00, 0x00,
    0xb8, 0x56, 0xcf, 0x3e, 0xb4, 0x8a, 0x4c, 0xbe, 0xa2, 0x48, 0xbe, 0x3d,
    0xb4, 0x14, 0xa7, 0x3e, 0x4a, 0x94, 0xc0, 0xbd, 0xaa, 0xdb, 0xef, 0xbe,
    0xa2, 0x58, 0x87, 0x3e, 0x30, 0x79, 0xa4, 0xbe, 0x7b, 0xc0, 0x65, 0xbe,
    0xd0, 0x1e, 0x71, 0xbe, 0x57, 0x61, 0x7d, 0x3e, 0xc2, 0x0c, 0x5f, 0x3d,
    0xd7, 0x0f, 0x09, 0x3e, 0x82, 0x8c, 0x72, 0x3e, 0xd1, 0xfa, 0xcb, 0xbe,
    0xd6, 0xc8, 0x65, 0x3e, 0xc8, 0xfe, 0x53, 0x3d, 0xd6, 0x66, 0xc6, 0xbd,
    0x6e, 0x1e, 0x06, 0x3e, 0x81, 0x14, 0x01, 0xbe, 0x56, 0x14, 0xda, 0xbd,
    0x9f, 0xdb, 0x98, 0x3e, 0x6c, 0x00, 0xbd, 0x3e, 0x9c, 0x78, 0xbd, 0x3e,
    0x60, 0x05, 0xbe, 0xbd, 0x2f, 0xcb, 0xb0, 0xbe, 0xda, 0x74, 0x87, 0x3e,
    0xa7, 0x5d, 0x8c, 0x3e, 0x6d, 0x2d, 0x2b, 0x3e, 0xcf, 0x5d, 0x51, 0x3e,
    0xf2, 0xc1, 0xa8, 0xbe, 0x53, 0xdd, 0x5a, 0xbd, 0x78, 0x31, 0x39, 0xbe,
    0x80, 0xff, 0x5e, 0x3c, 0xcc, 0xea, 0x2a, 0xbc, 0x6f, 0x19, 0xa6, 0xbe,
    0xe8, 0x28, 0x85, 0x3e, 0xc8, 0x14, 0xe5, 0x3e, 0x1a, 0x80, 0xb2, 0xbd,
    0xdc, 0x13, 0x7f, 0xbb, 0xe2, 0x86, 0xb0, 0x3e, 0x0d, 0x71, 0x00, 0xbd,
    0xc4, 0x05, 0x0a, 0xbf, 0x23, 0x56, 0xde, 0xbd, 0x73, 0x0a, 0x1f, 0xbe,
    0xd4, 0xdd, 0x2f, 0xbd, 0x31, 0xd6, 0x05, 0x3d, 0xe8, 0xe6, 0x3e, 0xbd,
    0xcd, 0xa5, 0x82, 0xbe, 0xce, 0xe1, 0x1a, 0x3e, 0x52, 0x1f, 0x3f, 0x3e,
    0x75, 0x57, 0x5d, 0x3d, 0xab, 0x67, 0x86, 0x3e, 0x8b, 0xe7, 0x3e, 0x3e,
    0xce, 0x0d, 0xa8, 0xbe, 0x80, 0x0e, 0x61, 0xbe, 0x48, 0x7d, 0xba, 0x3d,
    0x5c, 0x26, 0xb5, 0x3e, 0x10, 0xca, 0x6b, 0xbd, 0xc0, 0x43, 0x8f, 0x3e,
    0x00, 0x3c, 0x99, 0x3e, 0xb0, 0xe4, 0x9f, 0xbe, 0x75, 0x2e, 0x26, 0xbe,
    0x14, 0xc2, 0x45, 0xbe, 0xda, 0x45, 0x93, 0xbe, 0x96, 0xf5, 0x24, 0x3e,
    0xc8, 0x63, 0xd5, 0xbd, 0x6e, 0x72, 0x18, 0x3e, 0x26, 0x28, 0x0c, 0x3d,
    0x8c, 0xe0, 0xe0, 0xbe, 0xd6, 0xd3, 0xe6, 0x3d, 0xdf, 0xc4, 0xce, 0x3e,
    0x0d, 0xdb, 0xdb, 0x3c, 0x7f, 0xdc, 0x6f, 0xbe, 0x6f, 0xd3, 0xee, 0x3d,
    0x2b, 0xb3, 0x91, 0x3e, 0xcd, 0x1f, 0xc0, 0xbd, 0x70, 0xcc, 0x8a, 0xbe,
    0xe5, 0x8c, 0x17, 0xbd, 0xd7, 0x30, 0x03, 0xbe, 0xf2, 0xf4, 0x8c, 0x3e,
    0x0f, 0x79, 0x8f, 0x3e, 0x7d, 0x16, 0x94, 0xbd, 0x67, 0x63, 0xa2, 0xbd,
    0xdd, 0x73, 0x07, 0xbe, 0xef, 0xa7, 0x31, 0xbe, 0x90, 0x9f, 0x9e, 0x3e,
    0x20, 0x78, 0xb9, 0xbe, 0x30, 0xbe, 0x62, 0x3d, 0x87, 0x90, 0x05, 0x3c,
    0xa3, 0xab, 0x84, 0x3e, 0x9c, 0x1f, 0xe4, 0x3d, 0xfe, 0xac, 0x86, 0x3d,
    0x64, 0x5f, 0x9e, 0xbe, 0x49, 0x64, 0xf0, 0x3c, 0x2a, 0x54, 0x9f, 0xbe,
    0x6a, 0x61, 0x4b, 0x3e, 0xb8, 0xaa, 0xa3, 0xbd, 0x27, 0x34, 0x3b, 0x3d,
    0xdb, 0xa9, 0xb5, 0x3e, 0x40, 0xa3, 0xab, 0x3e, 0x53, 0x12, 0x3f, 0xbe,
    0xf0, 0xf4, 0xbf, 0x3d, 0xc3, 0x38, 0xd9, 0xbc, 0xa3, 0xef, 0x1f, 0x39,
    0xd4, 0xc4, 0x71, 0x3e, 0x50, 0x9d, 0xd9, 0x3e, 0xf4, 0x5a, 0x9c, 0x3e,
    0x42, 0x90, 0x7e, 0x3e, 0xd1, 0xc9, 0x13, 0x3e, 0x01, 0xa9, 0xe4, 0x3d,
    0xff, 0x69, 0x8c, 0x3e, 0x9e, 0xa7, 0x2f, 0x3e, 0xc6, 0xd2, 0x5b, 0xbc,
    0xc0, 0x82, 0x80, 0x3d, 0x8d, 0x15, 0x8d, 0xbe, 0x43, 0xac, 0xa3, 0x3b,
    0x7e, 0x38, 0x81, 0x3e, 0x15, 0x8e, 0xad, 0x3e, 0x30, 0x38, 0x4b, 0x3e,
    0x18, 0xda, 0x7d, 0xbe, 0x6f, 0x22, 0x1e, 0xbe, 0x24, 0x35, 0x08, 0x3e,
    0xf1, 0xfa, 0x53, 0xbe, 0xc1, 0xb6, 0xaa, 0xbd, 0x6b, 0x70, 0xcb, 0x3c,
    0xe1, 0x2b, 0x65, 0xbe, 0x68, 0x31, 0x19, 0x3e, 0xae, 0xc9, 0x88, 0xbe,
    0x77, 0xfd, 0x9a, 0x3e, 0xd4, 0x87, 0xcc, 0x3d, 0xd7, 0xc2, 0x80, 0xbe,
    0xaf, 0x04, 0x98, 0xbd, 0x6b, 0x8b, 0x7a, 0x3e, 0xc3, 0xfc, 0x42, 0xbe,
    0xd1, 0x49, 0xb1, 0x3e, 0xf4, 0xc5, 0xe0, 0x3d, 0xeb, 0xf4, 0xe6, 0x3d,
    0x24, 0x8d, 0xb3, 0x3e, 0x40, 0x15, 0x13, 0xbe, 0x23, 0x35, 0x9b, 0x3b,
    0x0e, 0xcc, 0x94, 0xbd, 0x85, 0xa5, 0x91, 0x3e, 0x90, 0x86, 0xed, 0x3d,
    0xee, 0x44, 0x61, 0x3e, 0xea, 0x46, 0x8e, 0x3d, 0xee, 0xbd, 0x77, 0x3e,
    0x60, 0x38, 0x6d, 0xbe, 0xd2, 0xd6, 0x17, 0x3e, 0xb4, 0x3e, 0x5f, 0x3e,
    0xe3, 0x0d, 0x8a, 0xbe, 0xa3, 0x83, 0x1a, 0x3d, 0xa6, 0xc5, 0x0f, 0x3e,
    0xef, 0xee, 0x4a, 0xbe, 0xff, 0xee, 0x66, 0xbe, 0x50, 0x07, 0x92, 0xbd,
    0x34, 0xb7, 0xc3, 0xbd, 0x02, 0x09, 0x86, 0xbe, 0x0c, 0x7d, 0xaf, 0x3e,
    0x2e, 0x21, 0x7c, 0xbe, 0xbf, 0xf9, 0x1a, 0xbe, 0x7a, 0xf4, 0x35, 0x3e,
    0x17, 0xa3, 0x87, 0x3e, 0x37, 0xf9, 0x90, 0x3e, 0x81, 0x81, 0x18, 0xbe,
    0xa5, 0xbc, 0x70, 0x3c, 0xa5, 0xfb, 0xd2, 0x3d, 0x4b, 0x5d, 0xa9, 0xbe,
    0x6c, 0x01, 0xe8, 0xbe, 0x93, 0x99, 0x2a, 0x3d, 0xab, 0x49, 0x68, 0xbe,
    0x4a, 0xa6, 0x71, 0xbe, 0x1e, 0xb0, 0x9d, 0x3e, 0xa6, 0xe7, 0x93, 0x3e,
    0x1a, 0x8b, 0xe8, 0x3c, 0x15, 0x82, 0x94, 0xbe, 0xf0, 0x6b, 0x52, 0x3e,
    0xdd, 0xe7, 0xa3, 0xbb, 0xe7, 0xa2, 0x97, 0x3e, 0x6f, 0x82, 0xb8, 0xbc,
    0xe3, 0x74, 0x35, 0x3e, 0x25, 0xdf, 0x03, 0x3e, 0x06, 0x0d, 0x77, 0x3d,
    0xb1, 0xb4, 0x64, 0xbe, 0xa9, 0xf8, 0x8d, 0x3e, 0x9e, 0xcd, 0xd0, 0xbd,
    0x26, 0xf8, 0x61, 0x3e, 0xfb, 0xb8, 0x95, 0xbe, 0x00, 0x59, 0xf2, 0xbd,
    0x31, 0xec, 0xb9, 0x3d, 0x54, 0x76, 0x6a, 0xbe, 0x2a, 0x27, 0xae, 0x3e,
    0x08, 0x6e, 0x69, 0x3e, 0xd0, 0x53, 0x38, 0xbd, 0x48, 0x66, 0x84, 0xbd,
    0x89, 0x82, 0x3e, 0xbd, 0x63, 0x76, 0xc3, 0x3e, 0x08, 0xf2, 0xaf, 0xbe,
    0x73, 0x2e, 0x4b, 0x3c, 0x72, 0x7f, 0x87, 0xbc, 0xc5, 0xcd, 0xe2, 0xbd,
    0xa8, 0xe9, 0x26, 0x3e, 0x39, 0xb8, 0x37, 0x3e, 0x4e, 0x27, 0x27, 0xbe,
    0x5d, 0xb7, 0x93, 0x3e, 0xd6, 0xb4, 0x53, 0xbd, 0x48, 0x28, 0x55, 0xbd,
    0x5f, 0xef, 0x8f, 0xbe, 0xb5, 0xd3, 0xdc, 0x3e, 0x08, 0x39, 0x94, 0x3e,
    0x3b, 0x05, 0xb1, 0x3d, 0x9f, 0x09, 0x31, 0xbe, 0xd4, 0x2c, 0x07, 0x3e,
    0xc9, 0xd8, 0x94, 0x3c, 0xb2, 0x42, 0xf2, 0x3e, 0x0e, 0x3b, 0xdc, 0x3e,
    0xfe, 0x9e, 0x67, 0x3e, 0xb8, 0xf0, 0xa3, 0xbe, 0xa6, 0x03, 0xc2, 0x3e,
    0x98, 0x4f, 0x96, 0xbb, 0xaf, 0xc0, 0x90, 0x3e, 0xff, 0x86, 0x95, 0x3e,
    0xc5, 0x09, 0x8f, 0x3e, 0xac, 0x11, 0xc9, 0xbd, 0xf0, 0xd5, 0xa4, 0x3e,
    0x00, 0x67, 0xc9, 0x3c, 0xe4, 0x55, 0x07, 0xbe, 0x95, 0xbf, 0xb6, 0xbe,
    0xfe, 0x13, 0x14, 0x3e, 0x06, 0x69, 0xb9, 0x3e, 0x02, 0x30, 0x8f, 0xbd,
    0x0a, 0x70, 0x88, 0xbc, 0xf2, 0xa3, 0x01, 0x3f, 0x45, 0x19, 0xc2, 0x3e,
    0xdb, 0x33, 0x16, 0xbe, 0xb6, 0xa0, 0x4e, 0xbe, 0xbf, 0x57, 0xb3, 0x3e,
    0x45, 0x5b, 0xbe, 0x3d, 0xdc, 0x30, 0x83, 0x3c, 0x00, 0xf0, 0x36, 0x39,
    0x13, 0x15, 0x84, 0xbe, 0x99, 0x09, 0xf4, 0xbd, 0xf7, 0x87, 0x38, 0x3e,
    0x85, 0xf6, 0xc7, 0xbc, 0x11, 0xe7, 0x25, 0x3e, 0x76, 0xe1, 0x85, 0x3d,
    0x4e, 0xe6, 0xca, 0xbd, 0x0d, 0x19, 0x22, 0x3e, 0x5e, 0x86, 0x5a, 0xbe,
    0xd0, 0x50, 0x73, 0xba, 0x8d, 0x1c, 0x9f, 0x3d, 0x16, 0xdf, 0x4d, 0x3e,
    0xb3, 0x06, 0xa9, 0xbb, 0x48, 0x25, 0x54, 0xbe, 0x94, 0x76, 0x14, 0x3f,
    0x72, 0x76, 0xdf, 0x3d, 0x53, 0xce, 0x88, 0x3e, 0xb0, 0x34, 0xdd, 0xbc,
    0x17, 0x4b, 0x74, 0x3d, 0xe6, 0xf6, 0x6d, 0xbe, 0x12, 0x1c, 0x0b, 0xbe,
    0x6d, 0x4f, 0x86, 0x3e, 0xf2, 0x0f, 0x93, 0x3e, 0xaa, 0x2d, 0x10, 0xbe,
    0x09, 0x59, 0x16, 0x3f, 0xbf, 0x64, 0xc0, 0x3e, 0x12, 0xc2, 0xa7, 0x3d,
    0xcc, 0x75, 0x37, 0xbe, 0xa6, 0x67, 0x8c, 0x3d, 0xac, 0x51, 0x3b, 0x3e,
    0xb8, 0x98, 0x2a, 0x3e, 0x2c, 0x1b, 0x5d, 0xbe, 0x61, 0xbd, 0x7f, 0x3e,
    0xf1, 0xdd, 0x4e, 0x3e, 0xfe, 0xc8, 0x66, 0x3e, 0x80, 0x9a, 0xff, 0x3d,
    0xa3, 0xb1, 0x6d, 0xbe, 0xd6, 0x35, 0x8a, 0x3d, 0x3d, 0x9f, 0xa4, 0x3b,
    0xc6, 0x5b, 0xb3, 0xbd, 0x18, 0x16, 0xe3, 0x3d, 0x1f, 0x68, 0x8a, 0xbe,
    0x97, 0x26, 0x86, 0x3e, 0x34, 0x06, 0x26, 0x3e, 0xd6, 0x13, 0x7f, 0xbe,
    0xa0, 0x92, 0xdc, 0xbd, 0xaf, 0x0e, 0x53, 0x3d, 0xe6, 0x6b, 0x20, 0xbc,
    0x21, 0xcc, 0xa3, 0x3d, 0x17, 0x3b, 0x87, 0xbe, 0x0a, 0x80, 0xeb, 0x3d,
    0x52, 0x27, 0x98, 0xbe, 0xc8, 0x3c, 0x5f, 0x3e, 0x96, 0x1c, 0xed, 0xbd,
    0xd2, 0xb9, 0x3f, 0x3e, 0x8e, 0xcc, 0xd4, 0xbd, 0xe9, 0xb2, 0x25, 0xbe,
    0xe8, 0xe9, 0x01, 0x3e, 0x7b, 0xbf, 0xee, 0x3d, 0x88, 0x2d, 0x3c, 0xbe,
    0xb4, 0x51, 0xa0, 0x3e, 0x81, 0x91, 0xa2, 0xbc, 0x14, 0x5e, 0xac, 0x3d,
    0x38, 0xbf, 0x55, 0x3d, 0x9d, 0xf1, 0xc8, 0x3e, 0x06, 0xb8, 0x27, 0xbe,
    0x3f, 0xe3, 0xe4, 0xbd, 0x56, 0xa6, 0x8d, 0xbd, 0xb9, 0xd9, 0x18, 0xbe,
    0x99, 0x5b, 0x83, 0x3e, 0x0b, 0xca, 0x05, 0xbe, 0x0b, 0x80, 0x6a, 0x3e,
    0x4c, 0x3a, 0x8f, 0x3d, 0x10, 0xc8, 0x1d, 0x3e, 0x87, 0xeb, 0x88, 0x3e,
    0x86, 0xba, 0xbb, 0xbd, 0x14, 0x1f, 0xab, 0xbd, 0xab, 0x84, 0x74, 0xbe,
    0xeb, 0x37, 0x30, 0x3e, 0x44, 0xa1, 0x10, 0xbd, 0x4e, 0xf2, 0x60, 0xbe,
    0xd5, 0x11, 0x8e, 0xbe, 0x5a, 0x43, 0x35, 0xbe, 0x0f, 0x8f, 0x73, 0xbe,
    0xb3, 0xf7, 0x06, 0xbe, 0xe2, 0xdb, 0xb4, 0x3e, 0x7c, 0x14, 0xaa, 0xbe,
    0x99, 0x60, 0xab, 0x3e, 0xbd, 0x80, 0xaf, 0x3b, 0x3e, 0x3a, 0xb9, 0x3d,
    0xde, 0x0c, 0x82, 0xbd, 0x61, 0x6c, 0x8b, 0x3e, 0x99, 0x1f, 0x21, 0xbe,
    0x4c, 0x33, 0xc4, 0xbd, 0xe7, 0x30, 0xcf, 0xbc, 0x6d, 0x00, 0x86, 0xbe,
    0x02, 0x79, 0x48, 0xbe, 0xa4, 0x23, 0x64, 0x3e, 0xee, 0x44, 0x7a, 0x3c,
    0xfd, 0xe4, 0x6c, 0xbe, 0xe5, 0xf3, 0x55, 0x3e, 0xdd, 0x80, 0x46, 0xbd,
    0x8f, 0xed, 0x55, 0x3e, 0xab, 0xbd, 0x04, 0xbe, 0x4a, 0xc6, 0x76, 0x3e,
    0x0d, 0x14, 0x9a, 0x3d, 0x9d, 0x1e, 0x87, 0x3e, 0x27, 0xda, 0x16, 0x3e,
    0xab, 0x03, 0x19, 0x3e, 0x17, 0x18, 0x36, 0xbd, 0xc7, 0xb6, 0xdd, 0x3d,
    0x50, 0x54, 0x96, 0x3e, 0xe6, 0xd7, 0xd8, 0xbe, 0x98, 0xe9, 0x46, 0xbd,
    0x87, 0x4c, 0x6a, 0x3d, 0x1d, 0x1f, 0x89, 0x3e, 0x86, 0x4f, 0x3d, 0xbe,
    0xcc, 0xdd, 0x29, 0xbc, 0xd2, 0x65, 0xb6, 0xbe, 0x49, 0x4e, 0xac, 0x3e,
    0x3e, 0x57, 0x6f, 0xbd, 0xc3, 0xaf, 0x20, 0xbc, 0x91, 0x90, 0x6a, 0xbe,
    0x87, 0x6a, 0x29, 0xbe, 0x87, 0xbb, 0xaa, 0xbe, 0x49, 0x01, 0x72, 0x3e,
    0x5b, 0x3a, 0x8c, 0xbc, 0x8e, 0x80, 0x59, 0x3e, 0x96, 0x89, 0xb4, 0xbb,
    0x58, 0xc0, 0x18, 0xbd, 0x06, 0x0d, 0x82, 0x3e, 0xfb, 0xd7, 0xa9, 0x3e,
    0xa0, 0x21, 0x4c, 0xbe, 0xd9, 0xfc, 0x68, 0x3d, 0x20, 0x18, 0x7b, 0x3d,
    0xb7, 0x71, 0x9e, 0xbd, 0xa6, 0x9e, 0x69, 0x3e, 0x5c, 0xae, 0x75, 0x3e,
    0xf1, 0xc7, 0x28, 0x3e, 0x75, 0x2f, 0x72, 0xbe, 0x5f, 0x53, 0xee, 0x3d,
    0xbb, 0xfe, 0xaf, 0x3c, 0x5b, 0x61, 0x42, 0xbe, 0x77, 0x79, 0x0d, 0x3e,
    0x98, 0xb5, 0x67, 0xbe, 0x00, 0x8f, 0xa5, 0x3b, 0xb7, 0x0b, 0xb6, 0xbd,
    0x4d, 0xd4, 0xa9, 0xbe, 0x46, 0x04, 0x74, 0x3e, 0x9f, 0x39, 0xbe, 0x3e,
    0x77, 0x5b, 0x80, 0xbe, 0x9e, 0xb1, 0x0c, 0xbe, 0x2a, 0x84, 0x1c, 0xbe,
    0xdf, 0x64, 0x47, 0xbe, 0x83, 0x6f, 0xc7, 0xbe, 0x2e, 0xa4, 0x70, 0x3e,
    0xd8, 0x65, 0xa9, 0xbc, 0xc3, 0x02, 0x76, 0xbe, 0xfe, 0x1d, 0x83, 0x3e,
    0x78, 0x6f, 0x9f, 0x3d, 0x51, 0x12, 0xca, 0xbe, 0xf5, 0x53, 0x9c, 0x3e,
    0xe2, 0x42, 0xcd, 0x3d, 0x59, 0x44, 0x90, 0xbe, 0x14, 0x5f, 0x94, 0x3e,
    0x37, 0x5c, 0x69, 0x3e, 0xc5, 0x67, 0xb6, 0xbe, 0x6f, 0xc0, 0xd1, 0x3c,
    0xcc, 0xd0, 0x68, 0xbe, 0x56, 0x11, 0x85, 0x3e, 0x72, 0x90, 0x3e, 0x3e,
    0x7e, 0xed, 0xc8, 0x3d, 0x10, 0x26, 0x08, 0xbe, 0x94, 0x87, 0x2e, 0x3e,
    0x20, 0xa6, 0x42, 0xbe, 0x3c, 0xb8, 0x3f, 0x3e, 0x0b, 0x18, 0x27, 0x3e,
    0x2f, 0x31, 0x95, 0x3e, 0xf9, 0xcd, 0x88, 0xbe, 0x78, 0x97, 0x9b, 0xbd,
    0xa3, 0x63, 0x9d, 0x3e, 0x76, 0xd7, 0x0b, 0xbe, 0x79, 0x0d, 0x57, 0x3e,
    0x84, 0x43, 0x8f, 0xbd, 0xab, 0x50, 0x3d, 0xbe, 0xe8, 0x41, 0xf8, 0x3d,
    0x94, 0xc7, 0xa2, 0x3d, 0xd5, 0x4b, 0x92, 0xbd, 0xed, 0x14, 0xb0, 0x3e,
    0x4a, 0xfd, 0x0d, 0x3e, 0x45, 0xb9, 0x9f, 0xbe, 0x85, 0x84, 0x70, 0xbe,
    0xf1, 0x76, 0xe9, 0x3e, 0x28, 0xd4, 0xa0, 0x3e, 0xe1, 0xd0, 0x3b, 0x3e,
    0x65, 0x0f, 0x70, 0xbe, 0x1d, 0x76, 0x8f, 0xbe, 0x8b, 0x8b, 0x08, 0xbd,
    0x09, 0xd0, 0x82, 0x3e, 0x49, 0xae, 0x46, 0xbd, 0x64, 0xc2, 0x81, 0xbe,
    0x5f, 0xf7, 0xa2, 0xbd, 0x9f, 0x5c, 0x31, 0xbe, 0x7c, 0x76, 0x4a, 0x3e,
    0x1d, 0x6d, 0x8b, 0x3e, 0xff, 0x92, 0x2c, 0x3e, 0xc4, 0xad, 0xc6, 0xbd,
    0x61, 0x82, 0xa4, 0x3e, 0xba, 0x14, 0x94, 0x3e, 0xe6, 0x1d, 0xc5, 0xbd,
    0xf7, 0x9b, 0x71, 0x3e, 0xfe, 0x52, 0xcc, 0xbd, 0x17, 0x0a, 0x1a, 0x3e,
    0x22, 0x09, 0x89, 0xbd, 0x98, 0xa8, 0xe6, 0x3e, 0xb9, 0x69, 0x1e, 0x3e,
    0x14, 0x67, 0x75, 0x3e, 0x52, 0x6c, 0x69, 0x3d, 0x8f, 0x62, 0xa1, 0xbd,
    0xfc, 0x3b, 0x68, 0xbe, 0xf8, 0x97, 0x8f, 0x3e, 0xac, 0x27, 0xa6, 0xbd,
    0x19, 0x15, 0xb2, 0xbd, 0x78, 0xcd, 0x9c, 0x3d, 0x36, 0xc2, 0x86, 0x3e,
    0x51, 0x00, 0x06, 0x3e, 0x60, 0x4b, 0xd3, 0xbc, 0xf7, 0x63, 0x9a, 0xbd,
    0xb6, 0xf3, 0x88, 0xbe, 0xd7, 0x85, 0x87, 0x3d, 0x4a, 0xe7, 0x6d, 0x3e,
    0x7c, 0xc4, 0xf4, 0xbd, 0xf8, 0xb4, 0x6b, 0x3d, 0x92, 0x81, 0xc4, 0xbe,
    0xc7, 0xd7, 0x67, 0x3e, 0x68, 0xdd, 0x6b, 0xbe, 0x4c, 0x53, 0x9b, 0xbe,
    0x04, 0x89, 0x91, 0x3e, 0x12, 0xf6, 0x1e, 0x3d, 0x48, 0x02, 0xf8, 0x3b,
    0x4f, 0x9f, 0x31, 0xbd, 0xb8, 0x45, 0xb3, 0xbd, 0x68, 0x50, 0x06, 0xbe,
    0x13, 0xe7, 0x48, 0xbe, 0x8e, 0x2d, 0xa8, 0xbd, 0x89, 0xd8, 0xa5, 0xbc,
    0xcc, 0x18, 0x21, 0x3e, 0x73, 0x5d, 0x75, 0xbe, 0x08, 0x7f, 0x4d, 0xbe,
    0x0a, 0x2c, 0xb7, 0xbd, 0x4e, 0x2e, 0x00, 0xbe, 0x1c, 0x84, 0xb7, 0x3d,
    0x7e, 0x38, 0x26, 0xbe, 0x0b, 0x3e, 0xa0, 0x3d, 0xa3, 0x81, 0x8c, 0xbe,
    0xaa, 0xd6, 0x78, 0x3e, 0x00, 0xf8, 0x6f, 0xbe, 0xf8, 0x57, 0x0b, 0xbe,
    0xc8, 0x5b, 0x84, 0xbe, 0x27, 0xd0, 0x73, 0x3e, 0x05, 0x70, 0x83, 0xbe,
    0xef, 0xe4, 0xa1, 0x3e, 0x93, 0x36, 0x8e, 0xbe, 0x32, 0x4d, 0x84, 0xbd,
    0xd0, 0xea, 0x35, 0x3e, 0xa3, 0x56, 0x47, 0x3e, 0xa0, 0xda, 0x28, 0xbd,
    0x6b, 0x6d, 0x82, 0x3e, 0x70, 0xe9, 0xb1, 0x3d, 0x3d, 0x05, 0x9b, 0x3e,
    0x39, 0x1b, 0x8e, 0xbd, 0x74, 0x53, 0x8f, 0x3c, 0xb4, 0xc3, 0x0d, 0xbd,
    0x32, 0x73, 0x2a, 0x3e, 0xc1, 0x12, 0x47, 0x3e, 0xf1, 0xf6, 0xbe, 0xbd,
    0xde, 0xb4, 0x73, 0x3d, 0x17, 0x16, 0xce, 0x3d, 0x27, 0x4f, 0x33, 0xbd,
    0x0b, 0x4c, 0xba, 0x3e, 0xde, 0xb6, 0xa6, 0x3d, 0x7b, 0x4f, 0xb2, 0x3d,
    0x83, 0x8d, 0x5d, 0x3d, 0xf8, 0x70, 0x64, 0x3e, 0x08, 0x92, 0x80, 0xbe,
    0x25, 0x0c, 0x7d, 0xbe, 0x1a, 0xc9, 0xe1, 0x3d, 0x00, 0xff, 0x1c, 0xbd,
    0xfd, 0x0a, 0x90, 0x3e, 0x48, 0xb1, 0x9c, 0xbd, 0xdd, 0xab, 0x26, 0xbc,
    0x29, 0x01, 0x45, 0x3e, 0x08, 0x45, 0x1b, 0x3e, 0xeb, 0xde, 0x44, 0xbe,
    0x31, 0x76, 0x0a, 0x3d, 0x68, 0x31, 0x9e, 0xbe, 0x60, 0x64, 0x19, 0xbd,
    0x07, 0x6d, 0xa0, 0x3e, 0x35, 0xb3, 0x9b, 0x3e, 0xe2, 0xe4, 0x6b, 0x3e,
    0xe4, 0xa7, 0x29, 0x3d, 0xf9, 0x14, 0xfe, 0x3d, 0x29, 0xbe, 0x3f, 0xbd,
    0x53, 0xf6, 0x2b, 0xbe, 0x87, 0x80, 0x51, 0xbd, 0x30, 0xb5, 0x1f, 0x3d,
    0xb3, 0x36, 0x03, 0x3e, 0x8f, 0x7b, 0x9f, 0x3e, 0x04, 0x62, 0x82, 0x3e,
    0x14, 0x5d, 0x07, 0xbc, 0xf2, 0x2b, 0x76, 0x3e, 0xa2, 0x40, 0xa7, 0x3e,
    0x9e, 0x40, 0x8d, 0x3e, 0x63, 0xc2, 0x2d, 0x3e, 0x17, 0x43, 0xb5, 0x3d,
    0xdf, 0x3f, 0x61, 0xbe, 0xf9, 0xf7, 0x40, 0xbc, 0xfa, 0x53, 0x57, 0xbe,
    0x1b, 0xa1, 0xac, 0x3d, 0x70, 0xe3, 0x3d, 0xbd, 0xac, 0x65, 0xa7, 0x3c,
    0x5f, 0xeb, 0x67, 0xbe, 0xbc, 0x8c, 0xcf, 0x3d, 0x91, 0x49, 0x3f, 0xbd,
    0x73, 0x08, 0x95, 0x3e, 0x80, 0xac, 0x05, 0xbe, 0x08, 0x43, 0xb9, 0xbd,
    0x04, 0x39, 0x95, 0x3d, 0x51, 0xe0, 0x92, 0x3e, 0x8c, 0x72, 0x55, 0x3e,
    0x44, 0x80, 0x29, 0x3c, 0x1a, 0xe1, 0x65, 0xbe, 0xd2, 0x78, 0x18, 0xbd,
    0x6b, 0x9d, 0x4e, 0xbe, 0x4b, 0x38, 0xb5, 0x3e, 0xd9, 0xeb, 0x3b, 0xbe,
    0x69, 0x18, 0xb3, 0x3e, 0xd7, 0xa2, 0x69, 0xbe, 0xb8, 0x79, 0x9c, 0xbe,
    0x06, 0x9d, 0x28, 0xbe, 0x4f, 0xa5, 0xb6, 0x3d, 0x22, 0xd0, 0xac, 0x3e,
    0x7b, 0x91, 0x18, 0xbe, 0xc3, 0x66, 0x5c, 0xbe, 0x2c, 0x52, 0x2e, 0x3f,
    0x4f, 0x82, 0x15, 0x3d, 0xb9, 0x9b, 0xf0, 0x3d, 0x0f, 0xa2, 0x7f, 0x3e,
    0xad, 0xa5, 0x78, 0xbe, 0xec, 0xa5, 0x45, 0x3e, 0x2c, 0x5b, 0xe8, 0x3e,
    0x9c, 0xf0, 0x84, 0xbe, 0x5b, 0x83, 0x76, 0xbe, 0xe4, 0x7f, 0xff, 0x3b,
    0xcf, 0xad, 0xbf, 0x3d, 0xce, 0xd7, 0x9c, 0xbe, 0x89, 0xc9, 0xb6, 0x3d,
    0xc1, 0x9b, 0x0c, 0xbb, 0x55, 0x69, 0x81, 0xbe, 0xe0, 0xa4, 0x8d, 0xbd,
    0x70, 0xbe, 0xbf, 0x3d, 0x1a, 0x7d, 0x57, 0x3d, 0x6b, 0x64, 0x7d, 0x3e,
    0xe5, 0x72, 0xda, 0xbd, 0x68, 0x7c, 0x83, 0x3d, 0x00, 0x83, 0xaf, 0xbc,
    0x31, 0x84, 0xd0, 0x3e, 0x27, 0xbc, 0x90, 0x3e, 0xb3, 0x4d, 0xc4, 0xbe,
    0xb6, 0x01, 0x95, 0xbd, 0x88, 0x09, 0x85, 0xbe, 0xe1, 0xe0, 0xd9, 0x3b,
    0xa2, 0xa7, 0x8a, 0xbc, 0x51, 0x16, 0xf4, 0x3e, 0x47, 0xdd, 0x22, 0xbc,
    0x46, 0xab, 0x03, 0xbe, 0xe2, 0xa7, 0xed, 0x3e, 0xe3, 0x9b, 0x17, 0xba,
    0xda, 0x61, 0x93, 0xbe, 0x35, 0x73, 0xf8, 0x3d, 0x74, 0x54, 0xdd, 0xbe,
    0x4d, 0xf3, 0xd3, 0x3d, 0x6d, 0x43, 0x66, 0xbe, 0x90, 0x91, 0x4c, 0x3d,
    0xf7, 0x1f, 0x04, 0xbf, 0x36, 0x61, 0xc8, 0x3d, 0x8a, 0xe3, 0x7c, 0x3e,
    0x44, 0x33, 0x0a, 0x3e, 0x0b, 0x22, 0x20, 0x3e, 0xce, 0x49, 0xe7, 0xbd,
    0xc7, 0xe3, 0x2c, 0x3e, 0x5c, 0x0c, 0x08, 0xbe, 0xc0, 0xe3, 0x0d, 0xbc,
    0x8a, 0xfe, 0xc7, 0x3e, 0x58, 0x85, 0xbc, 0xbd, 0xed, 0xe9, 0x7b, 0xbd,
    0x4f, 0xb8, 0x2f, 0x3e, 0x24, 0x62, 0x82, 0x3d, 0x39, 0x5d, 0xf7, 0xbd,
    0xa1, 0x88, 0x83, 0xbe, 0x8d, 0xa0, 0x8b, 0xbe, 0xe1, 0xf8, 0x8e, 0x3e,
    0x46, 0x72, 0x6f, 0x3e, 0xea, 0x90, 0xb2, 0xbd, 0x51, 0x94, 0xf4, 0x3d,
    0xbd, 0x33, 0xb4, 0xbd, 0xf7, 0x85, 0x31, 0xbe, 0xe9, 0x47, 0x87, 0x3d,
    0x42, 0x47, 0x47, 0xbc, 0xb3, 0x50, 0xe0, 0xbd, 0x73, 0x77, 0x0c, 0x3e,
    0x5e, 0x66, 0x91, 0x3d, 0xdb, 0x7f, 0x69, 0xbe, 0xf4, 0x72, 0x85, 0x3e,
    0x6e, 0xfb, 0xef, 0xbd, 0xd3, 0xe4, 0x11, 0xbe, 0xd7, 0x9d, 0x64, 0xbe,
    0xa5, 0x31, 0x96, 0x3e, 0x02, 0x84, 0x0a, 0x3d, 0xfc, 0xc0, 0x8f, 0xbe,
    0x94, 0x99, 0xe8, 0xbc, 0x43, 0x84, 0xb0, 0x3e, 0xe5, 0x3f, 0x9b, 0xbe,
    0xb0, 0xe3, 0x96, 0xbd, 0x3a, 0xd2, 0xf5, 0xbd, 0xbb, 0x3f, 0x46, 0x3e,
    0x6b, 0x95, 0x6e, 0xbe, 0x50, 0x1d, 0x75, 0x3e, 0x7d, 0x01, 0x92, 0xbe,
    0x9d, 0x48, 0x9f, 0xbd, 0x31, 0x5f, 0x22, 0x3d, 0x6e, 0x8c, 0xdb, 0xbd,
    0x32, 0x65, 0x49, 0xbe, 0xc9, 0x22, 0x7f, 0xbe, 0x10, 0xb3, 0x74, 0xbe,
    0x5b, 0x19, 0x10, 0x3e, 0xa5, 0xc1, 0xb9, 0xbe, 0x01, 0x37, 0x11, 0x3e,
    0xab, 0xc4, 0x87, 0xbe, 0x50, 0xd5, 0x8c, 0x3e, 0x48, 0x2b, 0xa0, 0x3e,
    0x50, 0x0f, 0x15, 0x3d, 0xfd, 0x77, 0x88, 0x3e, 0xd0, 0xdc, 0x89, 0x3e,
    0xd5, 0xe4, 0xf9, 0x3d, 0xcf, 0xcd, 0x83, 0x3e, 0xc6, 0xd8, 0x44, 0xbe,
    0xf3, 0xc7, 0x96, 0xbe, 0x88, 0x57, 0xd0, 0xbe, 0xc3, 0x66, 0xec, 0xbd,
    0xdc, 0x92, 0x79, 0x3e, 0xc6, 0x5b, 0xe3, 0x3d, 0x7a, 0xa0, 0xe1, 0xbd,
    0xb5, 0xa5, 0x43, 0x3e, 0xc9, 0x67, 0x9c, 0xbe, 0x0d, 0x98, 0x82, 0xbd,
    0xa2, 0x14, 0x77, 0x3e, 0x61, 0x8c, 0x83, 0x3d, 0x0a, 0x4c, 0xac, 0xbe,
    0x8a, 0x31, 0x68, 0xbe, 0xb9, 0x61, 0x34, 0x3e, 0x0a, 0xd5, 0x86, 0xbe,
    0xcd, 0x75, 0x87, 0xbe, 0xb9, 0xf5, 0x9f, 0x3e, 0x42, 0x1b, 0x80, 0xbe,
    0xc0, 0x36, 0x2f, 0x3c, 0x19, 0x9b, 0xe5, 0x3d, 0xb3, 0x7a, 0xa0, 0x3e,
    0xb3, 0xf3, 0x22, 0x3e, 0x42, 0x58, 0x1f, 0xbd, 0x03, 0xe7, 0xad, 0x3d,
    0x92, 0x73, 0x2e, 0xbe, 0x5f, 0x49, 0x08, 0xbd, 0x59, 0xab, 0xd5, 0xbd,
    0xa1, 0xe6, 0xf3, 0x3e, 0x9d, 0x95, 0x40, 0x3d, 0x3e, 0x80, 0x01, 0x3e,
    0xba, 0x67, 0x6f, 0x3d, 0x20, 0x0e, 0x57, 0xbe, 0x78, 0xaa, 0x32, 0x3d,
    0xd3, 0x22, 0x09, 0x3e, 0x8b, 0x66, 0x89, 0x3e, 0xe4, 0x42, 0x88, 0xbe,
    0x5c, 0xbc, 0x34, 0x3e, 0xf8, 0x49, 0x5d, 0x3d, 0xb2, 0xac, 0x07, 0xbe,
    0xc3, 0x71, 0x81, 0x3e, 0xe0, 0xfc, 0xc2, 0xbd, 0x86, 0xa5, 0xa8, 0xbd,
    0xee, 0x1d, 0xb4, 0xbe, 0xd1, 0x9d, 0x93, 0x3d, 0x00, 0x41, 0xea, 0x3c,
    0xd0, 0xac, 0xce, 0xbc, 0x00, 0x7f, 0x5e, 0xbe, 0x73, 0xb3, 0x49, 0xbe,
    0x53, 0x32, 0x16, 0x3d, 0xca, 0x3a, 0xa6, 0x3d, 0x62, 0x8c, 0x36, 0x3e,
    0x88, 0xee, 0x24, 0x3d, 0x48, 0xd9, 0x90, 0x3e, 0x33, 0x4b, 0x3c, 0x3e,
    0xf6, 0x37, 0xbd, 0x3e, 0xf4, 0x48, 0x6a, 0x3e, 0x5b, 0x3b, 0x2e, 0xbe,
    0x26, 0xc4, 0x81, 0x3e, 0x56, 0x8b, 0x85, 0x3e, 0x30, 0x2a, 0xe7, 0x3d,
    0x4e, 0xc5, 0x86, 0x3e, 0x19, 0x78, 0xb8, 0x3c, 0xcc, 0x41, 0xe4, 0x3d,
    0xb1, 0x52, 0x71, 0x3e, 0xc0, 0xae, 0x3c, 0x3c, 0x6c, 0xa0, 0xcf, 0x3e,
    0xba, 0x96, 0x61, 0xbe, 0x4c, 0xdd, 0x93, 0xbe, 0x2b, 0x1c, 0xc9, 0xbd,
    0x62, 0xcb, 0x0e, 0xbe, 0x26, 0xfb, 0xfd, 0xbc, 0x80, 0xd7, 0x49, 0x3e,
    0x71, 0x01, 0x2a, 0x3e, 0xe0, 0x5c, 0xaa, 0xbc, 0xdf, 0x4b, 0x7a, 0xbd,
    0xba, 0x95, 0x72, 0xbe, 0x84, 0xa6, 0xa4, 0x3d, 0xd6, 0x29, 0x5f, 0x3e,
    0x24, 0xd8, 0x1b, 0xbe, 0x25, 0xe0, 0x75, 0x3e, 0x0d, 0x63, 0x22, 0xbe,
    0x2f, 0x67, 0x25, 0xbe, 0x9e, 0x76, 0x09, 0x3e, 0xc8, 0x72, 0x14, 0xbe,
    0x62, 0x2d, 0x03, 0xbe, 0xb0, 0xdf, 0x8a, 0x3d, 0xa8, 0x5c, 0x71, 0xbe,
    0x5d, 0x6d, 0x7a, 0x3e, 0x1e, 0x5c, 0x56, 0x3e, 0x57, 0x0d, 0xc7, 0xbc,
    0x24, 0x8b, 0x36, 0x3e, 0x57, 0x30, 0x61, 0xbe, 0x63, 0x6d, 0x09, 0x3d,
    0xf6, 0xdd, 0xb9, 0x3d, 0xac, 0xcb, 0xed, 0xbd, 0x18, 0xce, 0x8a, 0x3e,
    0x78, 0x7f, 0x65, 0xbd, 0xeb, 0x1d, 0xfa, 0xbd, 0xe0, 0x94, 0xdc, 0x3c,
    0x6c, 0x7d, 0x6f, 0x3e, 0xca, 0x26, 0x52, 0x3e, 0x20, 0x33, 0x79, 0xbe,
    0x40, 0x00, 0x7a, 0xbe, 0x31, 0x17, 0xa8, 0xbe, 0x60, 0xd0, 0x9d, 0x39,
    0xe2, 0x45, 0x8e, 0xbd, 0xb4, 0x7b, 0xe6, 0xbd, 0x73, 0x8f, 0x00, 0x3e,
    0xdf, 0x30, 0x32, 0x3e, 0x98, 0x8c, 0x4e, 0xbd, 0x5e, 0xc3, 0x74, 0xbe,
    0xec, 0x3b, 0x6c, 0xbc, 0x10, 0x1d, 0x45, 0xbd, 0xeb, 0xde, 0x66, 0x3e,
    0x88, 0x0f, 0x4e, 0xbd, 0x1c, 0x32, 0x75, 0xbe, 0x80, 0xf9, 0x96, 0x3c,
    0xde, 0xcd, 0xe3, 0x3c, 0x46, 0xc5, 0x68, 0xbc, 0x94, 0xa6, 0x60, 0xbe,
    0x95, 0x5c, 0xab, 0x3d, 0x03, 0xa0, 0x56, 0xbd, 0xdf, 0xe9, 0x81, 0xbe,
    0xca, 0x72, 0x4c, 0xbe, 0xdd, 0xd5, 0x17, 0xbe, 0x6d, 0x31, 0x2c, 0x3e,
    0xc4, 0x0e, 0x60, 0x3e, 0x58, 0xd2, 0x1b, 0x3e, 0x4c, 0xee, 0xe4, 0x3d,
    0xcb, 0xaf, 0x67, 0xbe, 0xea, 0xbb, 0xa8, 0xbe, 0x7f, 0x1a, 0xa7, 0xbe,
    0x3f, 0x00, 0x37, 0xbe, 0xa4, 0x89, 0xef, 0x3d, 0xef, 0xe9, 0x8c, 0xbe,
    0x17, 0xa3, 0x8a, 0xbe, 0x84, 0x6c, 0x62, 0xbd, 0xe0, 0x07, 0x79, 0xbd,
    0xf2, 0x3b, 0x37, 0x3d, 0x2e, 0xf3, 0x4c, 0x3d, 0xfc, 0xae, 0x74, 0xbe,
    0x7f, 0x58, 0x26, 0xbe, 0x5a, 0x01, 0x64, 0x3e, 0xa7, 0xe8, 0x7a, 0xbe,
    0xfb, 0xf3, 0x53, 0x3e, 0x3e, 0x8d, 0x22, 0xbe, 0xa8, 0xaf, 0xe5, 0xbd,
    0xc6, 0x20, 0x38, 0x3e, 0xa4, 0x3c, 0xd9, 0xbc, 0x04, 0x51, 0xfd, 0xbd,
    0xa4, 0x76, 0xe0, 0xbc, 0x32, 0xe5, 0x4c, 0xbe, 0x96, 0x9d, 0x5a, 0xbe,
    0x18, 0xa3, 0xf4, 0x3d, 0xf1, 0xef, 0xcc, 0xbe, 0x52, 0xcb, 0x93, 0x3d,
    0xbc, 0x5a, 0x3b, 0x3e, 0x5c, 0x26, 0x0c, 0x3e, 0xd5, 0x12, 0x69, 0xbe,
    0xb3, 0x2c, 0xb0, 0x3e, 0xd3, 0x0c, 0x88, 0x3e, 0xde, 0x17, 0xd1, 0xbd,
    0xf8, 0x7b, 0x60, 0x3d, 0x02, 0x1f, 0x9e, 0x3d, 0xfa, 0x0c, 0x31, 0xbe,
    0x73, 0x63, 0x8d, 0xbe, 0x34, 0x06, 0x58, 0x3e, 0xb2, 0x6e, 0x2e, 0x3e,
    0x04, 0x70, 0xc7, 0xbd, 0x75, 0x50, 0x8a, 0xbe, 0xf7, 0x4c, 0xe5, 0x3c,
    0x49, 0x37, 0x9f, 0xbe, 0x00, 0xcc, 0xc5, 0xba, 0x0e, 0x48, 0x39, 0x3e,
    0xc0, 0x36, 0xba, 0xbb, 0xe2, 0x34, 0xff, 0x3c, 0x3f, 0xce, 0x4b, 0xbc,
    0xb8, 0x03, 0xb9, 0x3d, 0xf9, 0xa8, 0x9a, 0x3e, 0x5c, 0xfc, 0x2b, 0x3e,
    0x86, 0x4b, 0x97, 0xbe, 0x77, 0xa1, 0x80, 0xbd, 0xc2, 0x51, 0x04, 0xbe,
    0x0a, 0xdc, 0xb9, 0xbd, 0xfb, 0x8d, 0x5b, 0xbe, 0x7a, 0xcd, 0xb8, 0x3e,
    0x5b, 0xe9, 0x25, 0x3e, 0x00, 0x14, 0xe3, 0xbd, 0x24, 0x41, 0x12, 0x3e,
    0x7e, 0x0a, 0x53, 0x3e, 0x9e, 0xce, 0x54, 0x3d, 0x91, 0x83, 0xd9, 0x3e,
    0x60, 0x79, 0x7a, 0x3d, 0xbf, 0xf1, 0x27, 0x3e, 0xc6, 0xbc, 0x84, 0x3d,
    0xaa, 0x79, 0x4f, 0x3e, 0x5b, 0x83, 0x8a, 0xbe, 0x24, 0x26, 0x42, 0x3e,
    0x48, 0xfd, 0x00, 0xbc, 0x6d, 0xa4, 0x75, 0x3e, 0x39, 0xc0, 0x93, 0x3e,
    0x37, 0x1a, 0x3c, 0xbe, 0x50, 0x88, 0xa4, 0x38, 0x29, 0xae, 0x51, 0xbd,
    0xfb, 0x83, 0xd3, 0xbd, 0xda, 0x78, 0x0b, 0x3e, 0x42, 0x49, 0x80, 0x3e,
    0xdd, 0xe5, 0x06, 0x3f, 0x5a, 0x1f, 0x97, 0x3e, 0xbf, 0x50, 0x95, 0x3e,
    0x80, 0x11, 0x00, 0x3c, 0x94, 0x4a, 0x22, 0x3e, 0xf1, 0xa1, 0x7d, 0x3c,
    0x60, 0x46, 0x6c, 0xbd, 0xe5, 0x58, 0xc2, 0x3b, 0x79, 0x2f, 0x1a, 0x3d,
    0x7a, 0xd1, 0xdd, 0xbd, 0xee, 0x0c, 0xb9, 0x3e, 0x1f, 0x74, 0x5d, 0xbe,
    0xf8, 0x73, 0xab, 0xbe, 0xb6, 0x87, 0x06, 0x3d, 0x0e, 0x8d, 0x44, 0xbc,
    0xc9, 0xd6, 0xa1, 0x3e, 0x3a, 0x05, 0x81, 0xbe, 0xe0, 0xb7, 0x9b, 0x3d,
    0x04, 0x6c, 0xbd, 0xbd, 0xc8, 0x0c, 0x7f, 0xbe, 0xaa, 0x4e, 0x57, 0xbe,
    0x0d, 0x81, 0xb3, 0x3e, 0xd0, 0xc9, 0x09, 0x3e, 0xeb, 0x2a, 0x0b, 0xbd,
    0x8c, 0x0b, 0x58, 0xbe, 0x33, 0xc5, 0xd0, 0x3c, 0x30, 0x7f, 0xd0, 0xbd,
    0x5a, 0x90, 0x3e, 0xbe, 0xa5, 0x99, 0xa8, 0x3d, 0x6a, 0x25, 0x7e, 0x3e,
    0x2e, 0x68, 0x70, 0x3e, 0x02, 0x02, 0x98, 0x3c, 0x2c, 0x3f, 0xb1, 0x3d,
    0xf7, 0x65, 0xd5, 0x3d, 0x74, 0x7a, 0x0a, 0x3e, 0xda, 0x94, 0x64, 0x3e,
    0xb4, 0x0d, 0x2f, 0x3e, 0xa5, 0x5b, 0x67, 0xbe, 0x9c, 0x51, 0x8c, 0xbe,
    0x12, 0xcf, 0x55, 0xbe, 0x71, 0x71, 0x81, 0x3e, 0xb6, 0x30, 0xf9, 0xbd,
    0x7d, 0xf9, 0x19, 0x3e, 0x84, 0x46, 0xba, 0x3d, 0xf5, 0x73, 0x3f, 0xbe,
    0xd3, 0xfb, 0x86, 0xbe, 0xa2, 0xd9, 0x6f, 0xbe, 0x6b, 0xa2, 0x18, 0x3e,
    0x94, 0x69, 0x8c, 0x3d, 0x16, 0x81, 0x5c, 0x3e, 0x4a, 0xad, 0x9c, 0xbd,
    0x14, 0x14, 0x01, 0xbe, 0xb2, 0x5c, 0x2d, 0x3d, 0x33, 0xf0, 0x8a, 0xbe,
    0x80, 0x22, 0x68, 0xbc, 0x7d, 0xa4, 0x2f, 0x3e, 0x48, 0xb2, 0x63, 0xbe,
    0x76, 0x19, 0x56, 0x3e, 0x56, 0xfc, 0x59, 0x3e, 0x0d, 0x11, 0xca, 0x3d,
    0x9b, 0xc4, 0x21, 0xbe, 0x58, 0x3a, 0x42, 0x3e, 0x04, 0xe4, 0x05, 0xbe,
    0x88, 0x4e, 0xdf, 0x3d, 0x46, 0x75, 0x44, 0x3e, 0xe3, 0x3e, 0x2b, 0xbe,
    0x4b, 0xd8, 0xa5, 0xbd, 0x00, 0xfd, 0x11, 0xbd, 0x0c, 0x21, 0x01, 0x3d,
    0xc8, 0xaa, 0x37, 0x3e, 0x0d, 0x53, 0x28, 0xbe, 0xa5, 0xb3, 0x86, 0x3d,
    0x76, 0x36, 0xd4, 0xbd, 0xc2, 0x17, 0xdc, 0x3d, 0x40, 0x5d, 0xb4, 0xbe,
    0x72, 0x1e, 0x42, 0x3e, 0x2e, 0xf6, 0x33, 0xbe, 0x69, 0xec, 0x16, 0xbe,
    0x7e, 0xce, 0x5a, 0xbe, 0xb1, 0x70, 0x67, 0x3e, 0xa1, 0x74, 0xbd, 0xbe,
    0xdc, 0x1a, 0x2e, 0x3e, 0x78, 0x3a, 0x64, 0xbe, 0x5f, 0xf1, 0x2b, 0x3e,
    0x77, 0x75, 0x16, 0x3e, 0x1b, 0x88, 0xa6, 0x3d, 0x75, 0x12, 0x1d, 0x3e,
    0x6c, 0x8c, 0x91, 0x3e, 0x61, 0x1b, 0x9e, 0xbd, 0x89, 0x4e, 0xb0, 0xbd,
    0x90, 0xe4, 0x8d, 0xbc, 0x6d, 0x0a, 0x36, 0xbc, 0x27, 0x5b, 0x29, 0x3d,
    0x82, 0x81, 0x92, 0x3e, 0xd0, 0x49, 0x68, 0xbe, 0x22, 0x4f, 0x88, 0xbe,
    0x50, 0x02, 0xd6, 0x3d, 0x29, 0xed, 0xa1, 0x3e, 0x5a, 0xa8, 0x95, 0xbe,
    0xc0, 0x02, 0x8a, 0x3d, 0x28, 0x36, 0x87, 0x3d, 0x15, 0xe7, 0xe0, 0xbc,
    0x04, 0x2f, 0xa7, 0xbe, 0xad, 0x49, 0x48, 0xbe, 0x39, 0xdb, 0x7b, 0x3d,
    0x4e, 0x05, 0x01, 0xbe, 0x3a, 0xe5, 0x37, 0xbe, 0x00, 0x5c, 0xef, 0x3c,
    0x15, 0x09, 0x20, 0xbd, 0xa8, 0xf0, 0x06, 0x3e, 0xf8, 0x43, 0x83, 0xbe,
    0x4e, 0x71, 0x41, 0x3e, 0x37, 0x9b, 0x57, 0x3d, 0x00, 0x5b, 0x8a, 0xbe,
    0x76, 0x82, 0x02, 0xbe, 0xb0, 0x19, 0xe8, 0xbd, 0x7b, 0x3e, 0x0f, 0x3e,
    0x58, 0x70, 0x39, 0xbe, 0xde, 0x4d, 0x5c, 0x3e, 0x44, 0x7c, 0x59, 0x3e,
    0x70, 0xfe, 0x3e, 0x3e, 0x54, 0x61, 0x19, 0xbe, 0xdc, 0x58, 0xbf, 0x3d,
    0x1a, 0x7a, 0x1b, 0xbe, 0xc5, 0xd9, 0x31, 0x3e, 0xa1, 0xe4, 0x7f, 0xbe,
    0x89, 0x3c, 0x8b, 0xbe, 0x62, 0xc7, 0x62, 0x3e, 0xd2, 0x4f, 0x0f, 0x3e,
    0x86, 0xfe, 0xe3, 0x3b, 0xde, 0xe4, 0xff, 0xff, 0x04, 0x00, 0x00, 0x00,
    0x00, 0x10, 0x00, 0x00, 0xdf, 0x37, 0x22, 0x3e, 0x9b, 0xc9, 0x19, 0x3e,
    0xf0, 0x56, 0x7f, 0x3d, 0x3d, 0x25, 0x29, 0x3d, 0x25, 0x95, 0xd4, 0x3e,
    0xd3, 0xd9, 0xe1, 0x3e, 0x46, 0xdb, 0x12, 0xbd, 0x5c, 0x68, 0xa0, 0x3e,
    0x79, 0x26, 0x0b, 0xbe, 0x5d, 0x5f, 0xb7, 0x3d, 0xf1, 0x4c, 0x3e, 0x3e,
    0x29, 0xd1, 0xbe, 0x3e, 0xf7, 0x48, 0x53, 0x3e, 0x22, 0xa5, 0x1a, 0x3e,
    0x19, 0x5d, 0x4d, 0xbb, 0x8e, 0x9f, 0x97, 0x3e, 0xbd, 0x08, 0xf6, 0x3d,
    0xde, 0x30, 0x99, 0x3d, 0x17, 0x3f, 0x82, 0x3e, 0x0d, 0xfc, 0xb3, 0x3e,
    0xc1, 0x52, 0x2c, 0xbe, 0x76, 0x78, 0x7e, 0xbe, 0x9a, 0x2f, 0x45, 0xbd,
    0x41, 0x8c, 0x94, 0xbe, 0x65, 0x98, 0x73, 0x3e, 0x81, 0x94, 0x4d, 0x3e,
    0xb5, 0x78, 0x28, 0x3e, 0x7d, 0x05, 0x56, 0x3c, 0xc9, 0x8b, 0x34, 0xbe,
    0x0c, 0xbb, 0xe1, 0xbd, 0xae, 0x25, 0x51, 0xbe, 0x24, 0x0c, 0xc0, 0xbc,
    0x3c, 0xae, 0xf8, 0x3d, 0x13, 0x28, 0x7c, 0xbe, 0x56, 0x89, 0x26, 0x3e,
    0xbc, 0xa0, 0x69, 0xbe, 0xb8, 0xc1, 0x42, 0xbe, 0xa6, 0x0d, 0x50, 0xbe,
    0xa0, 0xc3, 0x93, 0xbd, 0xfe, 0xb9, 0x84, 0xbe, 0xba, 0x58, 0x28, 0x3e,
    0xac, 0xd5, 0x92, 0xbe, 0xb8, 0x96, 0x92, 0xbe, 0xf6, 0x9c, 0x14, 0x3e,
    0xdb, 0xcf, 0x64, 0xbe, 0xb6, 0x68, 0x8e, 0xbd, 0x80, 0x7b, 0x2c, 0xbb,
    0x6c, 0x82, 0xe5, 0xbd, 0x43, 0xe4, 0x5d, 0xbe, 0x08, 0x7f, 0x64, 0xbd,
    0x37, 0xe3, 0x9a, 0x3e, 0xb8, 0x75, 0x15, 0xbe, 0x1c, 0xb1, 0xfc, 0x3d,
    0xba, 0xb7, 0x9b, 0xbe, 0x2a, 0x08, 0x04, 0xbe, 0x6b, 0x6e, 0x14, 0xbe,
    0x36, 0x90, 0x72, 0x3e, 0x6a, 0x70, 0x61, 0x3e, 0x4b, 0x80, 0x97, 0x3e,
    0xab, 0x8a, 0x63, 0xbe, 0xcd, 0x4f, 0x5f, 0xbe, 0x80, 0x58, 0x01, 0x3c,
    0x30, 0x23, 0xaa, 0x3d, 0x40, 0x9b, 0x15, 0x3c, 0x00, 0x03, 0xc5, 0x3a,
    0xa1, 0xa6, 0x6e, 0x3e, 0x72, 0x9a, 0x47, 0xbe, 0xb0, 0x28, 0xa5, 0x3d,
    0xf8, 0x31, 0xe5, 0x3b, 0x22, 0xd8, 0xfa, 0xbd, 0x64, 0x71, 0x4c, 0xbe,
    0x1d, 0xf9, 0x9b, 0x3e, 0x00, 0x92, 0x24, 0xbb, 0x19, 0xa8, 0x2d, 0xbe,
    0xd9, 0x1a, 0x93, 0xbe, 0x69, 0x2f, 0x28, 0x3c, 0x58, 0xa3, 0x98, 0xbe,
    0x16, 0xd5, 0xaf, 0xbd, 0xa3, 0xa8, 0x9b, 0xbe, 0xdb, 0xd2, 0x6f, 0xbe,
    0xc6, 0x3b, 0x6a, 0x3e, 0xca, 0xe7, 0x87, 0xbd, 0xf6, 0xe7, 0x57, 0x3d,
    0x29, 0x2d, 0xfb, 0x3c, 0x53, 0xb6, 0xb0, 0x3d, 0xf7, 0x60, 0x15, 0xbe,
    0xfd, 0xcf, 0x13, 0xbe, 0x8e, 0x96, 0x6d, 0xbe, 0x90, 0x22, 0xaa, 0x3d,
    0xa0, 0xb7, 0xf7, 0xbc, 0x6d, 0xfd, 0x93, 0xbe, 0x7b, 0x41, 0x81, 0xbe,
    0x02, 0x54, 0x80, 0xbe, 0xec, 0xe3, 0xb9, 0x3d, 0x55, 0x6e, 0x89, 0x3e,
    0xca, 0x19, 0x40, 0x3e, 0x16, 0x4a, 0x80, 0xbe, 0x9e, 0x95, 0xc4, 0xbe,
    0xa4, 0x3b, 0xbc, 0x3e, 0x19, 0xc8, 0x34, 0xbe, 0x56, 0xa9, 0x0f, 0xbf,
    0xec, 0x10, 0x72, 0xbd, 0x49, 0x3c, 0x23, 0x3e, 0xc5, 0x98, 0x7b, 0x3e,
    0xa2, 0xe3, 0xa6, 0x3e, 0x7f, 0x5a, 0x85, 0x3e, 0x1f, 0x15, 0xb3, 0x3e,
    0xe3, 0x90, 0x7f, 0x3e, 0x9d, 0xcb, 0x69, 0xbe, 0x21, 0x4e, 0xa0, 0x3e,
    0xbe, 0xf3, 0x19, 0x3e, 0xe0, 0x1f, 0x79, 0x3e, 0xee, 0x26, 0xaa, 0xbe,
    0x37, 0x77, 0xb0, 0x3d, 0x34, 0x28, 0x5e, 0x3e, 0x89, 0x08, 0xa0, 0xbc,
    0x27, 0xb5, 0x4b, 0x3e, 0x42, 0x4a, 0x6f, 0x3d, 0xc4, 0xc0, 0xa6, 0xbd,
    0x25, 0x39, 0x55, 0xbd, 0xc1, 0xca, 0x2a, 0xbf, 0xb7, 0x23, 0xa4, 0xbd,
    0x6b, 0xb2, 0xa3, 0x3e, 0x99, 0x69, 0x14, 0xbe, 0x3f, 0x79, 0x56, 0xbe,
    0x2f, 0x46, 0x72, 0x3e, 0x74, 0x42, 0x05, 0xbf, 0x75, 0x54, 0x01, 0xbe,
    0xa9, 0x7f, 0x3f, 0xbe, 0xcd, 0xb3, 0xaf, 0x3e, 0x96, 0x40, 0x33, 0x3d,
    0x6a, 0x59, 0x9c, 0x3e, 0x4a, 0x6b, 0xe1, 0x3e, 0x15, 0xe8, 0x26, 0x3e,
    0xa7, 0xc9, 0xff, 0x3d, 0x5e, 0xca, 0xa0, 0xbd, 0xd1, 0xef, 0x7e, 0x3c,
    0x4a, 0xda, 0x2d, 0x3e, 0x5e, 0x0c, 0x98, 0xbd, 0xd8, 0x17, 0x6c, 0x3e,
    0x3b, 0x14, 0xdd, 0xbe, 0x80, 0xc5, 0xa0, 0x3e, 0x32, 0x46, 0x89, 0x3e,
    0xd3, 0x79, 0xd4, 0xbe, 0x26, 0x56, 0x04, 0x3e, 0xce, 0x20, 0x42, 0x3e,
    0x65, 0xcd, 0xcb, 0x3d, 0x4f, 0x08, 0x41, 0x3c, 0xaf, 0x83, 0x6e, 0xbe,
    0x59, 0xa6, 0x7e, 0x3e, 0xca, 0xc6, 0x80, 0xbe, 0x4e, 0x75, 0x07, 0xbe,
    0x94, 0xd2, 0xbe, 0x3e, 0x7d, 0x96, 0x3c, 0xbe, 0xaa, 0x5e, 0x87, 0x3e,
    0xf7, 0x35, 0x94, 0x3e, 0x93, 0xac, 0x9a, 0xba, 0x1e, 0x84, 0xde, 0x39,
    0x95, 0xec, 0x13, 0x3e, 0xc7, 0x2a, 0xbd, 0x3c, 0x31, 0x7b, 0xc5, 0x3e,
    0xeb, 0x76, 0x95, 0x3d, 0x94, 0xef, 0x78, 0xbe, 0x71, 0xda, 0x02, 0x3e,
    0x8b, 0x0e, 0x37, 0x3e, 0x5f, 0xd3, 0xc9, 0x3e, 0xea, 0x7a, 0x5b, 0xbe,
    0x57, 0xa4, 0x61, 0x3d, 0x55, 0x09, 0x64, 0xbe, 0xb4, 0x4c, 0xe3, 0x3d,
    0xdf, 0x8a, 0x4a, 0x3e, 0x69, 0xf8, 0x38, 0xbd, 0x6f, 0xa3, 0x31, 0x3d,
    0xc0, 0xd0, 0x77, 0xbe, 0x1e, 0xb4, 0xea, 0x3d, 0xf9, 0xe4, 0x56, 0x3e,
    0x9c, 0x2d, 0xc4, 0x3e, 0x92, 0x38, 0x19, 0x3e, 0xba, 0x9d, 0x39, 0x3d,
    0x86, 0x3e, 0x7b, 0xbe, 0xd3, 0xc8, 0x08, 0xbd, 0x01, 0x6c, 0x3c, 0xbe,
    0x4c, 0x85, 0x90, 0x3e, 0x92, 0x58, 0x9f, 0x3c, 0x68, 0x91, 0x43, 0xbc,
    0x8e, 0x50, 0x8b, 0xbe, 0xe3, 0x60, 0xb1, 0xbe, 0x57, 0x3c, 0x58, 0xbe,
    0xe1, 0xb0, 0x1b, 0xbd, 0x72, 0xc0, 0xb2, 0xbd, 0x90, 0xdb, 0x83, 0x3e,
    0x3e, 0x0a, 0xa3, 0x3e, 0x61, 0x90, 0xbf, 0x3b, 0x55, 0x15, 0xfd, 0x3c,
    0x3c, 0x97, 0x81, 0x3e, 0xd2, 0xee, 0x80, 0xbe, 0xbe, 0xfe, 0xe7, 0x3d,
    0x11, 0xf6, 0x2d, 0x3e, 0x43, 0xf2, 0x37, 0x3e, 0x1c, 0xf5, 0x1c, 0x3d,
    0x15, 0xf1, 0x40, 0x3e, 0x7c, 0x0c, 0x8c, 0xbc, 0xbe, 0x22, 0x01, 0xbd,
    0xeb, 0xb1, 0xa7, 0xbe, 0x5e, 0x2a, 0x00, 0xbe, 0x18, 0x9b, 0x60, 0xbe,
    0xb5, 0xd8, 0xa7, 0xbd, 0xac, 0x56, 0xd3, 0x3d, 0x2f, 0x78, 0xac, 0xbd,
    0x50, 0xd7, 0xb3, 0xbd, 0xfc, 0xe0, 0x65, 0x3e, 0xfc, 0x92, 0x5e, 0x3e,
    0x0c, 0xc0, 0xf5, 0xbd, 0x23, 0x01, 0x80, 0xbe, 0x4b, 0x5e, 0xbe, 0x3e,
    0x8e, 0xf9, 0x84, 0x3e, 0x28, 0x57, 0x16, 0x3d, 0xff, 0x83, 0x91, 0x3e,
    0xe4, 0x4d, 0xbb, 0x3d, 0x27, 0x36, 0x74, 0x3c, 0x24, 0xa1, 0x66, 0xbe,
    0xff, 0x66, 0x84, 0xbe, 0x32, 0x1b, 0x6b, 0xbe, 0xe0, 0x83, 0x97, 0xbe,
    0xc0, 0x98, 0x32, 0x3e, 0x41, 0xd5, 0xa7, 0x3e, 0x63, 0xeb, 0x84, 0xbd,
    0x42, 0xa3, 0x5f, 0x3d, 0x9c, 0xb9, 0xcf, 0x3d, 0x94, 0xba, 0x77, 0xbe,
    0x3c, 0x7f, 0x3b, 0xbd, 0xe5, 0x1b, 0x7c, 0xbe, 0xa7, 0x7a, 0x35, 0xbe,
    0xda, 0x92, 0x1d, 0x3e, 0x5d, 0xca, 0xe3, 0x3c, 0xcc, 0x8f, 0xac, 0x3d,
    0xa7, 0x70, 0x1f, 0xbe, 0x58, 0x72, 0x53, 0xbd, 0xb9, 0xee, 0x4c, 0xbe,
    0x3a, 0x22, 0x81, 0x3d, 0x46, 0x8c, 0x16, 0x3e, 0x98, 0x33, 0x0c, 0xbd,
    0x46, 0xa9, 0xb0, 0x3c, 0xe7, 0x68, 0x90, 0xbe, 0x54, 0x7c, 0xb5, 0x3d,
    0x5a, 0x93, 0x02, 0xbe, 0x01, 0x03, 0x90, 0x3e, 0xa4, 0x93, 0xd7, 0x3d,
    0xa7, 0xbe, 0x96, 0x3e, 0xb7, 0x57, 0x97, 0x3e, 0x36, 0x3c, 0x27, 0x3e,
    0x12, 0xa4, 0x39, 0xbe, 0x74, 0x81, 0x88, 0x3e, 0x00, 0xc5, 0x8c, 0xbe,
    0xd8, 0x50, 0xa9, 0x3e, 0x59, 0x84, 0x4d, 0xbd, 0x7f, 0x63, 0x82, 0xbe,
    0x8c, 0xdc, 0xc7, 0x3d, 0xe9, 0x5b, 0xd9, 0x3b, 0x9b, 0x83, 0xa4, 0xbd,
    0x0a, 0xc0, 0xdf, 0xbd, 0x1a, 0xcc, 0x0f, 0xbe, 0xfc, 0x59, 0x9d, 0x3e,
    0xc1, 0xcc, 0x65, 0xbe, 0xbe, 0x31, 0x8d, 0xbd, 0x63, 0x6b, 0x5c, 0x3d,
    0x4d, 0x94, 0x4b, 0xbd, 0x2d, 0xaa, 0x05, 0xbe, 0x66, 0xeb, 0x97, 0x3e,
    0x53, 0x88, 0xa2, 0xbc, 0x51, 0x7b, 0x1d, 0x3d, 0x7e, 0x98, 0x7a, 0x3e,
    0xc2, 0xff, 0x90, 0x3e, 0xc4, 0x29, 0x20, 0xbe, 0x58, 0x75, 0x61, 0x3e,
    0xe9, 0x97, 0x35, 0xbe, 0xa8, 0xa5, 0xa6, 0xbd, 0x8d, 0xfe, 0x8f, 0xbe,
    0x40, 0x9b, 0xa6, 0x3e, 0xf0, 0x89, 0x49, 0xbe, 0xbe, 0x2c, 0x65, 0xbe,
    0xb5, 0xef, 0xb7, 0x3d, 0xfb, 0x7b, 0x55, 0xbe, 0x52, 0x85, 0x94, 0x3d,
    0x1a, 0x67, 0xa6, 0x3b, 0xdc, 0x1b, 0x96, 0xbe, 0xea, 0x53, 0xa6, 0xbe,
    0xc6, 0xae, 0x24, 0xbe, 0xaf, 0xae, 0x1f, 0xbd, 0x94, 0xf4, 0x74, 0xbb,
    0x0a, 0x11, 0xd6, 0xbc, 0x02, 0x4f, 0x77, 0xbd, 0x2c, 0x1f, 0x2c, 0x3e,
    0x32, 0x7c, 0xac, 0x3e, 0x43, 0x57, 0x5d, 0xbe, 0xa2, 0x5b, 0xeb, 0xbd,
    0x31, 0x9f, 0x97, 0xbe, 0x3e, 0xe2, 0x6f, 0x3e, 0x31, 0x64, 0x37, 0xbe,
    0xe0, 0x2e, 0x22, 0x3e, 0x70, 0x28, 0xd9, 0xbd, 0x4a, 0x11, 0x52, 0x3e,
    0xe6, 0x89, 0x91, 0xbe, 0x93, 0x37, 0x99, 0xbe, 0xc6, 0xd6, 0x35, 0xbe,
    0xda, 0x17, 0xb5, 0xbd, 0x18, 0xe6, 0xfa, 0x3d, 0x7e, 0xb6, 0x42, 0xbe,
    0x0d, 0x2c, 0x8c, 0xbd, 0x62, 0x95, 0x8f, 0x3e, 0x61, 0x7b, 0x59, 0xbe,
    0x6f, 0xdf, 0x8f, 0x3e, 0x25, 0x09, 0x0b, 0x3e, 0x2a, 0xc5, 0x01, 0x3e,
    0xbf, 0xb7, 0x31, 0x3e, 0xaf, 0xcd, 0x3a, 0x3e, 0xfd, 0x6c, 0xf2, 0xbd,
    0x53, 0x05, 0x17, 0x3e, 0x6e, 0xc2, 0x0c, 0xbe, 0x0b, 0x4d, 0xd5, 0xbd,
    0x52, 0x8d, 0x84, 0x3e, 0x24, 0xf2, 0x02, 0xbe, 0x41, 0x69, 0x9f, 0x3e,
    0xfb, 0x90, 0xa5, 0x3d, 0x9a, 0x8e, 0x3f, 0xbd, 0xed, 0xc5, 0x2a, 0x3e,
    0xee, 0x5a, 0xb1, 0xbc, 0x69, 0xd5, 0x84, 0x3e, 0x55, 0x11, 0x6c, 0x3e,
    0x1d, 0xd0, 0x03, 0xbe, 0xbe, 0x6d, 0x25, 0x3e, 0x48, 0x1c, 0x52, 0x3e,
    0x00, 0x27, 0xb9, 0x3d, 0xe4, 0x9e, 0xbb, 0x3d, 0x37, 0x43, 0x73, 0xbe,
    0x25, 0xa2, 0x3f, 0xbe, 0xe5, 0xf4, 0x89, 0xbd, 0xef, 0xeb, 0xa6, 0x3e,
    0xae, 0x3d, 0xe1, 0x39, 0xcb, 0xc9, 0x71, 0x3e, 0xc4, 0x52, 0xf6, 0x3c,
    0xf3, 0x3f, 0xb5, 0x3e, 0xf5, 0x2c, 0x90, 0x3e, 0xc5, 0xc9, 0x2d, 0x3e,
    0x9f, 0x1e, 0x93, 0x3e, 0xe2, 0xcc, 0xff, 0x3c, 0x92, 0x69, 0xde, 0x3e,
    0xe4, 0x4e, 0x8f, 0x3e, 0x21, 0x50, 0x3b, 0xbd, 0x1b, 0x70, 0x7d, 0xbe,
    0xfb, 0x62, 0xe2, 0xbe, 0xc7, 0x01, 0x71, 0xbe, 0xc0, 0x56, 0x86, 0x3e,
    0x89, 0xe6, 0x19, 0xbe, 0x2d, 0x58, 0x0f, 0xbe, 0x1c, 0x2e, 0xb6, 0x3d,
    0x80, 0x31, 0x9f, 0xbe, 0x89, 0x2c, 0x42, 0xbd, 0xf2, 0x7f, 0x7b, 0xbd,
    0x71, 0x1a, 0xcb, 0x3c, 0x2e, 0xb0, 0x9c, 0xbd, 0x32, 0xae, 0xe6, 0xba,
    0xc7, 0x85, 0xb8, 0xbd, 0x3b, 0xe3, 0x16, 0x3e, 0xf0, 0xe9, 0x96, 0xbe,
    0xed, 0x0e, 0x30, 0xbe, 0x4b, 0x0a, 0x02, 0x3d, 0x6f, 0x72, 0x48, 0xbe,
    0x94, 0x16, 0x20, 0x3e, 0x64, 0x13, 0x01, 0x3e, 0x80, 0x46, 0x88, 0x3e,
    0xc7, 0x74, 0x21, 0x3e, 0xec, 0xa5, 0xde, 0xbd, 0x1c, 0x82, 0xe2, 0xbd,
    0xc2, 0x64, 0x60, 0xbe, 0xcd, 0xda, 0x2c, 0xbe, 0xdf, 0x39, 0x7c, 0xbd,
    0x1e, 0xad, 0x7f, 0x3e, 0x5a, 0x50, 0x55, 0x3e, 0xa5, 0x5d, 0xa5, 0xbe,
    0x84, 0x60, 0xdd, 0x3d, 0x2f, 0x86, 0xdc, 0xbd, 0x82, 0x90, 0xaf, 0x3d,
    0xc1, 0x48, 0x5c, 0xbe, 0xfb, 0xfe, 0x01, 0x3e, 0xcd, 0x1e, 0x2c, 0x3c,
    0xa8, 0x98, 0x18, 0x3e, 0x4e, 0xf9, 0x75, 0xbe, 0x5d, 0x49, 0x15, 0x3e,
    0xe0, 0xff, 0xf9, 0x3e, 0x68, 0x96, 0x0f, 0xbd, 0x83, 0xa4, 0xa9, 0xbd,
    0xbb, 0xea, 0x61, 0x3d, 0x85, 0x3c, 0x91, 0xbd, 0xc1, 0x70, 0xc4, 0xbd,
    0xd8, 0xb3, 0xb3, 0x3e, 0x7e, 0x09, 0x62, 0xbe, 0x5c, 0xf8, 0xfc, 0x3c,
    0x1a, 0xec, 0x5a, 0x3e, 0x1d, 0xe2, 0x6b, 0xbe, 0x9f, 0x85, 0x40, 0xbe,
    0xc5, 0x04, 0xa1, 0x3e, 0x3e, 0xc3, 0x69, 0x3e, 0x5f, 0x52, 0x2d, 0xbe,
    0xf1, 0x77, 0xf0, 0x3d, 0x92, 0x09, 0x9d, 0xbc, 0x0e, 0xbc, 0x0d, 0xbe,
    0x96, 0xee, 0x81, 0x3d, 0xb7, 0x95, 0x85, 0x3e, 0x2d, 0x48, 0xb5, 0x3e,
    0x48, 0x4f, 0x8a, 0x3e, 0x3f, 0x87, 0x39, 0xbd, 0xbc, 0x31, 0x90, 0xbe,
    0x01, 0x66, 0x10, 0x3d, 0x99, 0x81, 0x35, 0xbe, 0xeb, 0x29, 0x92, 0xbe,
    0xfe, 0xe6, 0x70, 0xbe, 0x24, 0x46, 0x80, 0xbe, 0x3b, 0xcf, 0x3e, 0x3d,
    0x17, 0xf5, 0xba, 0x3e, 0x28, 0x54, 0x0e, 0xbd, 0x0a, 0x99, 0x40, 0x3c,
    0x0c, 0xc1, 0x4a, 0xbe, 0x86, 0x46, 0x79, 0xbd, 0x7a, 0x26, 0x82, 0xbd,
    0x31, 0xb7, 0x3c, 0xbc, 0x20, 0x4e, 0xb4, 0x3e, 0x6e, 0x39, 0x19, 0xbe,
    0x16, 0x72, 0x8d, 0x3d, 0xb3, 0x78, 0x2b, 0x3d, 0x4e, 0x21, 0xeb, 0x3d,
    0x21, 0x7d, 0x82, 0x3e, 0xf1, 0xcf, 0x5c, 0x3d, 0x9d, 0x68, 0x8b, 0xbe,
    0xba, 0x40, 0xb5, 0x3e, 0x6e, 0x69, 0x85, 0x3e, 0x4e, 0x5e, 0xc0, 0x3c,
    0xcc, 0x7f, 0x82, 0x3e, 0x8c, 0xa7, 0x1c, 0xbe, 0x66, 0xb4, 0x52, 0xbe,
    0xaa, 0xe1, 0x8f, 0xbc, 0x45, 0x90, 0x8a, 0x3e, 0xf6, 0x01, 0xe9, 0xbc,
    0x09, 0x3d, 0x2b, 0xbe, 0x17, 0xd2, 0xa7, 0x3e, 0xee, 0x70, 0xc2, 0xbd,
    0xb0, 0xb8, 0xf8, 0xbe, 0xf3, 0x51, 0x48, 0xbd, 0xb2, 0x63, 0xd9, 0x3e,
    0x43, 0x00, 0x80, 0x3d, 0xc6, 0x50, 0x2b, 0xbe, 0xb4, 0x26, 0x3a, 0xbe,
    0xb7, 0x4e, 0x6b, 0x3d, 0xe1, 0x99, 0xc6, 0x3e, 0xc8, 0x1a, 0xbf, 0x3c,
    0x24, 0x4e, 0xe4, 0x3c, 0x13, 0x24, 0xa6, 0x3c, 0x20, 0xff, 0xea, 0x3d,
    0x89, 0x8a, 0xb8, 0x3e, 0x98, 0xff, 0x68, 0xbe, 0xa4, 0x75, 0x39, 0x3e,
    0x67, 0xb9, 0x6b, 0xbe, 0x57, 0xf5, 0xe3, 0xbd, 0xcc, 0xb6, 0x8c, 0xbe,
    0x3b, 0x08, 0x46, 0x3e, 0x7a, 0x62, 0xa5, 0xbd, 0x86, 0x36, 0x38, 0xbe,
    0x86, 0x31, 0x6e, 0x3b, 0x6e, 0x21, 0x88, 0x3e, 0xc8, 0x64, 0xf8, 0xbd,
