unsigned char lw4_md2[] = {
    0x1c, 0x00, 0x00, 0x00, 0x54, 0x46, 0x4c, 0x33, 0x14, 0x00, 0x20, 0x00,
    0x1c, 0x00, 0x18, 0x00, 0x14, 0x00, 0x10, 0x00, 0x0c, 0x00, 0x00, 0x00,
    0x08, 0x00, 0x04, 0x00, 0x14, 0x00, 0x00, 0x00, 0x1c, 0x00, 0x00, 0x00,
    0x98, 0x00, 0x00, 0x00, 0xf0, 0x00, 0x00, 0x00, 0x6c, 0x04, 0x00, 0x00,
    0x7c, 0x04, 0x00, 0x00, 0xa8, 0x0b, 0x00, 0x00, 0x03, 0x00, 0x00, 0x00,
    0x01, 0x00, 0x00, 0x00, 0x10, 0x00, 0x00, 0x00, 0x00, 0x00, 0x0a, 0x00,
    0x10, 0x00, 0x0c, 0x00, 0x08, 0x00, 0x04, 0x00, 0x0a, 0x00, 0x00, 0x00,
    0x0c, 0x00, 0x00, 0x00, 0x1c, 0x00, 0x00, 0x00, 0x3c, 0x00, 0x00, 0x00,
    0x0f, 0x00, 0x00, 0x00, 0x73, 0x65, 0x72, 0x76, 0x69, 0x6e, 0x67, 0x5f,
    0x64, 0x65, 0x66, 0x61, 0x75, 0x6c, 0x74, 0x00, 0x01, 0x00, 0x00, 0x00,
    0x04, 0x00, 0x00, 0x00, 0x90, 0xff, 0xff, 0xff, 0x0d, 0x00, 0x00, 0x00,
    0x04, 0x00, 0x00, 0x00, 0x09, 0x00, 0x00, 0x00, 0x64, 0x65, 0x6e, 0x73,
    0x65, 0x5f, 0x31, 0x32, 0x31, 0x00, 0x00, 0x00, 0x01, 0x00, 0x00, 0x00,
    0x04, 0x00, 0x00, 0x00, 0x76, 0xfb, 0xff, 0xff, 0x04, 0x00, 0x00, 0x00,
    0x0f, 0x00, 0x00, 0x00, 0x64, 0x65, 0x6e, 0x73, 0x65, 0x5f, 0x31, 0x31,
    0x38, 0x5f, 0x69, 0x6e, 0x70, 0x75, 0x74, 0x00, 0x02, 0x00, 0x00, 0x00,
    0x34, 0x00, 0x00, 0x00, 0x04, 0x00, 0x00, 0x00, 0xdc, 0xff, 0xff, 0xff,
    0x10, 0x00, 0x00, 0x00, 0x04, 0x00, 0x00, 0x00, 0x13, 0x00, 0x00, 0x00,
    0x43, 0x4f, 0x4e, 0x56, 0x45, 0x52, 0x53, 0x49, 0x4f, 0x4e, 0x5f, 0x4d,
    0x45, 0x54, 0x41, 0x44, 0x41, 0x54, 0x41, 0x00, 0x08, 0x00, 0x0c, 0x00,
    0x08, 0x00, 0x04, 0x00, 0x08, 0x00, 0x00, 0x00, 0x0f, 0x00, 0x00, 0x00,
    0x04, 0x00, 0x00, 0x00, 0x13, 0x00, 0x00, 0x00, 0x6d, 0x69, 0x6e, 0x5f,
    0x72, 0x75, 0x6e, 0x74, 0x69, 0x6d, 0x65, 0x5f, 0x76, 0x65, 0x72, 0x73,
    0x69, 0x6f, 0x6e, 0x00, 0x11, 0x00, 0x00, 0x00, 0x78, 0x03, 0x00, 0x00,
    0x70, 0x03, 0x00, 0x00, 0x40, 0x03, 0x00, 0x00, 0x20, 0x03, 0x00, 0x00,
    0x00, 0x03, 0x00, 0x00, 0xe0, 0x02, 0x00, 0x00, 0xe0, 0x01, 0x00, 0x00,
    0x90, 0x01, 0x00, 0x00, 0x40, 0x01, 0x00, 0x00, 0xb0, 0x00, 0x00, 0x00,
    0xa8, 0x00, 0x00, 0x00, 0xa0, 0x00, 0x00, 0x00, 0x98, 0x00, 0x00, 0x00,
    0x90, 0x00, 0x00, 0x00, 0x88, 0x00, 0x00, 0x00, 0x68, 0x00, 0x00, 0x00,
    0x04, 0x00, 0x00, 0x00, 0x36, 0xfc, 0xff, 0xff, 0x04, 0x00, 0x00, 0x00,
    0x54, 0x00, 0x00, 0x00, 0x0c, 0x00, 0x00, 0x00, 0x08, 0x00, 0x0e, 0x00,
    0x08, 0x00, 0x04, 0x00, 0x08, 0x00, 0x00, 0x00, 0x10, 0x00, 0x00, 0x00,
    0x24, 0x00, 0x00, 0x00, 0x00, 0x00, 0x06, 0x00, 0x08, 0x00, 0x04, 0x00,
    0x06, 0x00, 0x00, 0x00, 0x04, 0x00, 0x00, 0x00, 0x00, 0x00, 0x00, 0x00,
    0x00, 0x00, 0x0a, 0x00, 0x10, 0x00, 0x0c, 0x00, 0x08, 0x00, 0x04, 0x00,
    0x0a, 0x00, 0x00, 0x00, 0x02, 0x00, 0x00, 0x00, 0x02, 0x00, 0x00, 0x00,
    0x04, 0x00, 0x00, 0x00, 0x06, 0x00, 0x00, 0x00, 0x32, 0x2e, 0x31, 0x34,
    0x2e, 0x30, 0x00, 0x00, 0x96, 0xfc, 0xff, 0xff, 0x04, 0x00, 0x00, 0x00,
    0x10, 0x00, 0x00, 0x00, 0x31, 0x2e, 0x35, 0x2e, 0x30, 0x00, 0x00, 0x00,
    0x00, 0x00, 0x00, 0x00, 0x00, 0x00, 0x00, 0x00, 0x3c, 0xf6, 0xff, 0xff,
    0x40, 0xf6, 0xff, 0xff, 0x44, 0xf6, 0xff, 0xff, 0x48, 0xf6, 0xff, 0xff,
    0x4c, 0xf6, 0xff, 0xff, 0xc6, 0xfc, 0xff, 0xff, 0x04, 0x00, 0x00, 0x00,
    0x80, 0x00, 0x00, 0x00, 0x3c, 0xf2, 0x6b, 0xbf, 0xed, 0x16, 0x51, 0xc0,
    0x3a, 0x4d, 0xac, 0x3e, 0xb1, 0xe7, 0xb5, 0xbf, 0x5e, 0xba, 0x73, 0x3f,
    0xda, 0xa9, 0x76, 0x3f, 0xcd, 0xba, 0x15, 0xbf, 0x78, 0xab, 0x1c, 0xbf,
    0x0c, 0x3d, 0xc1, 0xbe, 0x7c, 0x1d, 0x2b, 0x3f, 0x30, 0x9d, 0xc1, 0x3d,
    0xeb, 0x75, 0x1b, 0xbe, 0x23, 0xe3, 0x84, 0x3e, 0xdb, 0x35, 0x0a, 0xbf,
    0x23, 0x05, 0x07, 0xbf, 0x45, 0x19, 0x85, 0xbf, 0x01, 0x8e, 0x7c, 0xbf,
    0x65, 0xa3, 0x51, 0xbd, 0xd8, 0x76, 0xbc, 0xbe, 0xa8, 0x7c, 0x31, 0x40,
    0xf6, 0x0e, 0x90, 0xbe, 0x0f, 0xe5, 0x7c, 0xbf, 0xe4, 0x65, 0x41, 0xbe,
    0xd6, 0x13, 0x78, 0x3e, 0x06, 0xf7, 0x35, 0xbe, 0x07, 0x43, 0x1e, 0xbf,
    0x10, 0xa3, 0x04, 0x3d, 0x8c, 0xc3, 0xf4, 0xbf, 0xf3, 0xed, 0x75, 0x3f,
    0xed, 0x96, 0xfd, 0xbf, 0xd8, 0xd2, 0x3f, 0x3e, 0xb0, 0xf1, 0x1a, 0xc0,
    0x52, 0xfd, 0xff, 0xff, 0x04, 0x00, 0x00, 0x00, 0x40, 0x00, 0x00, 0x00,
    0x60, 0xde, 0x41, 0x3f, 0x2a, 0x99, 0x9e, 0x3f, 0xdc, 0x23, 0x40, 0xbf,
    0x0b, 0xeb, 0xf4, 0xbe, 0x9a, 0x70, 0x8a, 0x3f, 0xaf, 0xfe, 0xf7, 0xbe,
    0x58, 0x58, 0x59, 0xbe, 0x74, 0xa4, 0x0e, 0xbf, 0xa0, 0xf9, 0x00, 0xbd,
    0x9c, 0x7d, 0x2d, 0xbf, 0x80, 0x8d, 0x54, 0xbf, 0x03, 0x15, 0x20, 0xbf,
    0xa3, 0x45, 0x7e, 0xbf, 0x22, 0x46, 0x1b, 0xbe, 0xad, 0x3b, 0x4a, 0x3f,
    0xe0, 0x4b, 0x71, 0x3f, 0x9e, 0xfd, 0xff, 0xff, 0x04, 0x00, 0x00, 0x00,
    0x40, 0x00, 0x00, 0x00, 0xa6, 0x33, 0xba, 0x3d, 0x17, 0x39, 0x96, 0x3f,
    0x32, 0x5a, 0xf4, 0x3f, 0x65, 0xb1, 0x8a, 0xbe, 0x1a, 0xdd, 0xcf, 0xbf,
    0x12, 0x19, 0x28, 0x3f, 0x09, 0x83, 0x3d, 0x3f, 0x65, 0x56, 0xa1, 0x3f,
    0x90, 0x83, 0xfa, 0xbe, 0x74, 0x59, 0x4f, 0x3e, 0x88, 0xcf, 0x91, 0xbe,
    0x94, 0xaf, 0x41, 0xbf, 0x73, 0xfc, 0x95, 0x3e, 0x50, 0x66, 0x4d, 0xbf,
    0x33, 0xab, 0x41, 0xbf, 0x9c, 0x4e, 0x70, 0xbe, 0xea, 0xfd, 0xff, 0xff,
    0x04, 0x00, 0x00, 0x00, 0xf0, 0x00, 0x00, 0x00, 0x1d, 0x67, 0xa6, 0x3b,
    0xb9, 0x47, 0x4d, 0x3e, 0x57, 0x7c, 0xd2, 0xbf, 0xa6, 0x46, 0xb8, 0x3e,
    0xc7, 0x63, 0xe5, 0xbc, 0x29, 0x90, 0xbb, 0xbf, 0x68, 0xd2, 0x0d, 0x3f,
    0xa0, 0x67, 0x6b, 0x3d, 0x80, 0xaa, 0xec, 0xbd, 0x21, 0xaf, 0x20, 0xbf,
    0x19, 0xdd, 0xa3, 0x3e, 0xf4, 0xfe, 0x56, 0xbd, 0x53, 0x36, 0xa5, 0xbe,
    0x39, 0xd2, 0x01, 0x3d, 0xba, 0x5d, 0xda, 0x3c, 0xf0, 0x0e, 0xa0, 0x3e,
    0x1d, 0x92, 0xb3, 0xbc, 0x45, 0x66, 0xae, 0xbe, 0xd3, 0x09, 0xd8, 0xbc,
    0xf4, 0x6f, 0x3d, 0xbd, 0xa7, 0x17, 0xc3, 0xbe, 0x2c, 0x25, 0x82, 0xbe,
    0x35, 0x55, 0xa2, 0xbf, 0xa7, 0x97, 0x1d, 0xbf, 0xb4, 0xf5, 0xe4, 0x3e,
    0x4a, 0x14, 0x29, 0x3f, 0xa8, 0xea, 0x21, 0x3f, 0x66, 0xda, 0x2a, 0xbb,
    0xcd, 0x1e, 0xe8, 0xbe, 0xe4, 0x91, 0xb0, 0x3e, 0x20, 0x13, 0x4e, 0x3e,
    0x2c, 0xae, 0x5f, 0xbf, 0xc1, 0x3e, 0x8b, 0xbf, 0x33, 0x26, 0x7e, 0x3e,
    0xf6, 0x77, 0x2d, 0xbf, 0xbe, 0x28, 0x33, 0xbf, 0x1f, 0x4e, 0x1c, 0xbf,
    0x5e, 0x1f, 0x19, 0xbc, 0xdb, 0xe9, 0xdc, 0x3e, 0x83, 0xb7, 0xde, 0x3e,
    0x9b, 0xb5, 0x17, 0xbf, 0x43, 0xb9, 0xec, 0xbe, 0x3c, 0xb0, 0x95, 0xbe,
    0x1a, 0xf5, 0x63, 0x3e, 0xa0, 0xe5, 0x9e, 0xbe, 0x5f, 0xad, 0xec, 0xbe,
    0x19, 0xc1, 0x92, 0xbb, 0x82, 0x3b, 0x8c, 0x3e, 0x62, 0x8e, 0x22, 0x3d,
    0x57, 0x6f, 0x01, 0x3f, 0x9f, 0x91, 0x9d, 0x3f, 0xda, 0xae, 0x40, 0xbe,
    0x26, 0x03, 0x7c, 0xbf, 0x26, 0x66, 0x90, 0x3d, 0x34, 0xb6, 0xeb, 0x3e,
    0xc7, 0xc8, 0xcc, 0x3e, 0xac, 0xb8, 0x1c, 0x3f, 0xe0, 0x22, 0x3c, 0xbe,
    0xe3, 0x84, 0xdf, 0x3d, 0x13, 0xb6, 0x37, 0x3e, 0xe6, 0xfe, 0xff, 0xff,
    0x04, 0x00, 0x00, 0x00, 0x10, 0x00, 0x00, 0x00, 0x5d, 0xc1, 0x92, 0xbd,
    0x1a, 0x7b, 0x55, 0xbf, 0xe9, 0xe3, 0xf3, 0xbc, 0x22, 0x64, 0x0d, 0xbf,
    0x02, 0xff, 0xff, 0xff, 0x04, 0x00, 0x00, 0x00, 0x10, 0x00, 0x00, 0x00,
    0x30, 0xd6, 0x42, 0xbf, 0x75, 0xf5, 0x36, 0xbf, 0x00, 0x00, 0x00, 0x00,
    0x5e, 0x12, 0xc0, 0xbe, 0x1e, 0xff, 0xff, 0xff, 0x04, 0x00, 0x00, 0x00,
    0x10, 0x00, 0x00, 0x00, 0x2e, 0xbe, 0x34, 0xbf, 0xe5, 0x6a, 0xbc, 0xbe,
    0x00, 0x00, 0x00, 0x00, 0xfb, 0x82, 0x9d, 0x3f, 0x3a, 0xff, 0xff, 0xff,
    0x04, 0x00, 0x00, 0x00, 0x20, 0x00, 0x00, 0x00, 0xe1, 0xaf, 0x1f, 0xbf,
    0xf9, 0xb2, 0x36, 0xbf, 0x7a, 0xac, 0x0f, 0xbe, 0xd4, 0x39, 0x9e, 0x3e,
    0x6b, 0x0c, 0xb0, 0x3f, 0x2c, 0xa2, 0x85, 0xbe, 0xa3, 0xd8, 0x12, 0x3e,
    0x35, 0xe9, 0xe0, 0xbd, 0xf0, 0xf8, 0xff, 0xff, 0xf4, 0xf8, 0xff, 0xff,
    0x0f, 0x00, 0x00, 0x00, 0x4d, 0x4c, 0x49, 0x52, 0x20, 0x43, 0x6f, 0x6e,
    0x76, 0x65, 0x72, 0x74, 0x65, 0x64, 0x2e, 0x00, 0x01, 0x00, 0x00, 0x00,
    0x14, 0x00, 0x00, 0x00, 0x00, 0x00, 0x0e, 0x00, 0x18, 0x00, 0x14, 0x00,
    0x10, 0x00, 0x0c, 0x00, 0x08, 0x00, 0x04, 0x00, 0x0e, 0x00, 0x00, 0x00,
    0x14, 0x00, 0x00, 0x00, 0x1c, 0x00, 0x00, 0x00, 0x5c, 0x01, 0x00, 0x00,
    0x60, 0x01, 0x00, 0x00, 0x64, 0x01, 0x00, 0x00, 0x04, 0x00, 0x00, 0x00,
    0x6d, 0x61, 0x69, 0x6e, 0x00, 0x00, 0x00, 0x00, 0x05, 0x00, 0x00, 0x00,
    0x04, 0x01, 0x00, 0x00, 0xbc, 0x00, 0x00, 0x00, 0x84, 0x00, 0x00, 0x00,
    0x50, 0x00, 0x00, 0x00, 0x14, 0x00, 0x00, 0x00, 0x00, 0x00, 0x0e, 0x00,
    0x1a, 0x00, 0x14, 0x00, 0x10, 0x00, 0x0c, 0x00, 0x0b, 0x00, 0x04, 0x00,
    0x0e, 0x00, 0x00, 0x00, 0x1c, 0x00, 0x00, 0x00, 0x00, 0x00, 0x00, 0x09,
    0x1c, 0x00, 0x00, 0x00, 0x20, 0x00, 0x00, 0x00, 0x01, 0x00, 0x00, 0x00,
    0x00, 0x00, 0x06, 0x00, 0x08, 0x00, 0x04, 0x00, 0x06, 0x00, 0x00, 0x00,
    0x00, 0x00, 0x80, 0x3f, 0x01, 0x00, 0x00, 0x00, 0x0d, 0x00, 0x00, 0x00,
    0x01, 0x00, 0x00, 0x00, 0x0c, 0x00, 0x00, 0x00, 0x66, 0xff, 0xff, 0xff,
    0x10, 0x00, 0x00, 0x00, 0x00, 0x00, 0x00, 0x08, 0x0c, 0x00, 0x00, 0x00,
    0x10, 0x00, 0x00, 0x00, 0xbc, 0xf9, 0xff, 0xff, 0x01, 0x00, 0x00, 0x00,
    0x0c, 0x00, 0x00, 0x00, 0x03, 0x00, 0x00, 0x00, 0x0b, 0x00, 0x00, 0x00,
    0x08, 0x00, 0x00, 0x00, 0x01, 0x00, 0x00, 0x00, 0x96, 0xff, 0xff, 0xff,
    0x10, 0x00, 0x00, 0x00, 0x00, 0x00, 0x00, 0x08, 0x10, 0x00, 0x00, 0x00,
    0x14, 0x00, 0x00, 0x00, 0x86, 0xff, 0xff, 0xff, 0x00, 0x00, 0x00, 0x01,
    0x01, 0x00, 0x00, 0x00, 0x0b, 0x00, 0x00, 0x00, 0x03, 0x00, 0x00, 0x00,
    0x0a, 0x00, 0x00, 0x00, 0x07, 0x00, 0x00, 0x00, 0x02, 0x00, 0x00, 0x00,
    0xca, 0xff, 0xff, 0xff, 0x10, 0x00, 0x00, 0x00, 0x00, 0x00, 0x00, 0x08,
    0x10, 0x00, 0x00, 0x00, 0x14, 0x00, 0x00, 0x00, 0xba, 0xff, 0xff, 0xff,
    0x00, 0x00, 0x00, 0x01, 0x01, 0x00, 0x00, 0x00, 0x0a, 0x00, 0x00, 0x00,
    0x03, 0x00, 0x00, 0x00, 0x09, 0x00, 0x00, 0x00, 0x06, 0x00, 0x00, 0x00,
    0x03, 0x00, 0x00, 0x00, 0x00, 0x00, 0x0e, 0x00, 0x16, 0x00, 0x00, 0x00,
    0x10, 0x00, 0x0c, 0x00, 0x0b, 0x00, 0x04, 0x00, 0x0e, 0x00, 0x00, 0x00,
    0x18, 0x00, 0x00, 0x00, 0x00, 0x00, 0x00, 0x08, 0x18, 0x00, 0x00, 0x00,
    0x1c, 0x00, 0x00, 0x00, 0x00, 0x00, 0x06, 0x00, 0x08, 0x00, 0x07, 0x00,
    0x06, 0x00, 0x00, 0x00, 0x00, 0x00, 0x00, 0x01, 0x01, 0x00, 0x00, 0x00,
    0x09, 0x00, 0x00, 0x00, 0x03, 0x00, 0x00, 0x00, 0x00, 0x00, 0x00, 0x00,
    0x05, 0x00, 0x00, 0x00, 0x04, 0x00, 0x00, 0x00, 0x01, 0x00, 0x00, 0x00,
    0x0d, 0x00, 0x00, 0x00, 0x01, 0x00, 0x00, 0x00, 0x00, 0x00, 0x00, 0x00,
    0x0e, 0x00, 0x00, 0x00, 0x38, 0x05, 0x00, 0x00, 0xc8, 0x04, 0x00, 0x00,
    0x58, 0x04, 0x00, 0x00, 0x00, 0x04, 0x00, 0x00, 0xa8, 0x03, 0x00, 0x00,
    0x5c, 0x03, 0x00, 0x00, 0x10, 0x03, 0x00, 0x00, 0xc4, 0x02, 0x00, 0x00,
    0x78, 0x02, 0x00, 0x00, 0xec, 0x01, 0x00, 0x00, 0x60, 0x01, 0x00, 0x00,
    0xd4, 0x00, 0x00, 0x00, 0x60, 0x00, 0x00, 0x00, 0x04, 0x00, 0x00, 0x00,
    0x16, 0xfb, 0xff, 0xff, 0x00, 0x00, 0x00, 0x01, 0x14, 0x00, 0x00, 0x00,
    0x1c, 0x00, 0x00, 0x00, 0x1c, 0x00, 0x00, 0x00, 0x0e, 0x00, 0x00, 0x00,
    0x34, 0x00, 0x00, 0x00, 0x02, 0x00, 0x00, 0x00, 0xff, 0xff, 0xff, 0xff,
    0x08, 0x00, 0x00, 0x00, 0x00, 0xfb, 0xff, 0xff, 0x19, 0x00, 0x00, 0x00,
    0x53, 0x74, 0x61, 0x74, 0x65, 0x66, 0x75, 0x6c, 0x50, 0x61, 0x72, 0x74,
    0x69, 0x74, 0x69, 0x6f, 0x6e, 0x65, 0x64, 0x43, 0x61, 0x6c, 0x6c, 0x3a,
    0x30, 0x00, 0x00, 0x00, 0x02, 0x00, 0x00, 0x00, 0x01, 0x00, 0x00, 0x00,
    0x08, 0x00, 0x00, 0x00, 0x6e, 0xfb, 0xff, 0xff, 0x00, 0x00, 0x00, 0x01,
    0x14, 0x00, 0x00, 0x00, 0x1c, 0x00, 0x00, 0x00, 0x1c, 0x00, 0x00, 0x00,
    0x0d, 0x00, 0x00, 0x00, 0x4c, 0x00, 0x00, 0x00, 0x02, 0x00, 0x00, 0x00,
    0xff, 0xff, 0xff, 0xff, 0x08, 0x00, 0x00, 0x00, 0x58, 0xfb, 0xff, 0xff,
    0x32, 0x00, 0x00, 0x00, 0x6c, 0x77, 0x34, 0x5f, 0x6d, 0x64, 0x32, 0x2f,
    0x64, 0x65, 0x6e, 0x73, 0x65, 0x5f, 0x31, 0x32, 0x31, 0x2f, 0x4d, 0x61,
    0x74, 0x4d, 0x75, 0x6c, 0x3b, 0x6c, 0x77, 0x34, 0x5f, 0x6d, 0x64, 0x32,
    0x2f, 0x64, 0x65, 0x6e, 0x73, 0x65, 0x5f, 0x31, 0x32, 0x31, 0x2f, 0x42,
    0x69, 0x61, 0x73, 0x41, 0x64, 0x64, 0x00, 0x00, 0x02, 0x00, 0x00, 0x00,
    0x01, 0x00, 0x00, 0x00, 0x08, 0x00, 0x00, 0x00, 0xde, 0xfb, 0xff, 0xff,
    0x00, 0x00, 0x00, 0x01, 0x14, 0x00, 0x00, 0x00, 0x1c, 0x00, 0x00, 0x00,
    0x1c, 0x00, 0x00, 0x00, 0x0c, 0x00, 0x00, 0x00, 0x64, 0x00, 0x00, 0x00,
    0x02, 0x00, 0x00, 0x00, 0xff, 0xff, 0xff, 0xff, 0x04, 0x00, 0x00, 0x00,
    0xc8, 0xfb, 0xff, 0xff, 0x49, 0x00, 0x00, 0x00, 0x6c, 0x77, 0x34, 0x5f,
    0x6d, 0x64, 0x32, 0x2f, 0x64, 0x65, 0x6e, 0x73, 0x65, 0x5f, 0x31, 0x32,
    0x30, 0x2f, 0x4d, 0x61, 0x74, 0x4d, 0x75, 0x6c, 0x3b, 0x6c, 0x77, 0x34,
    0x5f, 0x6d, 0x64, 0x32, 0x2f, 0x64, 0x65, 0x6e, 0x73, 0x65, 0x5f, 0x31,
    0x32, 0x30, 0x2f, 0x52, 0x65, 0x6c, 0x75, 0x3b, 0x6c, 0x77, 0x34, 0x5f,
    0x6d, 0x64, 0x32, 0x2f, 0x64, 0x65, 0x6e, 0x73, 0x65, 0x5f, 0x31, 0x32,
    0x30, 0x2f, 0x42, 0x69, 0x61, 0x73, 0x41, 0x64, 0x64, 0x00, 0x00, 0x00,
    0x02, 0x00, 0x00, 0x00, 0x01, 0x00, 0x00, 0x00, 0x04, 0x00, 0x00, 0x00,
    0x66, 0xfc, 0xff, 0xff, 0x00, 0x00, 0x00, 0x01, 0x14, 0x00, 0x00, 0x00,
    0x1c, 0x00, 0x00, 0x00, 0x1c, 0x00, 0x00, 0x00, 0x0b, 0x00, 0x00, 0x00,
    0x64, 0x00, 0x00, 0x00, 0x02, 0x00, 0x00, 0x00, 0xff, 0xff, 0xff, 0xff,
    0x04, 0x00, 0x00, 0x00, 0x50, 0xfc, 0xff, 0xff, 0x49, 0x00, 0x00, 0x00,
    0x6c, 0x77, 0x34, 0x5f, 0x6d, 0x64, 0x32, 0x2f, 0x64, 0x65, 0x6e, 0x73,
    0x65, 0x5f, 0x31, 0x31, 0x39, 0x2f, 0x4d, 0x61, 0x74, 0x4d, 0x75, 0x6c,
    0x3b, 0x6c, 0x77, 0x34, 0x5f, 0x6d, 0x64, 0x32, 0x2f, 0x64, 0x65, 0x6e,
    0x73, 0x65, 0x5f, 0x31, 0x31, 0x39, 0x2f, 0x52, 0x65, 0x6c, 0x75, 0x3b,
    0x6c, 0x77, 0x34, 0x5f, 0x6d, 0x64, 0x32, 0x2f, 0x64, 0x65, 0x6e, 0x73,
    0x65, 0x5f, 0x31, 0x31, 0x39, 0x2f, 0x42, 0x69, 0x61, 0x73, 0x41, 0x64,
    0x64, 0x00, 0x00, 0x00, 0x02, 0x00, 0x00, 0x00, 0x01, 0x00, 0x00, 0x00,
    0x04, 0x00, 0x00, 0x00, 0xee, 0xfc, 0xff, 0xff, 0x00, 0x00, 0x00, 0x01,
    0x14, 0x00, 0x00, 0x00, 0x1c, 0x00, 0x00, 0x00, 0x1c, 0x00, 0x00, 0x00,
    0x0a, 0x00, 0x00, 0x00, 0x64, 0x00, 0x00, 0x00, 0x02, 0x00, 0x00, 0x00,
    0xff, 0xff, 0xff, 0xff, 0x04, 0x00, 0x00, 0x00, 0xd8, 0xfc, 0xff, 0xff,
    0x49, 0x00, 0x00, 0x00, 0x6c, 0x77, 0x34, 0x5f, 0x6d, 0x64, 0x32, 0x2f,
    0x64, 0x65, 0x6e, 0x73, 0x65, 0x5f, 0x31, 0x31, 0x38, 0x2f, 0x4d, 0x61,
    0x74, 0x4d, 0x75, 0x6c, 0x3b, 0x6c, 0x77, 0x34, 0x5f, 0x6d, 0x64, 0x32,
    0x2f, 0x64, 0x65, 0x6e, 0x73, 0x65, 0x5f, 0x31, 0x31, 0x38, 0x2f, 0x52,
    0x65, 0x6c, 0x75, 0x3b, 0x6c, 0x77, 0x34, 0x5f, 0x6d, 0x64, 0x32, 0x2f,
    0x64, 0x65, 0x6e, 0x73, 0x65, 0x5f, 0x31, 0x31, 0x38, 0x2f, 0x42, 0x69,
    0x61, 0x73, 0x41, 0x64, 0x64, 0x00, 0x00, 0x00, 0x02, 0x00, 0x00, 0x00,
    0x01, 0x00, 0x00, 0x00, 0x04, 0x00, 0x00, 0x00, 0xe2, 0xfd, 0xff, 0xff,
    0x00, 0x00, 0x00, 0x01, 0x10, 0x00, 0x00, 0x00, 0x10, 0x00, 0x00, 0x00,
    0x09, 0x00, 0x00, 0x00, 0x28, 0x00, 0x00, 0x00, 0x50, 0xfd, 0xff, 0xff,
    0x18, 0x00, 0x00, 0x00, 0x6c, 0x77, 0x34, 0x5f, 0x6d, 0x64, 0x32, 0x2f,
    0x64, 0x65, 0x6e, 0x73, 0x65, 0x5f, 0x31, 0x32, 0x31, 0x2f, 0x4d, 0x61,
    0x74, 0x4d, 0x75, 0x6c, 0x00, 0x00, 0x00, 0x00, 0x02, 0x00, 0x00, 0x00,
    0x08, 0x00, 0x00, 0x00, 0x04, 0x00, 0x00, 0x00, 0x2a, 0xfe, 0xff, 0xff,
    0x00, 0x00, 0x00, 0x01, 0x10, 0x00, 0x00, 0x00, 0x10, 0x00, 0x00, 0x00,
    0x08, 0x00, 0x00, 0x00, 0x28, 0x00, 0x00, 0x00, 0x98, 0xfd, 0xff, 0xff,
    0x18, 0x00, 0x00, 0x00, 0x6c, 0x77, 0x34, 0x5f, 0x6d, 0x64, 0x32, 0x2f,
    0x64, 0x65, 0x6e, 0x73, 0x65, 0x5f, 0x31, 0x32, 0x30, 0x2f, 0x4d, 0x61,
    0x74, 0x4d, 0x75, 0x6c, 0x00, 0x00, 0x00, 0x00, 0x02, 0x00, 0x00, 0x00,
    0x04, 0x00, 0x00, 0x00, 0x04, 0x00, 0x00, 0x00, 0x72, 0xfe, 0xff, 0xff,
    0x00, 0x00, 0x00, 0x01, 0x10, 0x00, 0x00, 0x00, 0x10, 0x00, 0x00, 0x00,
    0x07, 0x00, 0x00, 0x00, 0x28, 0x00, 0x00, 0x00, 0xe0, 0xfd, 0xff, 0xff,
    0x18, 0x00, 0x00, 0x00, 0x6c, 0x77, 0x34, 0x5f, 0x6d, 0x64, 0x32, 0x2f,
    0x64, 0x65, 0x6e, 0x73, 0x65, 0x5f, 0x31, 0x31, 0x39, 0x2f, 0x4d, 0x61,
    0x74, 0x4d, 0x75, 0x6c, 0x00, 0x00, 0x00, 0x00, 0x02, 0x00, 0x00, 0x00,
    0x04, 0x00, 0x00, 0x00, 0x04, 0x00, 0x00, 0x00, 0xba, 0xfe, 0xff, 0xff,
    0x00, 0x00, 0x00, 0x01, 0x10, 0x00, 0x00, 0x00, 0x10, 0x00, 0x00, 0x00,
    0x06, 0x00, 0x00, 0x00, 0x28, 0x00, 0x00, 0x00, 0x28, 0xfe, 0xff, 0xff,
    0x18, 0x00, 0x00, 0x00, 0x6c, 0x77, 0x34, 0x5f, 0x6d, 0x64, 0x32, 0x2f,
    0x64, 0x65, 0x6e, 0x73, 0x65, 0x5f, 0x31, 0x31, 0x38, 0x2f, 0x4d, 0x61,
    0x74, 0x4d, 0x75, 0x6c, 0x00, 0x00, 0x00, 0x00, 0x02, 0x00, 0x00, 0x00,
    0x04, 0x00, 0x00, 0x00, 0x0f, 0x00, 0x00, 0x00, 0x02, 0xff, 0xff, 0xff,
    0x00, 0x00, 0x00, 0x01, 0x10, 0x00, 0x00, 0x00, 0x10, 0x00, 0x00, 0x00,
    0x05, 0x00, 0x00, 0x00, 0x38, 0x00, 0x00, 0x00, 0x70, 0xfe, 0xff, 0xff,
    0x28, 0x00, 0x00, 0x00, 0x6c, 0x77, 0x34, 0x5f, 0x6d, 0x64, 0x32, 0x2f,
    0x64, 0x65, 0x6e, 0x73, 0x65, 0x5f, 0x31, 0x31, 0x38, 0x2f, 0x42, 0x69,
    0x61, 0x73, 0x41, 0x64, 0x64, 0x2f, 0x52, 0x65, 0x61, 0x64, 0x56, 0x61,
    0x72, 0x69, 0x61, 0x62, 0x6c, 0x65, 0x4f, 0x70, 0x00, 0x00, 0x00, 0x00,
    0x01, 0x00, 0x00, 0x00, 0x04, 0x00, 0x00, 0x00, 0x56, 0xff, 0xff, 0xff,
    0x00, 0x00, 0x00, 0x01, 0x10, 0x00, 0x00, 0x00, 0x10, 0x00, 0x00, 0x00,
    0x04, 0x00, 0x00, 0x00, 0x38, 0x00, 0x00, 0x00, 0xc4, 0xfe, 0xff, 0xff,
    0x28, 0x00, 0x00, 0x00, 0x6c, 0x77, 0x34, 0x5f, 0x6d, 0x64, 0x32, 0x2f,
    0x64, 0x65, 0x6e, 0x73, 0x65, 0x5f, 0x31, 0x31, 0x39, 0x2f, 0x42, 0x69,
    0x61, 0x73, 0x41, 0x64, 0x64, 0x2f, 0x52, 0x65, 0x61, 0x64, 0x56, 0x61,
    0x72, 0x69, 0x61, 0x62, 0x6c, 0x65, 0x4f, 0x70, 0x00, 0x00, 0x00, 0x00,
    0x01, 0x00, 0x00, 0x00, 0x04, 0x00, 0x00, 0x00, 0xaa, 0xff, 0xff, 0xff,
    0x00, 0x00, 0x00, 0x01, 0x10, 0x00, 0x00, 0x00, 0x10, 0x00, 0x00, 0x00,
    0x03, 0x00, 0x00, 0x00, 0x38, 0x00, 0x00, 0x00, 0x18, 0xff, 0xff, 0xff,
    0x28, 0x00, 0x00, 0x00, 0x6c, 0x77, 0x34, 0x5f, 0x6d, 0x64, 0x32, 0x2f,
    0x64, 0x65, 0x6e, 0x73, 0x65, 0x5f, 0x31, 0x32, 0x30, 0x2f, 0x42, 0x69,
    0x61, 0x73, 0x41, 0x64, 0x64, 0x2f, 0x52, 0x65, 0x61, 0x64, 0x56, 0x61,
    0x72, 0x69, 0x61, 0x62, 0x6c, 0x65, 0x4f, 0x70, 0x00, 0x00, 0x00, 0x00,
    0x01, 0x00, 0x00, 0x00, 0x04, 0x00, 0x00, 0x00, 0x00, 0x00, 0x16, 0x00,
    0x18, 0x00, 0x14, 0x00, 0x00, 0x00, 0x10, 0x00, 0x0c, 0x00, 0x08, 0x00,
    0x00, 0x00, 0x00, 0x00, 0x00, 0x00, 0x07, 0x00, 0x16, 0x00, 0x00, 0x00,
    0x00, 0x00, 0x00, 0x01, 0x10, 0x00, 0x00, 0x00, 0x10, 0x00, 0x00, 0x00,
    0x02, 0x00, 0x00, 0x00, 0x38, 0x00, 0x00, 0x00, 0x84, 0xff, 0xff, 0xff,
    0x28, 0x00, 0x00, 0x00, 0x6c, 0x77, 0x34, 0x5f, 0x6d, 0x64, 0x32, 0x2f,
    0x64, 0x65, 0x6e, 0x73, 0x65, 0x5f, 0x31, 0x32, 0x31, 0x2f, 0x42, 0x69,
    0x61, 0x73, 0x41, 0x64, 0x64, 0x2f, 0x52, 0x65, 0x61, 0x64, 0x56, 0x61,
    0x72, 0x69, 0x61, 0x62, 0x6c, 0x65, 0x4f, 0x70, 0x00, 0x00, 0x00, 0x00,
    0x01, 0x00, 0x00, 0x00, 0x08, 0x00, 0x00, 0x00, 0x00, 0x00, 0x16, 0x00,
    0x1c, 0x00, 0x18, 0x00, 0x00, 0x00, 0x14, 0x00, 0x10, 0x00, 0x0c, 0x00,
    0x00, 0x00, 0x00, 0x00, 0x08, 0x00, 0x07, 0x00, 0x16, 0x00, 0x00, 0x00,
    0x00, 0x00, 0x00, 0x01, 0x14, 0x00, 0x00, 0x00, 0x20, 0x00, 0x00, 0x00,
    0x20, 0x00, 0x00, 0x00, 0x01, 0x00, 0x00, 0x00, 0x40, 0x00, 0x00, 0x00,
    0x02, 0x00, 0x00, 0x00, 0xff, 0xff, 0xff, 0xff, 0x0f, 0x00, 0x00, 0x00,
    0x04, 0x00, 0x04, 0x00, 0x04, 0x00, 0x00, 0x00, 0x21, 0x00, 0x00, 0x00,
    0x73, 0x65, 0x72, 0x76, 0x69, 0x6e, 0x67, 0x5f, 0x64, 0x65, 0x66, 0x61,
    0x75, 0x6c, 0x74, 0x5f, 0x64, 0x65, 0x6e, 0x73, 0x65, 0x5f, 0x31, 0x31,
    0x38, 0x5f, 0x69, 0x6e, 0x70, 0x75, 0x74, 0x3a, 0x30, 0x00, 0x00, 0x00,
    0x02, 0x00, 0x00, 0x00, 0x01, 0x00, 0x00, 0x00, 0x0f, 0x00, 0x00, 0x00,
    0x02, 0x00, 0x00, 0x00, 0x20, 0x00, 0x00, 0x00, 0x04, 0x00, 0x00, 0x00,
    0xf4, 0xff, 0xff, 0xff, 0x19, 0x00, 0x00, 0x00, 0x00, 0x00, 0x00, 0x19,
    0x0c, 0x00, 0x0c, 0x00, 0x0b, 0x00, 0x00, 0x00, 0x00, 0x00, 0x04, 0x00,
    0x0c, 0x00, 0x00, 0x00, 0x09, 0x00, 0x00, 0x00, 0x00, 0x00, 0x00, 0x09};
unsigned int lw4_md2_len = 3084;
