unsigned char lw8_md2[] = {
    0x1c, 0x00, 0x00, 0x00, 0x54, 0x46, 0x4c, 0x33, 0x14, 0x00, 0x20, 0x00,
    0x1c, 0x00, 0x18, 0x00, 0x14, 0x00, 0x10, 0x00, 0x0c, 0x00, 0x00, 0x00,
    0x08, 0x00, 0x04, 0x00, 0x14, 0x00, 0x00, 0x00, 0x1c, 0x00, 0x00, 0x00,
    0x98, 0x00, 0x00, 0x00, 0xf0, 0x00, 0x00, 0x00, 0x8c, 0x07, 0x00, 0x00,
    0x9c, 0x07, 0x00, 0x00, 0xc8, 0x0e, 0x00, 0x00, 0x03, 0x00, 0x00, 0x00,
    0x01, 0x00, 0x00, 0x00, 0x10, 0x00, 0x00, 0x00, 0x00, 0x00, 0x0a, 0x00,
    0x10, 0x00, 0x0c, 0x00, 0x08, 0x00, 0x04, 0x00, 0x0a, 0x00, 0x00, 0x00,
    0x0c, 0x00, 0x00, 0x00, 0x1c, 0x00, 0x00, 0x00, 0x3c, 0x00, 0x00, 0x00,
    0x0f, 0x00, 0x00, 0x00, 0x73, 0x65, 0x72, 0x76, 0x69, 0x6e, 0x67, 0x5f,
    0x64, 0x65, 0x66, 0x61, 0x75, 0x6c, 0x74, 0x00, 0x01, 0x00, 0x00, 0x00,
    0x04, 0x00, 0x00, 0x00, 0x90, 0xff, 0xff, 0xff, 0x0d, 0x00, 0x00, 0x00,
    0x04, 0x00, 0x00, 0x00, 0x09, 0x00, 0x00, 0x00, 0x64, 0x65, 0x6e, 0x73,
    0x65, 0x5f, 0x31, 0x34, 0x34, 0x00, 0x00, 0x00, 0x01, 0x00, 0x00, 0x00,
    0x04, 0x00, 0x00, 0x00, 0x56, 0xf8, 0xff, 0xff, 0x04, 0x00, 0x00, 0x00,
    0x0f, 0x00, 0x00, 0x00, 0x64, 0x65, 0x6e, 0x73, 0x65, 0x5f, 0x31, 0x34,
    0x31, 0x5f, 0x69, 0x6e, 0x70, 0x75, 0x74, 0x00, 0x02, 0x00, 0x00, 0x00,
    0x34, 0x00, 0x00, 0x00, 0x04, 0x00, 0x00, 0x00, 0xdc, 0xff, 0xff, 0xff,
    0x10, 0x00, 0x00, 0x00, 0x04, 0x00, 0x00, 0x00, 0x13, 0x00, 0x00, 0x00,
    0x43, 0x4f, 0x4e, 0x56, 0x45, 0x52, 0x53, 0x49, 0x4f, 0x4e, 0x5f, 0x4d,
    0x45, 0x54, 0x41, 0x44, 0x41, 0x54, 0x41, 0x00, 0x08, 0x00, 0x0c, 0x00,
    0x08, 0x00, 0x04, 0x00, 0x08, 0x00, 0x00, 0x00, 0x0f, 0x00, 0x00, 0x00,
    0x04, 0x00, 0x00, 0x00, 0x13, 0x00, 0x00, 0x00, 0x6d, 0x69, 0x6e, 0x5f,
    0x72, 0x75, 0x6e, 0x74, 0x69, 0x6d, 0x65, 0x5f, 0x76, 0x65, 0x72, 0x73,
    0x69, 0x6f, 0x6e, 0x00, 0x11, 0x00, 0x00, 0x00, 0x98, 0x06, 0x00, 0x00,
    0x90, 0x06, 0x00, 0x00, 0x60, 0x06, 0x00, 0x00, 0x30, 0x06, 0x00, 0x00,
    0x00, 0x06, 0x00, 0x00, 0xd0, 0x05, 0x00, 0x00, 0xe0, 0x03, 0x00, 0x00,
    0xd0, 0x02, 0x00, 0x00, 0xc0, 0x01, 0x00, 0x00, 0xb0, 0x00, 0x00, 0x00,
    0xa8, 0x00, 0x00, 0x00, 0xa0, 0x00, 0x00, 0x00, 0x98, 0x00, 0x00, 0x00,
    0x90, 0x00, 0x00, 0x00, 0x88, 0x00, 0x00, 0x00, 0x68, 0x00, 0x00, 0x00,
    0x04, 0x00, 0x00, 0x00, 0x16, 0xf9, 0xff, 0xff, 0x04, 0x00, 0x00, 0x00,
    0x54, 0x00, 0x00, 0x00, 0x0c, 0x00, 0x00, 0x00, 0x08, 0x00, 0x0e, 0x00,
    0x08, 0x00, 0x04, 0x00, 0x08, 0x00, 0x00, 0x00, 0x10, 0x00, 0x00, 0x00,
    0x24, 0x00, 0x00, 0x00, 0x00, 0x00, 0x06, 0x00, 0x08, 0x00, 0x04, 0x00,
    0x06, 0x00, 0x00, 0x00, 0x04, 0x00, 0x00, 0x00, 0x00, 0x00, 0x00, 0x00,
    0x00, 0x00, 0x0a, 0x00, 0x10, 0x00, 0x0c, 0x00, 0x08, 0x00, 0x04, 0x00,
    0x0a, 0x00, 0x00, 0x00, 0x02, 0x00, 0x00, 0x00, 0x02, 0x00, 0x00, 0x00,
    0x04, 0x00, 0x00, 0x00, 0x06, 0x00, 0x00, 0x00, 0x32, 0x2e, 0x31, 0x34,
    0x2e, 0x30, 0x00, 0x00, 0x76, 0xf9, 0xff, 0xff, 0x04, 0x00, 0x00, 0x00,
    0x10, 0x00, 0x00, 0x00, 0x31, 0x2e, 0x35, 0x2e, 0x30, 0x00, 0x00, 0x00,
    0x00, 0x00, 0x00, 0x00, 0x00, 0x00, 0x00, 0x00, 0x1c, 0xf3, 0xff, 0xff,
    0x20, 0xf3, 0xff, 0xff, 0x24, 0xf3, 0xff, 0xff, 0x28, 0xf3, 0xff, 0xff,
    0x2c, 0xf3, 0xff, 0xff, 0xa6, 0xf9, 0xff, 0xff, 0x04, 0x00, 0x00, 0x00,
    0x00, 0x01, 0x00, 0x00, 0x6b, 0x03, 0x7a, 0xbf, 0x0f, 0x4c, 0xea, 0x3d,
    0x16, 0x3c, 0xf1, 0xbe, 0x80, 0xe2, 0x3a, 0x3d, 0x07, 0xd4, 0xad, 0xbd,
    0xef, 0x1d, 0x63, 0xbe, 0xc7, 0xd3, 0x05, 0xbe, 0xb2, 0x84, 0x1e, 0xbf,
    0x70, 0x55, 0xeb, 0x3e, 0x40, 0x8b, 0x84, 0x3f, 0xd5, 0xed, 0x18, 0xbe,
    0xf8, 0x99, 0x21, 0x3e, 0x76, 0xeb, 0x19, 0x3e, 0x4d, 0x22, 0x88, 0x3e,
    0x64, 0x16, 0x3f, 0x3e, 0xe4, 0x77, 0x2b, 0xbe, 0xf9, 0xb1, 0x90, 0xbe,
    0x05, 0x89, 0xee, 0x3e, 0x23, 0x13, 0x06, 0xbc, 0xe0, 0x51, 0xe8, 0xbc,
    0xbb, 0xd1, 0x21, 0xbf, 0x3b, 0x49, 0xac, 0xbe, 0xae, 0x03, 0xd8, 0xbd,
    0x40, 0x73, 0x0b, 0xbf, 0x87, 0x1f, 0x9b, 0x3e, 0xea, 0x12, 0x04, 0x3e,
    0x6c, 0x82, 0xd8, 0xbe, 0xa0, 0xd7, 0xd9, 0xbd, 0x8b, 0x7c, 0x94, 0xbe,
    0xd6, 0xcb, 0x2b, 0xbf, 0x32, 0x52, 0x71, 0x3e, 0x34, 0x63, 0x3a, 0x3e,
    0x73, 0x9c, 0xb4, 0xbe, 0xb3, 0x8b, 0xb5, 0x3d, 0x3b, 0xa6, 0x55, 0x3c,
    0xfb, 0x61, 0xdf, 0xbe, 0x1e, 0x36, 0x8d, 0xbc, 0xf6, 0x76, 0x78, 0x3d,
    0x4b, 0xc5, 0x19, 0x3f, 0xa8, 0xca, 0x06, 0xbf, 0xf8, 0xfa, 0x80, 0x3e,
    0x9f, 0x8d, 0x3a, 0xbf, 0xe9, 0xa5, 0x17, 0x3e, 0xf4, 0x4b, 0xad, 0xbe,
    0x71, 0x69, 0xeb, 0xbd, 0xde, 0x4e, 0xd6, 0xbe, 0x2a, 0x00, 0xfb, 0xbe,
    0xe3, 0x26, 0x19, 0xbe, 0xef, 0xf8, 0xd6, 0xbe, 0xd7, 0x6c, 0x31, 0x3e,
    0xd8, 0xfe, 0x51, 0x3e, 0x70, 0x31, 0x4d, 0x3d, 0x18, 0xae, 0x5a, 0xbe,
    0x67, 0x4e, 0x72, 0x3e, 0x9b, 0x16, 0xeb, 0xbe, 0x62, 0x84, 0xaa, 0xbd,
    0x76, 0xaf, 0xdf, 0xbc, 0x33, 0xde, 0x75, 0xbf, 0x4d, 0xcf, 0x25, 0x3f,
    0xce, 0x04, 0x81, 0x3e, 0x74, 0x8e, 0x9f, 0x3c, 0xd3, 0x02, 0x38, 0xbe,
    0xa3, 0x31, 0x4e, 0x3e, 0x0a, 0x77, 0xca, 0x3e, 0xb2, 0xfa, 0xff, 0xff,
    0x04, 0x00, 0x00, 0x00, 0x00, 0x01, 0x00, 0x00, 0x26, 0x2a, 0xee, 0xbe,
    0xf6, 0xaa, 0xf7, 0xbe, 0x88, 0xde, 0xe0, 0xbd, 0x1b, 0x6f, 0xa5, 0xbd,
    0x4f, 0xad, 0xb0, 0x3b, 0xfd, 0x27, 0x3a, 0x3e, 0x0b, 0x96, 0x9f, 0x3e,
    0x48, 0x8d, 0x42, 0x3f, 0x3b, 0x3e, 0x1d, 0x3f, 0x8c, 0x66, 0x13, 0xbe,
    0xd0, 0xca, 0x93, 0x3d, 0x1e, 0x49, 0xb1, 0xbd, 0x10, 0xff, 0x41, 0xbe,
    0xed, 0x4d, 0xee, 0xbe, 0xa4, 0x6b, 0x45, 0x3e, 0xb1, 0xf5, 0x3f, 0x3e,
    0x7c, 0x19, 0xf2, 0x3e, 0xa0, 0x6c, 0x89, 0x3e, 0xe9, 0x80, 0x06, 0x3f,
    0xb3, 0x19, 0xbf, 0x3d, 0xad, 0xf9, 0x0f, 0x3f, 0x0b, 0xe5, 0xa5, 0xbc,
    0x6c, 0x3c, 0xfb, 0x3d, 0xd7, 0xe6, 0xd0, 0x3d, 0x16, 0xd7, 0x8d, 0xbe,
    0x32, 0x58, 0xf1, 0x3e, 0xe2, 0xf6, 0xdf, 0xbe, 0xe8, 0x6c, 0x12, 0xbf,
    0x22, 0x6f, 0x0d, 0xbf, 0x9b, 0x70, 0xeb, 0xbe, 0x5f, 0x5c, 0x10, 0x3f,
    0x2c, 0xdb, 0x1c, 0xbe, 0xdf, 0x2e, 0x7f, 0x3e, 0xd8, 0xf9, 0x66, 0xbe,
    0x1e, 0xe7, 0xc8, 0x3e, 0xd0, 0x29, 0xa4, 0x3e, 0x7a, 0xad, 0xc3, 0xbe,
    0x65, 0x39, 0x2f, 0x3e, 0xae, 0x47, 0x28, 0x3d, 0x3a, 0x5e, 0xf5, 0xbe,
    0x04, 0xd5, 0x2e, 0xbe, 0x49, 0xf8, 0x13, 0x3f, 0x4e, 0x14, 0xa5, 0x3e,
    0x18, 0x28, 0xac, 0x3d, 0xd0, 0x90, 0xa1, 0x3e, 0xcd, 0x98, 0x62, 0x3e,
    0x97, 0x49, 0x85, 0xbe, 0x3f, 0x01, 0xdf, 0x3d, 0xef, 0xea, 0x24, 0x3c,
    0xf8, 0x94, 0x5c, 0xbe, 0x02, 0x6f, 0xc0, 0xbe, 0xe2, 0xc1, 0xce, 0x3d,
    0x76, 0x01, 0x2b, 0x3f, 0x4e, 0xdb, 0x2d, 0x3f, 0x70, 0xac, 0xe3, 0xbc,
    0xf7, 0x96, 0x78, 0x3e, 0xb9, 0x71, 0xcb, 0xbd, 0x9e, 0x03, 0x00, 0xbf,
    0xdd, 0x64, 0x00, 0xbf, 0x66, 0x18, 0xc6, 0xbb, 0x95, 0xba, 0xc9, 0x3e,
    0x4c, 0x8f, 0x8a, 0xbd, 0x9b, 0x39, 0x34, 0x3f, 0x55, 0x45, 0xb7, 0x3e,
    0xbe, 0xfb, 0xff, 0xff, 0x04, 0x00, 0x00, 0x00, 0x00, 0x01, 0x00, 0x00,
    0xf5, 0xf2, 0x21, 0x3f, 0x8c, 0x08, 0x26, 0xbf, 0xfe, 0xbf, 0x34, 0x3e,
    0xa7, 0x08, 0x09, 0x3f, 0x38, 0x16, 0x1d, 0x3d, 0x62, 0x94, 0xd0, 0xba,
    0xb1, 0xcf, 0xb3, 0xbe, 0x3a, 0x19, 0x8d, 0x3e, 0x30, 0x7d, 0x3f, 0x3d,
    0x20, 0xaa, 0xa7, 0xbc, 0x12, 0x70, 0x0a, 0xbf, 0x28, 0x1b, 0xb3, 0xbd,
    0xeb, 0x41, 0x80, 0xbe, 0x0a, 0x70, 0xc9, 0x3e, 0x32, 0xfe, 0xe3, 0xbe,
    0x16, 0x82, 0x1c, 0xbf, 0xd8, 0x14, 0xc4, 0xbd, 0xbe, 0x77, 0xb7, 0xbe,
    0xf8, 0xdf, 0x02, 0xbf, 0xe1, 0xb1, 0x1a, 0x3f, 0x32, 0x17, 0x1a, 0xbf,
    0x22, 0x67, 0xe0, 0x3e, 0xbe, 0xe1, 0x1e, 0xbe, 0xa5, 0x98, 0xb0, 0xbe,
    0x4a, 0x7d, 0xa8, 0xbe, 0xc1, 0x82, 0xc4, 0x3e, 0xa1, 0x8f, 0x3b, 0xbe,
    0x49, 0xcb, 0xda, 0x3d, 0x26, 0x76, 0x4f, 0x3e, 0x5f, 0xc1, 0xb7, 0xbb,
    0x1b, 0xfc, 0xb7, 0xbe, 0x72, 0x7e, 0x14, 0x3e, 0xc9, 0xe8, 0x90, 0x3e,
    0xdb, 0xdf, 0xc8, 0x3e, 0x13, 0x7a, 0xce, 0xbe, 0x8e, 0xcc, 0x0d, 0xbf,
    0xd6, 0x46, 0xd8, 0x3e, 0xf6, 0xb8, 0x11, 0x3e, 0xcb, 0xa3, 0x15, 0x3f,
    0xfd, 0x2e, 0x2e, 0x3e, 0xb3, 0xc1, 0xa9, 0xbe, 0xde, 0xfd, 0xae, 0x3e,
    0x87, 0x07, 0x10, 0x3f, 0xc5, 0x9e, 0x99, 0x3e, 0x69, 0x94, 0xf1, 0x3e,
    0x81, 0xee, 0x0e, 0x3f, 0x0a, 0xc2, 0x98, 0x3e, 0xba, 0x65, 0x05, 0x3e,
    0x0f, 0xdf, 0xaf, 0x3e, 0xc9, 0x6a, 0x08, 0xbf, 0xc2, 0xcf, 0xda, 0xbe,
    0x0e, 0x2f, 0x4d, 0xbf, 0x9d, 0x22, 0x0a, 0x3f, 0x53, 0x5f, 0xfd, 0x3e,
    0x52, 0x32, 0x20, 0x3f, 0xcb, 0x7e, 0xc8, 0x3e, 0x16, 0x3b, 0xe4, 0x3e,
    0x09, 0xe2, 0xbe, 0xbe, 0x73, 0xba, 0x49, 0x3f, 0x3d, 0x6a, 0x31, 0xbf,
    0x4a, 0x86, 0x64, 0xbf, 0x04, 0x0c, 0x00, 0x3f, 0xc8, 0x6f, 0x22, 0x3e,
    0x3a, 0xdc, 0x1d, 0x3e, 0xca, 0xfc, 0xff, 0xff, 0x04, 0x00, 0x00, 0x00,
    0xe0, 0x01, 0x00, 0x00, 0x44, 0x06, 0xb4, 0x3e, 0x63, 0x85, 0x63, 0x3e,
    0xd6, 0xd7, 0x1d, 0xbf, 0x0e, 0x83, 0x27, 0x3e, 0x9f, 0xdd, 0xa7, 0x3e,
    0x66, 0x39, 0x3f, 0xbd, 0xb4, 0x20, 0xc5, 0x3c, 0x23, 0x4e, 0x07, 0xbf,
    0xa5, 0x5b, 0x22, 0xbf, 0x4e, 0xf7, 0x0f, 0x3f, 0x8c, 0xb0, 0xd2, 0xbe,
    0x56, 0x8a, 0x1d, 0xbd, 0xf0, 0x97, 0x0f, 0x3e, 0x36, 0xb2, 0x02, 0x3e,
    0xae, 0xd7, 0xeb, 0xbe, 0xca, 0xce, 0x31, 0x3e, 0xec, 0x30, 0xdd, 0x3e,
    0xef, 0x7f, 0x3a, 0x3f, 0xe7, 0xc0, 0xc8, 0xbe, 0xae, 0xad, 0xa0, 0xbe,
    0x9f, 0x1c, 0xab, 0x3e, 0xd5, 0xe1, 0x73, 0x3e, 0x04, 0xa3, 0x3c, 0x3e,
    0x6f, 0x54, 0x3d, 0xbd, 0x9f, 0x2a, 0x6c, 0x3e, 0x53, 0x7a, 0x35, 0x3e,
    0x5c, 0x26, 0xa0, 0xbe, 0x3a, 0x68, 0xe8, 0xbe, 0xdd, 0xc2, 0x20, 0xbe,
    0xf3, 0x97, 0x49, 0x3d, 0x42, 0x77, 0x06, 0xbe, 0xb8, 0xd9, 0x78, 0x3d,
    0xfe, 0xa6, 0x82, 0x3e, 0xd5, 0x8b, 0xfa, 0xbe, 0x71, 0x74, 0x19, 0xbe,
    0x78, 0x6d, 0x9a, 0x3d, 0x4d, 0x7a, 0x02, 0xbf, 0x07, 0x1f, 0x0b, 0x3c,
    0x88, 0x85, 0x31, 0x3e, 0x3a, 0x85, 0xb1, 0x3e, 0x5c, 0x67, 0x5f, 0x3e,
    0xc6, 0x03, 0x47, 0xbd, 0xfd, 0xca, 0x52, 0xbe, 0xea, 0x5d, 0x0a, 0xbf,
    0xce, 0xc7, 0x00, 0x3e, 0x6d, 0x16, 0xc0, 0xbc, 0xe0, 0xc4, 0xdc, 0x3e,
    0xa4, 0xf5, 0x1b, 0xbe, 0xdc, 0xe9, 0xd9, 0xbe, 0xde, 0xdc, 0xb4, 0x3c,
    0x55, 0x4d, 0xf1, 0x3e, 0xac, 0x81, 0xab, 0xbe, 0x84, 0xdc, 0xfa, 0x3e,
    0x6e, 0x46, 0xc3, 0x3e, 0xca, 0x67, 0x14, 0x3e, 0xa2, 0x59, 0x90, 0xbe,
    0x82, 0x9c, 0x4c, 0x3e, 0xb0, 0x80, 0x76, 0x3e, 0x09, 0x4a, 0xb4, 0x3e,
    0x4d, 0xa4, 0x01, 0xbf, 0x8f, 0x78, 0x1a, 0xbf, 0xe3, 0x29, 0x7c, 0xbe,
    0x8c, 0xb1, 0xa5, 0x3e, 0x70, 0xae, 0x18, 0xbf, 0x59, 0x34, 0xe7, 0xbd,
    0x8c, 0xe6, 0xa0, 0xbe, 0x1b, 0xda, 0x48, 0xbe, 0x18, 0x01, 0x95, 0x3d,
    0x0e, 0x0b, 0x89, 0x3e, 0x5d, 0x26, 0x36, 0x3e, 0x0b, 0xb1, 0xf3, 0xbd,
    0x89, 0x24, 0xc4, 0xbe, 0xbc, 0x4f, 0x7d, 0x3e, 0xef, 0x09, 0x44, 0x3e,
    0x63, 0xb1, 0xa2, 0xbe, 0x88, 0xfd, 0x9e, 0xbe, 0x52, 0x93, 0xd8, 0xbe,
    0xcb, 0xde, 0xbf, 0x3e, 0xee, 0x69, 0x9a, 0xbb, 0x61, 0x30, 0xdb, 0xbe,
    0x04, 0x4d, 0x67, 0x3e, 0xde, 0x2b, 0xf0, 0x3e, 0xd3, 0xac, 0xb5, 0x3d,
    0x8f, 0x93, 0x6e, 0x3e, 0x9d, 0xab, 0xf8, 0x3e, 0xb6, 0x16, 0x6a, 0xbe,
    0xae, 0x5a, 0x9d, 0x3e, 0xcd, 0xc7, 0x0e, 0xbe, 0xde, 0x3b, 0xf2, 0xbe,
    0x5f, 0xa8, 0xc3, 0x3e, 0x16, 0xab, 0x01, 0xbb, 0xa3, 0x12, 0xb6, 0xbe,
    0xea, 0xe5, 0xa2, 0x3e, 0x55, 0xf8, 0xc7, 0xbc, 0x74, 0x3e, 0xf4, 0xbd,
    0xf5, 0xa5, 0x0a, 0x3f, 0x54, 0x47, 0x2a, 0xbe, 0x5c, 0xe9, 0xb3, 0x3d,
    0x6f, 0x00, 0xde, 0xbe, 0xc9, 0xad, 0x8e, 0xbe, 0x56, 0xaa, 0x08, 0x3e,
    0xc2, 0x57, 0x75, 0xbe, 0x7b, 0x89, 0xb0, 0xbe, 0x4f, 0xce, 0x2d, 0xbe,
    0xfa, 0x61, 0x02, 0xbf, 0xa5, 0x4b, 0x13, 0xbe, 0x9d, 0x84, 0xd7, 0x3e,
    0x9a, 0xb9, 0x18, 0x3e, 0xf8, 0xe9, 0xb3, 0xbd, 0x5f, 0x5c, 0x04, 0x3f,
    0xe5, 0xc9, 0xad, 0xbe, 0xf2, 0x41, 0x22, 0xbe, 0x6a, 0x59, 0x93, 0xbe,
    0x9e, 0xe4, 0x17, 0xbf, 0x37, 0xca, 0x1b, 0x3e, 0xb4, 0xfb, 0xef, 0x3d,
    0x74, 0xb3, 0xd5, 0x3c, 0xdc, 0x6f, 0xa8, 0x3e, 0xfb, 0x02, 0xc1, 0xbe,
    0x03, 0x85, 0xac, 0xbe, 0xb6, 0xfe, 0xff, 0xff, 0x04, 0x00, 0x00, 0x00,
    0x20, 0x00, 0x00, 0x00, 0xc1, 0x54, 0x3a, 0x3c, 0x2f, 0xd4, 0x22, 0x3e,
    0x0d, 0x03, 0xb4, 0x3d, 0x65, 0xac, 0x5d, 0x3e, 0x08, 0xe6, 0xdc, 0x3d,
    0x6e, 0x9f, 0x9c, 0xbc, 0xd0, 0x66, 0xca, 0x3c, 0x2e, 0x82, 0x1f, 0x3d,
    0xe2, 0xfe, 0xff, 0xff, 0x04, 0x00, 0x00, 0x00, 0x20, 0x00, 0x00, 0x00,
    0x65, 0x87, 0x5e, 0x3d, 0x00, 0x00, 0x00, 0x00, 0x00, 0x00, 0x00, 0x00,
    0x89, 0xea, 0x5e, 0x3b, 0x43, 0x44, 0x7e, 0x3d, 0x90, 0xc7, 0x07, 0x3e,
    0x7b, 0x0a, 0x1c, 0xbd, 0x1c, 0x7b, 0x3d, 0x3d, 0x0e, 0xff, 0xff, 0xff,
    0x04, 0x00, 0x00, 0x00, 0x20, 0x00, 0x00, 0x00, 0xd7, 0x4b, 0x55, 0x3d,
    0x2d, 0xcd, 0x6d, 0x3d, 0x7f, 0x39, 0x17, 0xbc, 0x00, 0x00, 0x00, 0x00,
    0xf4, 0xca, 0x15, 0x3d, 0xd7, 0x3b, 0x30, 0x3e, 0x0e, 0xda, 0x17, 0x3e,
    0x2e, 0xf9, 0xcb, 0xbd, 0x3a, 0xff, 0xff, 0xff, 0x04, 0x00, 0x00, 0x00,
    0x20, 0x00, 0x00, 0x00, 0x9d, 0x1e, 0x49, 0xbe, 0xca, 0x76, 0xce, 0x3d,
    0xf3, 0x94, 0xc9, 0x3a, 0x0f, 0xa7, 0xeb, 0xbd, 0xc5, 0xa3, 0x37, 0x3e,
    0x5e, 0x21, 0x19, 0xbe, 0x00, 0x20, 0xee, 0xbc, 0xa9, 0xd1, 0xb6, 0x3c,
    0xf0, 0xf8, 0xff, 0xff, 0xf4, 0xf8, 0xff, 0xff, 0x0f, 0x00, 0x00, 0x00,
    0x4d, 0x4c, 0x49, 0x52, 0x20, 0x43, 0x6f, 0x6e, 0x76, 0x65, 0x72, 0x74,
    0x65, 0x64, 0x2e, 0x00, 0x01, 0x00, 0x00, 0x00, 0x14, 0x00, 0x00, 0x00,
    0x00, 0x00, 0x0e, 0x00, 0x18, 0x00, 0x14, 0x00, 0x10, 0x00, 0x0c, 0x00,
    0x08, 0x00, 0x04, 0x00, 0x0e, 0x00, 0x00, 0x00, 0x14, 0x00, 0x00, 0x00,
    0x1c, 0x00, 0x00, 0x00, 0x5c, 0x01, 0x00, 0x00, 0x60, 0x01, 0x00, 0x00,
    0x64, 0x01, 0x00, 0x00, 0x04, 0x00, 0x00, 0x00, 0x6d, 0x61, 0x69, 0x6e,
    0x00, 0x00, 0x00, 0x00, 0x05, 0x00, 0x00, 0x00, 0x04, 0x01, 0x00, 0x00,
    0xbc, 0x00, 0x00, 0x00, 0x84, 0x00, 0x00, 0x00, 0x50, 0x00, 0x00, 0x00,
    0x14, 0x00, 0x00, 0x00, 0x00, 0x00, 0x0e, 0x00, 0x1a, 0x00, 0x14, 0x00,
    0x10, 0x00, 0x0c, 0x00, 0x0b, 0x00, 0x04, 0x00, 0x0e, 0x00, 0x00, 0x00,
    0x1c, 0x00, 0x00, 0x00, 0x00, 0x00, 0x00, 0x09, 0x1c, 0x00, 0x00, 0x00,
    0x20, 0x00, 0x00, 0x00, 0x01, 0x00, 0x00, 0x00, 0x00, 0x00, 0x06, 0x00,
    0x08, 0x00, 0x04, 0x00, 0x06, 0x00, 0x00, 0x00, 0x00, 0x00, 0x80, 0x3f,
    0x01, 0x00, 0x00, 0x00, 0x0d, 0x00, 0x00, 0x00, 0x01, 0x00, 0x00, 0x00,
    0x0c, 0x00, 0x00, 0x00, 0x66, 0xff, 0xff, 0xff, 0x10, 0x00, 0x00, 0x00,
    0x00, 0x00, 0x00, 0x08, 0x0c, 0x00, 0x00, 0x00, 0x10, 0x00, 0x00, 0x00,
    0xbc, 0xf9, 0xff, 0xff, 0x01, 0x00, 0x00, 0x00, 0x0c, 0x00, 0x00, 0x00,
    0x03, 0x00, 0x00, 0x00, 0x0b, 0x00, 0x00, 0x00, 0x08, 0x00, 0x00, 0x00,
    0x01, 0x00, 0x00, 0x00, 0x96, 0xff, 0xff, 0xff, 0x10, 0x00, 0x00, 0x00,
    0x00, 0x00, 0x00, 0x08, 0x10, 0x00, 0x00, 0x00, 0x14, 0x00, 0x00, 0x00,
    0x86, 0xff, 0xff, 0xff, 0x00, 0x00, 0x00, 0x01, 0x01, 0x00, 0x00, 0x00,
    0x0b, 0x00, 0x00, 0x00, 0x03, 0x00, 0x00, 0x00, 0x0a, 0x00, 0x00, 0x00,
    0x07, 0x00, 0x00, 0x00, 0x02, 0x00, 0x00, 0x00, 0xca, 0xff, 0xff, 0xff,
    0x10, 0x00, 0x00, 0x00, 0x00, 0x00, 0x00, 0x08, 0x10, 0x00, 0x00, 0x00,
    0x14, 0x00, 0x00, 0x00, 0xba, 0xff, 0xff, 0xff, 0x00, 0x00, 0x00, 0x01,
    0x01, 0x00, 0x00, 0x00, 0x0a, 0x00, 0x00, 0x00, 0x03, 0x00, 0x00, 0x00,
    0x09, 0x00, 0x00, 0x00, 0x06, 0x00, 0x00, 0x00, 0x03, 0x00, 0x00, 0x00,
    0x00, 0x00, 0x0e, 0x00, 0x16, 0x00, 0x00, 0x00, 0x10, 0x00, 0x0c, 0x00,
    0x0b, 0x00, 0x04, 0x00, 0x0e, 0x00, 0x00, 0x00, 0x18, 0x00, 0x00, 0x00,
    0x00, 0x00, 0x00, 0x08, 0x18, 0x00, 0x00, 0x00, 0x1c, 0x00, 0x00, 0x00,
    0x00, 0x00, 0x06, 0x00, 0x08, 0x00, 0x07, 0x00, 0x06, 0x00, 0x00, 0x00,
    0x00, 0x00, 0x00, 0x01, 0x01, 0x00, 0x00, 0x00, 0x09, 0x00, 0x00, 0x00,
    0x03, 0x00, 0x00, 0x00, 0x00, 0x00, 0x00, 0x00, 0x05, 0x00, 0x00, 0x00,
    0x04, 0x00, 0x00, 0x00, 0x01, 0x00, 0x00, 0x00, 0x0d, 0x00, 0x00, 0x00,
    0x01, 0x00, 0x00, 0x00, 0x00, 0x00, 0x00, 0x00, 0x0e, 0x00, 0x00, 0x00,
    0x38, 0x05, 0x00, 0x00, 0xc8, 0x04, 0x00, 0x00, 0x58, 0x04, 0x00, 0x00,
    0x00, 0x04, 0x00, 0x00, 0xa8, 0x03, 0x00, 0x00, 0x5c, 0x03, 0x00, 0x00,
    0x10, 0x03, 0x00, 0x00, 0xc4, 0x02, 0x00, 0x00, 0x78, 0x02, 0x00, 0x00,
    0xec, 0x01, 0x00, 0x00, 0x60, 0x01, 0x00, 0x00, 0xd4, 0x00, 0x00, 0x00,
    0x60, 0x00, 0x00, 0x00, 0x04, 0x00, 0x00, 0x00, 0x16, 0xfb, 0xff, 0xff,
    0x00, 0x00, 0x00, 0x01, 0x14, 0x00, 0x00, 0x00, 0x1c, 0x00, 0x00, 0x00,
    0x1c, 0x00, 0x00, 0x00, 0x0e, 0x00, 0x00, 0x00, 0x34, 0x00, 0x00, 0x00,
    0x02, 0x00, 0x00, 0x00, 0xff, 0xff, 0xff, 0xff, 0x08, 0x00, 0x00, 0x00,
    0x00, 0xfb, 0xff, 0xff, 0x19, 0x00, 0x00, 0x00, 0x53, 0x74, 0x61, 0x74,
    0x65, 0x66, 0x75, 0x6c, 0x50, 0x61, 0x72, 0x74, 0x69, 0x74, 0x69, 0x6f,
    0x6e, 0x65, 0x64, 0x43, 0x61, 0x6c, 0x6c, 0x3a, 0x30, 0x00, 0x00, 0x00,
    0x02, 0x00, 0x00, 0x00, 0x01, 0x00, 0x00, 0x00, 0x08, 0x00, 0x00, 0x00,
    0x6e, 0xfb, 0xff, 0xff, 0x00, 0x00, 0x00, 0x01, 0x14, 0x00, 0x00, 0x00,
    0x1c, 0x00, 0x00, 0x00, 0x1c, 0x00, 0x00, 0x00, 0x0d, 0x00, 0x00, 0x00,
    0x4c, 0x00, 0x00, 0x00, 0x02, 0x00, 0x00, 0x00, 0xff, 0xff, 0xff, 0xff,
    0x08, 0x00, 0x00, 0x00, 0x58, 0xfb, 0xff, 0xff, 0x32, 0x00, 0x00, 0x00,
    0x6c, 0x77, 0x38, 0x5f, 0x6d, 0x64, 0x32, 0x2f, 0x64, 0x65, 0x6e, 0x73,
    0x65, 0x5f, 0x31, 0x34, 0x34, 0x2f, 0x4d, 0x61, 0x74, 0x4d, 0x75, 0x6c,
    0x3b, 0x6c, 0x77, 0x38, 0x5f, 0x6d, 0x64, 0x32, 0x2f, 0x64, 0x65, 0x6e,
    0x73, 0x65, 0x5f, 0x31, 0x34, 0x34, 0x2f, 0x42, 0x69, 0x61, 0x73, 0x41,
    0x64, 0x64, 0x00, 0x00, 0x02, 0x00, 0x00, 0x00, 0x01, 0x00, 0x00, 0x00,
    0x08, 0x00, 0x00, 0x00, 0xde, 0xfb, 0xff, 0xff, 0x00, 0x00, 0x00, 0x01,
    0x14, 0x00, 0x00, 0x00, 0x1c, 0x00, 0x00, 0x00, 0x1c, 0x00, 0x00, 0x00,
    0x0c, 0x00, 0x00, 0x00, 0x64, 0x00, 0x00, 0x00, 0x02, 0x00, 0x00, 0x00,
    0xff, 0xff, 0xff, 0xff, 0x08, 0x00, 0x00, 0x00, 0xc8, 0xfb, 0xff, 0xff,
    0x49, 0x00, 0x00, 0x00, 0x6c, 0x77, 0x38, 0x5f, 0x6d, 0x64, 0x32, 0x2f,
    0x64, 0x65, 0x6e, 0x73, 0x65, 0x5f, 0x31, 0x34, 0x33, 0x2f, 0x4d, 0x61,
    0x74, 0x4d, 0x75, 0x6c, 0x3b, 0x6c, 0x77, 0x38, 0x5f, 0x6d, 0x64, 0x32,
    0x2f, 0x64, 0x65, 0x6e, 0x73, 0x65, 0x5f, 0x31, 0x34, 0x33, 0x2f, 0x52,
    0x65, 0x6c, 0x75, 0x3b, 0x6c, 0x77, 0x38, 0x5f, 0x6d, 0x64, 0x32, 0x2f,
    0x64, 0x65, 0x6e, 0x73, 0x65, 0x5f, 0x31, 0x34, 0x33, 0x2f, 0x42, 0x69,
    0x61, 0x73, 0x41, 0x64, 0x64, 0x00, 0x00, 0x00, 0x02, 0x00, 0x00, 0x00,
    0x01, 0x00, 0x00, 0x00, 0x08, 0x00, 0x00, 0x00, 0x66, 0xfc, 0xff, 0xff,
    0x00, 0x00, 0x00, 0x01, 0x14, 0x00, 0x00, 0x00, 0x1c, 0x00, 0x00, 0x00,
    0x1c, 0x00, 0x00, 0x00, 0x0b, 0x00, 0x00, 0x00, 0x64, 0x00, 0x00, 0x00,
    0x02, 0x00, 0x00, 0x00, 0xff, 0xff, 0xff, 0xff, 0x08, 0x00, 0x00, 0x00,
    0x50, 0xfc, 0xff, 0xff, 0x49, 0x00, 0x00, 0x00, 0x6c, 0x77, 0x38, 0x5f,
    0x6d, 0x64, 0x32, 0x2f, 0x64, 0x65, 0x6e, 0x73, 0x65, 0x5f, 0x31, 0x34,
    0x32, 0x2f, 0x4d, 0x61, 0x74, 0x4d, 0x75, 0x6c, 0x3b, 0x6c, 0x77, 0x38,
    0x5f, 0x6d, 0x64, 0x32, 0x2f, 0x64, 0x65, 0x6e, 0x73, 0x65, 0x5f, 0x31,
    0x34, 0x32, 0x2f, 0x52, 0x65, 0x6c, 0x75, 0x3b, 0x6c, 0x77, 0x38, 0x5f,
    0x6d, 0x64, 0x32, 0x2f, 0x64, 0x65, 0x6e, 0x73, 0x65, 0x5f, 0x31, 0x34,
    0x32, 0x2f, 0x42, 0x69, 0x61, 0x73, 0x41, 0x64, 0x64, 0x00, 0x00, 0x00,
    0x02, 0x00, 0x00, 0x00, 0x01, 0x00, 0x00, 0x00, 0x08, 0x00, 0x00, 0x00,
    0xee, 0xfc, 0xff, 0xff, 0x00, 0x00, 0x00, 0x01, 0x14, 0x00, 0x00, 0x00,
    0x1c, 0x00, 0x00, 0x00, 0x1c, 0x00, 0x00, 0x00, 0x0a, 0x00, 0x00, 0x00,
    0x64, 0x00, 0x00, 0x00, 0x02, 0x00, 0x00, 0x00, 0xff, 0xff, 0xff, 0xff,
    0x08, 0x00, 0x00, 0x00, 0xd8, 0xfc, 0xff, 0xff, 0x49, 0x00, 0x00, 0x00,
    0x6c, 0x77, 0x38, 0x5f, 0x6d, 0x64, 0x32, 0x2f, 0x64, 0x65, 0x6e, 0x73,
    0x65, 0x5f, 0x31, 0x34, 0x31, 0x2f, 0x4d, 0x61, 0x74, 0x4d, 0x75, 0x6c,
    0x3b, 0x6c, 0x77, 0x38, 0x5f, 0x6d, 0x64, 0x32, 0x2f, 0x64, 0x65, 0x6e,
    0x73, 0x65, 0x5f, 0x31, 0x34, 0x31, 0x2f, 0x52, 0x65, 0x6c, 0x75, 0x3b,
    0x6c, 0x77, 0x38, 0x5f, 0x6d, 0x64, 0x32, 0x2f, 0x64, 0x65, 0x6e, 0x73,
    0x65, 0x5f, 0x31, 0x34, 0x31, 0x2f, 0x42, 0x69, 0x61, 0x73, 0x41, 0x64,
    0x64, 0x00, 0x00, 0x00, 0x02, 0x00, 0x00, 0x00, 0x01, 0x00, 0x00, 0x00,
    0x08, 0x00, 0x00, 0x00, 0xe2, 0xfd, 0xff, 0xff, 0x00, 0x00, 0x00, 0x01,
    0x10, 0x00, 0x00, 0x00, 0x10, 0x00, 0x00, 0x00, 0x09, 0x00, 0x00, 0x00,
    0x28, 0x00, 0x00, 0x00, 0x50, 0xfd, 0xff, 0xff, 0x18, 0x00, 0x00, 0x00,
    0x6c, 0x77, 0x38, 0x5f, 0x6d, 0x64, 0x32, 0x2f, 0x64, 0x65, 0x6e, 0x73,
    0x65, 0x5f, 0x31, 0x34, 0x34, 0x2f, 0x4d, 0x61, 0x74, 0x4d, 0x75, 0x6c,
    0x00, 0x00, 0x00, 0x00, 0x02, 0x00, 0x00, 0x00, 0x08, 0x00, 0x00, 0x00,
    0x08, 0x00, 0x00, 0x00, 0x2a, 0xfe, 0xff, 0xff, 0x00, 0x00, 0x00, 0x01,
    0x10, 0x00, 0x00, 0x00, 0x10, 0x00, 0x00, 0x00, 0x08, 0x00, 0x00, 0x00,
    0x28, 0x00, 0x00, 0x00, 0x98, 0xfd, 0xff, 0xff, 0x18, 0x00, 0x00, 0x00,
    0x6c, 0x77, 0x38, 0x5f, 0x6d, 0x64, 0x32, 0x2f, 0x64, 0x65, 0x6e, 0x73,
    0x65, 0x5f, 0x31, 0x34, 0x33, 0x2f, 0x4d, 0x61, 0x74, 0x4d, 0x75, 0x6c,
    0x00, 0x00, 0x00, 0x00, 0x02, 0x00, 0x00, 0x00, 0x08, 0x00, 0x00, 0x00,
    0x08, 0x00, 0x00, 0x00, 0x72, 0xfe, 0xff, 0xff, 0x00, 0x00, 0x00, 0x01,
    0x10, 0x00, 0x00, 0x00, 0x10, 0x00, 0x00, 0x00, 0x07, 0x00, 0x00, 0x00,
    0x28, 0x00, 0x00, 0x00, 0xe0, 0xfd, 0xff, 0xff, 0x18, 0x00, 0x00, 0x00,
    0x6c, 0x77, 0x38, 0x5f, 0x6d, 0x64, 0x32, 0x2f, 0x64, 0x65, 0x6e, 0x73,
    0x65, 0x5f, 0x31, 0x34, 0x32, 0x2f, 0x4d, 0x61, 0x74, 0x4d, 0x75, 0x6c,
    0x00, 0x00, 0x00, 0x00, 0x02, 0x00, 0x00, 0x00, 0x08, 0x00, 0x00, 0x00,
    0x08, 0x00, 0x00, 0x00, 0xba, 0xfe, 0xff, 0xff, 0x00, 0x00, 0x00, 0x01,
    0x10, 0x00, 0x00, 0x00, 0x10, 0x00, 0x00, 0x00, 0x06, 0x00, 0x00, 0x00,
    0x28, 0x00, 0x00, 0x00, 0x28, 0xfe, 0xff, 0xff, 0x18, 0x00, 0x00, 0x00,
    0x6c, 0x77, 0x38, 0x5f, 0x6d, 0x64, 0x32, 0x2f, 0x64, 0x65, 0x6e, 0x73,
    0x65, 0x5f, 0x31, 0x34, 0x31, 0x2f, 0x4d, 0x61, 0x74, 0x4d, 0x75, 0x6c,
    0x00, 0x00, 0x00, 0x00, 0x02, 0x00, 0x00, 0x00, 0x08, 0x00, 0x00, 0x00,
    0x0f, 0x00, 0x00, 0x00, 0x02, 0xff, 0xff, 0xff, 0x00, 0x00, 0x00, 0x01,
    0x10, 0x00, 0x00, 0x00, 0x10, 0x00, 0x00, 0x00, 0x05, 0x00, 0x00, 0x00,
    0x38, 0x00, 0x00, 0x00, 0x70, 0xfe, 0xff, 0xff, 0x28, 0x00, 0x00, 0x00,
    0x6c, 0x77, 0x38, 0x5f, 0x6d, 0x64, 0x32, 0x2f, 0x64, 0x65, 0x6e, 0x73,
    0x65, 0x5f, 0x31, 0x34, 0x31, 0x2f, 0x42, 0x69, 0x61, 0x73, 0x41, 0x64,
    0x64, 0x2f, 0x52, 0x65, 0x61, 0x64, 0x56, 0x61, 0x72, 0x69, 0x61, 0x62,
    0x6c, 0x65, 0x4f, 0x70, 0x00, 0x00, 0x00, 0x00, 0x01, 0x00, 0x00, 0x00,
    0x08, 0x00, 0x00, 0x00, 0x56, 0xff, 0xff, 0xff, 0x00, 0x00, 0x00, 0x01,
    0x10, 0x00, 0x00, 0x00, 0x10, 0x00, 0x00, 0x00, 0x04, 0x00, 0x00, 0x00,
    0x38, 0x00, 0x00, 0x00, 0xc4, 0xfe, 0xff, 0xff, 0x28, 0x00, 0x00, 0x00,
    0x6c, 0x77, 0x38, 0x5f, 0x6d, 0x64, 0x32, 0x2f, 0x64, 0x65, 0x6e, 0x73,
    0x65, 0x5f, 0x31, 0x34, 0x32, 0x2f, 0x42, 0x69, 0x61, 0x73, 0x41, 0x64,
    0x64, 0x2f, 0x52, 0x65, 0x61, 0x64, 0x56, 0x61, 0x72, 0x69, 0x61, 0x62,
    0x6c, 0x65, 0x4f, 0x70, 0x00, 0x00, 0x00, 0x00, 0x01, 0x00, 0x00, 0x00,
    0x08, 0x00, 0x00, 0x00, 0xaa, 0xff, 0xff, 0xff, 0x00, 0x00, 0x00, 0x01,
    0x10, 0x00, 0x00, 0x00, 0x10, 0x00, 0x00, 0x00, 0x03, 0x00, 0x00, 0x00,
    0x38, 0x00, 0x00, 0x00, 0x18, 0xff, 0xff, 0xff, 0x28, 0x00, 0x00, 0x00,
    0x6c, 0x77, 0x38, 0x5f, 0x6d, 0x64, 0x32, 0x2f, 0x64, 0x65, 0x6e, 0x73,
    0x65, 0x5f, 0x31, 0x34, 0x33, 0x2f, 0x42, 0x69, 0x61, 0x73, 0x41, 0x64,
    0x64, 0x2f, 0x52, 0x65, 0x61, 0x64, 0x56, 0x61, 0x72, 0x69, 0x61, 0x62,
    0x6c, 0x65, 0x4f, 0x70, 0x00, 0x00, 0x00, 0x00, 0x01, 0x00, 0x00, 0x00,
    0x08, 0x00, 0x00, 0x00, 0x00, 0x00, 0x16, 0x00, 0x18, 0x00, 0x14, 0x00,
    0x00, 0x00, 0x10, 0x00, 0x0c, 0x00, 0x08, 0x00, 0x00, 0x00, 0x00, 0x00,
    0x00, 0x00, 0x07, 0x00, 0x16, 0x00, 0x00, 0x00, 0x00, 0x00, 0x00, 0x01,
    0x10, 0x00, 0x00, 0x00, 0x10, 0x00, 0x00, 0x00, 0x02, 0x00, 0x00, 0x00,
    0x38, 0x00, 0x00, 0x00, 0x84, 0xff, 0xff, 0xff, 0x28, 0x00, 0x00, 0x00,
    0x6c, 0x77, 0x38, 0x5f, 0x6d, 0x64, 0x32, 0x2f, 0x64, 0x65, 0x6e, 0x73,
    0x65, 0x5f, 0x31, 0x34, 0x34, 0x2f, 0x42, 0x69, 0x61, 0x73, 0x41, 0x64,
    0x64, 0x2f, 0x52, 0x65, 0x61, 0x64, 0x56, 0x61, 0x72, 0x69, 0x61, 0x62,
    0x6c, 0x65, 0x4f, 0x70, 0x00, 0x00, 0x00, 0x00, 0x01, 0x00, 0x00, 0x00,
    0x08, 0x00, 0x00, 0x00, 0x00, 0x00, 0x16, 0x00, 0x1c, 0x00, 0x18, 0x00,
    0x00, 0x00, 0x14, 0x00, 0x10, 0x00, 0x0c, 0x00, 0x00, 0x00, 0x00, 0x00,
    0x08, 0x00, 0x07, 0x00, 0x16, 0x00, 0x00, 0x00, 0x00, 0x00, 0x00, 0x01,
    0x14, 0x00, 0x00, 0x00, 0x20, 0x00, 0x00, 0x00, 0x20, 0x00, 0x00, 0x00,
    0x01, 0x00, 0x00, 0x00, 0x40, 0x00, 0x00, 0x00, 0x02, 0x00, 0x00, 0x00,
    0xff, 0xff, 0xff, 0xff, 0x0f, 0x00, 0x00, 0x00, 0x04, 0x00, 0x04, 0x00,
    0x04, 0x00, 0x00, 0x00, 0x21, 0x00, 0x00, 0x00, 0x73, 0x65, 0x72, 0x76,
    0x69, 0x6e, 0x67, 0x5f, 0x64, 0x65, 0x66, 0x61, 0x75, 0x6c, 0x74, 0x5f,
    0x64, 0x65, 0x6e, 0x73, 0x65, 0x5f, 0x31, 0x34, 0x31, 0x5f, 0x69, 0x6e,
    0x70, 0x75, 0x74, 0x3a, 0x30, 0x00, 0x00, 0x00, 0x02, 0x00, 0x00, 0x00,
    0x01, 0x00, 0x00, 0x00, 0x0f, 0x00, 0x00, 0x00, 0x02, 0x00, 0x00, 0x00,
    0x20, 0x00, 0x00, 0x00, 0x04, 0x00, 0x00, 0x00, 0xf4, 0xff, 0xff, 0xff,
    0x19, 0x00, 0x00, 0x00, 0x00, 0x00, 0x00, 0x19, 0x0c, 0x00, 0x0c, 0x00,
    0x0b, 0x00, 0x00, 0x00, 0x00, 0x00, 0x04, 0x00, 0x0c, 0x00, 0x00, 0x00,
    0x09, 0x00, 0x00, 0x00, 0x00, 0x00, 0x00, 0x09};
unsigned int lw8_md2_len = 3884;
